{
  "version": "1.0",
  "truncation": null,
  "padding": null,
  "added_tokens": [
    {
      "id": 0,
      "content": "[PAD]",
      "single_word": false,
      "lstrip": false,
      "rstrip": false,
      "normalized": false,
      "special": true
    },
    {
      "id": 1,
      "content": "[UNK]",
      "single_word": false,
      "lstrip": false,
      "rstrip": false,
      "normalized": false,
      "special": true
    }
  ],
  "normalizer": null,
  "pre_tokenizer": {
    "type": "ByteLevel",
    "add_prefix_space": true,
    "trim_offsets": true,
    "use_regex": true
  },
  "post_processor": null,
  "decoder": null,
  "model": {
    "type": "BPE",
    "dropout": null,
    "unk_token": null,
    "continuing_subword_prefix": null,
    "end_of_word_suffix": null,
    "fuse_unk": false,
    "byte_fallback": false,
    "vocab": {
      "[PAD]": 0,
      "[UNK]": 1,
      "!": 2,
      "\"": 3,
      "#": 4,
      "$": 5,
      "%": 6,
      "&": 7,
      "'": 8,
      "(": 9,
      ")": 10,
      "*": 11,
      "+": 12,
      ",": 13,
      "-": 14,
      ".": 15,
      "/": 16,
      "0": 17,
      "1": 18,
      "2": 19,
      "3": 20,
      "4": 21,
      "5": 22,
      "6": 23,
      "7": 24,
      "8": 25,
      "9": 26,
      ":": 27,
      ";": 28,
      "<": 29,
      "=": 30,
      ">": 31,
      "?": 32,
      "@": 33,
      "A": 34,
      "B": 35,
      "C": 36,
      "D": 37,
      "E": 38,
      "F": 39,
      "G": 40,
      "H": 41,
      "I": 42,
      "J": 43,
      "K": 44,
      "L": 45,
      "M": 46,
      "N": 47,
      "O": 48,
      "P": 49,
      "Q": 50,
      "R": 51,
      "S": 52,
      "T": 53,
      "U": 54,
      "V": 55,
      "W": 56,
      "X": 57,
      "Y": 58,
      "Z": 59,
      "[": 60,
      "]": 61,
      "^": 62,
      "_": 63,
      "a": 64,
      "b": 65,
      "c": 66,
      "d": 67,
      "e": 68,
      "f": 69,
      "g": 70,
      "h": 71,
      "i": 72,
      "j": 73,
      "k": 74,
      "l": 75,
      "m": 76,
      "n": 77,
      "o": 78,
      "p": 79,
      "q": 80,
      "r": 81,
      "s": 82,
      "t": 83,
      "u": 84,
      "v": 85,
      "w": 86,
      "x": 87,
      "y": 88,
      "z": 89,
      "|": 90,
      "~": 91,
      "¢": 92,
      "£": 93,
      "¦": 94,
      "§": 95,
      "«": 96,
      "¬": 97,
      "°": 98,
      "±": 99,
      "´": 100,
      "µ": 101,
      "»": 102,
      "¼": 103,
      "½": 104,
      "Â": 105,
      "Ã": 106,
      "Ç": 107,
      "Ö": 108,
      "â": 109,
      "Ċ": 110,
      "Ġ": 111,
      "Ĥ": 112,
      "Ħ": 113,
      "ı": 114,
      "ķ": 115,
      "ĸ": 116,
      "Ġt": 117,
      "he": 118,
      "in": 119,
      "Ġa": 120,
      "Ġthe": 121,
      "on": 122,
      "re": 123,
      "Ġo": 124,
      "er": 125,
      "at": 126,
      "en": 127,
      "Ġs": 128,
      "an": 129,
      "is": 130,
      "or": 131,
      "Ġw": 132,
      "Ġc": 133,
      "ed": 134,
      "Ġof": 135,
      "it": 136,
      "Ġin": 137,
      "Ġp": 138,
      "ion": 139,
      "es": 140,
      "ing": 141,
      "Ġf": 142,
      "ar": 143,
      "Ġb": 144,
      "al": 145,
      "Ġto": 146,
      "Ġan": 147,
      "as": 148,
      "Ġd": 149,
      "ro": 150,
      "ic": 151,
      "Ġm": 152,
      "ent": 153,
      "Ġand": 154,
      "ou": 155,
      "Ġh": 156,
      "il": 157,
      "Ġre": 158,
      "Ġth": 159,
      "ĠT": 160,
      "le": 161,
      "ation": 162,
      "ct": 163,
      "Ġn": 164,
      "ĠA": 165,
      "Ġbe": 166,
      "Ġe": 167,
      "st": 168,
      "om": 169,
      "ve": 170,
      "id": 171,
      "ur": 172,
      "ĠI": 173,
      "ist": 174,
      "ly": 175,
      "Ġfor": 176,
      "Ġis": 177,
      "us": 178,
      "im": 179,
      "ra": 180,
      "Ġon": 181,
      "ot": 182,
      "ol": 183,
      "ut": 184,
      "Ġl": 185,
      "ĠU": 186,
      "ĠThe": 187,
      "Ġg": 188,
      "ĠS": 189,
      "ce": 190,
      "ig": 191,
      "un": 192,
      "ad": 193,
      "Ġst": 194,
      "ir": 195,
      "Ġde": 196,
      "ill": 197,
      "ay": 198,
      "Ġthat": 199,
      "ment": 200,
      "ers": 201,
      "Ġcon": 202,
      "et": 203,
      "ith": 204,
      "am": 205,
      "ĠM": 206,
      "Ġpro": 207,
      "ch": 208,
      "Ġwith": 209,
      "Ġwe": 210,
      "ĠC": 211,
      "ĠR": 212,
      "ort": 213,
      "Ġ\"": 214,
      "se": 215,
      "Ġwas": 216,
      "iv": 217,
      "ter": 218,
      "ul": 219,
      "oun": 220,
      "Ġ2": 221,
      "ow": 222,
      "si": 223,
      "Ġit": 224,
      "Ġare": 225,
      "Ġ1": 226,
      "ding": 227,
      "rom": 228,
      "'s": 229,
      "ate": 230,
      "ies": 231,
      "ver": 232,
      "res": 233,
      "Ġal": 234,
      "cc": 235,
      "Ġat": 236,
      "op": 237,
      "ĠIn": 238,
      "Ġhe": 239,
      "Ġex": 240,
      "Ġas": 241,
      "ĠP": 242,
      "Ġfrom": 243,
      "ity": 244,
      "pe": 245,
      "ĠB": 246,
      "art": 247,
      "Ġcom": 248,
      "ld": 249,
      "port": 250,
      "her": 251,
      "Ġthis": 252,
      "Ġwh": 253,
      "Ġnot": 254,
      "ain": 255,
      "est": 256,
      "Ġwill": 257,
      "and": 258,
      "ial": 259,
      "iz": 260,
      "Ġne": 261,
      "os": 262,
      "Ġby": 263,
      "Ġy": 264,
      "ak": 265,
      "if": 266,
      "ek": 267,
      "Ġha": 268,
      "ĠD": 269,
      "ore": 270,
      "ĠF": 271,
      "ions": 272,
      "ary": 273,
      "em": 274,
      "up": 275,
      "ag": 276,
      "el": 277,
      "od": 278,
      "Ġhas": 279,
      "ĠE": 280,
      "Ġv": 281,
      "ussi": 282,
      "ac": 283,
      "ĠK": 284,
      "Ġse": 285,
      "ĠRussi": 286,
      "bek": 287,
      "Ġhave": 288,
      "istan": 289,
      "um": 290,
      "red": 291,
      "igh": 292,
      "ab": 293,
      "Ġle": 294,
      "ov": 295,
      "ess": 296,
      "oc": 297,
      "Ġ20": 298,
      "ccor": 299,
      "ren": 300,
      "rain": 301,
      "zbek": 302,
      "ated": 303,
      "ount": 304,
      "qu": 305,
      "ip": 306,
      "th": 307,
      "Ġun": 308,
      "Ġpl": 309,
      "ccording": 310,
      "Ġreg": 311,
      "ant": 312,
      "du": 313,
      "ĠN": 314,
      "Ġbeen": 315,
      "ĠUzbek": 316,
      "ĠW": 317,
      "ub": 318,
      "Ġag": 319,
      "ĠO": 320,
      "istr": 321,
      "ive": 322,
      "ĠH": 323,
      "Ġch": 324,
      "Ġwere": 325,
      "Ġres": 326,
      "Ġ-": 327,
      "ber": 328,
      "ear": 329,
      "Ġor": 330,
      "Ġcomp": 331,
      "ĠAccording": 332,
      "Ġwor": 333,
      "ans": 334,
      "ous": 335,
      "ĠG": 336,
      "krain": 337,
      "our": 338,
      "ĠUkrain": 339,
      "ĠUzbekistan": 340,
      "ud": 341,
      "ident": 342,
      "Ġint": 343,
      "ĠJ": 344,
      "ations": 345,
      "ep": 346,
      "so": 347,
      "Ġen": 348,
      "fic": 349,
      "Ġr": 350,
      "ition": 351,
      "der": 352,
      "ect": 353,
      "Ġim": 354,
      "ight": 355,
      "Ġinc": 356,
      "Ġalso": 357,
      "Ġgo": 358,
      "per": 359,
      "ict": 360,
      "00": 361,
      "Ġab": 362,
      "orm": 363,
      "out": 364,
      "ign": 365,
      "Ġad": 366,
      "ri": 367,
      "ure": 368,
      "gh": 369,
      "pp": 370,
      "ical": 371,
      "Ġsh": 372,
      "ult": 373,
      "ue": 374,
      "Ġyear": 375,
      "Ġcount": 376,
      "ie": 377,
      "all": 378,
      "Ġcountr": 379,
      "Ġme": 380,
      "ced": 381,
      "ime": 382,
      "Ġper": 383,
      "Ġpart": 384,
      "ust": 385,
      "ast": 386,
      "ould": 387,
      "ĠL": 388,
      "Ġtheir": 389,
      "Ġwho": 390,
      "Ġ(": 391,
      "Â«": 392,
      "ang": 393,
      "ap": 394,
      "ĠÂ«": 395,
      "ide": 396,
      "Â»": 397,
      "Ġsa": 398,
      "erv": 399,
      "Ġ202": 400,
      "ian": 401,
      "ice": 402,
      "Ġhis": 403,
      "form": 404,
      "ard": 405,
      "ction": 406,
      "lic": 407,
      "Ġcont": 408,
      "ru": 409,
      "ong": 410,
      "ĠTh": 411,
      "Ġall": 412,
      "og": 413,
      "age": 414,
      "ĠRussia": 415,
      "Ġk": 416,
      "Ġhad": 417,
      "illion": 418,
      "uring": 419,
      "Ġdis": 420,
      "tern": 421,
      "ome": 422,
      "Ġpe": 423,
      "ire": 424,
      "ational": 425,
      "ia": 426,
      "Ġ3": 427,
      "ash": 428,
      "Ġreport": 429,
      "ĠUkraine": 430,
      "ther": 431,
      "any": 432,
      "ĠMin": 433,
      "end": 434,
      "ost": 435,
      "Ġcan": 436,
      "Ġte": 437,
      "con": 438,
      "Ġwork": 439,
      "Ġar": 440,
      "ces": 441,
      "Ġtr": 442,
      "ff": 443,
      "Ġthere": 444,
      "pl": 445,
      "ople": 446,
      "ame": 447,
      "gan": 448,
      "vel": 449,
      "Ġbeing": 450,
      "ally": 451,
      "Ġsaid": 452,
      "ase": 453,
      "ree": 454,
      "ĠRussian": 455,
      "Ġstate": 456,
      "Ġpres": 457,
      "ace": 458,
      "fter": 459,
      "ich": 460,
      "Ġpre": 461,
      "Ġdec": 462,
      "und": 463,
      "ens": 464,
      "Ġcl": 465,
      "Ġj": 466,
      "Ġthey": 467,
      "Ġsu": 468,
      "Ġregion": 469,
      "hed": 470,
      "Ġabout": 471,
      "Ġam": 472,
      "ll": 473,
      "Ġpeople": 474,
      "oll": 475,
      "Ġem": 476,
      "Ġus": 477,
      "Ġpr": 478,
      "ĠSt": 479,
      "Ġspe": 480,
      "ublic": 481,
      "ities": 482,
      "one": 483,
      "Ġev": 484,
      "ugh": 485,
      "Ġtime": 486,
      "Ġits": 487,
      "ays": 488,
      "av": 489,
      "Ġapp": 490,
      "dition": 491,
      "Ġimp": 492,
      "Ġact": 493,
      "Ġone": 494,
      "ass": 495,
      "cent": 496,
      "uro": 497,
      "cted": 498,
      "ments": 499,
      "ĠThis": 500,
      "Ġcons": 501,
      "hen": 502,
      "Ġann": 503,
      "ased": 504,
      "Ġbut": 505,
      "oy": 506,
      "Ġinv": 507,
      "Ġout": 508,
      "ance": 509,
      "ks": 510,
      "very": 511,
      "old": 512,
      "ine": 513,
      "Ġcar": 514,
      "ke": 515,
      "ĠCh": 516,
      "Ġoffic": 517,
      "Ġnew": 518,
      "rit": 519,
      "Ġdo": 520,
      "Ġent": 521,
      "ied": 522,
      "Ġagain": 523,
      "ble": 524,
      "Ġthem": 525,
      "rent": 526,
      "ors": 527,
      "ized": 528,
      "ev": 529,
      "ory": 530,
      "Ġatt": 531,
      "ence": 532,
      "ish": 533,
      "ating": 534,
      "ious": 535,
      "formation": 536,
      "ose": 537,
      "Ġsup": 538,
      "ater": 539,
      "Ġour": 540,
      "ark": 541,
      "ted": 542,
      "Ġcity": 543,
      "Ġop": 544,
      "Ġwhich": 545,
      "Ġunder": 546,
      "Ġother": 547,
      "irst": 548,
      "Ġ5": 549,
      "Ġro": 550,
      "Ġdistr": 551,
      "Ġsit": 552,
      "cial": 553,
      "ĠIt": 554,
      "Ġbec": 555,
      "Ġpos": 556,
      "te": 557,
      "Ġlead": 558,
      ",\"": 559,
      "ĠUn": 560,
      "rough": 561,
      "ilit": 562,
      "Ġserv": 563,
      "ashk": 564,
      "Ġla": 565,
      "Ġqu": 566,
      "Ġrel": 567,
      "ject": 568,
      "Ġincre": 569,
      "urn": 570,
      "iy": 571,
      "act": 572,
      "Ġprov": 573,
      "Ġwar": 574,
      "Ġsc": 575,
      "mit": 576,
      "cess": 577,
      "Ġmore": 578,
      "Ġannoun": 579,
      "Ġinformation": 580,
      "oin": 581,
      "ile": 582,
      "vern": 583,
      "az": 584,
      "ates": 585,
      "ack": 586,
      "Ġcountries": 587,
      "Ġtak": 588,
      "ĠOn": 589,
      "Ġ4": 590,
      "Ġprodu": 591,
      "ashkent": 592,
      "ge": 593,
      "iss": 594,
      "Ġup": 595,
      "Ġyears": 596,
      "uc": 597,
      "min": 598,
      "ative": 599,
      "istry": 600,
      "yst": 601,
      "ok": 602,
      "ific": 603,
      "ilitary": 604,
      "Ġno": 605,
      "Ġfirst": 606,
      "air": 607,
      "ĠUS": 608,
      "aus": 609,
      "Ġinto": 610,
      "Ġpercent": 611,
      "Ġduring": 612,
      "Ġagainst": 613,
      "ĠTashkent": 614,
      "ms": 615,
      "Ġcountry": 616,
      "ob": 617,
      "Ġyou": 618,
      "Ġind": 619,
      "Ġdistrict": 620,
      "ove": 621,
      "Ġdep": 622,
      "cy": 623,
      "als": 624,
      "Ġmillion": 625,
      "able": 626,
      "Ġsitu": 627,
      "Ġtrans": 628,
      "Ġsp": 629,
      "ĠPres": 630,
      "ĠV": 631,
      "velop": 632,
      "Ġmilitary": 633,
      "ild": 634,
      "Ġannounced": 635,
      "lect": 636,
      "Ġgovern": 637,
      "ystem": 638,
      "mer": 639,
      ".\"": 640,
      "Ġter": 641,
      "ĠY": 642,
      "ĠAd": 643,
      "ĠEuro": 644,
      "Ġresult": 645,
      "ons": 646,
      "ach": 647,
      "ts": 648,
      "Ġsystem": 649,
      "Ġtw": 650,
      "Ġiss": 651,
      "ĠPresident": 652,
      "Ġrep": 653,
      "Ġpartic": 654,
      "Ġsome": 655,
      "ĠEurope": 656,
      "fe": 657,
      "Ġco": 658,
      "Ġthan": 659,
      "Ġtra": 660,
      "ents": 661,
      "Ġhim": 662,
      "Ġorgan": 663,
      "Ġ7": 664,
      "Ġacc": 665,
      "Ġinst": 666,
      "ĠFor": 667,
      "Ġthrough": 668,
      "Ġfin": 669,
      "Ġass": 670,
      "Ġpers": 671,
      "ann": 672,
      "Ġnum": 673,
      "Ġsign": 674,
      "ĠMinistry": 675,
      "Ġsuch": 676,
      "Ġsituation": 677,
      "ec": 678,
      "Ġday": 679,
      "Ġhead": 680,
      "ph": 681,
      "ress": 682,
      "Ġgro": 683,
      "itut": 684,
      "Ġafter": 685,
      "Ġob": 686,
      "stan": 687,
      "ft": 688,
      "Ġthese": 689,
      "ĠAn": 690,
      "ices": 691,
      "tain": 692,
      "Ġexp": 693,
      "Ġstud": 694,
      "ĠAs": 695,
      "Ġmed": 696,
      "Ġair": 697,
      "Ġpol": 698,
      "Ġdevelop": 699,
      "urrent": 700,
      "Ġmin": 701,
      "Ġtwo": 702,
      "Ġmon": 703,
      "Ġoper": 704,
      "Ġ19": 705,
      "ank": 706,
      "med": 707,
      "Ġchild": 708,
      "we": 709,
      "ĠAt": 710,
      "oreign": 711,
      "..": 712,
      "ister": 713,
      "Ġcr": 714,
      "Ġofficial": 715,
      "ĠDe": 716,
      "Ġintern": 717,
      "gy": 718,
      "ric": 719,
      "Ġmy": 720,
      "Ġbu": 721,
      "Ġonly": 722,
      "Ġwould": 723,
      "Ġcit": 724,
      "are": 725,
      "Ġrec": 726,
      "ĠHe": 727,
      "Ġwell": 728,
      "olog": 729,
      "ars": 730,
      "Ġdire": 731,
      "rees": 732,
      "Ġdisc": 733,
      "ood": 734,
      "ron": 735,
      "conom": 736,
      "pon": 737,
      "ram": 738,
      "ense": 739,
      "hip": 740,
      "here": 741,
      "les": 742,
      "Ġ6": 743,
      "Ġmeet": 744,
      "Ġstart": 745,
      "Ġed": 746,
      "ell": 747,
      "ĠUkrainian": 748,
      "ures": 749,
      "other": 750,
      "now": 751,
      "Ġbet": 752,
      "ew": 753,
      "ditionally": 754,
      "Ġplace": 755,
      "Ġnumber": 756,
      "Ġparticip": 757,
      "Ġperson": 758,
      "ĠAr": 759,
      "ency": 760,
      "Ġman": 761,
      "artment": 762,
      "Ġchang": 763,
      "ĠWe": 764,
      "ĠSh": 765,
      "ited": 766,
      "ract": 767,
      "Ġinvest": 768,
      "ite": 769,
      "ily": 770,
      "amp": 771,
      "man": 772,
      "Ġli": 773,
      "ision": 774,
      "akh": 775,
      "Ġest": 776,
      "Ġ2022": 777,
      "imin": 778,
      "Ġbl": 779,
      "ĠAdditionally": 780,
      "Ġlaw": 781,
      "ues": 782,
      "Ġcitiz": 783,
      "reat": 784,
      "Ġover": 785,
      "Ġmain": 786,
      "ives": 787,
      "ished": 788,
      "ention": 789,
      "Ġac": 790,
      "ade": 791,
      "Ġimport": 792,
      "ool": 793,
      "ener": 794,
      "ĠIs": 795,
      "Ġcomm": 796,
      "ause": 797,
      "Ġcap": 798,
      "Ġloc": 799,
      "Ġorganiz": 800,
      "ax": 801,
      "Ġdeg": 802,
      "'t": 803,
      "ffic": 804,
      "rest": 805,
      "Ġcompany": 806,
      "Ġprovid": 807,
      "ists": 808,
      "ctor": 809,
      "ry": 810,
      "ets": 811,
      "Ġgas": 812,
      "Ġneed": 813,
      "ousand": 814,
      "Ġproject": 815,
      "Ġocc": 816,
      "Ġteam": 817,
      "ning": 818,
      "sel": 819,
      "fore": 820,
      "day": 821,
      "Ġincl": 822,
      "ulation": 823,
      "Ġeduc": 824,
      "ween": 825,
      "ĠEuropean": 826,
      "Ġelect": 827,
      "ĠZ": 828,
      "Ġconst": 829,
      "ility": 830,
      "Ġthousand": 831,
      "Ġwin": 832,
      "Ġbetween": 833,
      "ield": 834,
      "Ġra": 835,
      "Ġmeeting": 836,
      "Ġif": 837,
      "Ġbillion": 838,
      "ather": 839,
      "pt": 840,
      "Ġeven": 841,
      "ĠCom": 842,
      "Ġrem": 843,
      "Ġgovernment": 844,
      "ved": 845,
      "Ġdegrees": 846,
      "wn": 847,
      "Ġcour": 848,
      "Ġdid": 849,
      "abl": 850,
      "Ġsub": 851,
      "Ġcould": 852,
      "Ġmet": 853,
      "lement": 854,
      "Ġconf": 855,
      "Ġfl": 856,
      "sible": 857,
      "ĠBut": 858,
      "ib": 859,
      "ord": 860,
      "Ġreported": 861,
      "mber": 862,
      "Ġcent": 863,
      "ĠAfter": 864,
      "Ġcontin": 865,
      "Ġdef": 866,
      "ound": 867,
      "Ġ10": 868,
      "ĠDep": 869,
      "Ġworld": 870,
      "ants": 871,
      "Ġsoc": 872,
      "cond": 873,
      "chool": 874,
      "riv": 875,
      "ever": 876,
      "Ġpop": 877,
      "ĠQ": 878,
      "Ġcall": 879,
      "ctions": 880,
      "Ġany": 881,
      "itions": 882,
      "ward": 883,
      "Ġend": 884,
      "Ġmonth": 885,
      "ral": 886,
      "Ġestabl": 887,
      "cts": 888,
      "Ġactiv": 889,
      "ĠTur": 890,
      "Ġevery": 891,
      "ital": 892,
      "eration": 893,
      "pr": 894,
      "imes": 895,
      "ina": 896,
      "Ġspecial": 897,
      "Ġsupport": 898,
      "Ġpublic": 899,
      "Ġright": 900,
      "Ġrespon": 901,
      "000": 902,
      "Ġ8": 903,
      "ince": 904,
      "Ġ201": 905,
      "ient": 906,
      "Ġhigh": 907,
      "de": 908,
      "Ġrece": 909,
      "ah": 910,
      "Ġpass": 911,
      "ared": 912,
      "Ġdue": 913,
      "Ġcurrent": 914,
      "ĠMinister": 915,
      "xt": 916,
      "ik": 917,
      "ried": 918,
      "Ġshould": 919,
      "aj": 920,
      "Ġlast": 921,
      "Ġheld": 922,
      "Ġcondu": 923,
      "Ġpresident": 924,
      "ail": 925,
      "airs": 926,
      "arch": 927,
      "Ġbuil": 928,
      "Ġdes": 929,
      "Ġbr": 930,
      "Ġaut": 931,
      "get": 932,
      "Ġmany": 933,
      "pected": 934,
      "ty": 935,
      "Ġexper": 936,
      "ĠRep": 937,
      "uz": 938,
      "ember": 939,
      "Ġimplement": 940,
      "ouse": 941,
      "Ġmade": 942,
      "leg": 943,
      "ases": 944,
      "Ġcomple": 945,
      "Ġservice": 946,
      "owing": 947,
      "Ġwhere": 948,
      "ough": 949,
      "Ġwhen": 950,
      "Ġinter": 951,
      "ower": 952,
      "ĠIf": 953,
      "Ġeconom": 954,
      "ĠHow": 955,
      "Ġvery": 956,
      "ĠCent": 957,
      "chn": 958,
      "phas": 959,
      "Ġthose": 960,
      "Ġappro": 961,
      "Ġemphas": 962,
      "Ġinternational": 963,
      "Ġcre": 964,
      "ploy": 965,
      "Ġdoll": 966,
      "Ġdem": 967,
      "ting": 968,
      "Ġplay": 969,
      "Ġamount": 970,
      "Ġmost": 971,
      "ason": 972,
      "Ġsec": 973,
      "ise": 974,
      "Ġnecess": 975,
      "ffairs": 976,
      "Ġwhile": 977,
      "ministr": 978,
      "ĠRe": 979,
      "ven": 980,
      "Ġph": 981,
      "uss": 982,
      "Ġinit": 983,
      "ake": 984,
      "Ġ9": 985,
      "ocu": 986,
      "Ġprev": 987,
      "rem": 988,
      "Ġchildren": 989,
      "Ġvis": 990,
      "Ġso": 991,
      "iminal": 992,
      "cl": 993,
      "Ġmay": 994,
      "Ġwithin": 995,
      "Ġap": 996,
      "ĠGer": 997,
      "Ġfield": 998,
      "ural": 999,
      "tic": 1000,
      "Ġ15": 1001,
      "Ġnow": 1002,
      "Ġpopulation": 1003,
      "Ġknow": 1004,
      "Ġcor": 1005,
      "Ġplac": 1006,
      "Ġstr": 1007,
      "Ġdocu": 1008,
      "Ġcitizens": 1009,
      "Ġtem": 1010,
      "Ġterrit": 1011,
      "arly": 1012,
      "Ġsecond": 1013,
      "arl": 1014,
      "osed": 1015,
      "iew": 1016,
      "oot": 1017,
      "Ġprocess": 1018,
      "Ġreports": 1019,
      "Ġleg": 1020,
      "arding": 1021,
      "Ãµ": 1022,
      "Ġsays": 1023,
      "ual": 1024,
      "Ġarea": 1025,
      "Ġpur": 1026,
      "resent": 1027,
      "),": 1028,
      "ĠIntern": 1029,
      "eneral": 1030,
      "Ġdif": 1031,
      "ature": 1032,
      "Ġinf": 1033,
      "Ġdecision": 1034,
      "str": 1035,
      "urity": 1036,
      "Ġdiscuss": 1037,
      "Ġschool": 1038,
      "Ġinte": 1039,
      "Ġpress": 1040,
      "Ġret": 1041,
      "ĠWh": 1042,
      "Ġwithout": 1043,
      "Ġagree": 1044,
      "Ġmark": 1045,
      "Ġgroup": 1046,
      "idered": 1047,
      "fer": 1048,
      "Ġforeign": 1049,
      "Ġforces": 1050,
      "ving": 1051,
      "anu": 1052,
      "round": 1053,
      "Ġlar": 1054,
      "Ġopen": 1055,
      "Ġhow": 1056,
      "Ġown": 1057,
      "Ġconsidered": 1058,
      "Ġrequ": 1059,
      "Ġprot": 1060,
      "ĠThere": 1061,
      "ĠRepublic": 1062,
      "Ġdollars": 1063,
      "Ġoccur": 1064,
      "Ġdays": 1065,
      "Ġturn": 1066,
      "uty": 1067,
      "Ġbeg": 1068,
      "Ġfam": 1069,
      "ission": 1070,
      "ork": 1071,
      "ruction": 1072,
      "Ġ2023": 1073,
      "ĠKy": 1074,
      "Ġdoes": 1075,
      "Ġpay": 1076,
      "Ġbased": 1077,
      "Ġeducation": 1078,
      "ivers": 1079,
      "Ġlike": 1080,
      "anuary": 1081,
      "ĠState": 1082,
      "Ġequ": 1083,
      ").": 1084,
      "ĠJanuary": 1085,
      "Ġbus": 1086,
      "Ġnecessary": 1087,
      "ful": 1088,
      "Ġareas": 1089,
      "ĠDuring": 1090,
      "Ġsame": 1091,
      "ug": 1092,
      "Ġincrease": 1093,
      "Ġdel": 1094,
      "hes": 1095,
      "ics": 1096,
      "Ġsent": 1097,
      "Ġsever": 1098,
      "Ġexpl": 1099,
      "atives": 1100,
      "oint": 1101,
      "uding": 1102,
      "ĠAl": 1103,
      "20": 1104,
      "Ġproble": 1105,
      "Ġbor": 1106,
      "ergy": 1107,
      "iven": 1108,
      "Ġinvestig": 1109,
      "Ġprovided": 1110,
      "Ġfoll": 1111,
      "Ġseveral": 1112,
      "Ġwater": 1113,
      "ĠAffairs": 1114,
      "abor": 1115,
      "Ġwom": 1116,
      "Ġinstitut": 1117,
      "ism": 1118,
      "Ġbuilding": 1119,
      "Ġregions": 1120,
      "Ġmust": 1121,
      "ply": 1122,
      "Ġmat": 1123,
      "Ġaccording": 1124,
      "ink": 1125,
      "iness": 1126,
      "read": 1127,
      "ages": 1128,
      "lear": 1129,
      "Ġexpected": 1130,
      "utin": 1131,
      "Ġamong": 1132,
      "ying": 1133,
      "Ġadministr": 1134,
      "ows": 1135,
      "rael": 1136,
      "Ġanother": 1137,
      "Ġ'": 1138,
      "bers": 1139,
      "ier": 1140,
      "Ġrepresent": 1141,
      "way": 1142,
      "orth": 1143,
      "Ġissue": 1144,
      "ĠPro": 1145,
      "Ġmod": 1146,
      "Ġemphasized": 1147,
      "Ġext": 1148,
      "Ġmeas": 1149,
      "ivid": 1150,
      "Ġcer": 1151,
      "Ġleaders": 1152,
      "Ġuse": 1153,
      "uk": 1154,
      "alth": 1155,
      "own": 1156,
      "Ġproducts": 1157,
      "Ġremain": 1158,
      "Ġins": 1159,
      "ĠChina": 1160,
      "ĠHowever": 1161,
      "Ġsocial": 1162,
      "Ġadv": 1163,
      "ified": 1164,
      "Ġsay": 1165,
      "ern": 1166,
      "Ġcase": 1167,
      "ĠIsrael": 1168,
      "Ġfound": 1169,
      "ath": 1170,
      "Ġcontro": 1171,
      "ĠUnion": 1172,
      "Ġnight": 1173,
      "Ġthree": 1174,
      "Â».": 1175,
      "Ġenter": 1176,
      "Ġbel": 1177,
      "Ġpolit": 1178,
      "ĠPutin": 1179,
      "Ġser": 1180,
      "Ġtechn": 1181,
      "ij": 1182,
      "Ġtake": 1183,
      "Ġworking": 1184,
      "Ġcarried": 1185,
      "Ġnational": 1186,
      "sive": 1187,
      "ĠLe": 1188,
      "iod": 1189,
      "oney": 1190,
      "Ġemploy": 1191,
      "Ġwhat": 1192,
      "my": 1193,
      "self": 1194,
      "hor": 1195,
      "Ġvar": 1196,
      "Ġsom": 1197,
      "Ġgu": 1198,
      "Ġrelated": 1199,
      "Ġform": 1200,
      "Ġregarding": 1201,
      "Ġeff": 1202,
      "ines": 1203,
      "ds": 1204,
      "Ġprog": 1205,
      "til": 1206,
      "Ġplaces": 1207,
      "The": 1208,
      "...": 1209,
      "ution": 1210,
      "Ġmoney": 1211,
      "its": 1212,
      "rep": 1213,
      "Ġperiod": 1214,
      "tal": 1215,
      "ept": 1216,
      "Ġful": 1217,
      "sec": 1218,
      "Ġneg": 1219,
      "Ġjust": 1220,
      "ĠThey": 1221,
      "Ġher": 1222,
      "Ġgoal": 1223,
      "Ġsignific": 1224,
      "uman": 1225,
      "iet": 1226,
      "ately": 1227,
      "Ġprep": 1228,
      "iol": 1229,
      "Ġve": 1230,
      "ĠEn": 1231,
      "Ġtaken": 1232,
      "Ġcol": 1233,
      "Ġattack": 1234,
      "operation": 1235,
      "Ġcourt": 1236,
      "Ġpower": 1237,
      "gency": 1238,
      "Ġbegin": 1239,
      "Ġyour": 1240,
      "ked": 1241,
      "ived": 1242,
      "led": 1243,
      "ison": 1244,
      "unity": 1245,
      "iving": 1246,
      "Ġcalled": 1247,
      "ĠAb": 1248,
      "iver": 1249,
      "Ġinterest": 1250,
      "ĠKaz": 1251,
      "ret": 1252,
      "Ġfund": 1253,
      "asing": 1254,
      "ĠDepartment": 1255,
      "ize": 1256,
      "urs": 1257,
      "Ġactivities": 1258,
      "Ġaround": 1259,
      "ĠPr": 1260,
      "ings": 1261,
      "Ġprop": 1262,
      "Ġlong": 1263,
      "arm": 1264,
      "ization": 1265,
      "Ġgiven": 1266,
      "Ġimportant": 1267,
      "Ġland": 1268,
      "Ġmiss": 1269,
      "ife": 1270,
      "ss": 1271,
      "ĠSam": 1272,
      "ered": 1273,
      "Ġlevel": 1274,
      "ured": 1275,
      "Ġsold": 1276,
      "view": 1277,
      "ruct": 1278,
      "Ġsur": 1279,
      "ĠKazakh": 1280,
      "Ġ12": 1281,
      "Ġappe": 1282,
      "Ġreturn": 1283,
      "Ġsince": 1284,
      "Ġactions": 1285,
      "ran": 1286,
      "oth": 1287,
      "Ġgood": 1288,
      "Ġhel": 1289,
      "Ġmarket": 1290,
      "secut": 1291,
      "Ġpa": 1292,
      "Ġmem": 1293,
      "Ġaddition": 1294,
      "ick": 1295,
      "Ġservices": 1296,
      "Ġadd": 1297,
      "Ġtemper": 1298,
      "Ġlaun": 1299,
      "Ġcond": 1300,
      "bor": 1301,
      "cil": 1302,
      "Ġiniti": 1303,
      "Ġrele": 1304,
      "Ġwant": 1305,
      "Ġhig": 1306,
      "Ġposition": 1307,
      "ĠKh": 1308,
      "\".": 1309,
      "Ġsan": 1310,
      "Ġroad": 1311,
      "Ġ11": 1312,
      "Ġregional": 1313,
      "Ġnext": 1314,
      "Ġvarious": 1315,
      "eb": 1316,
      "Ġweather": 1317,
      "Ġopport": 1318,
      "rene": 1319,
      "Ġestablished": 1320,
      "uch": 1321,
      "Ġincreased": 1322,
      "Ġindivid": 1323,
      "Ġtook": 1324,
      "Â»,": 1325,
      "Ġtimes": 1326,
      "reprene": 1327,
      "Ġsignificant": 1328,
      "ically": 1329,
      "Ġbecome": 1330,
      "Ġbegan": 1331,
      "Ġbefore": 1332,
      "ange": 1333,
      "Ġconducted": 1334,
      "Ġgame": 1335,
      "Ġincluding": 1336,
      "Ġhelp": 1337,
      "istance": 1338,
      "ĠSec": 1339,
      "Ġleft": 1340,
      "ĠMir": 1341,
      "Ġsum": 1342,
      "Ġenergy": 1343,
      "Ġmeasures": 1344,
      "Ġens": 1345,
      "Ġmonths": 1346,
      "ober": 1347,
      "ĠCentral": 1348,
      "mitte": 1349,
      "Ġoff": 1350,
      "ĠKazakhstan": 1351,
      "Ġfoot": 1352,
      "Ġindic": 1353,
      "Ġtax": 1354,
      "Ġpossible": 1355,
      "cing": 1356,
      "ator": 1357,
      "anned": 1358,
      "Ġauthor": 1359,
      "Ġleader": 1360,
      "ayev": 1361,
      "ĠAsi": 1362,
      "Ġhouse": 1363,
      "pect": 1364,
      "land": 1365,
      "ouncil": 1366,
      "Ġbod": 1367,
      "ĠMay": 1368,
      "oyev": 1369,
      "Ġlarge": 1370,
      "eptember": 1371,
      "Ġweek": 1372,
      "ection": 1373,
      "ĠCr": 1374,
      "ute": 1375,
      "Ġviol": 1376,
      "ene": 1377,
      "Ġset": 1378,
      "Ġelectric": 1379,
      "Ġfact": 1380,
      "Ġquest": 1381,
      "mittee": 1382,
      "ave": 1383,
      "Ġtemperature": 1384,
      "Ġthen": 1385,
      "ians": 1386,
      "Ġfac": 1387,
      "Ġspeed": 1388,
      "Ġbecause": 1389,
      "Ġissues": 1390,
      "Ġcooperation": 1391,
      "ticle": 1392,
      "feren": 1393,
      "Ġcontrol": 1394,
      "ĠSeptember": 1395,
      "Ġwind": 1396,
      "ĠAnd": 1397,
      "ook": 1398,
      "Ġread": 1399,
      "Ġconstruction": 1400,
      "Ġcriminal": 1401,
      "ees": 1402,
      "Ġvict": 1403,
      "ton": 1404,
      "aged": 1405,
      "ky": 1406,
      "ality": 1407,
      "Ġ18": 1408,
      "raft": 1409,
      "Ġofficials": 1410,
      "Ġvide": 1411,
      "chie": 1412,
      "ck": 1413,
      "ves": 1414,
      "ĠMarch": 1415,
      "\",": 1416,
      "Ġorder": 1417,
      "Ġprom": 1418,
      "reed": 1419,
      "Ġsal": 1420,
      "ises": 1421,
      "Ġoccurred": 1422,
      "ĠSa": 1423,
      "Ġfollowing": 1424,
      "Ġ30": 1425,
      "cip": 1426,
      "Ġcases": 1427,
      "Ġ+": 1428,
      "ĠUnited": 1429,
      "Ġstudents": 1430,
      "Ġterritory": 1431,
      "line": 1432,
      "Ġsm": 1433,
      "Ġcontract": 1434,
      "Ġentreprene": 1435,
      "ĠTe": 1436,
      "TO": 1437,
      "key": 1438,
      "Ġmedia": 1439,
      "ience": 1440,
      "Ġrelations": 1441,
      "Ġagreement": 1442,
      "ĠBel": 1443,
      "ova": 1444,
      "Ġref": 1445,
      "ctober": 1446,
      "Ġneigh": 1447,
      "Ġtotal": 1448,
      "Ġtransport": 1449,
      "go": 1450,
      "ources": 1451,
      "Ġdevelopment": 1452,
      "Ġequip": 1453,
      "ross": 1454,
      "year": 1455,
      "Ġsou": 1456,
      "Ġstop": 1457,
      "Ġredu": 1458,
      "ovember": 1459,
      "ner": 1460,
      "Ġused": 1461,
      "wards": 1462,
      "ĠMirz": 1463,
      "alf": 1464,
      "ball": 1465,
      "ajor": 1466,
      "uly": 1467,
      "Ġ2021": 1468,
      "Ġlocal": 1469,
      "hic": 1470,
      "Ġweap": 1471,
      "ĠOctober": 1472,
      "Ġcoll": 1473,
      "Ġuntil": 1474,
      "Ġsupply": 1475,
      "cember": 1476,
      "Ġexpress": 1477,
      "Ġshe": 1478,
      "ĠMos": 1479,
      "Ġtrain": 1480,
      "une": 1481,
      "arkand": 1482,
      "Ġcaus": 1483,
      "Ġachie": 1484,
      "Ġvehic": 1485,
      "Ġsanctions": 1486,
      "uals": 1487,
      "meric": 1488,
      "Ġ16": 1489,
      "anies": 1490,
      "ĠGerm": 1491,
      "ĠNovember": 1492,
      "ended": 1493,
      "Ġcompet": 1494,
      "ĠKun": 1495,
      "Ġdocuments": 1496,
      "Ġtas": 1497,
      "Ġaim": 1498,
      "ourn": 1499,
      "Ġsol": 1500,
      "sib": 1501,
      "Ġ200": 1502,
      "Ġdriv": 1503,
      "Ġ14": 1504,
      "ports": 1505,
      "ĠDecember": 1506,
      "rodu": 1507,
      "ĠForeign": 1508,
      "ĠSamarkand": 1509,
      "rat": 1510,
      "oti": 1511,
      "cow": 1512,
      "Ġinj": 1513,
      "ruary": 1514,
      "ebruary": 1515,
      "ĠAmeric": 1516,
      "ached": 1517,
      "Ġinclud": 1518,
      "Ġcompanies": 1519,
      "secutor": 1520,
      "Ġhuman": 1521,
      "ten": 1522,
      "Ġcenter": 1523,
      "Ġmajor": 1524,
      "Ġfire": 1525,
      "Ġstarted": 1526,
      "Ġalloc": 1527,
      "mission": 1528,
      "ĠJuly": 1529,
      "Ġdepartment": 1530,
      "Ġstri": 1531,
      "Ġvisit": 1532,
      "ĠFebruary": 1533,
      "ional": 1534,
      "Ġeach": 1535,
      "reng": 1536,
      "ames": 1537,
      "ĠAf": 1538,
      "aking": 1539,
      "Ġeconomic": 1540,
      "Ġdam": 1541,
      "not": 1542,
      "ijan": 1543,
      "ĠMoscow": 1544,
      "Ġconditions": 1545,
      "Ġobs": 1546,
      "ample": 1547,
      "iversity": 1548,
      "hers": 1549,
      "ĠDef": 1550,
      "Ġinstitutions": 1551,
      "ilities": 1552,
      "anks": 1553,
      "Ġneighbor": 1554,
      "ĠPol": 1555,
      "ger": 1556,
      "ĠCon": 1557,
      "mitted": 1558,
      "Ġfinan": 1559,
      "etw": 1560,
      "Ġ13": 1561,
      "Ġlocated": 1562,
      "Ġscore": 1563,
      "iously": 1564,
      "Ġsector": 1565,
      "Ġplan": 1566,
      "Ġbecame": 1567,
      "illed": 1568,
      "ex": 1569,
      "Ġstreng": 1570,
      "Ġ$": 1571,
      "over": 1572,
      "Ġaccount": 1573,
      "Ġexample": 1574,
      "12": 1575,
      "lin": 1576,
      "stitut": 1577,
      "tion": 1578,
      "ĠTurkey": 1579,
      "ired": 1580,
      "Ġstatement": 1581,
      "ular": 1582,
      "Ġbusiness": 1583,
      "Ġfight": 1584,
      "ĠGermany": 1585,
      "ode": 1586,
      "Ġstates": 1587,
      "osp": 1588,
      "Ġtal": 1589,
      "Ġproduction": 1590,
      "Ġboth": 1591,
      "Ġinvol": 1592,
      "Ġval": 1593,
      "Ġgra": 1594,
      "Ġdeter": 1595,
      "Ġarmy": 1596,
      "Ġpriv": 1597,
      "Ġpresent": 1598,
      "Ġwrit": 1599,
      "ĠGeneral": 1600,
      "Ġlist": 1601,
      "Ġhist": 1602,
      "Ġcontinue": 1603,
      "ys": 1604,
      "Ġconv": 1605,
      "Ġintrodu": 1606,
      "orld": 1607,
      "ĠJune": 1608,
      "ront": 1609,
      "Ġhapp": 1610,
      "idd": 1611,
      "Ġdefense": 1612,
      "Ġincident": 1613,
      "ĠNA": 1614,
      "Ġindividuals": 1615,
      "Ġmembers": 1616,
      "pril": 1617,
      "ness": 1618,
      "lict": 1619,
      "Ġprice": 1620,
      "Ġadministration": 1621,
      "Ġtransfer": 1622,
      "Ġnegoti": 1623,
      "Ġformer": 1624,
      "Ġexch": 1625,
      "ability": 1626,
      "Ġ25": 1627,
      "Ġmedical": 1628,
      "ued": 1629,
      "Ġget": 1630,
      "Ġdown": 1631,
      "Ġfamily": 1632,
      "Ġcome": 1633,
      "ugust": 1634,
      "ched": 1635,
      "Ġclub": 1636,
      "ĠFrom": 1637,
      "Ġlegal": 1638,
      "Ġexam": 1639,
      "att": 1640,
      "annel": 1641,
      "ficult": 1642,
      "Ġreceived": 1643,
      "Ġborder": 1644,
      "...+": 1645,
      "ology": 1646,
      "Ġweapons": 1647,
      "Ġvol": 1648,
      "ĠDefense": 1649,
      "Ġ17": 1650,
      "Ġfootball": 1651,
      "ournal": 1652,
      "Ġevent": 1653,
      "Ġhand": 1654,
      "Ġsecurity": 1655,
      "Ġfe": 1656,
      "Ġshort": 1657,
      "Ġcertain": 1658,
      "ĠBe": 1659,
      "ĠWorld": 1660,
      "ĠKar": 1661,
      "ird": 1662,
      "Ġcapital": 1663,
      "Ġstill": 1664,
      "ĠKyiv": 1665,
      "ock": 1666,
      "Ġpolitical": 1667,
      "Ġdifficult": 1668,
      "Ġspec": 1669,
      "Ġapplic": 1670,
      "Ġcurrently": 1671,
      "ĠApril": 1672,
      "hood": 1673,
      "ĠAugust": 1674,
      "ories": 1675,
      "Ġeng": 1676,
      "Ġchar": 1677,
      "Ġnetw": 1678,
      "Ġresults": 1679,
      "Ġopp": 1680,
      "Ġobserv": 1681,
      "Ġmeters": 1682,
      "rup": 1683,
      "Ġchannel": 1684,
      "men": 1685,
      "Ġsigned": 1686,
      "Ġrights": 1687,
      "Ġreason": 1688,
      "Ġdemand": 1689,
      "Ġmention": 1690,
      "ually": 1691,
      "Ġoil": 1692,
      "ators": 1693,
      "Ġimpro": 1694,
      "Ġche": 1695,
      "Ġvideo": 1696,
      "ĠInternal": 1697,
      "ences": 1698,
      "ĠAm": 1699,
      "Ġorganization": 1700,
      "Ġprojects": 1701,
      "Ġbeginning": 1702,
      "iers": 1703,
      "Ġlife": 1704,
      "Ġconcl": 1705,
      "Ġce": 1706,
      "Ġtowards": 1707,
      "udget": 1708,
      "ĠSe": 1709,
      "ference": 1710,
      "Ġoperation": 1711,
      "Ġwon": 1712,
      "Ġwomen": 1713,
      "erb": 1714,
      "Ġchanges": 1715,
      "ners": 1716,
      "Ġident": 1717,
      "Ġhigher": 1718,
      "gest": 1719,
      "ĠCouncil": 1720,
      "ĠIran": 1721,
      "Ġplanned": 1722,
      "Ġpurch": 1723,
      "rib": 1724,
      "itation": 1725,
      "Ġincreasing": 1726,
      "Ġevents": 1727,
      "Ġprogram": 1728,
      "ĠUN": 1729,
      "Ġbro": 1730,
      "Ġrepublic": 1731,
      "Ġproblems": 1732,
      "Ġtrade": 1733,
      "Ġfut": 1734,
      "Ġadditional": 1735,
      "Ġback": 1736,
      "ara": 1737,
      "ped": 1738,
      "Ġoffice": 1739,
      "Ġprices": 1740,
      "Ġprof": 1741,
      "cept": 1742,
      "Ġrecord": 1743,
      "ix": 1744,
      "Ġmeans": 1745,
      "ateg": 1746,
      "ĠCommittee": 1747,
      "Ġchange": 1748,
      "Ġmove": 1749,
      "io": 1750,
      "ĠNATO": 1751,
      "sh": 1752,
      "Ġwords": 1753,
      "then": 1754,
      "Ġrepresentatives": 1755,
      "ind": 1756,
      "Ġway": 1757,
      "ĠX": 1758,
      "ustom": 1759,
      "Ġseason": 1760,
      "Ġcannot": 1761,
      "Ġstated": 1762,
      "ised": 1763,
      "com": 1764,
      "ĠTurk": 1765,
      "Ġyoun": 1766,
      "augh": 1767,
      "iyoyev": 1768,
      "urrently": 1769,
      "ĠWhen": 1770,
      "Ġfunds": 1771,
      "ĠFr": 1772,
      "Ġbank": 1773,
      "Ġorganizations": 1774,
      "Ġ24": 1775,
      "Ġfuture": 1776,
      "Ġsim": 1777,
      "Ġreached": 1778,
      "Ġgr": 1779,
      "ĠOr": 1780,
      "ways": 1781,
      "Ġdiscussed": 1782,
      "Ġrest": 1783,
      "arlier": 1784,
      "Ġstrengthen": 1785,
      "Ġtest": 1786,
      "Ġfront": 1787,
      "ĠMirziyoyev": 1788,
      "ological": 1789,
      "rab": 1790,
      "Ġbas": 1791,
      "ĠZel": 1792,
      "aw": 1793,
      "tained": 1794,
      "We": 1795,
      "outh": 1796,
      "ged": 1797,
      "Ġtop": 1798,
      "ivil": 1799,
      "sibility": 1800,
      "Ġhalf": 1801,
      "Ġestablish": 1802,
      "ecause": 1803,
      "Ġele": 1804,
      "ĠZelens": 1805,
      "used": 1806,
      "Ġrecent": 1807,
      "Ġfour": 1808,
      "ĠTr": 1809,
      "enal": 1810,
      "Ġeffect": 1811,
      "Ġtaking": 1812,
      "ider": 1813,
      "Ġdecre": 1814,
      "Ġbo": 1815,
      "Ġconflict": 1816,
      "Ġdest": 1817,
      "nel": 1818,
      "Ġty": 1819,
      "Ġes": 1820,
      "ĠUZ": 1821,
      "Ġdeath": 1822,
      "oz": 1823,
      "obal": 1824,
      "thing": 1825,
      "Ġmov": 1826,
      "Ġgl": 1827,
      "unic": 1828,
      "ĠAz": 1829,
      "Ġmater": 1830,
      "Ġopportunity": 1831,
      "Ġmake": 1832,
      "Ġnegotiations": 1833,
      "Ġdied": 1834,
      "Ġdev": 1835,
      "Ġresident": 1836,
      "pecial": 1837,
      "uclear": 1838,
      "Ġeuro": 1839,
      "ĠServ": 1840,
      "bass": 1841,
      "Ġprovide": 1842,
      "Ġstre": 1843,
      "tific": 1844,
      "Ġindu": 1845,
      "ccess": 1846,
      "ĠWhat": 1847,
      "ĠCode": 1848,
      "Ġtraffic": 1849,
      "Ġcomplete": 1850,
      "kat": 1851,
      "Ġnearly": 1852,
      "Ġnoted": 1853,
      "ising": 1854,
      "Ġdr": 1855,
      "angu": 1856,
      "Ġside": 1857,
      "Ġstand": 1858,
      "Ġnews": 1859,
      "ĠKore": 1860,
      "ne": 1861,
      "ĠBecause": 1862,
      "Ġav": 1863,
      "por": 1864,
      "ague": 1865,
      "icy": 1866,
      "Ġvehicles": 1867,
      "Ġopin": 1868,
      "Ġinvestigation": 1869,
      "Ġteac": 1870,
      "Ġdeliver": 1871,
      "Ġ100": 1872,
      "Ġadop": 1873,
      "Ġconsum": 1874,
      "ĠShav": 1875,
      "ĠReg": 1876,
      "Ġcame": 1877,
      "Ġequipment": 1878,
      "Ġdirect": 1879,
      "ĠInternational": 1880,
      "ultural": 1881,
      "ĠShavkat": 1882,
      "Ġemer": 1883,
      "ĠFin": 1884,
      "Ġjournal": 1885,
      "Ġarrest": 1886,
      "Ġaway": 1887,
      "Ġtoday": 1888,
      "Ġattention": 1889,
      "ĠCurrently": 1890,
      "Ġassistance": 1891,
      "Ġdet": 1892,
      "aryo": 1893,
      "Ġpract": 1894,
      "Ġhealth": 1895,
      "ampions": 1896,
      "Ġenv": 1897,
      "ĠUZS": 1898,
      "ards": 1899,
      "Ġmentioned": 1900,
      "ensive": 1901,
      "Ġmob": 1902,
      "Ġpoin": 1903,
      "Ġ21": 1904,
      "Ġresol": 1905,
      "Ġ0": 1906,
      "Ġmight": 1907,
      "ots": 1908,
      "Ġdat": 1909,
      "Ġprevent": 1910,
      "Ġfree": 1911,
      "aring": 1912,
      "Ġsus": 1913,
      "epend": 1914,
      "arlia": 1915,
      "izing": 1916,
      "Ġdeputy": 1917,
      "Ġagency": 1918,
      "Ġemployees": 1919,
      "retary": 1920,
      "urther": 1921,
      "Ġcrit": 1922,
      "iation": 1923,
      "Ġallow": 1924,
      "arily": 1925,
      "ĠArticle": 1926,
      "isters": 1927,
      "sk": 1928,
      "Ġ50": 1929,
      "ium": 1930,
      "Ġpeace": 1931,
      "Ġyoung": 1932,
      "Ġdirection": 1933,
      "Ġhere": 1934,
      "Ġbudget": 1935,
      "Ġpolice": 1936,
      "ond": 1937,
      "ĠInd": 1938,
      "most": 1939,
      "Ġfood": 1940,
      "Ġsee": 1941,
      "ends": 1942,
      "Ġconn": 1943,
      "Ġtar": 1944,
      "Ġenterpr": 1945,
      "Ġtour": 1946,
      "ti": 1947,
      "Ġconfir": 1948,
      "Ġexchange": 1949,
      "Ġsoldiers": 1950,
      "Ġfinancial": 1951,
      "Ġhosp": 1952,
      "ĠStates": 1953,
      "Ġflight": 1954,
      "Ġoperations": 1955,
      "uf": 1956,
      "Ġcars": 1957,
      "Ġinterview": 1958,
      "Ġnuclear": 1959,
      "oh": 1960,
      "lad": 1961,
      "Ġworks": 1962,
      "Ġhour": 1963,
      "ceed": 1964,
      "Ġthreat": 1965,
      "Ġexpressed": 1966,
      "Ġconduct": 1967,
      "Ġsoums": 1968,
      "Ġmodern": 1969,
      "Ġeuros": 1970,
      "Ġquestion": 1971,
      "Ġobserved": 1972,
      "ull": 1973,
      "arliament": 1974,
      "aster": 1975,
      "reen": 1976,
      "ĠFed": 1977,
      "Ġmuch": 1978,
      "ims": 1979,
      "Ġ22": 1980,
      "Ġnat": 1981,
      "Ġleast": 1982,
      "ulture": 1983,
      "Ġcitizen": 1984,
      "ending": 1985,
      "ale": 1986,
      "Ġmaterial": 1987,
      "In": 1988,
      "ĠBank": 1989,
      "Ġprison": 1990,
      "Ġlaunched": 1991,
      "rop": 1992,
      "arus": 1993,
      "utes": 1994,
      "Ġdocument": 1995,
      "que": 1996,
      "Ġfall": 1997,
      "Ġlangu": 1998,
      "uh": 1999,
      "ĠNational": 2000,
      "Ġbelie": 2001,
      "Ġliving": 2002,
      "vant": 2003,
      "Ġcivil": 2004,
      "Ġsystems": 2005,
      "ĠPrime": 2006,
      "ĠBrit": 2007,
      "Ġsuccess": 2008,
      "lom": 2009,
      "Ġpersonnel": 2010,
      "ructure": 2011,
      "SC": 2012,
      "Ġvot": 2013,
      "ĠArab": 2014,
      "ĠDon": 2015,
      "Ġentrepreneurs": 2016,
      "ony": 2017,
      "cies": 2018,
      "ĠNew": 2019,
      "10": 2020,
      "Ġcustom": 2021,
      "Ġinfl": 2022,
      "rgy": 2023,
      "rgyz": 2024,
      "ges": 2025,
      "Ġpurp": 2026,
      "ĠDeputy": 2027,
      "ained": 2028,
      "Ġfore": 2029,
      "Ġpost": 2030,
      "Ġarmed": 2031,
      "Ġstrong": 2032,
      "ially": 2033,
      "ĠUSA": 2034,
      "Ġel": 2035,
      "ĠSecurity": 2036,
      "ĠGaz": 2037,
      "Ġcomplex": 2038,
      "Ç§": 2039,
      "ĠAgency": 2040,
      "Ġusing": 2041,
      "aly": 2042,
      "Ġmother": 2043,
      "Ġcollabor": 2044,
      "ctors": 2045,
      "cipitation": 2046,
      "hest": 2047,
      "selves": 2048,
      "mb": 2049,
      "Ġprecipitation": 2050,
      "Ġgrow": 2051,
      "Ġelectricity": 2052,
      "rd": 2053,
      "Ġold": 2054,
      "ĠNav": 2055,
      "irl": 2056,
      "Ġdesign": 2057,
      "ghan": 2058,
      "Ġaff": 2059,
      "ĠBelarus": 2060,
      "iron": 2061,
      "ession": 2062,
      "Ġcal": 2063,
      "ĠZelensky": 2064,
      "illeg": 2065,
      "Ġresponse": 2066,
      "rov": 2067,
      "Ġproblem": 2068,
      "Ġallocated": 2069,
      "esp": 2070,
      "Ġname": 2071,
      "ĠGerman": 2072,
      "Ġtons": 2073,
      "Ġfram": 2074,
      "Ġconc": 2075,
      "Ġregul": 2076,
      "Ġpropos": 2077,
      "isl": 2078,
      "Ġ23": 2079,
      "strict": 2080,
      "Ġpat": 2081,
      "Ġorganized": 2082,
      "eters": 2083,
      "ubl": 2084,
      "Ġrelevant": 2085,
      "Ġgreat": 2086,
      "ogn": 2087,
      "idence": 2088,
      "ĠEarlier": 2089,
      "Ġneighborhood": 2090,
      "Ġlos": 2091,
      "ĠOffic": 2092,
      "Ġrestrict": 2093,
      "igr": 2094,
      "Ġwhy": 2095,
      "Ġclose": 2096,
      "Ġpoints": 2097,
      "Ġput": 2098,
      "Ġinstall": 2099,
      "Ġgovernor": 2100,
      "stry": 2101,
      "Ġthough": 2102,
      "Ġ199": 2103,
      "king": 2104,
      "Ġkilled": 2105,
      "reme": 2106,
      "Ġjoint": 2107,
      "Ġworth": 2108,
      "iety": 2109,
      "Ġhappen": 2110,
      "ai": 2111,
      "Ġyet": 2112,
      "Ġproper": 2113,
      "estern": 2114,
      "ukh": 2115,
      "Ġbecom": 2116,
      "Ġimplemented": 2117,
      "Ġdon": 2118,
      "Ġschools": 2119,
      "Ġfurther": 2120,
      "Ġeas": 2121,
      "Ġmatter": 2122,
      "vest": 2123,
      "Ġwhe": 2124,
      "iyev": 2125,
      "ĠKyrgyz": 2126,
      "Ġhome": 2127,
      "aff": 2128,
      "isting": 2129,
      "iles": 2130,
      "ĠCriminal": 2131,
      "Ġlabor": 2132,
      "Ġilleg": 2133,
      "Ġeast": 2134,
      "Ġfive": 2135,
      "Ġalong": 2136,
      "hib": 2137,
      "Ġnear": 2138,
      "Ġexport": 2139,
      "Ġdetermin": 2140,
      "Ġris": 2141,
      "ring": 2142,
      "Ġindepend": 2143,
      "ĠSp": 2144,
      "ively": 2145,
      "irc": 2146,
      "Ġdeb": 2147,
      "Ġpassen": 2148,
      "Ġbene": 2149,
      "Ġround": 2150,
      "Ġsl": 2151,
      "Ġstat": 2152,
      "rought": 2153,
      "Ġfully": 2154,
      "Ġnatural": 2155,
      "Ġlet": 2156,
      "Ġserious": 2157,
      "Ġscient": 2158,
      "ĠVlad": 2159,
      "mon": 2160,
      "Ġdata": 2161,
      "Ġsell": 2162,
      "ĠAfghan": 2163,
      "ferent": 2164,
      "Ġled": 2165,
      "Ġleading": 2166,
      "ned": 2167,
      "Ġplant": 2168,
      "Ġeconomy": 2169,
      "Ġrul": 2170,
      "Ġobject": 2171,
      "orts": 2172,
      "Ġconvers": 2173,
      "Ġpaid": 2174,
      "ework": 2175,
      "Ġrequire": 2176,
      "Ġreal": 2177,
      "uties": 2178,
      "Ġdeveloping": 2179,
      "ume": 2180,
      "agement": 2181,
      "Ġbuildings": 2182,
      "ches": 2183,
      "ĠCenter": 2184,
      "Ġprotect": 2185,
      "Ġvill": 2186,
      "sc": 2187,
      "Ġdecree": 2188,
      "Ġblows": 2189,
      "30": 2190,
      "ination": 2191,
      "arian": 2192,
      "Ġwent": 2193,
      "Ġframework": 2194,
      "Ġapproved": 2195,
      "acks": 2196,
      "Ġwoman": 2197,
      "Ġpubl": 2198,
      "Ġrate": 2199,
      "ĠService": 2200,
      "bs": 2201,
      "Ġjoin": 2202,
      "ided": 2203,
      "ĠUniversity": 2204,
      "Ġthink": 2205,
      "ĠJap": 2206,
      "ĠEven": 2207,
      "ĠAmerican": 2208,
      "Ġhistory": 2209,
      "craft": 2210,
      "Ġke": 2211,
      "ufact": 2212,
      "hing": 2213,
      "cast": 2214,
      "iplom": 2215,
      "ĠAbd": 2216,
      "oday": 2217,
      "Ġfar": 2218,
      "enced": 2219,
      "ready": 2220,
      "airman": 2221,
      "Ġpo": 2222,
      "Ġhol": 2223,
      "arth": 2224,
      "ĠOne": 2225,
      "Ġpot": 2226,
      "Ġmember": 2227,
      "Ġline": 2228,
      "ude": 2229,
      "emic": 2230,
      "Ġexperts": 2231,
      "row": 2232,
      "Ġkil": 2233,
      "Ġmanufact": 2234,
      "for": 2235,
      "Ġreach": 2236,
      "Ġpenal": 2237,
      "ĠSup": 2238,
      "less": 2239,
      "imir": 2240,
      "pa": 2241,
      "iden": 2242,
      "igence": 2243,
      "Ġneeds": 2244,
      "Ġlo": 2245,
      "Ġrecogn": 2246,
      "atory": 2247,
      "urg": 2248,
      "par": 2249,
      "Ġresponsible": 2250,
      "Ġcoming": 2251,
      "gr": 2252,
      "ĠEx": 2253,
      "Ġclear": 2254,
      "ĠFer": 2255,
      "Ġcaused": 2256,
      "Ġcities": 2257,
      "Ġproviding": 2258,
      "ror": 2259,
      "Ġdeveloped": 2260,
      "Ġparticipate": 2261,
      "Ġlater": 2262,
      "ety": 2263,
      "Ġglobal": 2264,
      "ament": 2265,
      "Ġquality": 2266,
      "Ġensure": 2267,
      "Ġshow": 2268,
      "Ġappoin": 2269,
      "iting": 2270,
      "ko": 2271,
      "ĠMar": 2272,
      "ĠVladimir": 2273,
      "omm": 2274,
      "Ġalready": 2275,
      "Ġpolicy": 2276,
      "Ġbeh": 2277,
      "els": 2278,
      "Ġinitiated": 2279,
      "road": 2280,
      "Ġasked": 2281,
      "Ġcondition": 2282,
      "Ġconsider": 2283,
      "ĠAsian": 2284,
      "Ġstarting": 2285,
      "itor": 2286,
      "ĠTra": 2287,
      "fety": 2288,
      "Ġattem": 2289,
      "Ġhospital": 2290,
      "Ġtro": 2291,
      "ounter": 2292,
      "Ġgames": 2293,
      "Uzbek": 2294,
      "Ġren": 2295,
      "Ġremin": 2296,
      "Ġbrought": 2297,
      "Ġplans": 2298,
      "ĠNow": 2299,
      "Ġcomb": 2300,
      "ironment": 2301,
      "iq": 2302,
      "Ġjob": 2303,
      "Ġopinion": 2304,
      "rote": 2305,
      "the": 2306,
      "ĠBl": 2307,
      "Ġaimed": 2308,
      "Ġcost": 2309,
      "Ġlost": 2310,
      "Ġgeneral": 2311,
      "Ġago": 2312,
      "Ġcirc": 2313,
      "encies": 2314,
      "Ġfinal": 2315,
      "Ġ27": 2316,
      "Ġthird": 2317,
      "Ġparticipated": 2318,
      "ĠYou": 2319,
      "eor": 2320,
      "ane": 2321,
      "sequ": 2322,
      "ĠDue": 2323,
      "Ġarriv": 2324,
      "ka": 2325,
      "Ġterms": 2326,
      "Ġonce": 2327,
      "Ġleave": 2328,
      "anding": 2329,
      "ior": 2330,
      "Ġintroduced": 2331,
      "Ġprivate": 2332,
      "ential": 2333,
      "Ġadopted": 2334,
      "Ġpartners": 2335,
      "Ġgirl": 2336,
      "ĠLeague": 2337,
      "orks": 2338,
      "ech": 2339,
      "rast": 2340,
      "legram": 2341,
      "istics": 2342,
      "Ġsmall": 2343,
      "ĠSer": 2344,
      "rip": 2345,
      "Ġleadership": 2346,
      "atic": 2347,
      "Ġproced": 2348,
      "Ġreform": 2349,
      "ests": 2350,
      "cement": 2351,
      "ukhara": 2352,
      "Ġmult": 2353,
      "amed": 2354,
      "ĠBiden": 2355,
      "ĠKorea": 2356,
      "Ġappointed": 2357,
      "ery": 2358,
      "50": 2359,
      "verage": 2360,
      "ĠWith": 2361,
      "Ġborn": 2362,
      "Ġunderst": 2363,
      "ĠAsia": 2364,
      "Ġcare": 2365,
      "ĠEng": 2366,
      "Ġmass": 2367,
      "Ġhaving": 2368,
      "Ġdiplom": 2369,
      "Ġdecl": 2370,
      "AS": 2371,
      "Ġlim": 2372,
      "Ġvolume": 2373,
      "ĠJapan": 2374,
      "asion": 2375,
      "imov": 2376,
      "Ġaddress": 2377,
      "Ġgoals": 2378,
      "Ġcompletely": 2379,
      "Ġmor": 2380,
      "Ġ2020": 2381,
      "ifically": 2382,
      "Ġthemselves": 2383,
      "Ġwrote": 2384,
      "ĠPe": 2385,
      "Ġsummit": 2386,
      "Ġoccup": 2387,
      "ĠMed": 2388,
      "ĠToday": 2389,
      "elligence": 2390,
      "Ġlanguage": 2391,
      "af": 2392,
      "Ġrepresentative": 2393,
      "ĠEconom": 2394,
      "ĠMy": 2395,
      "Ġsources": 2396,
      "Ġalmost": 2397,
      "Ġcolle": 2398,
      "Ġspread": 2399,
      "Ġarrested": 2400,
      "osition": 2401,
      "raw": 2402,
      "Ġ28": 2403,
      "Ġknown": 2404,
      "Ġcompared": 2405,
      "mp": 2406,
      "Ġsing": 2407,
      "orms": 2408,
      "ĠGaza": 2409,
      "ently": 2410,
      "Ġready": 2411,
      "Ġcommand": 2412,
      "Ġsubject": 2413,
      "ury": 2414,
      "ĠSw": 2415,
      "gana": 2416,
      "Ġpoint": 2417,
      "Ġperform": 2418,
      "Ġ2024": 2419,
      "ĠKyrgyzstan": 2420,
      "andid": 2421,
      "overed": 2422,
      "Ġsociety": 2423,
      "Ġbasis": 2424,
      "SR": 2425,
      "Ġhours": 2426,
      "ologies": 2427,
      "ored": 2428,
      "Ġ40": 2429,
      "Ġaid": 2430,
      "ĠThen": 2431,
      "Ġtraining": 2432,
      "ĠMore": 2433,
      "ĠPart": 2434,
      "cation": 2435,
      "Ġcommunic": 2436,
      "Ġalways": 2437,
      "Ġacross": 2438,
      "Ġpresidential": 2439,
      "Ġbodies": 2440,
      "Ġconference": 2441,
      "cel": 2442,
      "Ġinjured": 2443,
      "rastructure": 2444,
      "Ġeducational": 2445,
      "ĠBukhara": 2446,
      "pes": 2447,
      "Ġwarm": 2448,
      "ĠNo": 2449,
      "ung": 2450,
      "Ġstation": 2451,
      "ĠCup": 2452,
      "ĠEdu": 2453,
      "Ġhimself": 2454,
      "Ġconversation": 2455,
      "erba": 2456,
      "erbaijan": 2457,
      "Ġconfirmed": 2458,
      "Ġrain": 2459,
      "Ġten": 2460,
      "Ġmissile": 2461,
      "ĠRussians": 2462,
      "mat": 2463,
      "Ġdirector": 2464,
      "Ġacqu": 2465,
      "ĠSc": 2466,
      "Ġfew": 2467,
      "Ġexperience": 2468,
      "ĠAll": 2469,
      "ĠFederation": 2470,
      "ĠJSC": 2471,
      "Ġart": 2472,
      "Ġaccident": 2473,
      "Ġrese": 2474,
      "ĠDevelop": 2475,
      "Ġhot": 2476,
      "imately": 2477,
      "Ġpublication": 2478,
      "ĠAfghanistan": 2479,
      "ops": 2480,
      "ruption": 2481,
      "ping": 2482,
      "Ġabove": 2483,
      "Ġagreed": 2484,
      "Ġsepar": 2485,
      "alp": 2486,
      "na": 2487,
      "Ġcur": 2488,
      "isf": 2489,
      "Ġachieve": 2490,
      "Ġappl": 2491,
      "Ġparticipation": 2492,
      "ĠFergana": 2493,
      "Ġenterprises": 2494,
      "gers": 2495,
      "Ġdistrib": 2496,
      "Ġcollaboration": 2497,
      "Ġparties": 2498,
      "Ġprosecutor": 2499,
      "ares": 2500,
      "Ġprim": 2501,
      "ĠTelegram": 2502,
      "Ġdetermined": 2503,
      "Ġans": 2504,
      "ĠInstitut": 2505,
      "Ġtasks": 2506,
      "Ġable": 2507,
      "Ġstudy": 2508,
      "Ġcandid": 2509,
      "Ġfind": 2510,
      "kh": 2511,
      "Ġ26": 2512,
      "Ġpositions": 2513,
      "Ġentire": 2514,
      "ĠMus": 2515,
      "ĠForces": 2516,
      "Ġgive": 2517,
      "Ġeverything": 2518,
      "ĠProsecutor": 2519,
      "isions": 2520,
      "Ġothers": 2521,
      "Ġadded": 2522,
      "ĠRes": 2523,
      "uel": 2524,
      "ĠKarak": 2525,
      "ĠAzerbaijan": 2526,
      "hold": 2527,
      "Ġabroad": 2528,
      "Ġofficers": 2529,
      "Ġopened": 2530,
      "ĠPal": 2531,
      "ĠBy": 2532,
      "Ġreceive": 2533,
      "Ġstrik": 2534,
      "pid": 2535,
      "Ġpublished": 2536,
      "atisf": 2537,
      "Ġmar": 2538,
      "Ġide": 2539,
      "sif": 2540,
      "Ġeveryone": 2541,
      "Ġpreviously": 2542,
      "Ġinfrastructure": 2543,
      "Ġitself": 2544,
      "ify": 2545,
      "fficient": 2546,
      "Ġimplementation": 2547,
      "Ġcreated": 2548,
      "AM": 2549,
      "ĠOffice": 2550,
      "alpak": 2551,
      "rones": 2552,
      "Ġmissiles": 2553,
      "ĠTo": 2554,
      "Ġball": 2555,
      "Ġsaying": 2556,
      "Ġfather": 2557,
      "Ġport": 2558,
      "udi": 2559,
      "ĠKarakalpak": 2560,
      "Ġagric": 2561,
      "Ġdefe": 2562,
      "ĠWestern": 2563,
      "Ġdifferent": 2564,
      "Ġcold": 2565,
      "Ġlive": 2566,
      "Ġregard": 2567,
      "Ġsuff": 2568,
      "Ġcle": 2569,
      "rid": 2570,
      "Ġpurpose": 2571,
      "Ġmaking": 2572,
      "Ġconstitut": 2573,
      "ĠSince": 2574,
      "Ġattacks": 2575,
      "ĠAir": 2576,
      "Ġvictory": 2577,
      "Ġreview": 2578,
      "ĠCommission": 2579,
      "ronic": 2580,
      "ĠTherefore": 2581,
      "Ġforced": 2582,
      "ĠDevelopment": 2583,
      "Ġremind": 2584,
      "Ġdriver": 2585,
      "ected": 2586,
      "Ġidentified": 2587,
      "Ġfil": 2588,
      "pects": 2589,
      "ĠSouth": 2590,
      "Ġworked": 2591,
      "aught": 2592,
      "jon": 2593,
      "erous": 2594,
      "Ġcourse": 2595,
      "Ġtempor": 2596,
      "Ġbody": 2597,
      "Ġgoods": 2598,
      "Ġless": 2599,
      "Ġconclus": 2600,
      "ither": 2601,
      "Ġage": 2602,
      "rams": 2603,
      "Ġenvironment": 2604,
      "Ġwebs": 2605,
      "oke": 2606,
      "inese": 2607,
      "ering": 2608,
      "reedom": 2609,
      "Ġtechnical": 2610,
      "Ġbelong": 2611,
      "Ġauthorities": 2612,
      "arya": 2613,
      "Ġmanagement": 2614,
      "Ġcertific": 2615,
      "pecially": 2616,
      "Ġexceed": 2617,
      "Ġaccused": 2618,
      "Ġcompetition": 2619,
      "Ġdrones": 2620,
      "Ġtreat": 2621,
      "ĠWest": 2622,
      "yd": 2623,
      "Ġteachers": 2624,
      "Ġparliament": 2625,
      "to": 2626,
      "itarian": 2627,
      "Ġcounter": 2628,
      "abin": 2629,
      "Ġparent": 2630,
      "rect": 2631,
      "iance": 2632,
      "Ġfacilities": 2633,
      "onstr": 2634,
      "Ġefforts": 2635,
      "Ġdestro": 2636,
      "emy": 2637,
      "Ġinternal": 2638,
      "Ġfarm": 2639,
      "Ġaverage": 2640,
      "Ġhous": 2641,
      "LC": 2642,
      "Ġfri": 2643,
      "Ġprin": 2644,
      "ĠSecretary": 2645,
      "Ġagencies": 2646,
      "lig": 2647,
      "Ġkilom": 2648,
      "Ġhost": 2649,
      "Ġpassed": 2650,
      "rency": 2651,
      "Ġgoing": 2652,
      "Ġproduct": 2653,
      "Ġdamage": 2654,
      "unities": 2655,
      "Ġsingle": 2656,
      "Ġprofess": 2657,
      "Ġfail": 2658,
      "ope": 2659,
      "ump": 2660,
      "Ġdemonstr": 2661,
      "ulated": 2662,
      "Ġcalc": 2663,
      "Ġz": 2664,
      "ĠEducation": 2665,
      "Ġphot": 2666,
      "lying": 2667,
      "know": 2668,
      "Ġunits": 2669,
      "Ġtypes": 2670,
      "ĠAle": 2671,
      "Ġturned": 2672,
      "Ġcreate": 2673,
      "ĠLLC": 2674,
      "Ġprepared": 2675,
      "Ġmigr": 2676,
      "hod": 2677,
      "ones": 2678,
      "Ġrequest": 2679,
      "Ġdraft": 2680,
      "Ġaircraft": 2681,
      "be": 2682,
      "li": 2683,
      "Ġcarry": 2684,
      "Ġbring": 2685,
      "202": 2686,
      "Ġdom": 2687,
      "ĠGo": 2688,
      "ĠChinese": 2689,
      "Ġgradu": 2690,
      "ĠSov": 2691,
      "Ġexplos": 2692,
      "ĠSaudi": 2693,
      "uted": 2694,
      "ĠOl": 2695,
      "Ġcompl": 2696,
      "enses": 2697,
      "Ġparty": 2698,
      "Ãķ": 2699,
      "Ġpenalty": 2700,
      "ĠCour": 2701,
      "rug": 2702,
      "Ġenc": 2703,
      "Ġloss": 2704,
      "Th": 2705,
      "Ġresources": 2706,
      "arant": 2707,
      "ountain": 2708,
      "aving": 2709,
      "ĠInstitute": 2710,
      "ĠUSSR": 2711,
      "erc": 2712,
      "Ġcritic": 2713,
      "Ġhom": 2714,
      "ĠVol": 2715,
      "Ġcontinu": 2716,
      "Ġnetworks": 2717,
      "ification": 2718,
      "itude": 2719,
      "ee": 2720,
      "Ġstage": 2721,
      "Ġdise": 2722,
      "Ġlow": 2723,
      "ĠAndijan": 2724,
      "Ġfull": 2725,
      "Ġsignificantly": 2726,
      "ĠKarakalpakstan": 2727,
      "Ġsk": 2728,
      "Ġcross": 2729,
      "Ġlaunch": 2730,
      "Ġlit": 2731,
      "Ġterritories": 2732,
      "hel": 2733,
      "Ġintelligence": 2734,
      "Ġnon": 2735,
      "ides": 2736,
      "ĠThese": 2737,
      "Ġlook": 2738,
      "Ġdesc": 2739,
      "Ġvillage": 2740,
      "medi": 2741,
      "Ġcapac": 2742,
      "iday": 2743,
      "ĠFrance": 2744,
      "Ġrisk": 2745,
      "ĠTw": 2746,
      "ĠSea": 2747,
      "Ġstations": 2748,
      "Ġimprove": 2749,
      "Ġassoc": 2750,
      "hern": 2751,
      "Ġnetwork": 2752,
      "Ġyouth": 2753,
      "Ġdecided": 2754,
      "pted": 2755,
      "Ġstrike": 2756,
      "Ġstopped": 2757,
      "ĠMinisters": 2758,
      "ĠTaj": 2759,
      "Ġtask": 2760,
      "Ġview": 2761,
      "ats": 2762,
      "Ġvalue": 2763,
      "Ġpun": 2764,
      "Ġbran": 2765,
      "oud": 2766,
      "ource": 2767,
      "Ġbre": 2768,
      "Ġreturned": 2769,
      "Ġunderstand": 2770,
      "aut": 2771,
      "Ġstep": 2772,
      "Ġquick": 2773,
      "vert": 2774,
      "osh": 2775,
      "Ġinvestment": 2776,
      "ĠMon": 2777,
      "ush": 2778,
      "Ġkm": 2779,
      "Ġship": 2780,
      "ĠSen": 2781,
      "ĠBakh": 2782,
      "Ġpast": 2783,
      "ĠEm": 2784,
      "Ġparents": 2785,
      "Ġansw": 2786,
      "Ġrub": 2787,
      "ampionship": 2788,
      "ĠCourt": 2789,
      ".,": 2790,
      "era": 2791,
      "Ġpresented": 2792,
      "itive": 2793,
      "Ġthing": 2794,
      "Ġonline": 2795,
      "avor": 2796,
      "Ġissued": 2797,
      "ĠStre": 2798,
      "atform": 2799,
      "fully": 2800,
      "Ġadministrative": 2801,
      "Ġlegisl": 2802,
      "strial": 2803,
      "Ġsix": 2804,
      "kov": 2805,
      "Ġlear": 2806,
      "ĠNorth": 2807,
      "angan": 2808,
      "ins": 2809,
      "Ġminister": 2810,
      "Ġpotential": 2811,
      "Ġcommunity": 2812,
      "ĠCity": 2813,
      "ximately": 2814,
      "imate": 2815,
      "Ġsituations": 2816,
      "Ġconsequ": 2817,
      "Ġ2019": 2818,
      "ĠNam": 2819,
      "Ġquestions": 2820,
      "Ġsoon": 2821,
      "ny": 2822,
      "Ġinvasion": 2823,
      "Ġmovement": 2824,
      "aled": 2825,
      "Ġthings": 2826,
      "Ġlargest": 2827,
      "Ġindustry": 2828,
      "ĠIsraeli": 2829,
      "akes": 2830,
      "ccord": 2831,
      "Ġtoget": 2832,
      "Ġimplementing": 2833,
      "Ġtogether": 2834,
      "Ġstaff": 2835,
      "Ġbuy": 2836,
      "Ġdig": 2837,
      "Ġrecorded": 2838,
      "Ġimposed": 2839,
      "Ġpayment": 2840,
      "Ġchanging": 2841,
      "Ġcomment": 2842,
      "Ġbuilt": 2843,
      "gen": 2844,
      "iddin": 2845,
      "ta": 2846,
      "Ġtourn": 2847,
      "ĠKrem": 2848,
      "Ġobtain": 2849,
      "Ġrules": 2850,
      "Ġhousehold": 2851,
      "Ġgener": 2852,
      "ĠOrgan": 2853,
      "Ġexec": 2854,
      "Ġreserv": 2855,
      "rev": 2856,
      "asons": 2857,
      "ances": 2858,
      "15": 2859,
      "Ġlight": 2860,
      "ling": 2861,
      "Ġmorning": 2862,
      "ody": 2863,
      "Ġopportunities": 2864,
      "Ġproperty": 2865,
      "ĠSur": 2866,
      "zh": 2867,
      "ĠJust": 2868,
      "illing": 2869,
      "lled": 2870,
      "Ġaward": 2871,
      "Ġhold": 2872,
      "Ġaccord": 2873,
      "ĠThat": 2874,
      "Ġfreedom": 2875,
      "arov": 2876,
      "ĠNamangan": 2877,
      "Ġinspe": 2878,
      "Ġremains": 2879,
      "ĠPeople": 2880,
      "Ġministry": 2881,
      "Ġimpos": 2882,
      "ĠHealth": 2883,
      "Ġplatform": 2884,
      "ledge": 2885,
      "ategic": 2886,
      "Ġwebsite": 2887,
      "Ġcenters": 2888,
      "Ġwhether": 2889,
      "Ġshot": 2890,
      "Ġrapid": 2891,
      "Ġcreating": 2892,
      "ule": 2893,
      "ivered": 2894,
      "Ġstrikes": 2895,
      "Ġprotection": 2896,
      "Ġpossibility": 2897,
      "Ġ29": 2898,
      "ĠArmed": 2899,
      "Ġentrepreneur": 2900,
      "Ġmean": 2901,
      "Ġdirections": 2902,
      "Ġesc": 2903,
      "Ġbatt": 2904,
      "Ġinterests": 2905,
      "AMAS": 2906,
      "ĠArmen": 2907,
      "Ġprocedure": 2908,
      "Ġoperating": 2909,
      "Ġson": 2910,
      "ĠTajik": 2911,
      "Ġaccordance": 2912,
      "Ġearth": 2913,
      "Ġdelivered": 2914,
      "Ġtechnologies": 2915,
      "though": 2916,
      "Ġsqu": 2917,
      "Ġelections": 2918,
      "Ġqual": 2919,
      "Ġprec": 2920,
      "Ġjournalists": 2921,
      "Ġdestroy": 2922,
      "side": 2923,
      "Ġjud": 2924,
      "Ġpack": 2925,
      "ĠKremlin": 2926,
      "Ġcamp": 2927,
      "Ġinten": 2928,
      "ĠPalest": 2929,
      "Ġgroups": 2930,
      "Ġkilometers": 2931,
      "Ġformed": 2932,
      "Ġactivity": 2933,
      "Ġclass": 2934,
      "Ġparticipants": 2935,
      "Ġforward": 2936,
      "agner": 2937,
      "Ġallowed": 2938,
      "ĠHAMAS": 2939,
      "Ġprevious": 2940,
      "Ġconsequences": 2941,
      "Ġcapt": 2942,
      "Ġ60": 2943,
      "Ġproposed": 2944,
      "Ġelectronic": 2945,
      "Ġentered": 2946,
      "Ġlaws": 2947,
      "Ġpressure": 2948,
      "Ġrequirements": 2949,
      "ression": 2950,
      "Ġensuring": 2951,
      "Ġfell": 2952,
      "Ġseem": 2953,
      "abinet": 2954,
      "Ġincludes": 2955,
      "ĠNavo": 2956,
      "atch": 2957,
      "Ġforce": 2958,
      "Ġrecomm": 2959,
      "izz": 2960,
      "ĠBer": 2961,
      "Ġmajority": 2962,
      "Ġarrived": 2963,
      "Ġfamil": 2964,
      "Ġproduced": 2965,
      "ĠOur": 2966,
      "Ġbehind": 2967,
      "Ġcla": 2968,
      "Ġteams": 2969,
      "19": 2970,
      "ĠAmong": 2971,
      "Ġminutes": 2972,
      "Ġattract": 2973,
      "Ġcrimes": 2974,
      "Ġshare": 2975,
      "Ġvictims": 2976,
      "Ġsusp": 2977,
      "Ġillegal": 2978,
      "Ġterror": 2979,
      "Ġnever": 2980,
      "Ġsummer": 2981,
      "Ġinvolved": 2982,
      "Ġdistricts": 2983,
      "Ġmaterials": 2984,
      "ĠSoviet": 2985,
      "Ġbelieve": 2986,
      "Ġstudent": 2987,
      "Ġplayers": 2988,
      "Ġconducting": 2989,
      "Ġshar": 2990,
      "aries": 2991,
      "let": 2992,
      "Ġmatch": 2993,
      "Ġbig": 2994,
      "ĠFirst": 2995,
      "hev": 2996,
      "uries": 2997,
      "Ġanal": 2998,
      "Ġrepl": 2999,
      "Ġfields": 3000,
      "fort": 3001,
      "Ġcateg": 3002,
      "Ġbest": 3003,
      "Ġbecoming": 3004,
      "forcement": 3005,
      "Ġmountain": 3006,
      "Ġgold": 3007,
      "ĠGeor": 3008,
      "Ġfavor": 3009,
      "Ġmobil": 3010,
      "ĠAss": 3011,
      "Ġmanaged": 3012,
      "Ġflights": 3013,
      "nd": 3014,
      "Ġinternet": 3015,
      "Ġtroops": 3016,
      "ĠPoland": 3017,
      "ief": 3018,
      "ogan": 3019,
      "roup": 3020,
      "aint": 3021,
      "going": 3022,
      "ĠEU": 3023,
      "Ġstreets": 3024,
      "erve": 3025,
      "Ġgrant": 3026,
      "Ġinflu": 3027,
      "Ġmist": 3028,
      "Ġcho": 3029,
      "Ġairpl": 3030,
      "Ġdefend": 3031,
      "Ġdetained": 3032,
      "Ġscored": 3033,
      "mun": 3034,
      "ters": 3035,
      "Ġbenef": 3036,
      "Ġagg": 3037,
      "eral": 3038,
      "Ġpar": 3039,
      "Ġlives": 3040,
      "br": 3041,
      "Ġlot": 3042,
      "Ġkeep": 3043,
      "lam": 3044,
      "anc": 3045,
      "Ġsentenced": 3046,
      "Ġdetail": 3047,
      "Ġcapacity": 3048,
      "ogra": 3049,
      "Ġgrowth": 3050,
      "ique": 3051,
      "nov": 3052,
      "Ġ31": 3053,
      "Ġdisp": 3054,
      "ival": 3055,
      "Ġprincip": 3056,
      "Ġearly": 3057,
      "ĠSo": 3058,
      "Ġincluded": 3059,
      "Ġapplication": 3060,
      "ĠWar": 3061,
      "Ġsy": 3062,
      "ashing": 3063,
      "ption": 3064,
      "ĠBased": 3065,
      "Ġchanged": 3066,
      "Ġresidential": 3067,
      "Ġprograms": 3068,
      "Ġexpand": 3069,
      "Ġearthqu": 3070,
      "Ġtru": 3071,
      "Ġcommission": 3072,
      "Ġexplained": 3073,
      "Ġpromot": 3074,
      "Ġquickly": 3075,
      "Ġimmedi": 3076,
      "Ġcommunication": 3077,
      "Ġabs": 3078,
      "Ġcloud": 3079,
      "Ġhit": 3080,
      "Ġdidn": 3081,
      "Ġimpact": 3082,
      "Ġachieved": 3083,
      "rench": 3084,
      "ilater": 3085,
      "Ġparticular": 3086,
      "Ġtravel": 3087,
      "mut": 3088,
      "Ġpractice": 3089,
      "ĠInvest": 3090,
      "Ġplayer": 3091,
      "ishing": 3092,
      "ĠAg": 3093,
      "Ġbanks": 3094,
      "Ġguarant": 3095,
      "ĠMoreover": 3096,
      "Ġdecisions": 3097,
      "Ġpil": 3098,
      "Ġassess": 3099,
      "Ġparticipating": 3100,
      "rig": 3101,
      "Ġmedic": 3102,
      "ĠCan": 3103,
      "Ġrole": 3104,
      "Ġrestrictions": 3105,
      "Ġupon": 3106,
      "Ġdevices": 3107,
      "Ġpreparing": 3108,
      "ĠCrime": 3109,
      "Ġpurchase": 3110,
      "Ġsafety": 3111,
      "Ġelection": 3112,
      "Ġspecialists": 3113,
      "ead": 3114,
      "ĠArabia": 3115,
      "tle": 3116,
      "Ġ198": 3117,
      "Ġcontinues": 3118,
      "urb": 3119,
      "Ġexpert": 3120,
      "ĠIndia": 3121,
      "rs": 3122,
      "Ġground": 3123,
      "ĠSpe": 3124,
      "Ġreduce": 3125,
      "Ġarticle": 3126,
      "Ġextra": 3127,
      "ients": 3128,
      "Ġtrees": 3129,
      "Ġreasons": 3130,
      "Ġpersonal": 3131,
      "mad": 3132,
      "ĠSy": 3133,
      "oks": 3134,
      "me": 3135,
      "Ġinform": 3136,
      "Ġstatus": 3137,
      "ĠGu": 3138,
      "Ġbase": 3139,
      "Ġautom": 3140,
      "Ġemergency": 3141,
      "Ġcut": 3142,
      "Ġtournament": 3143,
      "ĠSenate": 3144,
      "Ġsw": 3145,
      "Ġmut": 3146,
      "Ġaction": 3147,
      "agn": 3148,
      "estic": 3149,
      "ires": 3150,
      "Ġsource": 3151,
      "ĠTajikistan": 3152,
      "Ġprohib": 3153,
      "Ġroads": 3154,
      "Ġcommitted": 3155,
      "Ġairport": 3156,
      "Ġdang": 3157,
      "ĠCabinet": 3158,
      "Ġsports": 3159,
      "25": 3160,
      "Ġsomet": 3161,
      "iddle": 3162,
      "Ġintensif": 3163,
      "igious": 3164,
      "Ġinitiative": 3165,
      "Ġsession": 3166,
      "Ġcloudy": 3167,
      "ĠBritish": 3168,
      "Ġsuppl": 3169,
      "ĠBefore": 3170,
      "Ġinitial": 3171,
      "ĠConstitut": 3172,
      "ĠOrganization": 3173,
      "Ġtanks": 3174,
      "Ġagreements": 3175,
      "Ġplayed": 3176,
      "ĠBakhmut": 3177,
      "ocrat": 3178,
      "Ġofficially": 3179,
      "Ġcentral": 3180,
      "This": 3181,
      "ĠFrench": 3182,
      "Ġreforms": 3183,
      "Ġenforcement": 3184,
      "undred": 3185,
      "ĠJizz": 3186,
      "Ġdeputies": 3187,
      "Ġacad": 3188,
      "ey": 3189,
      "ple": 3190,
      "imum": 3191,
      "Ġconcern": 3192,
      "ĠPl": 3193,
      "Ġexact": 3194,
      "ilateral": 3195,
      "Ġphone": 3196,
      "Ġpassengers": 3197,
      "Ġwa": 3198,
      "ray": 3199,
      "ĠHouse": 3200,
      "Ġlack": 3201,
      "Ġconven": 3202,
      "oad": 3203,
      "Ġdeleg": 3204,
      "Ġcard": 3205,
      "Ġreve": 3206,
      "acy": 3207,
      "Ġinstalled": 3208,
      "ordin": 3209,
      "oe": 3210,
      "Ġpolitic": 3211,
      "irus": 3212,
      "Ġrespond": 3213,
      "otton": 3214,
      "Ġincome": 3215,
      "Ġhighest": 3216,
      "Ġconclusion": 3217,
      "action": 3218,
      "ĠBor": 3219,
      "Ġknowledge": 3220,
      "Ġaffect": 3221,
      "Ġcustoms": 3222,
      "iated": 3223,
      "Ġgreen": 3224,
      "ĠErd": 3225,
      "Ġlic": 3226,
      "Ġcover": 3227,
      "qad": 3228,
      "Ġseen": 3229,
      "Ġparts": 3230,
      "Ġspace": 3231,
      "22": 3232,
      "by": 3233,
      "Ġtext": 3234,
      "Ġspeech": 3235,
      "Ġdecreased": 3236,
      "ĠGeorg": 3237,
      "espite": 3238,
      "Ġcerem": 3239,
      "Ġsomeone": 3240,
      "hin": 3241,
      "Ġentities": 3242,
      "Ġrail": 3243,
      "Ġwinter": 3244,
      "Ġmethod": 3245,
      "Ġenough": 3246,
      "atar": 3247,
      "Ġcoal": 3248,
      "Ġmayor": 3249,
      "Ġcombat": 3250,
      "Ġdepart": 3251,
      "Ġdone": 3252,
      "Ġnamed": 3253,
      "Ġdirectly": 3254,
      "ĠAdministr": 3255,
      "Ġseve": 3256,
      "anner": 3257,
      "Ġintegr": 3258,
      "Ġimportance": 3259,
      "Ġprocesses": 3260,
      "ging": 3261,
      "Ġresearch": 3262,
      "Ġpath": 3263,
      "Ġharm": 3264,
      "Ġmoving": 3265,
      "ĠNavoiy": 3266,
      "Ġtoo": 3267,
      "Ġden": 3268,
      "Ġrecon": 3269,
      "Ġuniversity": 3270,
      "Ġwritten": 3271,
      "istered": 3272,
      "Ġapproximately": 3273,
      "Ġpayments": 3274,
      "Ġscientific": 3275,
      "ĠTurkish": 3276,
      "Ġoblig": 3277,
      "Ġrad": 3278,
      "Ġfuel": 3279,
      "Ġevening": 3280,
      "18": 3281,
      "rison": 3282,
      "Ġbrother": 3283,
      "ashington": 3284,
      "respon": 3285,
      "abilities": 3286,
      "Ġworkers": 3287,
      "Ġver": 3288,
      "Ġunique": 3289,
      "Ġespecially": 3290,
      "ĠTrump": 3291,
      "isis": 3292,
      "Ġped": 3293,
      "ĠGroup": 3294,
      "ĠPublic": 3295,
      "ĠDo": 3296,
      "ashqad": 3297,
      "aration": 3298,
      "Ġstreet": 3299,
      "ĠErdogan": 3300,
      "ashqadaryo": 3301,
      "ined": 3302,
      "ening": 3303,
      "Ġhistor": 3304,
      "Ġtold": 3305,
      "ĠWashington": 3306,
      "Ġdomestic": 3307,
      "term": 3308,
      "Ġchairman": 3309,
      "Ġ2018": 3310,
      "ns": 3311,
      "Ġmaintain": 3312,
      "Ġsale": 3313,
      "field": 3314,
      "use": 3315,
      "ona": 3316,
      "amber": 3317,
      "Ġge": 3318,
      "Ġ70": 3319,
      "Ġrepe": 3320,
      "Ġremaining": 3321,
      "aughter": 3322,
      "Ġmobile": 3323,
      "Ġmid": 3324,
      "arc": 3325,
      "Ġtrillion": 3326,
      "Ġapplied": 3327,
      "ĠSwed": 3328,
      "miss": 3329,
      "Ġhundred": 3330,
      "ilar": 3331,
      "Ġreceiving": 3332,
      "Ġcollect": 3333,
      "Ġdeclared": 3334,
      "Ġcompleted": 3335,
      "Ġanswer": 3336,
      "Ġtele": 3337,
      "ĠQashqadaryo": 3338,
      "Ġtourism": 3339,
      "anov": 3340,
      "lymp": 3341,
      "Ġhumanitarian": 3342,
      "ructed": 3343,
      "Ġspoke": 3344,
      "zm": 3345,
      "Ġdou": 3346,
      "ansk": 3347,
      "rior": 3348,
      "Ġrequired": 3349,
      "Ġcrime": 3350,
      "Ġavail": 3351,
      "oring": 3352,
      "Ġhowever": 3353,
      "Ġclosed": 3354,
      "struction": 3355,
      "izes": 3356,
      "dict": 3357,
      "Ġactive": 3358,
      "ĠPrig": 3359,
      "Ġdebt": 3360,
      "Ġcausing": 3361,
      "Ġoccupied": 3362,
      "ert": 3363,
      "Ġreleased": 3364,
      "Ġdecrease": 3365,
      "Ġimmediately": 3366,
      "Ġcorruption": 3367,
      "Ġresidents": 3368,
      "Ġaffairs": 3369,
      "ĠCo": 3370,
      "Ġord": 3371,
      "Ġsevere": 3372,
      "Ġpromised": 3373,
      "ald": 3374,
      "Ġroute": 3375,
      "lish": 3376,
      "ĠDespite": 3377,
      "ĠEvery": 3378,
      "Ġfun": 3379,
      "Ġeither": 3380,
      "Ġcrisis": 3381,
      "Ġregime": 3382,
      "anning": 3383,
      "Ġspent": 3384,
      "Ġtransferred": 3385,
      "arter": 3386,
      "Ġtransportation": 3387,
      "Ġwithd": 3388,
      "Ġcurrency": 3389,
      "Ġdeal": 3390,
      "ĠMe": 3391,
      "henko": 3392,
      "etsk": 3393,
      "Ġindustrial": 3394,
      "ĠSupreme": 3395,
      "berg": 3396,
      "ĠBritain": 3397,
      "Ġongoing": 3398,
      "Ġoffer": 3399,
      "Ġrepair": 3400,
      "Ġdiss": 3401,
      "Ġsupporting": 3402,
      "herson": 3403,
      "Ġquot": 3404,
      "gaz": 3405,
      "uded": 3406,
      "iences": 3407,
      "Ġpict": 3408,
      "Ġhect": 3409,
      "ĠEnergy": 3410,
      "Ġelimin": 3411,
      "If": 3412,
      "Ġstrategic": 3413,
      "Ġheav": 3414,
      "oved": 3415,
      "Ġleaving": 3416,
      "Ġnegative": 3417,
      "Ġstrengthening": 3418,
      "Ġfoc": 3419,
      "ĠKherson": 3420,
      "Ġbar": 3421,
      "Ġexplosion": 3422,
      "Ġtarget": 3423,
      "Ġmodel": 3424,
      "ĠUz": 3425,
      "ador": 3426,
      "ternal": 3427,
      "Ġsupported": 3428,
      "Ġsend": 3429,
      "Ġmess": 3430,
      "Ġinjuries": 3431,
      "ĠIslam": 3432,
      "IS": 3433,
      "Ġattempt": 3434,
      "ĠEnglish": 3435,
      "irov": 3436,
      "ĠDire": 3437,
      "Ġengine": 3438,
      "Ġdiv": 3439,
      "Wagner": 3440,
      "Ġearthquake": 3441,
      "inder": 3442,
      "Ġhouses": 3443,
      "ipe": 3444,
      "ham": 3445,
      "Ġbreak": 3446,
      "chol": 3447,
      "acu": 3448,
      "ened": 3449,
      "Ġchampionship": 3450,
      "appe": 3451,
      "Ġcultural": 3452,
      "Ġmanner": 3453,
      "Ġhon": 3454,
      "ension": 3455,
      "Ġstandards": 3456,
      "Ġimpossible": 3457,
      "erson": 3458,
      "Ġwanted": 3459,
      "Ġpros": 3460,
      "gey": 3461,
      "Ġimprison": 3462,
      "Ġdestroyed": 3463,
      "Ġcaught": 3464,
      "Ġcash": 3465,
      "Ġprior": 3466,
      "Ġinstitution": 3467,
      "ĠAfric": 3468,
      "17": 3469,
      "ĠWhy": 3470,
      "aps": 3471,
      "Ġmen": 3472,
      "Ġsug": 3473,
      "Ġdamaged": 3474,
      "Ġadvance": 3475,
      "Ġlif": 3476,
      "eter": 3477,
      "Ġtalk": 3478,
      "aging": 3479,
      "ills": 3480,
      "ties": 3481,
      "Ġregistered": 3482,
      "ĠTrans": 3483,
      "Ç¦": 3484,
      "Ġauthority": 3485,
      "Ġcotton": 3486,
      "Ġdi": 3487,
      "Ġintended": 3488,
      "off": 3489,
      "oq": 3490,
      "Ġplaced": 3491,
      "Ġlegislation": 3492,
      "Ġrock": 3493,
      "Ġmom": 3494,
      "Ġsectors": 3495,
      "ĠUkrainians": 3496,
      "Ġmonitor": 3497,
      "Ġrun": 3498,
      "Ġdiscussion": 3499,
      "Ġrank": 3500,
      "Ġbrid": 3501,
      "Ġviolations": 3502,
      "Ġear": 3503,
      "Ġlawy": 3504,
      "Ġaccept": 3505,
      "Ġdaughter": 3506,
      "Ġopening": 3507,
      "ĠSome": 3508,
      "iff": 3509,
      "Ġended": 3510,
      "Ġproposals": 3511,
      "Ġobtained": 3512,
      "Ġhard": 3513,
      "Ġdeep": 3514,
      "Ġavailable": 3515,
      "gor": 3516,
      "Ġphys": 3517,
      "known": 3518,
      "Ġcoach": 3519,
      "Ġseries": 3520,
      "Ġjournalist": 3521,
      "chan": 3522,
      "ozhin": 3523,
      "Ġeffective": 3524,
      "anes": 3525,
      "Ġexerc": 3526,
      "ĠAnother": 3527,
      "Ġda": 3528,
      "Ġbrand": 3529,
      "ought": 3530,
      "Ġholding": 3531,
      "Ġgot": 3532,
      "ĠOlymp": 3533,
      "Ġguil": 3534,
      "Ġ500": 3535,
      "ef": 3536,
      "of": 3537,
      "Ġwants": 3538,
      "ze": 3539,
      "semb": 3540,
      "Ġgave": 3541,
      "Ġadvant": 3542,
      "ĠSergey": 3543,
      "Ġpunish": 3544,
      "ifying": 3545,
      "Ġconnect": 3546,
      "BC": 3547,
      "ĠUm": 3548,
      "Ġforecast": 3549,
      "itness": 3550,
      "ĠTV": 3551,
      "Ġ35": 3552,
      "Ġ300": 3553,
      "Ġsimilar": 3554,
      "ĠVolody": 3555,
      "Ġdelivery": 3556,
      "Ġprisoners": 3557,
      "ĠPrigozhin": 3558,
      "ĠInformation": 3559,
      "Ġvisited": 3560,
      "Ġroom": 3561,
      "On": 3562,
      "Ġmaster": 3563,
      "myr": 3564,
      "Ġlosses": 3565,
      "Ġappeal": 3566,
      "Ġprimarily": 3567,
      "ria": 3568,
      "ĠVolodymyr": 3569,
      "Ġtrying": 3570,
      "ĠJustice": 3571,
      "Ġdesp": 3572,
      "ĠHis": 3573,
      "ĠEconomic": 3574,
      "ĠPar": 3575,
      "Re": 3576,
      "Ġrespect": 3577,
      "Ġindicator": 3578,
      "Ġsubmitted": 3579,
      "Ġcorrespon": 3580,
      "ĠAust": 3581,
      "ĠPh": 3582,
      "40": 3583,
      "urod": 3584,
      "Ġlog": 3585,
      "Ġsupp": 3586,
      "Ġacademic": 3587,
      "Ġaw": 3588,
      "Ġinvolving": 3589,
      "Ġfeel": 3590,
      "Ġconnection": 3591,
      "Ġrecognized": 3592,
      "cluding": 3593,
      "Ġorganizing": 3594,
      "ender": 3595,
      "nes": 3596,
      "Ġstay": 3597,
      "igned": 3598,
      "Ġ90": 3599,
      "Ġoppon": 3600,
      "Ġbegun": 3601,
      "Ġexpenses": 3602,
      "Ġneeded": 3603,
      "Ġ197": 3604,
      "ĠStreet": 3605,
      "ĠQatar": 3606,
      "Ġtechnology": 3607,
      "Ġhectares": 3608,
      "oura": 3609,
      "Ġamounted": 3610,
      "Ġadvan": 3611,
      "Ġexports": 3612,
      "Ġquite": 3613,
      "Ġinvestigative": 3614,
      "Ġded": 3615,
      "Ġrelatives": 3616,
      "Ġcomes": 3617,
      "Ġremained": 3618,
      "ĠLater": 3619,
      "Ġshoot": 3620,
      "Ġappear": 3621,
      "ĠNor": 3622,
      "Ġthroughout": 3623,
      "Ġpackage": 3624,
      "Ġcouncil": 3625,
      "Ġfighting": 3626,
      "ĠApp": 3627,
      "Russi": 3628,
      "ĠCor": 3629,
      "obod": 3630,
      "Ġpassenger": 3631,
      "Ġcommit": 3632,
      "16": 3633,
      "Ġut": 3634,
      "Ġresponsibility": 3635,
      "Ġliber": 3636,
      "bassy": 3637,
      "Ġunable": 3638,
      "ĠAmerica": 3639,
      "Ġunivers": 3640,
      "PR": 3641,
      "Ġburn": 3642,
      "Uzbekistan": 3643,
      "Ġseparate": 3644,
      "Ġmechan": 3645,
      "pri": 3646,
      "omb": 3647,
      "Ġreserves": 3648,
      "Ġhope": 3649,
      "Ġreduced": 3650,
      "illery": 3651,
      "Ġtrust": 3652,
      "Ġprofessional": 3653,
      "Ġindependent": 3654,
      "Ġopposition": 3655,
      "Ġagricultural": 3656,
      "Ġfamilies": 3657,
      "head": 3658,
      "Ġsalary": 3659,
      "Ġletter": 3660,
      "Ġtreatment": 3661,
      "ĠPalestin": 3662,
      "sid": 3663,
      "Ġdelegation": 3664,
      "ĠConstitution": 3665,
      "ĠDirector": 3666,
      "Ġec": 3667,
      "Ġevacu": 3668,
      "Ġexpanding": 3669,
      "Ġanti": 3670,
      "Ġrevealed": 3671,
      "Ġcompens": 3672,
      "Ġstudying": 3673,
      "It": 3674,
      "Ġ2017": 3675,
      "Ġproposal": 3676,
      "Ġmulti": 3677,
      "Ġtemporarily": 3678,
      "uge": 3679,
      "ĠCons": 3680,
      "Ġresolution": 3681,
      "wh": 3682,
      "Ġface": 3683,
      "Ġraised": 3684,
      "Ġspecifically": 3685,
      "Ġill": 3686,
      "ĠÇ¦": 3687,
      "orezm": 3688,
      "Ġconcluded": 3689,
      "Ġstudies": 3690,
      "Ġcommittee": 3691,
      "Ġceremony": 3692,
      "Ġvers": 3693,
      "ĠMuh": 3694,
      "Ġmigrants": 3695,
      "Ġprotest": 3696,
      "Ġmoved": 3697,
      "Ġcy": 3698,
      "atri": 3699,
      "Ġmeetings": 3700,
      "Ġbranch": 3701,
      "Ġteacher": 3702,
      "ograph": 3703,
      "ĠCrimea": 3704,
      "istic": 3705,
      "Ġcontrib": 3706,
      "Ġfamous": 3707,
      "Ġcorrect": 3708,
      "Ġcontracts": 3709,
      "opol": 3710,
      "Ġweeks": 3711,
      "Ġartillery": 3712,
      "Ġcam": 3713,
      "13": 3714,
      "Ġnorth": 3715,
      "Ġvehicle": 3716,
      "ĠPM": 3717,
      "Ġwitness": 3718,
      "Ġpark": 3719,
      "Ġdece": 3720,
      "ĠStrip": 3721,
      "ĠChamber": 3722,
      "vers": 3723,
      "arsh": 3724,
      "Ġtype": 3725,
      "dom": 3726,
      "atur": 3727,
      "Ġpipe": 3728,
      "Ġapproach": 3729,
      "Ġawarded": 3730,
      "ĠHung": 3731,
      "Ġcontinued": 3732,
      "ĠTurkmen": 3733,
      "Ġbelonging": 3734,
      "Ġrubles": 3735,
      "Ġfre": 3736,
      "Ġwide": 3737,
      "ĠUs": 3738,
      "Ġfarmers": 3739,
      "Ġheart": 3740,
      "Ġentering": 3741,
      "munition": 3742,
      "ĠKhorezm": 3743,
      "CO": 3744,
      "Ġwal": 3745,
      "ych": 3746,
      "ĠPrev": 3747,
      "Ġsecret": 3748,
      "Ġimproving": 3749,
      "Ġdespite": 3750,
      "Ġpractical": 3751,
      "Ġdust": 3752,
      "Ġserve": 3753,
      "lebr": 3754,
      "Ġstatements": 3755,
      "Ġdangerous": 3756,
      "zil": 3757,
      "ĠChairman": 3758,
      "Ġcouldn": 3759,
      "Ġextreme": 3760,
      "hester": 3761,
      "ĠMonday": 3762,
      "Ġstudied": 3763,
      "orders": 3764,
      "icated": 3765,
      "Ġ80": 3766,
      "ĠParty": 3767,
      "ĠAlex": 3768,
      "ites": 3769,
      "Ġfle": 3770,
      "Ġresc": 3771,
      "Ġadvert": 3772,
      "Ġammunition": 3773,
      "Ġfig": 3774,
      "Ġinfluence": 3775,
      "uters": 3776,
      "aches": 3777,
      "ĠEmer": 3778,
      "Ġoutside": 3779,
      "ĠFinance": 3780,
      "time": 3781,
      "ammad": 3782,
      "anchester": 3783,
      "iro": 3784,
      "Ġclaim": 3785,
      "iding": 3786,
      "Ġexpensive": 3787,
      "Ġanaly": 3788,
      "Ġcontain": 3789,
      "Ġtrip": 3790,
      "Ġsecretary": 3791,
      "Ġviolence": 3792,
      "Ġwhose": 3793,
      "Ġcub": 3794,
      "ĠRom": 3795,
      "Ġstating": 3796,
      "ategy": 3797,
      "Ġclean": 3798,
      "inal": 3799,
      "Ġevidence": 3800,
      "ĠFriday": 3801,
      "Sh": 3802,
      "endments": 3803,
      "Ġsufficient": 3804,
      "Ġterm": 3805,
      "Ġcandidate": 3806,
      "Ġpain": 3807,
      "Ġgetting": 3808,
      "ores": 3809,
      "Ġwrites": 3810,
      "Ġspecific": 3811,
      "Ġfulf": 3812,
      "Ġinflation": 3813,
      "Ġheavy": 3814,
      "ya": 3815,
      "Ġbroad": 3816,
      "Ġcheck": 3817,
      "Ġcause": 3818,
      "Ġindependence": 3819,
      "itter": 3820,
      "Ġappeared": 3821,
      "Ġequipped": 3822,
      "Ġbecomes": 3823,
      "Ġreporter": 3824,
      "Ġemb": 3825,
      "Ġsearch": 3826,
      "ĠSuch": 3827,
      "Ġrailway": 3828,
      "Ġask": 3829,
      "Ġdaily": 3830,
      "Ġcelebr": 3831,
      "romet": 3832,
      "bassador": 3833,
      "eed": 3834,
      "alib": 3835,
      "Ġey": 3836,
      "Ġsche": 3837,
      "Ġdistance": 3838,
      "Ġmutual": 3839,
      "ĠMad": 3840,
      "Ġquarter": 3841,
      "Ġassets": 3842,
      "onav": 3843,
      "ocratic": 3844,
      "xond": 3845,
      "Ġsnow": 3846,
      "Ġadmitted": 3847,
      "orial": 3848,
      "Ġwife": 3849,
      "Ġscene": 3850,
      "Ġtre": 3851,
      "ĠSund": 3852,
      "Ġdoctors": 3853,
      "Ġappropri": 3854,
      "cifically": 3855,
      "Ġwaste": 3856,
      "ovich": 3857,
      "vent": 3858,
      "Ġpaying": 3859,
      "Ġpartnership": 3860,
      "ĠBr": 3861,
      "Ġfootballer": 3862,
      "Ġdraw": 3863,
      "ĠSurxond": 3864,
      "ĠComp": 3865,
      "cepted": 3866,
      "ditional": 3867,
      "Ġcertificate": 3868,
      "Ġclimate": 3869,
      "Ġinterested": 3870,
      "oses": 3871,
      "Ġsomething": 3872,
      "Ġreviewed": 3873,
      "onavirus": 3874,
      "ĠArmenia": 3875,
      "Ġexactly": 3876,
      "ĠCl": 3877,
      "band": 3878,
      "Ġactively": 3879,
      "ĠLeg": 3880,
      "Ġsite": 3881,
      "ructions": 3882,
      "mercial": 3883,
      "Ġmarkets": 3884,
      "ĠInter": 3885,
      "60": 3886,
      "ali": 3887,
      "Ġexisting": 3888,
      "Ġselling": 3889,
      "23": 3890,
      "ĠEast": 3891,
      "Ġflo": 3892,
      "ĠDonetsk": 3893,
      "elf": 3894,
      "ĠSurxondaryo": 3895,
      "Ġindividual": 3896,
      "Ġprecise": 3897,
      "Ġclar": 3898,
      "Ġconsumers": 3899,
      "ĠJizzakh": 3900,
      "den": 3901,
      "stances": 3902,
      "Ġsubsid": 3903,
      "rehen": 3904,
      "raud": 3905,
      "Ġtried": 3906,
      "ĠTues": 3907,
      "Ġinstead": 3908,
      "Ġdigital": 3909,
      "oj": 3910,
      "under": 3911,
      "keep": 3912,
      "ĠFinland": 3913,
      "Ġbill": 3914,
      "Ġlat": 3915,
      "Ġemployee": 3916,
      "Ġmainly": 3917,
      "oly": 3918,
      "ero": 3919,
      "Ġforum": 3920,
      "Ġteach": 3921,
      "gart": 3922,
      "Ġsil": 3923,
      "ĠEmergency": 3924,
      "ream": 3925,
      "Ġdisaster": 3926,
      "Ġstrict": 3927,
      "Ġshowing": 3928,
      "Ġcollected": 3929,
      "ĠSpecifically": 3930,
      "Ġmot": 3931,
      "Ġcubic": 3932,
      "Ġadvis": 3933,
      "Ġmoment": 3934,
      "bul": 3935,
      "ĠRed": 3936,
      "ĠTrade": 3937,
      "ĠSweden": 3938,
      "Ġcoronavirus": 3939,
      "aign": 3940,
      "ĠNet": 3941,
      "ights": 3942,
      "han": 3943,
      "Ġprohibited": 3944,
      "yo": 3945,
      "ander": 3946,
      "Ġpatients": 3947,
      "ĠTurkmenistan": 3948,
      "Ġindicated": 3949,
      "uan": 3950,
      "paper": 3951,
      "ĠRegarding": 3952,
      "Ġbenefic": 3953,
      "Ġbilateral": 3954,
      "Ġbetter": 3955,
      "Ġhappened": 3956,
      "zod": 3957,
      "Ġalliance": 3958,
      "Ġwarned": 3959,
      "Ġpositive": 3960,
      "Ãķz": 3961,
      "ĠDem": 3962,
      "Ġlower": 3963,
      "Ġsouth": 3964,
      "500": 3965,
      "Ġinnov": 3966,
      "Ġexamination": 3967,
      "ednes": 3968,
      "Ġdrivers": 3969,
      "Ġdead": 3970,
      "Ġexhib": 3971,
      "Ġdiplomatic": 3972,
      "ĠTuesday": 3973,
      "Ġdismiss": 3974,
      "Ġinclude": 3975,
      "Ġstruct": 3976,
      "lling": 3977,
      "lected": 3978,
      "Ġguilty": 3979,
      "Ġnorm": 3980,
      "Ġcovered": 3981,
      "Ġmatches": 3982,
      "Ġtopic": 3983,
      "acc": 3984,
      "Ġplanning": 3985,
      "Ġneighboring": 3986,
      "ira": 3987,
      "Ġengaged": 3988,
      "ĠChampions": 3989,
      "Ġthousands": 3990,
      "ĠTai": 3991,
      "Ġcong": 3992,
      "Ġrating": 3993,
      "Ġnewspaper": 3994,
      "Ġclos": 3995,
      "Ġresulting": 3996,
      "Ġsuper": 3997,
      "sembly": 3998,
      "ĠRepresent": 3999,
      "ĠSunday": 4000,
      "onov": 4001,
      "ĠWednes": 4002,
      "Ġtariff": 4003,
      "Ġcriticized": 4004,
      "Ġvolun": 4005,
      "Ġexercises": 4006,
      "Ġchannels": 4007,
      "Ġsatisf": 4008,
      "Ġillegally": 4009,
      "ground": 4010,
      "Ġsmart": 4011,
      "ĠMedical": 4012,
      "Ġdefeat": 4013,
      "rel": 4014,
      "ĠIndu": 4015,
      "Ġestablishing": 4016,
      "Ġbridge": 4017,
      "Ġcivilian": 4018,
      "Ġdiseases": 4019,
      "Ġones": 4020,
      "Ġconsumption": 4021,
      "Ġdoub": 4022,
      "lov": 4023,
      "ĠItaly": 4024,
      "ĠAc": 4025,
      "ĠDen": 4026,
      "Ġbloc": 4027,
      "Ġfriends": 4028,
      "AE": 4029,
      "Ġblock": 4030,
      "ĠInit": 4031,
      "fered": 4032,
      "Ġgrand": 4033,
      "Ġera": 4034,
      "Ġwest": 4035,
      "ulations": 4036,
      "Ġdoctor": 4037,
      "Ġamounting": 4038,
      "isc": 4039,
      "Ġunknown": 4040,
      "ĠOf": 4041,
      "Ġaccepted": 4042,
      "Ġcarrying": 4043,
      "Ġexams": 4044,
      "ĠIslamic": 4045,
      "Ġcommander": 4046,
      "Ġpan": 4047,
      "Ġrule": 4048,
      "ĠLast": 4049,
      "Ġbuses": 4050,
      "ĠBra": 4051,
      "ĠAbdu": 4052,
      "Ġfir": 4053,
      "Ġannual": 4054,
      "Ġidea": 4055,
      "Ġmobilization": 4056,
      "cks": 4057,
      "iber": 4058,
      "Ġgrain": 4059,
      "Ġrecently": 4060,
      "Ġdedicated": 4061,
      "ĠKing": 4062,
      "Ġplane": 4063,
      "ĠPreviously": 4064,
      "Ġreven": 4065,
      "ley": 4066,
      "Ġamounts": 4067,
      "Ġfriend": 4068,
      "ĠEl": 4069,
      "Ġchief": 4070,
      "Ġapply": 4071,
      "oriz": 4072,
      "anged": 4073,
      "Ġowners": 4074,
      "ĠKhark": 4075,
      "Ġmanufacture": 4076,
      "Ġimported": 4077,
      "ada": 4078,
      "Ġfine": 4079,
      "Ġkn": 4080,
      "arb": 4081,
      "Ġmetro": 4082,
      "ote": 4083,
      "35": 4084,
      "iency": 4085,
      "anging": 4086,
      "Ġlicense": 4087,
      "ĠGul": 4088,
      "au": 4089,
      "Ġcampaign": 4090,
      "ĠWednesday": 4091,
      "ilov": 4092,
      "vernment": 4093,
      "Ġdesignated": 4094,
      "Ġcommercial": 4095,
      "Ġuniversities": 4096,
      "ible": 4097,
      "Ġcategory": 4098,
      "?\"": 4099,
      "urance": 4100,
      "Ġpartly": 4101,
      "rec": 4102,
      "ĠVal": 4103,
      "ĠMusl": 4104,
      "rary": 4105,
      "rew": 4106,
      "pped": 4107,
      "Ġblood": 4108,
      "Ġdriving": 4109,
      "Ġnothing": 4110,
      "andemic": 4111,
      "Ġcharact": 4112,
      "Ġprivile": 4113,
      "Ġlimited": 4114,
      "ĠDav": 4115,
      "Ġusers": 4116,
      "Ġboy": 4117,
      "Ġcontact": 4118,
      "burg": 4119,
      "Ġbook": 4120,
      "ĠGeorgia": 4121,
      "yl": 4122,
      "ston": 4123,
      "Ġblog": 4124,
      "Ġinside": 4125,
      "lands": 4126,
      "Ġfactory": 4127,
      "ondon": 4128,
      "Ġescal": 4129,
      "Ġbal": 4130,
      "Ġprotests": 4131,
      "ĠGuard": 4132,
      "Ġsurve": 4133,
      "Ġreb": 4134,
      "indergart": 4135,
      "pro": 4136,
      "utions": 4137,
      "ĠSecond": 4138,
      "Ġsides": 4139,
      "ously": 4140,
      "Ġpunishment": 4141,
      "Ġplants": 4142,
      "Ġartific": 4143,
      "Ġthought": 4144,
      "Ġconsult": 4145,
      "Ġhands": 4146,
      "Ġbir": 4147,
      "Ġmach": 4148,
      "Ġtransition": 4149,
      "Ġadvantage": 4150,
      "Ġred": 4151,
      "ĠTwitter": 4152,
      "Ġwithdraw": 4153,
      "Ġcred": 4154,
      "Ġmax": 4155,
      "ĠLondon": 4156,
      "Ġassist": 4157,
      "Ġprovides": 4158,
      "tions": 4159,
      "Ġtick": 4160,
      "Ġexpect": 4161,
      "house": 4162,
      "oon": 4163,
      "Ġfans": 4164,
      "rian": 4165,
      "Ġupd": 4166,
      "ticles": 4167,
      "Ġfighters": 4168,
      "Ġinspection": 4169,
      "ĠRepublican": 4170,
      "Ġphase": 4171,
      "andon": 4172,
      "itical": 4173,
      "ĠUl": 4174,
      "Ch": 4175,
      "ĠNaz": 4176,
      "ĠThurs": 4177,
      "Ġath": 4178,
      "Ġequal": 4179,
      "ĠLat": 4180,
      "FA": 4181,
      "ĠTechn": 4182,
      "Ġdevice": 4183,
      "Ġkindergart": 4184,
      "Ġapplicants": 4185,
      "Ġlived": 4186,
      "Ġsection": 4187,
      "ĠProt": 4188,
      "Ġclubs": 4189,
      "ĠII": 4190,
      "ĠSpecial": 4191,
      "Ġnumbers": 4192,
      "ĠSoc": 4193,
      "ĠKam": 4194,
      "Ġowner": 4195,
      "Ġvideos": 4196,
      "Ġfilm": 4197,
      "Ġborders": 4198,
      "mal": 4199,
      "Ãµr": 4200,
      "ĠTaiw": 4201,
      "Ġweak": 4202,
      "ĠCong": 4203,
      "Ġfollows": 4204,
      "Ġdrug": 4205,
      "ols": 4206,
      "istries": 4207,
      "Ġdrink": 4208,
      "Ġelse": 4209,
      "Ġextremely": 4210,
      "Ġintention": 4211,
      "Ġtrial": 4212,
      "ullayev": 4213,
      "scale": 4214,
      "Ġdissatisf": 4215,
      "Wh": 4216,
      "spe": 4217,
      "ĠFund": 4218,
      "Ġpandemic": 4219,
      "ift": 4220,
      "Ġserved": 4221,
      "Ġminute": 4222,
      "Ġcorrespond": 4223,
      "Ġlatest": 4224,
      "ID": 4225,
      "Ġunit": 4226,
      "ĠJoe": 4227,
      "Ġbeneficial": 4228,
      "Ġenemy": 4229,
      "Ġhomel": 4230,
      "atov": 4231,
      "Ġexist": 4232,
      "Ġrelative": 4233,
      "14": 4234,
      "Ġoften": 4235,
      "ĠFar": 4236,
      "Ġairplane": 4237,
      "Ġspeak": 4238,
      "idov": 4239,
      "ula": 4240,
      "Ġobjects": 4241,
      "bo": 4242,
      "conomic": 4243,
      "Ġfocus": 4244,
      "alu": 4245,
      "ĠMac": 4246,
      "Ġ2014": 4247,
      "Ġmission": 4248,
      "aya": 4249,
      "ĠThursday": 4250,
      "Ġir": 4251,
      "Ġreject": 4252,
      "Ġministers": 4253,
      "Ġkind": 4254,
      "app": 4255,
      "ĠAk": 4256,
      "arting": 4257,
      "Ġconsc": 4258,
      "Ġgirls": 4259,
      "Ġoffered": 4260,
      "Ġaccel": 4261,
      "Ġenvis": 4262,
      "gypt": 4263,
      "Ġindicators": 4264,
      "Al": 4265,
      "Ġrecommend": 4266,
      "Ġurg": 4267,
      "Ġcustomers": 4268,
      "Ġculture": 4269,
      "Ġrise": 4270,
      "Ġdiscovered": 4271,
      "Ġadvanced": 4272,
      "Ġaud": 4273,
      "ese": 4274,
      "Ġabandon": 4275,
      "Ġspok": 4276,
      "Ġsquare": 4277,
      "dered": 4278,
      "Ġvac": 4279,
      "Ġcalling": 4280,
      "Ġexperi": 4281,
      "ĠWithin": 4282,
      "Ġban": 4283,
      "Ġrev": 4284,
      "Ġserving": 4285,
      "Ġappropriate": 4286,
      "ano": 4287,
      "ĠComm": 4288,
      "Ġinitially": 4289,
      "ĠAlthough": 4290,
      "ĠStat": 4291,
      "ĠSyria": 4292,
      "kiy": 4293,
      "owers": 4294,
      "Ġconstant": 4295,
      "Ġreaching": 4296,
      "Ġlimit": 4297,
      "Ġtable": 4298,
      "Ġstrategy": 4299,
      "Ġcontinuing": 4300,
      "rag": 4301,
      "ĠBo": 4302,
      "Ġtaxes": 4303,
      "Ġslight": 4304,
      "ĠMuhammad": 4305,
      "law": 4306,
      "usband": 4307,
      "Ġpoll": 4308,
      "ighter": 4309,
      "ĠNur": 4310,
      "Ġofficer": 4311,
      "Ġdirected": 4312,
      "Ġestim": 4313,
      "ĠBBC": 4314,
      "Ġoperate": 4315,
      "Ġanalys": 4316,
      "ĠKharkiv": 4317,
      "Ġjobs": 4318,
      "Ġexternal": 4319,
      "Ġple": 4320,
      "Ġnor": 4321,
      "ikh": 4322,
      "Ġmand": 4323,
      "ĠNe": 4324,
      "Ġaggression": 4325,
      "Ġreadiness": 4326,
      "Ġexplain": 4327,
      "ĠHere": 4328,
      "Ġsales": 4329,
      "ribed": 4330,
      "Ġdisease": 4331,
      "fortun": 4332,
      "Ġdist": 4333,
      "Ġpartner": 4334,
      "Ġarm": 4335,
      "Ġclust": 4336,
      "Ġcentury": 4337,
      "Ġspecialized": 4338,
      "Ġguests": 4339,
      "Ġfactors": 4340,
      "Ġcance": 4341,
      "Ġenterprise": 4342,
      "AR": 4343,
      "ari": 4344,
      "Ġbri": 4345,
      "ĠEgypt": 4346,
      "Ġdrone": 4347,
      "Ġbuild": 4348,
      "Ġnation": 4349,
      "umn": 4350,
      "Ġregulations": 4351,
      "Ġagriculture": 4352,
      "Ġ32": 4353,
      "ĠReuters": 4354,
      "gra": 4355,
      "Ġpurchased": 4356,
      "80": 4357,
      "PP": 4358,
      "Ġopponent": 4359,
      "zz": 4360,
      "Ġaccus": 4361,
      "99": 4362,
      "Ġhusband": 4363,
      "Ġapart": 4364,
      "Ġdiscl": 4365,
      "Ġbattle": 4366,
      "istration": 4367,
      "Ġorganize": 4368,
      "Ġheads": 4369,
      "Ġwid": 4370,
      "ĠTax": 4371,
      "Ġfee": 4372,
      "Ġphysical": 4373,
      "ĠMold": 4374,
      "Ġperman": 4375,
      "Ġlonger": 4376,
      "Ġwaiting": 4377,
      "Ġdate": 4378,
      "Ġheating": 4379,
      "ĠDmit": 4380,
      "Ġsuccessfully": 4381,
      "ĠParis": 4382,
      "ialog": 4383,
      "Ġallows": 4384,
      "Ġconsist": 4385,
      "Ġtell": 4386,
      "istant": 4387,
      "Ġremoved": 4388,
      "Ġduties": 4389,
      "Ġeld": 4390,
      "iya": 4391,
      "Ġ45": 4392,
      "Ġimports": 4393,
      "Ġmeaning": 4394,
      "Ġdiscussions": 4395,
      "irit": 4396,
      "sea": 4397,
      "ĠZap": 4398,
      "Ġdemanded": 4399,
      "neft": 4400,
      "orizh": 4401,
      "lection": 4402,
      "story": 4403,
      "ĠPak": 4404,
      "Ġelev": 4405,
      "Ġconstructed": 4406,
      "Ġdemands": 4407,
      "orizhzh": 4408,
      "Ãµj": 4409,
      "Ġbur": 4410,
      "Ġchem": 4411,
      "Ġconsidering": 4412,
      "Ġsust": 4413,
      "ĠYork": 4414,
      "Ġsubmit": 4415,
      "Ġships": 4416,
      "ĠMah": 4417,
      "ĠRegional": 4418,
      "Ġmountainous": 4419,
      "pts": 4420,
      "ĠChe": 4421,
      "ĠGreat": 4422,
      "ĠThus": 4423,
      "Ġsoms": 4424,
      "Ġseems": 4425,
      "Ġmaximum": 4426,
      "ĠCongress": 4427,
      "yan": 4428,
      "inary": 4429,
      "Ġability": 4430,
      "Ġleads": 4431,
      "Ġnature": 4432,
      "Ġpopular": 4433,
      "itable": 4434,
      "Ġhighly": 4435,
      "ĠZaporizhzh": 4436,
      "Ġseven": 4437,
      "athe": 4438,
      "vision": 4439,
      "Ġtermin": 4440,
      "Ġresolved": 4441,
      "helsea": 4442,
      "economic": 4443,
      "Ġpriority": 4444,
      "ape": 4445,
      "ĠAct": 4446,
      "ĠSird": 4447,
      "like": 4448,
      "Ġpictures": 4449,
      "elt": 4450,
      "Ġkey": 4451,
      "rol": 4452,
      "ĠIT": 4453,
      "Ġgiving": 4454,
      "Ġdepriv": 4455,
      "11": 4456,
      "pass": 4457,
      "erate": 4458,
      "ester": 4459,
      "Ġhyd": 4460,
      "omen": 4461,
      "Ġversion": 4462,
      "Ġrates": 4463,
      "ault": 4464,
      "Ġmonthly": 4465,
      "Ġpoor": 4466,
      "fers": 4467,
      "Ġallies": 4468,
      "Ġeasy": 4469,
      "Ġsending": 4470,
      "ĠWhite": 4471,
      "Ġ2016": 4472,
      "gets": 4473,
      "olute": 4474,
      "Ġroutes": 4475,
      "Ãµl": 4476,
      "27": 4477,
      "Ġsafe": 4478,
      "Ġassigned": 4479,
      "Ġtemporary": 4480,
      "orn": 4481,
      "Ġcompetitions": 4482,
      "aq": 4483,
      "Ġheard": 4484,
      "Ġcommon": 4485,
      "Ġhomes": 4486,
      "Ġentr": 4487,
      "Ġhistorical": 4488,
      "ager": 4489,
      "apt": 4490,
      "igation": 4491,
      "Ġgovernors": 4492,
      "Ġencoura": 4493,
      "Ġself": 4494,
      "ĠStarting": 4495,
      "Ġcharacter": 4496,
      "ounder": 4497,
      "hedul": 4498,
      "Ġschedul": 4499,
      "ĠSafety": 4500,
      "yle": 4501,
      "Ġshown": 4502,
      "Ġsuggest": 4503,
      "ĠDay": 4504,
      "ĠEc": 4505,
      "ĠDonbass": 4506,
      "Ġhappening": 4507,
      "Ġstructures": 4508,
      "Ġ36": 4509,
      "Ġsen": 4510,
      "Ġreserve": 4511,
      "Ġdollar": 4512,
      "Ġreturning": 4513,
      "Ġincreases": 4514,
      "Ġsuffered": 4515,
      "rehensive": 4516,
      "Ġcargo": 4517,
      "Ġnecessity": 4518,
      "ĠTwo": 4519,
      "ental": 4520,
      "gu": 4521,
      "Ġbat": 4522,
      "ĠPort": 4523,
      "Ġinformed": 4524,
      "atures": 4525,
      "ĠZaporizhzhia": 4526,
      "ijing": 4527,
      "Ġconvenient": 4528,
      "Ġclas": 4529,
      "Ġinvestments": 4530,
      "Ġcosts": 4531,
      "Ġasking": 4532,
      "standing": 4533,
      "Ġsem": 4534,
      "Ġestablishment": 4535,
      "lines": 4536,
      "uter": 4537,
      "ĠStud": 4538,
      "ĠTaiwan": 4539,
      "isher": 4540,
      "ented": 4541,
      "ĠHungary": 4542,
      "ĠUr": 4543,
      "Ġciting": 4544,
      "Ġmanufacturing": 4545,
      "mark": 4546,
      "Ġboard": 4547,
      "Ġtourists": 4548,
      "Ġtwice": 4549,
      "ĠRam": 4550,
      "ĠLuk": 4551,
      "Ġrelease": 4552,
      "Ġeastern": 4553,
      "ĠPakistan": 4554,
      "bank": 4555,
      "ĠKorean": 4556,
      "Ġaviation": 4557,
      "ĠAcad": 4558,
      "Ġartificial": 4559,
      "Ġnort": 4560,
      "Ġcircum": 4561,
      "Ġmonitoring": 4562,
      "ĠCol": 4563,
      "ivity": 4564,
      "ĠBeijing": 4565,
      "Ġconflicts": 4566,
      "ĠTer": 4567,
      "Ġdelivering": 4568,
      "Ġreli": 4569,
      "Ġliability": 4570,
      "orrow": 4571,
      "ĠSchool": 4572,
      "ĠHam": 4573,
      "Ġformal": 4574,
      "Ġbenefit": 4575,
      "Ġbad": 4576,
      "Ġlands": 4577,
      "Ġdro": 4578,
      "Ġsharp": 4579,
      "mar": 4580,
      "uth": 4581,
      "ĠInst": 4582,
      "Ġviolation": 4583,
      "aliban": 4584,
      "24": 4585,
      "Ġgradually": 4586,
      "tor": 4587,
      "odir": 4588,
      "Ġtransform": 4589,
      "Ġnumerous": 4590,
      "Ġdeploy": 4591,
      "Ġmistake": 4592,
      "ahmon": 4593,
      "Ġlawyer": 4594,
      "Ġutil": 4595,
      "Ġreducing": 4596,
      "Ġshortage": 4597,
      "Ġdetails": 4598,
      "Ġ196": 4599,
      "Ġelectr": 4600,
      "ĠSpain": 4601,
      "su": 4602,
      "Ġanim": 4603,
      "Ġwealth": 4604,
      "ialogue": 4605,
      "reg": 4606,
      "Ġprimary": 4607,
      "ĠIm": 4608,
      "Ġstability": 4609,
      "Ġdisappe": 4610,
      "Ġaspects": 4611,
      "Ġopinions": 4612,
      "ih": 4613,
      "ades": 4614,
      "Ġsea": 4615,
      "Ġanything": 4616,
      "ĠBrazil": 4617,
      "Ġinteresting": 4618,
      "where": 4619,
      "ĠTok": 4620,
      "Ġdelay": 4621,
      "Ġhonor": 4622,
      ".'": 4623,
      "come": 4624,
      "Ġhal": 4625,
      "ĠInitially": 4626,
      "oline": 4627,
      "Ġconsid": 4628,
      "Ġreligious": 4629,
      "Ġpersons": 4630,
      "uting": 4631,
      "Ġregister": 4632,
      "Ġsubst": 4633,
      "sels": 4634,
      "Ġinvolve": 4635,
      "ĠEr": 4636,
      "Ġimm": 4637,
      "ĠSal": 4638,
      "Ġvotes": 4639,
      "Ġpatient": 4640,
      "Ġgather": 4641,
      "ĠUntil": 4642,
      "Ġpassing": 4643,
      "Ġdefeated": 4644,
      "ĠAdministration": 4645,
      "uction": 4646,
      "ĠMan": 4647,
      "Ġcomposition": 4648,
      "Ġcapable": 4649,
      "Ġplaying": 4650,
      "Ġdistributed": 4651,
      "Ġsupposed": 4652,
      "Ġfrequ": 4653,
      "Ġpage": 4654,
      "Ġbomb": 4655,
      "itz": 4656,
      "Ġhar": 4657,
      "cle": 4658,
      "Ġalone": 4659,
      "Ġdepend": 4660,
      "Ġhomeland": 4661,
      "Ġtit": 4662,
      "Ġviews": 4663,
      "Ġbirth": 4664,
      "37": 4665,
      "sych": 4666,
      "wide": 4667,
      "Ġtrue": 4668,
      "Ġmur": 4669,
      "adium": 4670,
      "Ġdoesn": 4671,
      "Ġmeasure": 4672,
      "ĠAv": 4673,
      "ĠBak": 4674,
      "Ġconsisting": 4675,
      "Ġsolution": 4676,
      "Ġsharply": 4677,
      "fin": 4678,
      "eli": 4679,
      "istrict": 4680,
      "Ġ150": 4681,
      "ĠAssoc": 4682,
      "Ġturns": 4683,
      "Ġannex": 4684,
      "Ġterritorial": 4685,
      "Ġpolitician": 4686,
      "mine": 4687,
      "itu": 4688,
      "Ġstorms": 4689,
      "Ġcontrary": 4690,
      "Ġarch": 4691,
      "Ġentry": 4692,
      "Ġemployment": 4693,
      "ĠParliament": 4694,
      "Ġspring": 4695,
      "Ġaccess": 4696,
      "Ġlikely": 4697,
      "Ġfounder": 4698,
      "ĠSCO": 4699,
      "arters": 4700,
      "Ġimprisonment": 4701,
      "Ġabsolute": 4702,
      "Ġdesigned": 4703,
      "Ġdepartments": 4704,
      "Ġtalking": 4705,
      "Ġ34": 4706,
      "book": 4707,
      "ĠLet": 4708,
      "Ġdiscip": 4709,
      "manding": 4710,
      "ĠBal": 4711,
      "Ġtry": 4712,
      "Ġpedest": 4713,
      "ably": 4714,
      "Ġprepare": 4715,
      "ĠTem": 4716,
      "Ġconcept": 4717,
      "overty": 4718,
      "Ġcandidates": 4719,
      "rey": 4720,
      "ĠMot": 4721,
      "Ġsolve": 4722,
      "AT": 4723,
      "ularly": 4724,
      "Ġblack": 4725,
      "Ġpurposes": 4726,
      "Ġamendments": 4727,
      "Ġtact": 4728,
      "Ġcarri": 4729,
      "Ġ37": 4730,
      "Ġrocket": 4731,
      "'m": 4732,
      "Ġfraud": 4733,
      "Ġregular": 4734,
      "cer": 4735,
      "raq": 4736,
      "Ġvia": 4737,
      "Ġreporting": 4738,
      "Ġgasoline": 4739,
      "Ġsolar": 4740,
      "arcel": 4741,
      "Ġfal": 4742,
      "Ġpharm": 4743,
      "Ġsentence": 4744,
      "Ġfinancing": 4745,
      "Ġlittle": 4746,
      "Ġslightly": 4747,
      "Ġdemanding": 4748,
      "ĠRoad": 4749,
      "Ġdifference": 4750,
      "Ġbrief": 4751,
      "neftgaz": 4752,
      "Ġsout": 4753,
      "arcelona": 4754,
      "light": 4755,
      "ĠJoh": 4756,
      "Ġvisa": 4757,
      "Ġelectrical": 4758,
      "Ġannually": 4759,
      "bit": 4760,
      "ĠHuman": 4761,
      "Ġresidence": 4762,
      "ĠOnly": 4763,
      "Ġsuccessful": 4764,
      "Ġbattles": 4765,
      "Ġkg": 4766,
      "Ġrefer": 4767,
      "ems": 4768,
      "Ġspeaking": 4769,
      "Ġextended": 4770,
      "Ġformat": 4771,
      "Ġministries": 4772,
      "Ġtalked": 4773,
      "ĠJapanese": 4774,
      "kin": 4775,
      "ĠSan": 4776,
      "Ġexem": 4777,
      "ĠFog": 4778,
      "ola": 4779,
      "Ġdoing": 4780,
      "Ġwarning": 4781,
      "Ġpreparation": 4782,
      "Ġholiday": 4783,
      "Ġcaptured": 4784,
      "Ġclin": 4785,
      "Ġloan": 4786,
      "fortunately": 4787,
      "athered": 4788,
      "Ġfate": 4789,
      "ĠAh": 4790,
      "Ġattacked": 4791,
      "Ġgathered": 4792,
      "Ġcomprehensive": 4793,
      "Ġjoining": 4794,
      "Ġregistration": 4795,
      "Ġphotos": 4796,
      "Ġassociated": 4797,
      "ĠKingdom": 4798,
      "ĠPer": 4799,
      "Ġdenied": 4800,
      "Ġranks": 4801,
      "dum": 4802,
      "Ġcru": 4803,
      "Ġgard": 4804,
      "Ġstandard": 4805,
      "Ġcomplain": 4806,
      "Ġcalls": 4807,
      "Ġsuffering": 4808,
      "icro": 4809,
      "Ġgrat": 4810,
      "Ġskills": 4811,
      "Ġrepeated": 4812,
      "arent": 4813,
      "Ġlate": 4814,
      "chi": 4815,
      "Ġcontent": 4816,
      "Ġ33": 4817,
      "Ġflag": 4818,
      "ĠIndustry": 4819,
      "ĠSher": 4820,
      "ainted": 4821,
      "Ġdefin": 4822,
      "abakh": 4823,
      "Ġprize": 4824,
      "Ġhouseholds": 4825,
      "Ġnames": 4826,
      "Ġdetention": 4827,
      "Ġdescend": 4828,
      "Ġterrorist": 4829,
      "agon": 4830,
      "Ġrather": 4831,
      "iveness": 4832,
      "Ġscheduled": 4833,
      "Ġdoz": 4834,
      "ilan": 4835,
      "ĠBlack": 4836,
      "Ġregulation": 4837,
      "ĠYang": 4838,
      "There": 4839,
      "Ġclearly": 4840,
      "Ġmessage": 4841,
      "Ġsimply": 4842,
      "Ġobligations": 4843,
      "part": 4844,
      "Ġembassy": 4845,
      "Ġproduce": 4846,
      "Ġindicates": 4847,
      "yn": 4848,
      "Ġenvironmental": 4849,
      "uto": 4850,
      "Ġactually": 4851,
      "Ġtranspa": 4852,
      "ĠAnton": 4853,
      "fficiency": 4854,
      "St": 4855,
      "Ġpie": 4856,
      "Ġrange": 4857,
      "Ġoperational": 4858,
      "Ġactivists": 4859,
      "ĠWhile": 4860,
      "ĠCooperation": 4861,
      "icted": 4862,
      "Ġbroadcast": 4863,
      "ox": 4864,
      "Ġess": 4865,
      "rad": 4866,
      "epa": 4867,
      "ĠSitu": 4868,
      "anda": 4869,
      "ĠLegisl": 4870,
      "Ġmos": 4871,
      "ellect": 4872,
      "Ġsaw": 4873,
      "Ġsave": 4874,
      "Ġfear": 4875,
      "'.": 4876,
      "pool": 4877,
      "ĠIncluding": 4878,
      "Ġrefused": 4879,
      "Ġexhibition": 4880,
      "Ġprinciples": 4881,
      "Ġbit": 4882,
      "ulate": 4883,
      "Ġanyone": 4884,
      "ĠPolish": 4885,
      "Ġgranted": 4886,
      "gent": 4887,
      "ĠAfrica": 4888,
      "ĠAcademy": 4889,
      "Ġinstructions": 4890,
      "Ġexplan": 4891,
      "Ġfoundation": 4892,
      "ydromet": 4893,
      "ban": 4894,
      "Ġshop": 4895,
      "Ġmyself": 4896,
      "Ġcapabilities": 4897,
      "Ġahead": 4898,
      "Ġmiddle": 4899,
      "coming": 4900,
      "care": 4901,
      "ĠMiddle": 4902,
      "ĠThrough": 4903,
      "Ġarms": 4904,
      "Ġdialogue": 4905,
      "Ġinsurance": 4906,
      "Ġapplications": 4907,
      "ĠBen": 4908,
      "ĠTraffic": 4909,
      "Ġcorrid": 4910,
      "ferendum": 4911,
      "Ġacquainted": 4912,
      "ĠSerb": 4913,
      "Ġcoordin": 4914,
      "ĠNot": 4915,
      "28": 4916,
      "isms": 4917,
      "osing": 4918,
      "face": 4919,
      "Ġdated": 4920,
      "Ġheat": 4921,
      "ĠSatur": 4922,
      "ĠHead": 4923,
      "ĠIranian": 4924,
      "ĠNaval": 4925,
      "Ġscientists": 4926,
      "ĠMoldova": 4927,
      "Ġpermanent": 4928,
      "Ġpred": 4929,
      "Ġfru": 4930,
      "Ġbanned": 4931,
      "Ġtherefore": 4932,
      "Ġavo": 4933,
      "espread": 4934,
      "Ġreduction": 4935,
      "Ġcrossing": 4936,
      "Ġorders": 4937,
      "Ġsmartph": 4938,
      "Ġwatch": 4939,
      "Ġhy": 4940,
      "Ġdrinking": 4941,
      "Ġarticles": 4942,
      "Ġrequested": 4943,
      "Ġliter": 4944,
      "Ġtelevision": 4945,
      "Ġobtaining": 4946,
      "Ġfed": 4947,
      "Ġdefic": 4948,
      "ĠOd": 4949,
      "astic": 4950,
      "Ġthreats": 4951,
      "Ġneighborhoods": 4952,
      "iar": 4953,
      "anish": 4954,
      "ulov": 4955,
      "hips": 4956,
      "Ġconstruct": 4957,
      "Ġsubjects": 4958,
      "Ġtakes": 4959,
      "Ġrefuge": 4960,
      "Ġfair": 4961,
      "iyor": 4962,
      "Ġissu": 4963,
      "Ġbooks": 4964,
      "Ġshowed": 4965,
      "Ġsuspended": 4966,
      "Ġwidespread": 4967,
      "ovo": 4968,
      "Ġconfident": 4969,
      "Ġpurchasing": 4970,
      "ĠStatistics": 4971,
      "ĠMany": 4972,
      "Ġproceed": 4973,
      "Ġhero": 4974,
      "Real": 4975,
      "Ġfighter": 4976,
      "olished": 4977,
      "oration": 4978,
      "Ġfired": 4979,
      "ĠUzbeks": 4980,
      "Ġflood": 4981,
      "ĠOver": 4982,
      "Ġparticularly": 4983,
      "Ġallocate": 4984,
      "Ġzone": 4985,
      "ĠSol": 4986,
      "Ġexc": 4987,
      "rank": 4988,
      "Ġcards": 4989,
      "ĠTimes": 4990,
      "Ġloans": 4991,
      "ashkad": 4992,
      "Ġdismissed": 4993,
      "Ġcredit": 4994,
      "Ġdream": 4995,
      "ĠFoll": 4996,
      "Ġfourth": 4997,
      "Ġhundreds": 4998,
      "esterday": 4999,
      "ĠShe": 5000,
      "Ġaspect": 5001,
      "quarters": 5002,
      "ashkadarya": 5003,
      "ĠNik": 5004,
      "Ġgoes": 5005,
      "Ġpermission": 5006,
      "Ġbasic": 5007,
      "Ġbalance": 5008,
      "erly": 5009,
      "ildren": 5010,
      "Ġsecondary": 5011,
      "hess": 5012,
      "Uz": 5013,
      "Ġste": 5014,
      "ĠKashkadarya": 5015,
      "Ġtests": 5016,
      "Ġsuspected": 5017,
      "astern": 5018,
      "Ġfailed": 5019,
      "Ġcivilians": 5020,
      "Ġearlier": 5021,
      "Ġstadium": 5022,
      "Ġresponded": 5023,
      "Ġeyes": 5024,
      "underst": 5025,
      "ĠMal": 5026,
      "Ġmeat": 5027,
      "Ġspirit": 5028,
      "Ġfundament": 5029,
      "igher": 5030,
      "dule": 5031,
      "keeper": 5032,
      "Ġdozens": 5033,
      "Ġlines": 5034,
      "Ġcompatri": 5035,
      "enda": 5036,
      "ĠAssembly": 5037,
      "zor": 5038,
      "eds": 5039,
      "ĠYev": 5040,
      "Ġadmission": 5041,
      "Ġsurv": 5042,
      "Ġ[": 5043,
      "Ġaccom": 5044,
      "Ġairline": 5045,
      "iverpool": 5046,
      "Ġlocation": 5047,
      "drop": 5048,
      "Ġflow": 5049,
      "ius": 5050,
      "ĠDn": 5051,
      "ipov": 5052,
      "Ġemerged": 5053,
      "Ġexceeded": 5054,
      "stanbul": 5055,
      "Ġdeceased": 5056,
      "ON": 5057,
      "ashenko": 5058,
      "Ġeight": 5059,
      "ĠLegislative": 5060,
      "ux": 5061,
      "Ġalthough": 5062,
      "Ġschedule": 5063,
      "ĠSituations": 5064,
      "ym": 5065,
      "Ġwinning": 5066,
      "Ġgrowing": 5067,
      "Ġcompensation": 5068,
      "lectric": 5069,
      "Ġschol": 5070,
      "Ġcommented": 5071,
      "Ġexecution": 5072,
      "Ġmembership": 5073,
      "ĠHigher": 5074,
      "Ġscience": 5075,
      "Ġpowerful": 5076,
      "Ġrecommended": 5077,
      "Ġprecisely": 5078,
      "Ġarr": 5079,
      "Ġdesire": 5080,
      "Ġspecified": 5081,
      "Ġconfirm": 5082,
      "Ġrenew": 5083,
      "letes": 5084,
      "Ġverdict": 5085,
      "roz": 5086,
      "ancell": 5087,
      "Ġbackdrop": 5088,
      "Ġcareer": 5089,
      "Ġlay": 5090,
      "arshi": 5091,
      "Ġgratitude": 5092,
      "Ġ400": 5093,
      "ounded": 5094,
      "ĠRepresentatives": 5095,
      "Auto": 5096,
      "ĠBek": 5097,
      "Ġbranches": 5098,
      "Ġanalyst": 5099,
      "ĠRoman": 5100,
      "Ġpsych": 5101,
      "ĠRights": 5102,
      "Ġbeat": 5103,
      "expected": 5104,
      "bezz": 5105,
      "rugg": 5106,
      "ida": 5107,
      "Ġkept": 5108,
      "Ġpoison": 5109,
      "ext": 5110,
      "Ġprovision": 5111,
      "reign": 5112,
      "Ġsigns": 5113,
      "ĠArgent": 5114,
      "IC": 5115,
      "Ġgone": 5116,
      "Ġsurpr": 5117,
      "General": 5118,
      "room": 5119,
      "Ġambassador": 5120,
      "Ġspecialist": 5121,
      "Ġapartment": 5122,
      "Ġturning": 5123,
      "Ġvacc": 5124,
      "ĠKhan": 5125,
      "Ġsalaries": 5126,
      "boyev": 5127,
      "ĠIl": 5128,
      "ĠTransport": 5129,
      "45": 5130,
      "Ġfelt": 5131,
      "ĠShah": 5132,
      "ĠXi": 5133,
      "Ġprivileges": 5134,
      "tak": 5135,
      "Ġbought": 5136,
      "Ġbeaut": 5137,
      "Ġwinners": 5138,
      "prom": 5139,
      "ussels": 5140,
      "ĠPresidential": 5141,
      "Ġcondem": 5142,
      "Ġpension": 5143,
      "Ġstore": 5144,
      "Ġdetermine": 5145,
      "Ġassociation": 5146,
      "Ġairplanes": 5147,
      "ĠLukashenko": 5148,
      "ps": 5149,
      "Ġaer": 5150,
      "ĠHer": 5151,
      "Ġfaced": 5152,
      "ĠFollowing": 5153,
      "iminary": 5154,
      "Ġappeals": 5155,
      "Ġeasily": 5156,
      "ĠSaturday": 5157,
      "Ġdivid": 5158,
      "Ġreally": 5159,
      "ĠTour": 5160,
      "Ġagenda": 5161,
      "Ġmidfield": 5162,
      "Ġstrugg": 5163,
      "Ġwing": 5164,
      "ĠIraq": 5165,
      "Ġwel": 5166,
      "Ġaltern": 5167,
      "Ġportal": 5168,
      "Ġchoose": 5169,
      "Ġannouncement": 5170,
      "overeign": 5171,
      "Ġblowing": 5172,
      "Ġfallen": 5173,
      "atal": 5174,
      "ĠIstanbul": 5175,
      "Ġdispl": 5176,
      "pective": 5177,
      "Ġcharges": 5178,
      "bl": 5179,
      "Ġanc": 5180,
      "ico": 5181,
      "ĠCO": 5182,
      "ĠEarth": 5183,
      "Ġhousing": 5184,
      "ĠProtection": 5185,
      "ĠAssociation": 5186,
      "Ġhop": 5187,
      "Ġcop": 5188,
      "Ġbi": 5189,
      "Ġthunderst": 5190,
      "Ġprotecting": 5191,
      "ĠExper": 5192,
      "ĠBerlin": 5193,
      "ĠBrussels": 5194,
      "tepa": 5195,
      "Ġinvited": 5196,
      "Ġanalyz": 5197,
      "',": 5198,
      "Ġheadquarters": 5199,
      "Ġlooking": 5200,
      "itals": 5201,
      "Ġmill": 5202,
      "ĠPalestinian": 5203,
      "Ġefficiency": 5204,
      "Ġobst": 5205,
      "Ġfollow": 5206,
      "ĠNavalny": 5207,
      "cont": 5208,
      "Ġeditor": 5209,
      "Ġautumn": 5210,
      "Ġreflect": 5211,
      "Ukrain": 5212,
      "ĠPrem": 5213,
      "Ġtransfers": 5214,
      "Ġdegree": 5215,
      "Ġillness": 5216,
      "Ġanalysis": 5217,
      "ancellor": 5218,
      "Ġspend": 5219,
      "Ġsolutions": 5220,
      "Uzbekneftgaz": 5221,
      "Ġlink": 5222,
      "ĠAbdur": 5223,
      "Ġload": 5224,
      "ĠAgric": 5225,
      "itary": 5226,
      "omin": 5227,
      "Ġordered": 5228,
      "Ġhealthcare": 5229,
      "ĠFederal": 5230,
      "Ġsquad": 5231,
      "Ġadvisor": 5232,
      "rong": 5233,
      "alls": 5234,
      "Ġscen": 5235,
      "ukus": 5236,
      "Ġcongrat": 5237,
      "itch": 5238,
      "ĠBelarusian": 5239,
      "IM": 5240,
      "Ġstores": 5241,
      "uma": 5242,
      "SG": 5243,
      "Ġpropag": 5244,
      "Ġtargets": 5245,
      "He": 5246,
      "Ġult": 5247,
      "Ġstructure": 5248,
      "Ġbox": 5249,
      "Ġrelatively": 5250,
      "ris": 5251,
      "ĠEs": 5252,
      "ĠAlexander": 5253,
      "abet": 5254,
      "aceut": 5255,
      "Ġremote": 5256,
      "Tashkent": 5257,
      "Ġsovereign": 5258,
      "aceutical": 5259,
      "Ġduty": 5260,
      "oph": 5261,
      "Ġgoalkeeper": 5262,
      "ĠServices": 5263,
      "Ġathletes": 5264,
      "Ġintellect": 5265,
      "Ġminor": 5266,
      "Ġlearning": 5267,
      "ĠEngland": 5268,
      "olution": 5269,
      "iev": 5270,
      "Ġbelieves": 5271,
      "urodov": 5272,
      "Ġadvertising": 5273,
      "90": 5274,
      "Ġgeneration": 5275,
      "aves": 5276,
      "Ġdifficulties": 5277,
      "Ç§on": 5278,
      "Ġregularly": 5279,
      "Ġmethods": 5280,
      "Ġcomplic": 5281,
      "Ġprest": 5282,
      "Ġsubsc": 5283,
      "oom": 5284,
      "Ġacknow": 5285,
      "ĠAlisher": 5286,
      "ulla": 5287,
      "ott": 5288,
      "otten": 5289,
      "Ġintroduce": 5290,
      "ĠShar": 5291,
      "ĠTurkic": 5292,
      "Ġvote": 5293,
      "Ġphoto": 5294,
      "pre": 5295,
      "Ġi": 5296,
      "uration": 5297,
      "ĠInde": 5298,
      "Ġexcept": 5299,
      "eline": 5300,
      "Ġpermit": 5301,
      "Ġcourts": 5302,
      "Ġbegins": 5303,
      "utral": 5304,
      "earch": 5305,
      "Ġconfidence": 5306,
      "Ġfirm": 5307,
      "rist": 5308,
      "Ġfinding": 5309,
      "haps": 5310,
      "ĠMost": 5311,
      "ĠPes": 5312,
      "aur": 5313,
      "ĠWork": 5314,
      "ĠManchester": 5315,
      "ampion": 5316,
      "Ġprofession": 5317,
      "ĠCanada": 5318,
      "urt": 5319,
      "Ġpublications": 5320,
      "Ġstrength": 5321,
      "Ġfloor": 5322,
      "Ġspot": 5323,
      "Ġfacing": 5324,
      "government": 5325,
      "Ġpipeline": 5326,
      "Ġlogistics": 5327,
      "rans": 5328,
      "ilk": 5329,
      "ĠAut": 5330,
      "ĠBah": 5331,
      "Ġembezz": 5332,
      "Ġseriously": 5333,
      "Ġlosing": 5334,
      "Ġtruck": 5335,
      "Ġsubjected": 5336,
      "Ġpoliticians": 5337,
      "inov": 5338,
      "leep": 5339,
      "ams": 5340,
      "Ġunexpected": 5341,
      "Ġbenefits": 5342,
      "Ġcommitting": 5343,
      "Ġlose": 5344,
      "ĠRel": 5345,
      "Ġexperienced": 5346,
      "Ġintends": 5347,
      "Ġbringing": 5348,
      "ithuan": 5349,
      "Ġseized": 5350,
      "Ġ38": 5351,
      "Ġpresence": 5352,
      "ĠCont": 5353,
      "Ġtariffs": 5354,
      "Ġinvestors": 5355,
      "Ġjoined": 5356,
      "Ġaddressed": 5357,
      "Ġdistribution": 5358,
      "Ġsymb": 5359,
      "Ġestate": 5360,
      "Ġpilgr": 5361,
      "Ġlove": 5362,
      "ĠLaw": 5363,
      "Ġwheat": 5364,
      "Ġmandatory": 5365,
      "Ġhydro": 5366,
      "Ġfinance": 5367,
      "Ġdefender": 5368,
      "ĠQÃµ": 5369,
      "inter": 5370,
      "Ġlanguages": 5371,
      "Ġfalse": 5372,
      "ranking": 5373,
      "Ġaf": 5374,
      "ras": 5375,
      "2023": 5376,
      "Ġentrance": 5377,
      "racy": 5378,
      "Ġorig": 5379,
      "Ġtruth": 5380,
      "ĠOlympic": 5381,
      "herlands": 5382,
      "Ġunf": 5383,
      "ĠQu": 5384,
      "Ġopenly": 5385,
      "ani": 5386,
      "Ġdiagn": 5387,
      "Russia": 5388,
      "ĠThose": 5389,
      "ĠMotors": 5390,
      "rawn": 5391,
      "ĠMari": 5392,
      "Ġnewly": 5393,
      "Ġelected": 5394,
      "asures": 5395,
      "ressive": 5396,
      "ensions": 5397,
      "Ġhanded": 5398,
      "Ġmanufactured": 5399,
      "Ġguarantees": 5400,
      "ĠLabor": 5401,
      "licop": 5402,
      "Ġoffers": 5403,
      "fl": 5404,
      "eta": 5405,
      "ĠLithuan": 5406,
      "ĠConstruction": 5407,
      "ĠBlink": 5408,
      "Ġonto": 5409,
      "emen": 5410,
      "urov": 5411,
      "Ġ75": 5412,
      "Ġcalculations": 5413,
      "Ġhelicop": 5414,
      "iversary": 5415,
      "iment": 5416,
      "Ġgen": 5417,
      "Ġaccountable": 5418,
      "invest": 5419,
      "Ġlevels": 5420,
      "ĠMacron": 5421,
      "abb": 5422,
      "Ġdivision": 5423,
      "ĠBob": 5424,
      "Ġvalues": 5425,
      "ĠJam": 5426,
      "ĠTaliban": 5427,
      "oper": 5428,
      "Ġreliable": 5429,
      "Ġshows": 5430,
      "Ġprocessing": 5431,
      "Ġvictim": 5432,
      "Ġitems": 5433,
      "Ġwhom": 5434,
      "ĠArt": 5435,
      "Ġforest": 5436,
      "Ġblocked": 5437,
      "Ġriver": 5438,
      "Ġfactor": 5439,
      "Ġprel": 5440,
      "Ġreplac": 5441,
      "Ġprospects": 5442,
      "chen": 5443,
      "Ġordinary": 5444,
      "Ġshooting": 5445,
      "Ġteaching": 5446,
      "ota": 5447,
      "Ġrejected": 5448,
      "Ġthunderstorms": 5449,
      "ĠBlinken": 5450,
      "Ġword": 5451,
      "Ġengage": 5452,
      "Ġincreasingly": 5453,
      "Ġhotel": 5454,
      "eng": 5455,
      "ĠMark": 5456,
      "Ġconsists": 5457,
      "Ġrecognize": 5458,
      "Ġstanding": 5459,
      "ĠJin": 5460,
      "ĠPremier": 5461,
      "Ġfif": 5462,
      "ĠCIS": 5463,
      "Ġdiscount": 5464,
      "Ġextensive": 5465,
      "ĠTÃµ": 5466,
      "ĠTheir": 5467,
      "ĠBul": 5468,
      "ĠFace": 5469,
      "Ġ55": 5470,
      "ĠAustral": 5471,
      "ha": 5472,
      "Ġachieving": 5473,
      "nik": 5474,
      "Ġstarts": 5475,
      "Ġeffectively": 5476,
      "Ġsupplied": 5477,
      "Ãµjayev": 5478,
      "ĠPortug": 5479,
      "Ġtom": 5480,
      "Ġreferendum": 5481,
      "ĠAdministrative": 5482,
      "ĠSocial": 5483,
      "Ġcompatriots": 5484,
      "ĠNukus": 5485,
      "ĠMor": 5486,
      "hab": 5487,
      "Ġmedal": 5488,
      "Ġ2015": 5489,
      "Ġchemical": 5490,
      "Ġfest": 5491,
      "upol": 5492,
      "quality": 5493,
      "Ġmigration": 5494,
      "oes": 5495,
      "Ġflying": 5496,
      "arq": 5497,
      "Ġappoint": 5498,
      "Ġ195": 5499,
      "Ġsimple": 5500,
      "Ġfailure": 5501,
      "Ġpreliminary": 5502,
      "Un": 5503,
      "bod": 5504,
      "Ġfem": 5505,
      "ĠPent": 5506,
      "Ġneutral": 5507,
      "Ġ2000": 5508,
      "ĠItal": 5509,
      "ĠNetherlands": 5510,
      "Ġalternative": 5511,
      "Ġsupporters": 5512,
      "Ġlearn": 5513,
      "ĠYevgen": 5514,
      "Ġnorms": 5515,
      "ĠGoals": 5516,
      "Ġmicro": 5517,
      "agog": 5518,
      "Ġresign": 5519,
      "Ġformation": 5520,
      "Ġvoting": 5521,
      "Ġthinking": 5522,
      "ĠPentagon": 5523,
      "ĠSchol": 5524,
      "Ġstable": 5525,
      "Ġraw": 5526,
      "Ġrequires": 5527,
      "Ġjustice": 5528,
      "che": 5529,
      "ses": 5530,
      "Ġweight": 5531,
      "Ġbelow": 5532,
      "Ġbodily": 5533,
      "Ġentrepreneurship": 5534,
      "ĠMadrid": 5535,
      "Ġshares": 5536,
      "Ġfilled": 5537,
      "ĠSever": 5538,
      "Ġsupports": 5539,
      "Ġslow": 5540,
      "Ġacquaint": 5541,
      "ÃµrÇ§on": 5542,
      "oles": 5543,
      "Ġseek": 5544,
      "Ġfigure": 5545,
      "ouses": 5546,
      "Ġappearance": 5547,
      "Ġweapon": 5548,
      "icial": 5549,
      "iring": 5550,
      "ĠPeters": 5551,
      "Ġupdated": 5552,
      "Ġwrong": 5553,
      "Ġeve": 5554,
      "Ġeth": 5555,
      "ĠJournal": 5556,
      "cessive": 5557,
      "Ġprofit": 5558,
      "Ġbarri": 5559,
      "Ġtomorrow": 5560,
      "Ġanniversary": 5561,
      "Ġconnected": 5562,
      "ĠPark": 5563,
      "Ġshell": 5564,
      "gery": 5565,
      "rah": 5566,
      "Ġtargeted": 5567,
      "ĠLatv": 5568,
      "ĠWell": 5569,
      "Ġhealthy": 5570,
      "skiy": 5571,
      "Ġeliminate": 5572,
      "ries": 5573,
      "ana": 5574,
      "Ġindeed": 5575,
      "Ġhappy": 5576,
      "Ġcharge": 5577,
      "Ġportion": 5578,
      "Ġattracting": 5579,
      "ĠUzAuto": 5580,
      "utive": 5581,
      "ĠZelenskiy": 5582,
      "uran": 5583,
      "ĠInt": 5584,
      "Ġoption": 5585,
      "Ġpromising": 5586,
      "Ġconsiders": 5587,
      "ĠMariupol": 5588,
      "Ġfast": 5589,
      "Ġinitiatives": 5590,
      "Ġdestruction": 5591,
      "ĠPMC": 5592,
      "oir": 5593,
      "ĠGener": 5594,
      "ĠStaff": 5595,
      "Ġattempts": 5596,
      "Ġaccidents": 5597,
      "Ġdescribed": 5598,
      "Ġmedicine": 5599,
      "mosp": 5600,
      "Ġpowers": 5601,
      "ario": 5602,
      "Ġworldwide": 5603,
      "Ġavoid": 5604,
      "Ġer": 5605,
      "oul": 5606,
      "Ġwhole": 5607,
      "Ġprivat": 5608,
      "Ġmarried": 5609,
      "GB": 5610,
      "Ġchampion": 5611,
      "ĠGl": 5612,
      "Ġwinner": 5613,
      "Ġreality": 5614,
      "ĠRF": 5615,
      "iful": 5616,
      "Ġdisabilities": 5617,
      "Ġproducing": 5618,
      "Ġemphasizes": 5619,
      "Ġresolve": 5620,
      "ining": 5621,
      "orov": 5622,
      "Ġconsecut": 5623,
      "Ġdeaths": 5624,
      "39": 5625,
      "Ġgain": 5626,
      "Ġsupplying": 5627,
      "ashed": 5628,
      "Ġmis": 5629,
      "idency": 5630,
      "odirov": 5631,
      "Ġgeopol": 5632,
      "what": 5633,
      "ba": 5634,
      "zech": 5635,
      "Ġprob": 5636,
      "Ġranking": 5637,
      "Ġsun": 5638,
      "Ġsense": 5639,
      "ĠMi": 5640,
      "Ġpreserv": 5641,
      "Ġlisted": 5642,
      "ĠAziz": 5643,
      "ĠIS": 5644,
      "ĠNations": 5645,
      "Ġresulted": 5646,
      "Ġpresentation": 5647,
      "Ġsolid": 5648,
      "DP": 5649,
      "mak": 5650,
      "Ġagents": 5651,
      "Ġcollection": 5652,
      "atically": 5653,
      "Ġbab": 5654,
      "ĠEconomy": 5655,
      "Ġdefenders": 5656,
      "ĠPetersburg": 5657,
      "oice": 5658,
      "employ": 5659,
      "ksand": 5660,
      "Ġwonder": 5661,
      "Ġsubsidies": 5662,
      "ĠSev": 5663,
      "ĠMilitary": 5664,
      "Ġcritical": 5665,
      "ole": 5666,
      "Ġmas": 5667,
      "atell": 5668,
      "ĠTourism": 5669,
      "Ġtree": 5670,
      "ros": 5671,
      "ĠKir": 5672,
      "Ġdisrup": 5673,
      "Ġfalling": 5674,
      "urban": 5675,
      "governmental": 5676,
      "kent": 5677,
      "val": 5678,
      "Ġmakes": 5679,
      "Ġstor": 5680,
      "Ġdemonstrated": 5681,
      "lav": 5682,
      "Ġfrequently": 5683,
      "Ġscholars": 5684,
      "ili": 5685,
      "ĠRon": 5686,
      "cently": 5687,
      "Ġbroke": 5688,
      "Ġreading": 5689,
      "met": 5690,
      "Ġauction": 5691,
      "Ġmemor": 5692,
      "200": 5693,
      "ĠSim": 5694,
      "Ġchain": 5695,
      "Ġsupplies": 5696,
      "xon": 5697,
      "chiq": 5698,
      "Ġelderly": 5699,
      "Ġfemale": 5700,
      "Ġtank": 5701,
      "Ġsound": 5702,
      "ĠMaj": 5703,
      "Ġmistakes": 5704,
      "Ġfulfill": 5705,
      "Ġraising": 5706,
      "Ġurgent": 5707,
      "Ġdeprived": 5708,
      "Ġpoverty": 5709,
      "riy": 5710,
      "Ġspouse": 5711,
      "Ġcategories": 5712,
      "ĠYun": 5713,
      "Ġrestored": 5714,
      "ĠTosh": 5715,
      "ĠWho": 5716,
      "Ġconsecutive": 5717,
      "ivka": 5718,
      "Ġperformed": 5719,
      "Ġconclusions": 5720,
      "21": 5721,
      "33": 5722,
      "Ġatmosp": 5723,
      "Ġoccurring": 5724,
      "Ġforming": 5725,
      "ĠMuslim": 5726,
      "more": 5727,
      "Ġtren": 5728,
      "ĠJinping": 5729,
      "ĠFacebook": 5730,
      "ĠPress": 5731,
      "Ġpersonally": 5732,
      "Ġdemocratic": 5733,
      "Ġveget": 5734,
      "26": 5735,
      "Ġsens": 5736,
      "ilon": 5737,
      "ids": 5738,
      "Ġoperator": 5739,
      "ĠResearch": 5740,
      "TE": 5741,
      "ĠÃķ": 5742,
      "Ġsignificance": 5743,
      "water": 5744,
      "Ġevalu": 5745,
      "Ġnorthern": 5746,
      "ĠDistrict": 5747,
      "Ġfinished": 5748,
      "ĠAndrey": 5749,
      "ino": 5750,
      "ĠCzech": 5751,
      "ifications": 5752,
      "Ġminimum": 5753,
      "Ġmodels": 5754,
      "Ġviolating": 5755,
      "Ġcauses": 5756,
      "Ġpreventing": 5757,
      "Ġaffected": 5758,
      "la": 5759,
      "uds": 5760,
      "Ġ44": 5761,
      "Ġhospitals": 5762,
      "ription": 5763,
      "Ġsouthern": 5764,
      "Ġposs": 5765,
      "Ġrecords": 5766,
      "ĠSerg": 5767,
      "gorod": 5768,
      "Ġcamera": 5769,
      "Ġwriting": 5770,
      "Ġexpanded": 5771,
      "Ġconcerns": 5772,
      "racted": 5773,
      "Ġexcessive": 5774,
      "Ġcrew": 5775,
      "ĠOfficial": 5776,
      "Ġincidents": 5777,
      "Ġmanufacturers": 5778,
      "Ġtraditional": 5779,
      "Ġcovering": 5780,
      "oomberg": 5781,
      "Ġgre": 5782,
      "Ġkindergarten": 5783,
      "Ġways": 5784,
      "Ġ194": 5785,
      "Ġreminded": 5786,
      "sp": 5787,
      "Ġjets": 5788,
      "ĠEnt": 5789,
      "ĠBay": 5790,
      "ube": 5791,
      "itiz": 5792,
      "ĠBloomberg": 5793,
      "ĠScient": 5794,
      "ĠKGB": 5795,
      "Ġconstitutional": 5796,
      "ĠBus": 5797,
      "Ġsigning": 5798,
      "Ġviolated": 5799,
      "Ġsatell": 5800,
      "illa": 5801,
      "ĠChancellor": 5802,
      "Ġaccounts": 5803,
      "Ġreplace": 5804,
      "raid": 5805,
      "agram": 5806,
      "Ġincor": 5807,
      "Ġinjury": 5808,
      "Ġarmored": 5809,
      "Ġinstance": 5810,
      "Ġsubstances": 5811,
      "ĠPeskov": 5812,
      "des": 5813,
      "Ġ48": 5814,
      "Ġsole": 5815,
      ");": 5816,
      "Az": 5817,
      "just": 5818,
      "eria": 5819,
      "Ġinqu": 5820,
      "Ġder": 5821,
      "They": 5822,
      "ivalent": 5823,
      "vention": 5824,
      "Ġconstitution": 5825,
      "Ġhosts": 5826,
      "Ġfunction": 5827,
      "Ġstorage": 5828,
      "Ġclaims": 5829,
      "Ġrescue": 5830,
      "Ġestimated": 5831,
      "Ġshopping": 5832,
      "Ġtort": 5833,
      "Ġcanal": 5834,
      "Ġinstitute": 5835,
      "Ġsurface": 5836,
      "Ġsteps": 5837,
      "ded": 5838,
      "osen": 5839,
      "itzer": 5840,
      "level": 5841,
      "Ġscale": 5842,
      "Ġattacking": 5843,
      "esperson": 5844,
      "Ġcalculation": 5845,
      "arations": 5846,
      "ĠEastern": 5847,
      "Ġru": 5848,
      "uck": 5849,
      "Ġvolunte": 5850,
      "Ġdissatisfaction": 5851,
      "ĠEspecially": 5852,
      "Ġstory": 5853,
      "ĠDil": 5854,
      "ĠKom": 5855,
      "Ġintegrity": 5856,
      "itect": 5857,
      "right": 5858,
      "Ġware": 5859,
      "ĠAlong": 5860,
      "Ġgrade": 5861,
      "Ġmine": 5862,
      "Ġisland": 5863,
      "Ġ2025": 5864,
      "Ġspending": 5865,
      "Ġemphasizing": 5866,
      "Ġtalks": 5867,
      "Ġideas": 5868,
      "Ġsuspic": 5869,
      "Ġburned": 5870,
      "ĠBoard": 5871,
      "38": 5872,
      "inations": 5873,
      "Ġsomewhat": 5874,
      "ĠRecently": 5875,
      "ĠAmericans": 5876,
      "Ġattempting": 5877,
      "Russian": 5878,
      "nic": 5879,
      "Ġsecured": 5880,
      "Ġdrugs": 5881,
      "ken": 5882,
      "Ġefficient": 5883,
      "Ġsites": 5884,
      "Ġtrading": 5885,
      "Ġposted": 5886,
      "Ġstatistics": 5887,
      "Ġprinciple": 5888,
      "Ġirrig": 5889,
      "ĠTokayev": 5890,
      "Ġafraid": 5891,
      "Ġurban": 5892,
      "Ġherit": 5893,
      "Ġneither": 5894,
      "Ġplots": 5895,
      "unications": 5896,
      "Ġlaunching": 5897,
      "Ġheritage": 5898,
      "essi": 5899,
      "Ġmus": 5900,
      "Ġcoin": 5901,
      "ĠPa": 5902,
      "ĠMusk": 5903,
      "VID": 5904,
      "ables": 5905,
      "ĠYes": 5906,
      "ĠSpanish": 5907,
      "Ġcertificates": 5908,
      "Ġcoalition": 5909,
      "Ġunderstanding": 5910,
      "ĠYak": 5911,
      "Ġturnover": 5912,
      "Ġcolony": 5913,
      "idden": 5914,
      "ancial": 5915,
      "second": 5916,
      "Ġintend": 5917,
      "Ġsaved": 5918,
      "Ad": 5919,
      "ler": 5920,
      "ocracy": 5921,
      "Ġacting": 5922,
      "Ġoverall": 5923,
      "Ġvillages": 5924,
      "ĠEcology": 5925,
      "bon": 5926,
      "Ġhum": 5927,
      "Ġincom": 5928,
      "Ġextent": 5929,
      "ĠItalian": 5930,
      "ĠScholz": 5931,
      "point": 5932,
      "Ġallowing": 5933,
      "Ġassistant": 5934,
      "Ġguard": 5935,
      "Ġattempted": 5936,
      "Ġhospitalized": 5937,
      "Ġguarantee": 5938,
      "Ġabsolutely": 5939,
      "Ġbeautiful": 5940,
      "Ġep": 5941,
      "Ġinvolvement": 5942,
      "unding": 5943,
      "Ġimproved": 5944,
      "Ġmurder": 5945,
      "Ġcrop": 5946,
      "Ġ1000": 5947,
      "Ġ47": 5948,
      "Ġrecru": 5949,
      "Ġexplosions": 5950,
      "Ġcorrespondent": 5951,
      "ĠFl": 5952,
      "Ġ2030": 5953,
      "Ġtransit": 5954,
      "ologist": 5955,
      "Ġmidfielder": 5956,
      "29": 5957,
      "Ġscope": 5958,
      "Ġtransferring": 5959,
      "Ġcluster": 5960,
      "ĠStr": 5961,
      "Ġtrains": 5962,
      "Ġprestigious": 5963,
      "For": 5964,
      "esh": 5965,
      "actions": 5966,
      "Ġgeopolitical": 5967,
      "iant": 5968,
      "ĠMun": 5969,
      "sky": 5970,
      "rown": 5971,
      "abil": 5972,
      "Ġpassport": 5973,
      "Ġequivalent": 5974,
      "Ġwidely": 5975,
      "Ġspokesperson": 5976,
      "Dun": 5977,
      "asc": 5978,
      "tery": 5979,
      "Ġperspective": 5980,
      "rete": 5981,
      "enary": 5982,
      "Ġcou": 5983,
      "ĠSlov": 5984,
      "aka": 5985,
      "ĠWill": 5986,
      "Ġcomply": 5987,
      "Ġinters": 5988,
      "Ġ600": 5989,
      "ĠSirdaryo": 5990,
      "Ġannounce": 5991,
      "ĠPalestine": 5992,
      "Ġrecommendations": 5993,
      "ora": 5994,
      "Ġmaintaining": 5995,
      "ĠGenerally": 5996,
      "IA": 5997,
      "ĠChampionship": 5998,
      "Ġserves": 5999,
      "Ġdeterior": 6000,
      "Ġconsumer": 6001,
      "jonov": 6002,
      "wise": 6003,
      "Ġ120": 6004,
      "Ġattitude": 6005,
      "Ġgross": 6006,
      "Ġcorpor": 6007,
      "Ġcease": 6008,
      "Ġapartments": 6009,
      "Ġmillions": 6010,
      "ĠRonald": 6011,
      "Ġthor": 6012,
      "Ġpreventive": 6013,
      "Ġnormal": 6014,
      "ĠChelsea": 6015,
      "Ġrefus": 6016,
      "ĠPolice": 6017,
      "useum": 6018,
      "ĠPalestinians": 6019,
      "ĠKos": 6020,
      "Ġ39": 6021,
      "tenberg": 6022,
      "Ġexported": 6023,
      "Ġcorridor": 6024,
      "ĠCustom": 6025,
      "van": 6026,
      "Ġrich": 6027,
      "attack": 6028,
      "Ġcertainly": 6029,
      "Ġseeing": 6030,
      "Ġparliamentary": 6031,
      "Ġpharmaceutical": 6032,
      "va": 6033,
      "Ġcomfort": 6034,
      "ĠOther": 6035,
      "Ġprovince": 6036,
      "sibilities": 6037,
      "Ġclasses": 6038,
      "she": 6039,
      "ĠUnder": 6040,
      "Ġupcoming": 6041,
      "Ġrisks": 6042,
      "Ġcompon": 6043,
      "ĠGames": 6044,
      "allen": 6045,
      "Ġacknowled": 6046,
      "Ġaro": 6047,
      "Ġmagn": 6048,
      "unction": 6049,
      "ansion": 6050,
      "Ġdefinite": 6051,
      "Ġsoft": 6052,
      "Ġaerial": 6053,
      "oliddin": 6054,
      "Ġchair": 6055,
      "Ġgovernments": 6056,
      "ressed": 6057,
      "Ġpolitics": 6058,
      "Ġunlike": 6059,
      "ĠWomen": 6060,
      "Ġimag": 6061,
      "Ġque": 6062,
      "Ġdetailed": 6063,
      "Ġaware": 6064,
      "ĠStol": 6065,
      "ĠVik": 6066,
      "Ġmechanisms": 6067,
      "ĠAF": 6068,
      "Ġkilling": 6069,
      "Ġtechnological": 6070,
      "ĠManagement": 6071,
      "Ġfly": 6072,
      "Ġinspect": 6073,
      "Ġcomplaints": 6074,
      "Ġdivided": 6075,
      "houses": 6076,
      "Ġbon": 6077,
      "ifts": 6078,
      "Ġ65": 6079,
      "Ġsett": 6080,
      "Ġzero": 6081,
      "Ġprosper": 6082,
      "Ġmer": 6083,
      "ĠCE": 6084,
      "ĠCulture": 6085,
      "Ġcourses": 6086,
      "Ġpaper": 6087,
      "Ġchoice": 6088,
      "Dunyo": 6089,
      "ĠStoltenberg": 6090,
      "ĠSard": 6091,
      "ayy": 6092,
      "Ġcreative": 6093,
      "Ġfacility": 6094,
      "ĠEmploy": 6095,
      "Ġterrorism": 6096,
      "Ġmechanism": 6097,
      "Ġfriendly": 6098,
      "Ġsustain": 6099,
      "70": 6100,
      "gar": 6101,
      "lis": 6102,
      "ĠLi": 6103,
      "Ġdecis": 6104,
      "Ġremember": 6105,
      ",Â«": 6106,
      "ĠPay": 6107,
      "ĠHigh": 6108,
      "Ġcreation": 6109,
      "ĠBeeline": 6110,
      "uhansk": 6111,
      "igration": 6112,
      "Ġthoughts": 6113,
      "Ġconstantly": 6114,
      "arently": 6115,
      "Ġmosque": 6116,
      "ĠYunus": 6117,
      "ivest": 6118,
      "Ġplastic": 6119,
      "Ġrestore": 6120,
      "Ġqualified": 6121,
      "Ġnine": 6122,
      "Ġjudge": 6123,
      "Ġrefugees": 6124,
      "ivestock": 6125,
      "sun": 6126,
      "Ġmuseum": 6127,
      "imb": 6128,
      "ĠInte": 6129,
      "Ġcool": 6130,
      "Ġnamely": 6131,
      "ĠDmitry": 6132,
      "ilonzor": 6133,
      "Ġhor": 6134,
      "ĠRespon": 6135,
      "Ġreconstruction": 6136,
      "Ġcamer": 6137,
      "Ġrevenues": 6138,
      "ĠJÃµ": 6139,
      "Ġowned": 6140,
      "Ġindicate": 6141,
      "At": 6142,
      "uit": 6143,
      "Ġstages": 6144,
      "ĠNov": 6145,
      "anges": 6146,
      "Ġoffices": 6147,
      "ĠBelg": 6148,
      "Ġsimpl": 6149,
      "Ġtickets": 6150,
      "Ġanimals": 6151,
      "itizens": 6152,
      "Is": 6153,
      "load": 6154,
      "Ġhun": 6155,
      "ĠMessi": 6156,
      "Ġmalf": 6157,
      "ĠKur": 6158,
      "ĠYear": 6159,
      "Ġ78": 6160,
      "Ġauth": 6161,
      "ommod": 6162,
      "Ġcircumstances": 6163,
      "Ġfake": 6164,
      "Ġforg": 6165,
      "Ġengineering": 6166,
      "Ġcanceled": 6167,
      "itzerland": 6168,
      "mud": 6169,
      "edly": 6170,
      "Ġpresidency": 6171,
      "ĠUnfortunately": 6172,
      "Ġsky": 6173,
      "ĠKok": 6174,
      "Ġourselves": 6175,
      "Ġcitizenship": 6176,
      "ĠAfrican": 6177,
      "Ġenvisaged": 6178,
      "Ġthorough": 6179,
      "bar": 6180,
      "Ġcra": 6181,
      "Ġchess": 6182,
      "Ġbuying": 6183,
      "Inter": 6184,
      "ĠAirways": 6185,
      "Ġsleep": 6186,
      "ĠOta": 6187,
      "udden": 6188,
      "Ġmultip": 6189,
      "Ġjudicial": 6190,
      "998": 6191,
      "Ġdropped": 6192,
      "Ġwish": 6193,
      "ormit": 6194,
      "Ġgarden": 6195,
      "Ġdisplay": 6196,
      "ureau": 6197,
      "Ġfined": 6198,
      "Ġcapture": 6199,
      "Ġsitting": 6200,
      "gn": 6201,
      "Ġsize": 6202,
      "asant": 6203,
      "Ġmotor": 6204,
      "ĠCOVID": 6205,
      "ishes": 6206,
      "Ġarise": 6207,
      "Ġfarmer": 6208,
      "Ġrat": 6209,
      "Ġscreen": 6210,
      "Ġecological": 6211,
      "Ġsymbol": 6212,
      "hny": 6213,
      "int": 6214,
      "ĠSm": 6215,
      "Ġunderground": 6216,
      "auc": 6217,
      "Ġdoor": 6218,
      "Ġinsult": 6219,
      "exia": 6220,
      "eorological": 6221,
      "Ġfarming": 6222,
      "Ġlegislative": 6223,
      "Ġreservoir": 6224,
      "rounding": 6225,
      "ĠDuma": 6226,
      "ĠLav": 6227,
      "ĠIts": 6228,
      "ĠAnti": 6229,
      "Ġhelped": 6230,
      "ema": 6231,
      "Ġexpense": 6232,
      "Ġclosely": 6233,
      "ingly": 6234,
      "ĠSu": 6235,
      "ĠEston": 6236,
      "ĠJose": 6237,
      "ĠJah": 6238,
      "merce": 6239,
      "Ġcrashed": 6240,
      "Ġrequirement": 6241,
      "Ġintensified": 6242,
      "ĠLuhansk": 6243,
      "ples": 6244,
      "Ġwouldn": 6245,
      "Ġsurrounding": 6246,
      "Ġcharged": 6247,
      "Ġapproached": 6248,
      "Ġidentify": 6249,
      "orruption": 6250,
      "Ġdormit": 6251,
      "Ġassessment": 6252,
      "Ġdisclosed": 6253,
      "andum": 6254,
      "Ġabolished": 6255,
      "Ġtraged": 6256,
      "Ġruling": 6257,
      "ĠSwitzerland": 6258,
      "ksandr": 6259,
      "acted": 6260,
      "Ġwat": 6261,
      "Ġdry": 6262,
      "ĠUAE": 6263,
      "ayd": 6264,
      "Ġarrival": 6265,
      "Ġfavorable": 6266,
      "rozen": 6267,
      "loc": 6268,
      "xÃµjayev": 6269,
      "Ġhall": 6270,
      "Ġaccommod": 6271,
      "ĠSpace": 6272,
      "Ġintensify": 6273,
      "Ġancient": 6274,
      "ĠMajlis": 6275,
      "agues": 6276,
      "Ġunch": 6277,
      "Ġauthorized": 6278,
      "ĠAgriculture": 6279,
      "ĠAng": 6280,
      "ologists": 6281,
      "Ġtourist": 6282,
      "Ġintegration": 6283,
      "agogical": 6284,
      "Ġforms": 6285,
      "ĠPower": 6286,
      "Ġexpansion": 6287,
      "Ġfamiliar": 6288,
      "Ġpedestrian": 6289,
      "Ġrob": 6290,
      "ĠVAT": 6291,
      "Ġfines": 6292,
      "ĠOliy": 6293,
      "ĠFirstly": 6294,
      "offensive": 6295,
      "Ġrefe": 6296,
      "Ġlearned": 6297,
      "lets": 6298,
      "Ġprem": 6299,
      "Ġjudges": 6300,
      "Ġexplanation": 6301,
      "inery": 6302,
      "Ġwrite": 6303,
      "ĠViktor": 6304,
      "ĠSing": 6305,
      "comings": 6306,
      "ordinary": 6307,
      "34": 6308,
      "encing": 6309,
      "ĠMikh": 6310,
      "ulating": 6311,
      "Ġusual": 6312,
      "Ġhelping": 6313,
      "Ġperformance": 6314,
      "Ġearn": 6315,
      "ĠLithuania": 6316,
      "Ġshells": 6317,
      "wing": 6318,
      "ĠAM": 6319,
      "Ġachievements": 6320,
      "ĠIb": 6321,
      "Ġstorm": 6322,
      "ĠMet": 6323,
      "Ġinvad": 6324,
      "ĠYouth": 6325,
      "Ġinvestigations": 6326,
      "Ġshortcomings": 6327,
      "Ġunderstood": 6328,
      "Ġruble": 6329,
      "Ġacceler": 6330,
      "Ġauthors": 6331,
      "aning": 6332,
      "Ġfer": 6333,
      "ĠSun": 6334,
      "idering": 6335,
      "Ġfederal": 6336,
      "pay": 6337,
      "tical": 6338,
      "ĠMain": 6339,
      "iva": 6340,
      "Ġ56": 6341,
      "Ġdatab": 6342,
      "Ġvolunt": 6343,
      "books": 6344,
      "oples": 6345,
      "aces": 6346,
      "Ġcheap": 6347,
      "Ġawa": 6348,
      "Ġcameras": 6349,
      "ĠCN": 6350,
      "Ġscoring": 6351,
      "ĠExperts": 6352,
      "300": 6353,
      "As": 6354,
      "iad": 6355,
      "alla": 6356,
      "ĠAtt": 6357,
      "Ġtrucks": 6358,
      "Ġpicture": 6359,
      "Ġescalation": 6360,
      "32": 6361,
      "Manchester": 6362,
      "amb": 6363,
      "Ġ2010": 6364,
      "Ġdiscussing": 6365,
      "ĠAbdul": 6366,
      "Ġpieces": 6367,
      "Ġfrozen": 6368,
      "Ġbread": 6369,
      "ĠCar": 6370,
      "aker": 6371,
      "Ġraise": 6372,
      "Ġemphasize": 6373,
      "Ġpropaganda": 6374,
      "var": 6375,
      "Ġgun": 6376,
      "Ġunion": 6377,
      "ĠChildren": 6378,
      "Ġmedals": 6379,
      "Ġpen": 6380,
      "Ġexting": 6381,
      "Ġchosen": 6382,
      "Ġcontext": 6383,
      "Ġtransmission": 6384,
      "wered": 6385,
      "Ġcontrolled": 6386,
      "Ġmobilized": 6387,
      "Ġextingu": 6388,
      "ĠGod": 6389,
      "Ġstands": 6390,
      "anoat": 6391,
      "Ġseats": 6392,
      "obalt": 6393,
      "ĠInvestments": 6394,
      "Our": 6395,
      "fect": 6396,
      "Ġdies": 6397,
      "Ġment": 6398,
      "ĠID": 6399,
      "Ġoptions": 6400,
      "Ġlineup": 6401,
      "aired": 6402,
      "Ġcult": 6403,
      "Ġaccur": 6404,
      "Ġrestaur": 6405,
      "ĠMikhail": 6406,
      "An": 6407,
      "othing": 6408,
      "Ġevacuated": 6409,
      "Gaz": 6410,
      "ĠDub": 6411,
      "Ġsetting": 6412,
      "Ġapplicant": 6413,
      "ribe": 6414,
      "ĠSuper": 6415,
      "Ġfigures": 6416,
      "Ġinnovative": 6417,
      "ĠMam": 6418,
      "ĠChilonzor": 6419,
      "ĠSupport": 6420,
      "Ġcompliance": 6421,
      "Ġsurvey": 6422,
      "ita": 6423,
      "cean": 6424,
      "obile": 6425,
      "Ġfootballers": 6426,
      "Ġtender": 6427,
      "Ġvacation": 6428,
      "green": 6429,
      "ala": 6430,
      "Ġ46": 6431,
      "Ġmind": 6432,
      "Ġcalculated": 6433,
      "ĠMb": 6434,
      "ĠMoon": 6435,
      "Ġaccum": 6436,
      "ĠBelgorod": 6437,
      "Ġissuing": 6438,
      "ĠRonaldo": 6439,
      "tim": 6440,
      "Ġwounded": 6441,
      "Ġagent": 6442,
      "Ġintroduction": 6443,
      "Ġpurchases": 6444,
      "Ġfiled": 6445,
      "ĠIndeed": 6446,
      "uls": 6447,
      "Ġ49": 6448,
      "ĠMax": 6449,
      "osite": 6450,
      "Ġdecline": 6451,
      "Ġrunning": 6452,
      "ĠInstagram": 6453,
      "Ġrural": 6454,
      "Ġkill": 6455,
      "Ġradio": 6456,
      "Ġlawyers": 6457,
      "Ġfundamental": 6458,
      "Ġunchanged": 6459,
      "enko": 6460,
      "Ġvalu": 6461,
      "Ġdefinitely": 6462,
      "New": 6463,
      "ders": 6464,
      "tt": 6465,
      "alin": 6466,
      "othes": 6467,
      "ĠMel": 6468,
      "ĠAirport": 6469,
      "Ġtextbooks": 6470,
      "Ġtreated": 6471,
      "ming": 6472,
      "overy": 6473,
      "omet": 6474,
      "Ġenh": 6475,
      "Ġexplo": 6476,
      "Ġconcrete": 6477,
      "ĠSciences": 6478,
      "Ġabsence": 6479,
      "fess": 6480,
      "rant": 6481,
      "Ġsudden": 6482,
      "sa": 6483,
      "Ġchance": 6484,
      "Ġticket": 6485,
      "ga": 6486,
      "Ġsick": 6487,
      "Ġduration": 6488,
      "ongir": 6489,
      "Ġtraveling": 6490,
      "uÇ§": 6491,
      "ĠDam": 6492,
      "Ġintense": 6493,
      "Ġgained": 6494,
      "opard": 6495,
      "Ġtruly": 6496,
      "Ġsometimes": 6497,
      "edding": 6498,
      "mez": 6499,
      "Barcelona": 6500,
      "Ġscientist": 6501,
      "sified": 6502,
      "oli": 6503,
      "ĠHas": 6504,
      "Ġpartially": 6505,
      "ĠYe": 6506,
      "Ġconcer": 6507,
      "ĠBoris": 6508,
      "Ph": 6509,
      "Ġfees": 6510,
      "ĠRiver": 6511,
      "ĠPed": 6512,
      "ĠBudget": 6513,
      "endit": 6514,
      "ĠSherzod": 6515,
      "akov": 6516,
      "Ġprime": 6517,
      "Ġmanaging": 6518,
      "ney": 6519,
      "Ġimprisoned": 6520,
      "Ġanalysts": 6521,
      "arqand": 6522,
      "ditions": 6523,
      "ĠBoth": 6524,
      "anded": 6525,
      "Ġshel": 6526,
      "Ġencount": 6527,
      "Ġpromotion": 6528,
      "Ġpreschool": 6529,
      "Ġinspector": 6530,
      "ography": 6531,
      "Ġtactical": 6532,
      "ĠLatvia": 6533,
      "ĠOtabek": 6534,
      "issance": 6535,
      "ĠYus": 6536,
      "Ġoccasion": 6537,
      "ĠQodirov": 6538,
      "Ġretail": 6539,
      "Ġprogress": 6540,
      "Ġ250": 6541,
      "Ġdrop": 6542,
      "Ġnotice": 6543,
      "Ġsuspect": 6544,
      "ĠBerd": 6545,
      "Ġfifth": 6546,
      "SA": 6547,
      "Ġfilling": 6548,
      "Ġrein": 6549,
      "otic": 6550,
      "ĠJew": 6551,
      "ĠChar": 6552,
      "ĠChir": 6553,
      "Ġsovereignty": 6554,
      "ĠJahongir": 6555,
      "ware": 6556,
      "irt": 6557,
      "Ġenhan": 6558,
      "Ġdesert": 6559,
      "Ġrestricted": 6560,
      "Ġparking": 6561,
      "Ġwalk": 6562,
      "ĠSecondly": 6563,
      "Ġcas": 6564,
      "iter": 6565,
      "Ġtested": 6566,
      "Ġrockets": 6567,
      "ĠDemocratic": 6568,
      "Ġarose": 6569,
      "Ġexcl": 6570,
      "umed": 6571,
      "Ġcomputer": 6572,
      "Ġdeclaration": 6573,
      "My": 6574,
      "SB": 6575,
      "yev": 6576,
      "rely": 6577,
      "Ġtown": 6578,
      "Ġmerc": 6579,
      "agers": 6580,
      "comm": 6581,
      "ĠEmbassy": 6582,
      "Ġembar": 6583,
      "ĠOb": 6584,
      "ruck": 6585,
      "Ġsoil": 6586,
      "Ġrapidly": 6587,
      "Ġintensifying": 6588,
      "Ġbag": 6589,
      "iled": 6590,
      "Ġexpendit": 6591,
      "ĠComb": 6592,
      "Ġ2008": 6593,
      "takor": 6594,
      "Ukraine": 6595,
      "Ġsubscri": 6596,
      "Ar": 6597,
      "ĠPen": 6598,
      "Ġregardless": 6599,
      "ahmonov": 6600,
      "!\"": 6601,
      "lings": 6602,
      "aluz": 6603,
      "Ġcooper": 6604,
      "Ġlaboratory": 6605,
      "Ġplanted": 6606,
      "Ġassoci": 6607,
      "Ġarchitect": 6608,
      "Ġusually": 6609,
      "ĠJizzax": 6610,
      "'ve": 6611,
      "kor": 6612,
      "Ġwestern": 6613,
      "Ġlivestock": 6614,
      "aming": 6615,
      "active": 6616,
      "Ġgraduates": 6617,
      "Ġblogger": 6618,
      "Ġatmosphere": 6619,
      "ĠLavrov": 6620,
      "Ġranging": 6621,
      "Ġclause": 6622,
      "Ġcoast": 6623,
      "Ġinstallation": 6624,
      "Ġentrepreneurial": 6625,
      "Ġforget": 6626,
      "Ġyield": 6627,
      "ĠHaj": 6628,
      "ĠChrist": 6629,
      "Ġ700": 6630,
      "Ġgreenhouse": 6631,
      "ĠUch": 6632,
      "rence": 6633,
      "ĠEntreprene": 6634,
      "AN": 6635,
      "But": 6636,
      "Ġsister": 6637,
      "Ġresistance": 6638,
      "Ġ42": 6639,
      "Ġfinally": 6640,
      "Ġobjections": 6641,
      "Ġconnections": 6642,
      "Ġbloggers": 6643,
      "Ġimages": 6644,
      "Ġthereby": 6645,
      "Ġundergo": 6646,
      "Ġbrig": 6647,
      "Ġyourself": 6648,
      "Ġmarri": 6649,
      "Ġdelayed": 6650,
      "manned": 6651,
      "Ġpet": 6652,
      "ĠLiverpool": 6653,
      "Ġreput": 6654,
      "ĠAustralia": 6655,
      "Ġports": 6656,
      "Ġnar": 6657,
      "ĠPet": 6658,
      "conn": 6659,
      "Ġmanager": 6660,
      "shid": 6661,
      "ĠConsidering": 6662,
      "Ġcloser": 6663,
      "ĠCEO": 6664,
      "ĠSaint": 6665,
      "ĠRust": 6666,
      "antic": 6667,
      "ĠHa": 6668,
      "ĠArgentina": 6669,
      "Ġtragedy": 6670,
      "ĠMbappe": 6671,
      "occ": 6672,
      "umb": 6673,
      "ootball": 6674,
      "ĠKarabakh": 6675,
      "ĠIndian": 6676,
      "Ġappointment": 6677,
      "Ġdecisive": 6678,
      "Ġwindows": 6679,
      "Ġpilots": 6680,
      "ĠSergeli": 6681,
      "ĠInterest": 6682,
      "Le": 6683,
      "Me": 6684,
      "Ġast": 6685,
      "Ġnav": 6686,
      "ĠCultural": 6687,
      "ĠDonald": 6688,
      "ĠNews": 6689,
      "Ġspreading": 6690,
      "hr": 6691,
      "state": 6692,
      "ĠMart": 6693,
      "Ġhaven": 6694,
      "ĠElectric": 6695,
      "Ġ57": 6696,
      "Ġservic": 6697,
      "Ġeconomist": 6698,
      "Ġknows": 6699,
      "Ġaims": 6700,
      "ĠArmenian": 6701,
      "ĠDnip": 6702,
      "Ġinquir": 6703,
      "ration": 6704,
      "ĠAT": 6705,
      "Ġdemocracy": 6706,
      "Ġstopping": 6707,
      "Ġpilgrim": 6708,
      "ifies": 6709,
      "Ġund": 6710,
      "Ġconsent": 6711,
      "ĠBelow": 6712,
      "36": 6713,
      "Ars": 6714,
      "usion": 6715,
      "Ġcorner": 6716,
      "Ġprocedures": 6717,
      "itage": 6718,
      "Ġconstitutes": 6719,
      "Ġescape": 6720,
      "ont": 6721,
      "amin": 6722,
      "ĠNag": 6723,
      "Ġvalid": 6724,
      "ĠKokand": 6725,
      "EC": 6726,
      "Tube": 6727,
      "lik": 6728,
      "Ġensured": 6729,
      "Ġpeaceful": 6730,
      "yond": 6731,
      "mbuds": 6732,
      "Ġreferred": 6733,
      "Ġtransparency": 6734,
      "rell": 6735,
      "Ġbra": 6736,
      "Ġdog": 6737,
      "ĠCitizens": 6738,
      "ĠInnov": 6739,
      "Ġinvestigated": 6740,
      "ĠStream": 6741,
      "ĠCorrect": 6742,
      "Ġrepeatedly": 6743,
      "fall": 6744,
      "Ġpray": 6745,
      "Ġunmanned": 6746,
      "Ġsuitable": 6747,
      "Ġsignal": 6748,
      "ĠAral": 6749,
      "Ġmanage": 6750,
      "Ġmatters": 6751,
      "ĠKarimov": 6752,
      "ady": 6753,
      "ĠKim": 6754,
      "Ġmines": 6755,
      "Ġmonu": 6756,
      "ĠYevgeniy": 6757,
      "Ġwedding": 6758,
      "Ġselected": 6759,
      "Ġexpressing": 6760,
      "ĠFinancial": 6761,
      "Ġextraction": 6762,
      "son": 6763,
      "Ġoperates": 6764,
      "Ġhighway": 6765,
      "Ġsugar": 6766,
      "ĠFam": 6767,
      "Ġprompt": 6768,
      "Ġforemost": 6769,
      "ĠGovern": 6770,
      "ĠHeritage": 6771,
      "Ġenhance": 6772,
      "Ġmining": 6773,
      "matov": 6774,
      "Ġreplaced": 6775,
      "ĠSardor": 6776,
      "HO": 6777,
      "Ġwors": 6778,
      "Ġworry": 6779,
      "oyal": 6780,
      "ugg": 6781,
      "Ġeffectiveness": 6782,
      "Ġprotected": 6783,
      "Ġbehalf": 6784,
      "tiyor": 6785,
      "Ġbeyond": 6786,
      "ĠIgor": 6787,
      "Ġleak": 6788,
      "Ġunus": 6789,
      "Ġintellectual": 6790,
      "100": 6791,
      "apse": 6792,
      "Ġspons": 6793,
      "Ġ2012": 6794,
      "Ġsurgery": 6795,
      "Ġexecuted": 6796,
      "ĠJamshid": 6797,
      "roat": 6798,
      "Ġexceeds": 6799,
      "Ġaccusations": 6800,
      "aluzhny": 6801,
      "55": 6802,
      "Ġkid": 6803,
      "Ġvalued": 6804,
      "Ġswitch": 6805,
      "Ġclinic": 6806,
      "Ġproceedings": 6807,
      "Ġsatellite": 6808,
      "ĠCivil": 6809,
      "asters": 6810,
      "Ġmissing": 6811,
      "Ġabandoned": 6812,
      "ĠSports": 6813,
      "Ġpeoples": 6814,
      "Ġmedicines": 6815,
      "Ġevacuation": 6816,
      "Ġdisappeared": 6817,
      "bors": 6818,
      "range": 6819,
      "Ġfort": 6820,
      "ĠMod": 6821,
      "Ġconserv": 6822,
      "Ġcasual": 6823,
      "mbudsman": 6824,
      "Ġcode": 6825,
      "uses": 6826,
      "essions": 6827,
      "ĠNig": 6828,
      "ĠReport": 6829,
      "ĠPolicy": 6830,
      "Ġfalls": 6831,
      "ĠYouTube": 6832,
      "ĠSurkh": 6833,
      "Ġprotesters": 6834,
      "Ġadmit": 6835,
      "Ġmode": 6836,
      "Ġbusinesses": 6837,
      "Ġtopics": 6838,
      "Ġcutting": 6839,
      "ength": 6840,
      "pol": 6841,
      "ĠMex": 6842,
      "andarya": 6843,
      "ĠGen": 6844,
      "Ġtimely": 6845,
      "Ġindependently": 6846,
      "Ġcomplaint": 6847,
      "Ġunified": 6848,
      "Ġclothes": 6849,
      "Ġtransl": 6850,
      "Ġfacilit": 6851,
      "Ġbanking": 6852,
      "ĠOfficials": 6853,
      "Ġvoc": 6854,
      "Ġopposite": 6855,
      "Ġvoted": 6856,
      "ĠAbdullayev": 6857,
      "Ġpollution": 6858,
      "After": 6859,
      "essa": 6860,
      "ĠHouth": 6861,
      "Ġflour": 6862,
      "Ġcompetitive": 6863,
      "Ġrounds": 6864,
      "ĠNikol": 6865,
      "Ġanalyzed": 6866,
      "Ġimpose": 6867,
      "Ġrecover": 6868,
      "ĠZaluzhny": 6869,
      "Ġsubsequ": 6870,
      "Ġadvertise": 6871,
      "Ġbriefing": 6872,
      "ottenham": 6873,
      "ĠCNN": 6874,
      "lan": 6875,
      "heast": 6876,
      "ĠHydromet": 6877,
      "Ġdepends": 6878,
      "Ġperforming": 6879,
      "Ġsmartphone": 6880,
      "Ġgives": 6881,
      "ĠLa": 6882,
      "Ġhumanity": 6883,
      "Ġpromoting": 6884,
      "Ġstrictly": 6885,
      "ĠUluÇ§": 6886,
      "Ġdatabase": 6887,
      "ĠHajj": 6888,
      "fire": 6889,
      "Ġstip": 6890,
      "issions": 6891,
      "manov": 6892,
      "Ġhelps": 6893,
      "Ġconcerning": 6894,
      "Ġencountered": 6895,
      "mans": 6896,
      "eless": 6897,
      "Ġimage": 6898,
      "Ġcontrovers": 6899,
      "Ġcustomer": 6900,
      "Ġexceeding": 6901,
      "Ġharvest": 6902,
      "Ġacknowledged": 6903,
      "Nav": 6904,
      "Ġrelying": 6905,
      "istical": 6906,
      "otive": 6907,
      "Ġhear": 6908,
      "Ġremov": 6909,
      "Ġvisas": 6910,
      "Ġsettle": 6911,
      "Ġreputation": 6912,
      "Arsenal": 6913,
      "'ll": 6914,
      "za": 6915,
      "ivation": 6916,
      "Ġacts": 6917,
      "Ġmemory": 6918,
      "kara": 6919,
      "itors": 6920,
      "Ġairports": 6921,
      "Ġwindow": 6922,
      "grade": 6923,
      "Ġmemorandum": 6924,
      "person": 6925,
      "Ġpages": 6926,
      "arity": 6927,
      "Ġunemploy": 6928,
      "ĠAmbassador": 6929,
      "Ġkeeps": 6930,
      "ĠCustoms": 6931,
      "Ġcasualties": 6932,
      "free": 6933,
      "human": 6934,
      "uers": 6935,
      "Ġapplying": 6936,
      "ĠChief": 6937,
      "ĠForum": 6938,
      "Ġmedium": 6939,
      "Ġencourage": 6940,
      "fied": 6941,
      "lar": 6942,
      "ĠBu": 6943,
      "ĠBund": 6944,
      "Ġcollapse": 6945,
      "Ġregulatory": 6946,
      "Ġcounterattack": 6947,
      "ĠTechnologies": 6948,
      "Ġannexed": 6949,
      "ĠSurkhandarya": 6950,
      "ki": 6951,
      "ĠUK": 6952,
      "ĠSystem": 6953,
      "ĠRah": 6954,
      "Ġyesterday": 6955,
      "ovka": 6956,
      "Ġcrimin": 6957,
      "ĠAzerbaijani": 6958,
      "Ġbiggest": 6959,
      "ĠBusiness": 6960,
      "Ġdrawn": 6961,
      "Ġstruck": 6962,
      "Ġunif": 6963,
      "Ġapolog": 6964,
      "Ġmood": 6965,
      "Ġlength": 6966,
      "Ġstyle": 6967,
      "Ġreloc": 6968,
      "ahu": 6969,
      "Ġoffering": 6970,
      "ĠJohns": 6971,
      "gin": 6972,
      "ma": 6973,
      "pher": 6974,
      "vironment": 6975,
      "Ġlanding": 6976,
      "Ġmaintained": 6977,
      "Ġinflict": 6978,
      "2022": 6979,
      "Ġkindergartens": 6980,
      "Ġobstac": 6981,
      "joy": 6982,
      "ima": 6983,
      "ĠMu": 6984,
      "ĠCel": 6985,
      "osis": 6986,
      "Ġadoption": 6987,
      "Ġresearc": 6988,
      "Ġcertification": 6989,
      "Ġseemed": 6990,
      "Ġsatisfied": 6991,
      "Ġdissatisfied": 6992,
      "Ġresignation": 6993,
      "Ġwonderful": 6994,
      "Ġappealed": 6995,
      "Ġzones": 6996,
      "Ġfestival": 6997,
      "aire": 6998,
      "abad": 6999,
      "Ġplenary": 7000,
      "Ġwells": 7001,
      "ĠRece": 7002,
      "Ġ2006": 7003,
      "Ġdamages": 7004,
      "Ġrental": 7005,
      "Ġsuperior": 7006,
      "onom": 7007,
      "ĠKon": 7008,
      "Ġ(\"": 7009,
      "ounds": 7010,
      "ĠProfess": 7011,
      "Ġfocused": 7012,
      "ĠMuslims": 7013,
      "Ġlique": 7014,
      "ĠQarshi": 7015,
      "Ġknew": 7016,
      "Ġwithdrawal": 7017,
      "Ġbaby": 7018,
      "Ġcomponents": 7019,
      "ĠChirchiq": 7020,
      "yen": 7021,
      "Ġcommun": 7022,
      "inka": 7023,
      "ĠSamarqand": 7024,
      "linary": 7025,
      "Ġcreat": 7026,
      "Ġpra": 7027,
      "chuk": 7028,
      "ĠGDP": 7029,
      "ĠAnkara": 7030,
      "Ġjointly": 7031,
      "ĠCompany": 7032,
      "Ġvaluable": 7033,
      "Ġmilit": 7034,
      "Ãµz": 7035,
      "uhrat": 7036,
      "Ġproperties": 7037,
      "gench": 7038,
      "Ġsex": 7039,
      "ĠNexia": 7040,
      "Ġroof": 7041,
      "Ġpasses": 7042,
      "Ġvoters": 7043,
      "Ġwitnesses": 7044,
      "tar": 7045,
      "Ġign": 7046,
      "Ġdeport": 7047,
      "siy": 7048,
      "Ġneighbors": 7049,
      "Ġshelled": 7050,
      "rupt": 7051,
      "Ġrebell": 7052,
      "Ġorigin": 7053,
      "ĠMunich": 7054,
      "77": 7055,
      "Ġfog": 7056,
      "Ġmort": 7057,
      "Ġleague": 7058,
      "ĠThree": 7059,
      "ĠMedia": 7060,
      "Ġrooms": 7061,
      "ĠKl": 7062,
      "Ġlasted": 7063,
      "Ġindicating": 7064,
      "Ġboys": 7065,
      "ĠResponsibility": 7066,
      "pelled": 7067,
      "Ġwhite": 7068,
      "ĠFound": 7069,
      "Ġshared": 7070,
      "anyahu": 7071,
      "Ġamaz": 7072,
      "Ġextraordinary": 7073,
      "Ġliquefied": 7074,
      "Bay": 7075,
      "ĠGe": 7076,
      "Med": 7077,
      "Ġcongest": 7078,
      "Ġvoice": 7079,
      "rible": 7080,
      "Ġdomin": 7081,
      "Ġdeparture": 7082,
      "Ġincorrect": 7083,
      "Ġ54": 7084,
      "Ġpressing": 7085,
      "Ġ1990": 7086,
      "Ġwait": 7087,
      "Ġpanels": 7088,
      "investigation": 7089,
      "Kar": 7090,
      "iological": 7091,
      "Ġunc": 7092,
      "ĠDirectorate": 7093,
      "ĠOdessa": 7094,
      "hran": 7095,
      "ena": 7096,
      "ĠRober": 7097,
      "opoly": 7098,
      "ĠHol": 7099,
      "ĠGal": 7100,
      "Ġbright": 7101,
      "ĠProdu": 7102,
      "Ġanswers": 7103,
      "Ġaggressive": 7104,
      "based": 7105,
      "ayot": 7106,
      "Ġseg": 7107,
      "ĠShay": 7108,
      "ĠMirzo": 7109,
      "Ġboil": 7110,
      "Ġexporting": 7111,
      "Ġcirculation": 7112,
      "ĠNetanyahu": 7113,
      "ĠKamoliddin": 7114,
      "Ġgift": 7115,
      "igital": 7116,
      "ĠMak": 7117,
      "Ġspare": 7118,
      "Ġrecor": 7119,
      "ĠRepublicans": 7120,
      "Ġstrengthened": 7121,
      "Ġguaranteed": 7122,
      "adast": 7123,
      "ĠInspe": 7124,
      "Ġopposed": 7125,
      "arbayev": 7126,
      "\":": 7127,
      "ias": 7128,
      "ancy": 7129,
      "Ġtouch": 7130,
      "Ġnarc": 7131,
      "Ġsecure": 7132,
      "Ġexchanged": 7133,
      "Ġimprovement": 7134,
      "Ġdoubt": 7135,
      "aper": 7136,
      "iat": 7137,
      "rog": 7138,
      "iced": 7139,
      "ĠJal": 7140,
      "Ġteen": 7141,
      "Ġexperiences": 7142,
      "tiq": 7143,
      "ĠEmir": 7144,
      "Ġcollecting": 7145,
      "city": 7146,
      "war": 7147,
      "ĠCy": 7148,
      "Ġcomments": 7149,
      "Ġrepublics": 7150,
      "Ġdiplomats": 7151,
      "Ġranked": 7152,
      "Ġwitnessed": 7153,
      "work": 7154,
      "roximately": 7155,
      "Ġirrigation": 7156,
      "locut": 7157,
      "iary": 7158,
      "senal": 7159,
      "Ġtaught": 7160,
      "Ġsac": 7161,
      "Ġselection": 7162,
      "techn": 7163,
      "Ġ41": 7164,
      "Ġenhancing": 7165,
      "nity": 7166,
      "ĠCobalt": 7167,
      "Ġdoors": 7168,
      "Ġlandsc": 7169,
      "Ġoccupation": 7170,
      "Ġmountains": 7171,
      "ĠSoon": 7172,
      "ĠInvestig": 7173,
      "Ġcorrectly": 7174,
      "Ġsustainable": 7175,
      "Ġsuddenly": 7176,
      "Ġ800": 7177,
      "Ġletters": 7178,
      "600": 7179,
      "di": 7180,
      "Ġfires": 7181,
      "Ġdie": 7182,
      "ĠAI": 7183,
      "raph": 7184,
      "Ġinterlocut": 7185,
      "Ġdouble": 7186,
      "Ġclarified": 7187,
      "Ġclusters": 7188,
      "ĠTermez": 7189,
      "Ġcarriers": 7190,
      "Ġprivatization": 7191,
      "ĠJohnson": 7192,
      "ael": 7193,
      "Ġ64": 7194,
      "cling": 7195,
      "Ġtemperatures": 7196,
      "Ġscenario": 7197,
      "pir": 7198,
      "Ġther": 7199,
      "Ġpal": 7200,
      "Ġattended": 7201,
      "Ġsuperv": 7202,
      "Ġdepos": 7203,
      "ĠCommerce": 7204,
      "Ġdeliber": 7205,
      "Ġeliminated": 7206,
      "ĠOlympiad": 7207,
      "ĠPerhaps": 7208,
      "lantic": 7209,
      "with": 7210,
      "Ġsessions": 7211,
      "Ġmag": 7212,
      "ĠRos": 7213,
      "Ġattend": 7214,
      "ĠTehran": 7215,
      "Ġrestoration": 7216,
      "Ġresolving": 7217,
      "Ġafford": 7218,
      "Ġlawsuit": 7219,
      "ĠSeveral": 7220,
      "Ġvocational": 7221,
      "Ġwave": 7222,
      "Ġbom": 7223,
      "icip": 7224,
      "ĠDec": 7225,
      "umors": 7226,
      "Ġ58": 7227,
      "Ġposts": 7228,
      "Ġclaimed": 7229,
      "ĠSerbia": 7230,
      "aution": 7231,
      "hol": 7232,
      "vili": 7233,
      "ĠFootball": 7234,
      "Ġvirus": 7235,
      "Ġforeigners": 7236,
      "Ġsoldier": 7237,
      "Ġcollaps": 7238,
      "Ġdiplomacy": 7239,
      "Ġhalted": 7240,
      "Ġfruits": 7241,
      "Ġrenewable": 7242,
      "chenko": 7243,
      "lete": 7244,
      "Ġlegally": 7245,
      "Ġpreparations": 7246,
      "ĠEnvironment": 7247,
      "Ġtaxi": 7248,
      "Ġrains": 7249,
      "naissance": 7250,
      "Ġassessed": 7251,
      "etary": 7252,
      "ĠCS": 7253,
      "Ġreferee": 7254,
      "Tur": 7255,
      "Ġvent": 7256,
      "Ġenjoy": 7257,
      "Ġ2026": 7258,
      "Ġconvin": 7259,
      "inks": 7260,
      "Ġlik": 7261,
      "abled": 7262,
      "Ġ2011": 7263,
      "Ġpunished": 7264,
      "Ġaccelerate": 7265,
      "zoq": 7266,
      "isi": 7267,
      "Ġhidden": 7268,
      "ĠBar": 7269,
      "bery": 7270,
      "Ġjur": 7271,
      "Ġ2013": 7272,
      "Ġextend": 7273,
      "Ġcombating": 7274,
      "Ġdistributing": 7275,
      "Ġmutually": 7276,
      "Ġtextile": 7277,
      "ĠDenmark": 7278,
      "Ġdeficit": 7279,
      "manship": 7280,
      "Nord": 7281,
      "pet": 7282,
      "ĠRail": 7283,
      "ĠLeopard": 7284,
      "Ġeffort": 7285,
      "ĠOrtiq": 7286,
      "Ġcontinuous": 7287,
      "Ġbattlefield": 7288,
      "Ġhelicopters": 7289,
      "Ġpilgrimage": 7290,
      "cked": 7291,
      "aling": 7292,
      "idays": 7293,
      "Ġhearing": 7294,
      "ĠHus": 7295,
      "Ġacquaintances": 7296,
      "azor": 7297,
      "Ġharmful": 7298,
      "ĠScientific": 7299,
      "ĠDubai": 7300,
      "You": 7301,
      "pen": 7302,
      "Ġplot": 7303,
      "Ġresiding": 7304,
      "ĠVice": 7305,
      "Ġstriker": 7306,
      "Ġearned": 7307,
      "Ġclassified": 7308,
      "ĠUrgench": 7309,
      "cell": 7310,
      "Ġjourn": 7311,
      "Ġblow": 7312,
      "Ġadministrations": 7313,
      "Ġ1991": 7314,
      "Ġproperly": 7315,
      "Ġtitle": 7316,
      "finals": 7317,
      "ĠTayy": 7318,
      "sey": 7319,
      "Ġprovin": 7320,
      "Ġreflected": 7321,
      "Ġdebts": 7322,
      "Ġquoted": 7323,
      "ĠEstonia": 7324,
      "ĠTayyip": 7325,
      "ĠRash": 7326,
      "Ġthanks": 7327,
      "ĠFrank": 7328,
      "Ġqualifications": 7329,
      "Ġformalized": 7330,
      "ĠRecep": 7331,
      "ĠPost": 7332,
      "ĠBas": 7333,
      "ĠGr": 7334,
      "cedented": 7335,
      "Ġhighlight": 7336,
      "Ġwalking": 7337,
      "precedented": 7338,
      "Ġrecording": 7339,
      "rich": 7340,
      "Ġpick": 7341,
      "ĠDel": 7342,
      "ĠShuhrat": 7343,
      "Ġsolving": 7344,
      "Ġbelongs": 7345,
      "Ġmachine": 7346,
      "Ġarrive": 7347,
      "ĠIr": 7348,
      "Ġsaving": 7349,
      "Ġtasked": 7350,
      "Ġintroducing": 7351,
      "ixed": 7352,
      "Ġthreatened": 7353,
      "ropri": 7354,
      "Ġcolleagues": 7355,
      "Ġflew": 7356,
      "Ġaccompl": 7357,
      "down": 7358,
      "raining": 7359,
      "rians": 7360,
      "Ġinstructed": 7361,
      "rivate": 7362,
      "Ġemerg": 7363,
      "Ġconvenience": 7364,
      "Ġexempt": 7365,
      "Ġpredict": 7366,
      "imova": 7367,
      "unk": 7368,
      "ĠCap": 7369,
      "ĠBa": 7370,
      "ĠBureau": 7371,
      "Ġarises": 7372,
      "Ġ74": 7373,
      "Ġinfect": 7374,
      "Ġallocation": 7375,
      "ohol": 7376,
      "ĠScience": 7377,
      "DPR": 7378,
      "cohol": 7379,
      "order": 7380,
      "sia": 7381,
      "sius": 7382,
      "ĠPop": 7383,
      "Ġcontra": 7384,
      "Ġcharter": 7385,
      "ĠAmir": 7386,
      "ĠIntelligence": 7387,
      "Gazprom": 7388,
      "usive": 7389,
      "ĠHar": 7390,
      "ĠYÃµ": 7391,
      "Azov": 7392,
      "Ġthoroughly": 7393,
      "Ġgifts": 7394,
      "ĠForm": 7395,
      "ĠActually": 7396,
      "yod": 7397,
      "Ġlies": 7398,
      "Ġunity": 7399,
      "usted": 7400,
      "ashin": 7401,
      "ĠAbdulla": 7402,
      "Ġballistic": 7403,
      "Ġburning": 7404,
      "Ġethnic": 7405,
      "Ġmultiple": 7406,
      "set": 7407,
      "Ġwall": 7408,
      "ĠMass": 7409,
      "Ġrespectively": 7410,
      "Ġbarriers": 7411,
      "oked": 7412,
      "Ġmetal": 7413,
      "Ġguards": 7414,
      "Ġstruggle": 7415,
      "ĠFoundation": 7416,
      "Ġjuris": 7417,
      "Chelsea": 7418,
      "ĠIC": 7419,
      "ĠPR": 7420,
      "Ġattracted": 7421,
      "Ġoptim": 7422,
      "Ġtransactions": 7423,
      "istingu": 7424,
      "rayev": 7425,
      "ĠPhot": 7426,
      "ĠiPh": 7427,
      "OR": 7428,
      "Ġpeak": 7429,
      "Ġpresc": 7430,
      "Ġfled": 7431,
      "Ġshelling": 7432,
      "Ġidentity": 7433,
      "ĠBorrell": 7434,
      "Ġcelebrated": 7435,
      "fare": 7436,
      "ĠMat": 7437,
      "Ġregistry": 7438,
      "Ġterrible": 7439,
      "Ġdealers": 7440,
      "Ġvon": 7441,
      "Ġchallen": 7442,
      "Ġ43": 7443,
      "Ġlocations": 7444,
      "Ġgrants": 7445,
      "unicip": 7446,
      "ĠNorway": 7447,
      "ĠTemur": 7448,
      "Ġcondemned": 7449,
      "ĠUluÇ§bek": 7450,
      "IFA": 7451,
      "do": 7452,
      "yansk": 7453,
      "ĠSar": 7454,
      "overs": 7455,
      "diction": 7456,
      "Ġclarify": 7457,
      "ĠRelations": 7458,
      "ĠCelsius": 7459,
      "wear": 7460,
      "rik": 7461,
      "Ġ($": 7462,
      "apore": 7463,
      "Ġcarbon": 7464,
      "Ġ85": 7465,
      "Ġcheaper": 7466,
      "Ġtesting": 7467,
      "Ġdeeply": 7468,
      "Ġpose": 7469,
      "Ġtools": 7470,
      "Ġregret": 7471,
      "Ġ52": 7472,
      "Ġoperated": 7473,
      "Ġmeter": 7474,
      "Ġenvisages": 7475,
      "EL": 7476,
      "isen": 7477,
      "akia": 7478,
      "agree": 7479,
      "Ġpregn": 7480,
      "Ġrelie": 7481,
      "Ġcolon": 7482,
      "Ġpoisoning": 7483,
      "Ġsexual": 7484,
      "tti": 7485,
      "ĠWater": 7486,
      "Ġshut": 7487,
      "Ġclothing": 7488,
      "Ġadditions": 7489,
      "Ġoffensive": 7490,
      "ĠSirdarya": 7491,
      "long": 7492,
      "Ġben": 7493,
      "odes": 7494,
      "Ġaged": 7495,
      "Ġrising": 7496,
      "ĠCommun": 7497,
      "Ġcriticism": 7498,
      "Ġsenior": 7499,
      "Ġfertil": 7500,
      "95": 7501,
      "oub": 7502,
      "Ġgrown": 7503,
      "ellow": 7504,
      "Ġcomplexes": 7505,
      "Ġwelcom": 7506,
      "ford": 7507,
      "rap": 7508,
      "ĠYemen": 7509,
      "Ġ71": 7510,
      "resident": 7511,
      "ĠBud": 7512,
      "abot": 7513,
      "Ġpolic": 7514,
      "ĠNazarbayev": 7515,
      "ĠControl": 7516,
      "Ġvolunteers": 7517,
      "ĠBoy": 7518,
      "Ġgovernance": 7519,
      "Ġremove": 7520,
      "onym": 7521,
      "ĠAlek": 7522,
      "Ġautomatically": 7523,
      "Ġdeployed": 7524,
      "ED": 7525,
      "no": 7526,
      "ini": 7527,
      "Ġbron": 7528,
      "ĠIndepend": 7529,
      "ĠAleksandr": 7530,
      "2024": 7531,
      "ĠMeaning": 7532,
      "Ġcrops": 7533,
      "asp": 7534,
      "ĠHPP": 7535,
      "Ġindif": 7536,
      "Ġsurren": 7537,
      "Ġcompete": 7538,
      "Ġcriteria": 7539,
      "Ġbuyers": 7540,
      "Ġexecutive": 7541,
      "Ġsubscribers": 7542,
      "equ": 7543,
      "fight": 7544,
      "estyle": 7545,
      "Ġfruit": 7546,
      "Ġaccomp": 7547,
      "ĠDnipro": 7548,
      "alle": 7549,
      "aping": 7550,
      "Ġbrothers": 7551,
      "ĠTom": 7552,
      "ĠEur": 7553,
      "ĠNat": 7554,
      "Ġ77": 7555,
      "Ġassault": 7556,
      "Ġdefined": 7557,
      "Ġadvice": 7558,
      "Ġsheep": 7559,
      "month": 7560,
      "ĠAgain": 7561,
      "Ġintersection": 7562,
      "asury": 7563,
      "ĠOq": 7564,
      "Ġplayoff": 7565,
      "Ġrealized": 7566,
      "Ġfavorite": 7567,
      "ĠDmitriy": 7568,
      "orno": 7569,
      "Ġcomplicated": 7570,
      "gg": 7571,
      "gas": 7572,
      "Ġtear": 7573,
      "Ġstock": 7574,
      "ĠGra": 7575,
      "ferences": 7576,
      "ĠGlobal": 7577,
      "Ġruins": 7578,
      "Corruption": 7579,
      "map": 7580,
      "Ġtun": 7581,
      "ĠCer": 7582,
      "ĠDPR": 7583,
      "Ġaccession": 7584,
      "Ġrace": 7585,
      "Ġdecreasing": 7586,
      "ĠMedved": 7587,
      "maty": 7588,
      "Ġqualification": 7589,
      "Ġcontribution": 7590,
      "Ġsilver": 7591,
      "Ġestimates": 7592,
      "Ġliterature": 7593,
      "31": 7594,
      "da": 7595,
      "ĠTim": 7596,
      "Ġcontinuously": 7597,
      "Ġwarehouse": 7598,
      "onven": 7599,
      "illance": 7600,
      "tered": 7601,
      "Ġputting": 7602,
      "Ġpoly": 7603,
      "insula": 7604,
      "Ġinspections": 7605,
      "Ġcontribute": 7606,
      "Ġdyn": 7607,
      "ĠRa": 7608,
      "Ġheight": 7609,
      "Ġvisits": 7610,
      "Ġvisiting": 7611,
      "Ġcharity": 7612,
      "ĠOlaf": 7613,
      "Ġprosperity": 7614,
      "hour": 7615,
      "Ġprovoc": 7616,
      "Ġplatforms": 7617,
      "Ġconnecting": 7618,
      "ĠBaku": 7619,
      "Ġcongestion": 7620,
      "Ġmental": 7621,
      "Ġeat": 7622,
      "udoy": 7623,
      "plant": 7624,
      "Ġends": 7625,
      "ĠGermans": 7626,
      "ĠIndones": 7627,
      "Ġrestriction": 7628,
      "nikov": 7629,
      "ĠYÃµld": 7630,
      "iances": 7631,
      "Ġrent": 7632,
      "zhydromet": 7633,
      "ĠSpeaker": 7634,
      "Ġsemi": 7635,
      "ĠHydrometeorological": 7636,
      "MS": 7637,
      "Ġisol": 7638,
      "umes": 7639,
      "ĠWall": 7640,
      "ĠOle": 7641,
      "ailed": 7642,
      "Ġrelationships": 7643,
      "Ġfriendship": 7644,
      "enty": 7645,
      "Ġstabil": 7646,
      "ĠRabb": 7647,
      "ĠMinsk": 7648,
      "Ġupper": 7649,
      "Ġdefending": 7650,
      "ĠSaid": 7651,
      "Ġdemonstrations": 7652,
      "Ġsustained": 7653,
      "ĠBaltic": 7654,
      "ĠSingapore": 7655,
      "Ġexpenditures": 7656,
      "och": 7657,
      "uvent": 7658,
      "ĠJud": 7659,
      "ĠLeyen": 7660,
      "Ġappears": 7661,
      "Ġvisitors": 7662,
      "ĠPlant": 7663,
      "ĠSpecialized": 7664,
      "Ġsubstance": 7665,
      "Ġrebellion": 7666,
      "uventus": 7667,
      "Ġfish": 7668,
      "Ġgets": 7669,
      "Ġindex": 7670,
      "Ġbillionaire": 7671,
      "Ġprotoc": 7672,
      "ĠDa": 7673,
      "ĠKal": 7674,
      "uza": 7675,
      "ugbek": 7676,
      "Ġcylin": 7677,
      "ARS": 7678,
      "Ġmusic": 7679,
      "Ġbes": 7680,
      "ĠMer": 7681,
      "ĠGas": 7682,
      "Ġdisabled": 7683,
      "ĠShan": 7684,
      "Ġpresidents": 7685,
      "Ġmovie": 7686,
      "Ġcalm": 7687,
      "Ġobjectives": 7688,
      "ĠDavid": 7689,
      "Ġgathering": 7690,
      "ĠEntrepreneurs": 7691,
      "Ġfertiliz": 7692,
      "Ġalcohol": 7693,
      "ĠNetw": 7694,
      "ĠUzbekistanis": 7695,
      "Ġraid": 7696,
      "Ġcollided": 7697,
      "Ġmaternity": 7698,
      "Ġreconnaissance": 7699,
      "ĠUsmon": 7700,
      "Ġtransitioning": 7701,
      "Karabakh": 7702,
      "ho": 7703,
      "ĠBarcelona": 7704,
      "Ġunsu": 7705,
      "Ġresort": 7706,
      "acetti": 7707,
      "Ġoccurs": 7708,
      "Ġrenov": 7709,
      "Ġpipelines": 7710,
      "Ġsurveillance": 7711,
      "Ġmachinery": 7712,
      "Ġtransparent": 7713,
      "habilit": 7714,
      "lo": 7715,
      "ĠRev": 7716,
      "ĠRustam": 7717,
      "Ġmunicip": 7718,
      "iga": 7719,
      "ĠCroat": 7720,
      "Ġcontacted": 7721,
      "riving": 7722,
      "Ġaffects": 7723,
      "Ġtorture": 7724,
      "ĠRabbimov": 7725,
      "back": 7726,
      "Ġever": 7727,
      "Ġdisagree": 7728,
      "Ġlaid": 7729,
      "Ġrelig": 7730,
      "Ġdepending": 7731,
      "ĠPolit": 7732,
      "Ġsuffer": 7733,
      "ĠInvestigation": 7734,
      "Ġmanufacturer": 7735,
      "well": 7736,
      "Ġpensions": 7737,
      "Ġfought": 7738,
      "Ġhat": 7739,
      "Ġhuge": 7740,
      "Ġprosecut": 7741,
      "ĠFurther": 7742,
      "ĠNar": 7743,
      "Ġbroken": 7744,
      "ĠConstitutional": 7745,
      "Ġlifted": 7746,
      "Ġsmartphones": 7747,
      "Ġfollowed": 7748,
      "aland": 7749,
      "ĠJord": 7750,
      "Ġinconven": 7751,
      "Ġinnovations": 7752,
      "Ġutilizing": 7753,
      "76": 7754,
      "Ġbear": 7755,
      "usal": 7756,
      "olid": 7757,
      "ĠMa": 7758,
      "ĠNob": 7759,
      "enders": 7760,
      "Ġdrilling": 7761,
      "Ġhotels": 7762,
      "aughters": 7763,
      "Ġlowest": 7764,
      "ĠFarhod": 7765,
      "Ġsenators": 7766,
      "Ġbul": 7767,
      "emb": 7768,
      "Ġ51": 7769,
      "Ġlibr": 7770,
      "Ġpromises": 7771,
      "Ġtransporting": 7772,
      "Ġconvicted": 7773,
      "SCO": 7774,
      "Ġkilog": 7775,
      "iqov": 7776,
      "Ġcirculated": 7777,
      "Ġdisturb": 7778,
      "ES": 7779,
      "Ġhide": 7780,
      "ogle": 7781,
      "Ġking": 7782,
      "Ġlights": 7783,
      "Ġdefendant": 7784,
      "Ġconcerned": 7785,
      "Ġnegatively": 7786,
      "Ġessential": 7787,
      "eing": 7788,
      "foreign": 7789,
      "qulov": 7790,
      "orb": 7791,
      "oded": 7792,
      "ghai": 7793,
      "angi": 7794,
      "Ġconfisc": 7795,
      "Ġpostpon": 7796,
      "bus": 7797,
      "Ġorph": 7798,
      "Ġwars": 7799,
      "Ġcourty": 7800,
      "Ġinfection": 7801,
      "ĠAbout": 7802,
      "Ġallocating": 7803,
      "Ġeasier": 7804,
      "Ġmalfunction": 7805,
      "ĠNagorno": 7806,
      "Cent": 7807,
      "ER": 7808,
      "oss": 7809,
      "Ġapprec": 7810,
      "Ġreceip": 7811,
      "Ġrecognition": 7812,
      "ĠExec": 7813,
      "ĠUlugbek": 7814,
      "ulsory": 7815,
      "Ġnarrow": 7816,
      "When": 7817,
      "iate": 7818,
      "tem": 7819,
      "Ġcell": 7820,
      "Ġlapt": 7821,
      "iano": 7822,
      "Ġholidays": 7823,
      "Ġdemonstrate": 7824,
      "Ġopponents": 7825,
      "Ġmarriage": 7826,
      "ĠiPhone": 7827,
      "Ġdaughters": 7828,
      "urally": 7829,
      "ĠCher": 7830,
      "ĠWagner": 7831,
      "Ġcompar": 7832,
      "Ġ72": 7833,
      "ĠIss": 7834,
      "zy": 7835,
      "Ġtalented": 7836,
      "Ġbeaten": 7837,
      "ĠMexico": 7838,
      "igu": 7839,
      "ĠPSG": 7840,
      "Ġwelcomed": 7841,
      "Ġdistingu": 7842,
      "omart": 7843,
      "olov": 7844,
      "achel": 7845,
      "Ġimporting": 7846,
      "Ġinvestigate": 7847,
      "Ġolder": 7848,
      "Ġobligation": 7849,
      "ĠValley": 7850,
      "Ġeditorial": 7851,
      "fts": 7852,
      "vey": 7853,
      "ĠMem": 7854,
      "Ġwearing": 7855,
      "ĠBur": 7856,
      "Ġselect": 7857,
      "Ġworried": 7858,
      "tedly": 7859,
      "Ġphones": 7860,
      "nsic": 7861,
      "ĠSwedish": 7862,
      "Ġcollective": 7863,
      "Ġliberated": 7864,
      "Ġultimately": 7865,
      "Ġstar": 7866,
      "Ġcontrolling": 7867,
      "Ġbarrel": 7868,
      "Ġeye": 7869,
      "co": 7870,
      "Ġtheater": 7871,
      "Ġnote": 7872,
      "ĠEld": 7873,
      "Ġoperators": 7874,
      "Ġelite": 7875,
      "Ġdigest": 7876,
      "Ġautomotive": 7877,
      "oeing": 7878,
      "Ġinspectors": 7879,
      "oubtedly": 7880,
      "Ġtunnel": 7881,
      "400": 7882,
      "ĠkWh": 7883,
      "Ġinvolves": 7884,
      "Ġimposing": 7885,
      "zoqov": 7886,
      "special": 7887,
      "enaries": 7888,
      "Ġleaves": 7889,
      "Ġchampions": 7890,
      "Ġ76": 7891,
      "Ġchildhood": 7892,
      "Ġrecovery": 7893,
      "Ġ68": 7894,
      "Ġcapability": 7895,
      "Ġinfant": 7896,
      "Ġcolor": 7897,
      "Ġquotes": 7898,
      "ĠKosovo": 7899,
      "Ġcreates": 7900,
      "ĠAlmaty": 7901,
      "Ġextrem": 7902,
      "Ġengaging": 7903,
      "ribes": 7904,
      "Ġanswered": 7905,
      "Ġdispute": 7906,
      "75": 7907,
      "eu": 7908,
      "ata": 7909,
      "Ġine": 7910,
      "ĠAre": 7911,
      "ĠSud": 7912,
      "Ġunprecedented": 7913,
      "Ġ2007": 7914,
      "lined": 7915,
      "Ġpilot": 7916,
      "Ġdeadline": 7917,
      "Ġburden": 7918,
      "ĠBulgar": 7919,
      "Ġcomfortable": 7920,
      "mo": 7921,
      "oo": 7922,
      "Ġice": 7923,
      "ques": 7924,
      "Ġprefer": 7925,
      "ĠCrimean": 7926,
      "Ġexistence": 7927,
      "Ġembezzled": 7928,
      "Ġimagine": 7929,
      "):": 7930,
      "bayev": 7931,
      "Ġrecy": 7932,
      "ĠTan": 7933,
      "Ġnotes": 7934,
      "ĠFIFA": 7935,
      "perature": 7936,
      "Ġempt": 7937,
      "ĠStalin": 7938,
      "Ġminim": 7939,
      "Ġstrongly": 7940,
      "Ġdanger": 7941,
      "ĠYakk": 7942,
      "ĠPod": 7943,
      "ĠDar": 7944,
      "Ġplays": 7945,
      "Ġcry": 7946,
      "Ġfactories": 7947,
      "Ġ1992": 7948,
      "Ġfeeling": 7949,
      "ĠRepresentative": 7950,
      "Ġbattery": 7951,
      "ĠAntony": 7952,
      "Ġspiritual": 7953,
      "Ġbronze": 7954,
      "ĠAcc": 7955,
      "Ġgender": 7956,
      "ĠBot": 7957,
      "ĠWTO": 7958,
      "ĠAtlantic": 7959,
      "secution": 7960,
      "Ġrelationship": 7961,
      "Ġdivisions": 7962,
      "ĠUmrah": 7963,
      "Ġliberal": 7964,
      "Ġcat": 7965,
      "iti": 7966,
      "oms": 7967,
      "Ġconce": 7968,
      "ĠPreschool": 7969,
      "Ġgrades": 7970,
      "Ġexamined": 7971,
      "Ġprofessor": 7972,
      "Ġsuggestions": 7973,
      "Ġbattal": 7974,
      "ĠAleksey": 7975,
      "from": 7976,
      "ien": 7977,
      "wa": 7978,
      "ĠJong": 7979,
      "aped": 7980,
      "Ġ99": 7981,
      "ÃµÇ§": 7982,
      "Ġcrossed": 7983,
      "Ġsyn": 7984,
      "Ġconsistently": 7985,
      "ĠAhmad": 7986,
      "boyeva": 7987,
      "olesale": 7988,
      "Ġtouc": 7989,
      "Ġrector": 7990,
      "Ġuser": 7991,
      "ĠAdvert": 7992,
      "Ġdriven": 7993,
      "Ġdestination": 7994,
      "Ġdirectors": 7995,
      "Ġfreely": 7996,
      "Ġbelieved": 7997,
      "Ġspacecraft": 7998,
      "ĠDemocrat": 7999,
      "Ġtitled": 8000,
      "Ġsoftware": 8001,
      "ĠAttention": 8002,
      "ĠRailways": 8003,
      "Ġfault": 8004,
      "ĠKor": 8005,
      "Ġadap": 8006,
      "Ġcancer": 8007,
      "Ġfeatures": 8008,
      "ĠRegion": 8009,
      "ĠGeorgian": 8010,
      "Ġcharacteristics": 8011,
      "ĠCharles": 8012,
      "ĠInspection": 8013,
      "Ġrelieved": 8014,
      "entially": 8015,
      "ocide": 8016,
      "Ġ59": 8017,
      "ĠAnn": 8018,
      "ĠAsh": 8019,
      "Ġtrained": 8020,
      "Ġpedestrians": 8021,
      "ĠBelgium": 8022,
      "Uzhydromet": 8023,
      "list": 8024,
      "ĠImp": 8025,
      "ushed": 8026,
      "ĠSil": 8027,
      "ĠSad": 8028,
      "ĠDis": 8029,
      "Ġwarrant": 8030,
      "Ġinstances": 8031,
      "Ġstronger": 8032,
      "Ġbrands": 8033,
      "ourage": 8034,
      "Ġmercenaries": 8035,
      "Ġcollapsed": 8036,
      "nish": 8037,
      "Ġmel": 8038,
      "Ġchick": 8039,
      "Ġadding": 8040,
      "Ġsocio": 8041,
      "ullo": 8042,
      "ĠGoogle": 8043,
      "ĠApple": 8044,
      "Ġclashes": 8045,
      "ĠJordan": 8046,
      "ĠWHO": 8047,
      "ultan": 8048,
      "Ġ168": 8049,
      "Ġpointed": 8050,
      "Ġmothers": 8051,
      "Ġlicenses": 8052,
      "Ġmessages": 8053,
      "ĠJohn": 8054,
      "Ġvoluntarily": 8055,
      "aliyev": 8056,
      "estan": 8057,
      "aziz": 8058,
      "ordination": 8059,
      "Ġguest": 8060,
      "Ġsoum": 8061,
      "Ġpenalties": 8062,
      "Ġaccepting": 8063,
      "related": 8064,
      "Ġrevenue": 8065,
      "ĠPortugal": 8066,
      "trans": 8067,
      "Ġrumors": 8068,
      "Ġincent": 8069,
      "Ġcrash": 8070,
      "rick": 8071,
      "sibly": 8072,
      "Ġadopt": 8073,
      "Ġgraduated": 8074,
      "Ġbuyer": 8075,
      "pleasant": 8076,
      "ĠDoes": 8077,
      "ĠFamily": 8078,
      "Ġjurisdiction": 8079,
      "Ġsand": 8080,
      "ori": 8081,
      "Ġcup": 8082,
      "Ġbicy": 8083,
      "Ġbott": 8084,
      "utch": 8085,
      "ĠSch": 8086,
      "ĠMigration": 8087,
      "Ġassass": 8088,
      "Ġorganizational": 8089,
      "Ġwriter": 8090,
      "Ġcyber": 8091,
      "Ġapproaching": 8092,
      "ĠMorocc": 8093,
      "Ġdiesel": 8094,
      "ĠEnvironmental": 8095,
      "44": 8096,
      "gid": 8097,
      "Ġarisen": 8098,
      "Ġjoy": 8099,
      "ĠEveryone": 8100,
      "Ġpossess": 8101,
      "ĠGovernor": 8102,
      "achelor": 8103,
      "PO": 8104,
      "Ġlying": 8105,
      "irty": 8106,
      "ĠMc": 8107,
      "esty": 8108,
      "Ġassisting": 8109,
      "Ġnaturally": 8110,
      "Ġrescuers": 8111,
      "Ġpanel": 8112,
      "Ġdependent": 8113,
      "ĠBulgaria": 8114,
      "icide": 8115,
      "ama": 8116,
      "ĠLacetti": 8117,
      "uese": 8118,
      "Ġhappens": 8119,
      "ĠCommissioner": 8120,
      "Ġconstructing": 8121,
      "ĠPortuguese": 8122,
      "Ġthermal": 8123,
      "Ġjourney": 8124,
      "dam": 8125,
      "Ġmm": 8126,
      "Ġdecide": 8127,
      "ĠProg": 8128,
      "Ġensures": 8129,
      "Ġaccounting": 8130,
      "Ġdetected": 8131,
      "ligarch": 8132,
      "Ġcheckpoint": 8133,
      "Ġsubsequent": 8134,
      "Ġbrain": 8135,
      "ulled": 8136,
      "Ġreception": 8137,
      "castle": 8138,
      "Ġentirely": 8139,
      "Ġcopy": 8140,
      "ĠCSTO": 8141,
      "Ġemergence": 8142,
      "bah": 8143,
      "murodov": 8144,
      "tage": 8145,
      "Ġassembly": 8146,
      "ĠKiev": 8147,
      "Ġsections": 8148,
      "Ġlease": 8149,
      "Ġadapt": 8150,
      "angar": 8151,
      "Ġdisorder": 8152,
      "Ġargu": 8153,
      "Ġemot": 8154,
      "Ġ95": 8155,
      "Ġinspected": 8156,
      "Ġappliances": 8157,
      "Ġencounter": 8158,
      "space": 8159,
      "Ġpostponed": 8160,
      "Ġworst": 8161,
      "Ġassign": 8162,
      "Ġhopes": 8163,
      "log": 8164,
      "Ġreaches": 8165,
      "ĠTre": 8166,
      "Ġegg": 8167,
      "ĠMW": 8168,
      "ulates": 8169,
      "Ġexists": 8170,
      "ĠPers": 8171,
      "Ġcounterfe": 8172,
      "Ġgranting": 8173,
      "ĠCommunications": 8174,
      "ĠBrazilian": 8175,
      "ĠTemperature": 8176,
      "unyod": 8177,
      "ĠMob": 8178,
      "actory": 8179,
      "ĠViet": 8180,
      "Ġparticipant": 8181,
      "ĠShom": 8182,
      "Ġveter": 8183,
      "Ġ110": 8184,
      "Ġ2005": 8185,
      "shan": 8186,
      "ridge": 8187,
      "Ġwebsites": 8188,
      "ĠAuthor": 8189,
      "ĠShanghai": 8190,
      "diyev": 8191,
      "nam": 8192,
      "ĠRaf": 8193,
      "ivals": 8194,
      "ĠKule": 8195,
      "ĠGuter": 8196,
      "Ġkit": 8197,
      "ĠYesterday": 8198,
      "Ġapproval": 8199,
      "ĠReal": 8200,
      "tico": 8201,
      "Ġlessons": 8202,
      "Ġelevator": 8203,
      "ĠSob": 8204,
      "char": 8205,
      "ĠKras": 8206,
      "ocked": 8207,
      "Ġpossibilities": 8208,
      "Ġidentifying": 8209,
      "Ġprisoner": 8210,
      "US": 8211,
      "pat": 8212,
      "Ġbin": 8213,
      "una": 8214,
      "erse": 8215,
      "iest": 8216,
      "ĠEd": 8217,
      "avi": 8218,
      "Ġrose": 8219,
      "Ġsystematic": 8220,
      "Ġengines": 8221,
      "Ġkeeping": 8222,
      "ylum": 8223,
      "ĠMalay": 8224,
      "Ġcontradict": 8225,
      "hi": 8226,
      "Ġswe": 8227,
      "Ġthrow": 8228,
      "lev": 8229,
      "Ġconced": 8230,
      "Ġprove": 8231,
      "Ġwholesale": 8232,
      "Ġunite": 8233,
      "Ġperfect": 8234,
      "Ġdebates": 8235,
      "Ġcommunications": 8236,
      "ĠUsmanov": 8237,
      "Ġessence": 8238,
      "City": 8239,
      "Ġunpleasant": 8240,
      "Ġkick": 8241,
      "Ġ53": 8242,
      "Ġblame": 8243,
      "Ġapplies": 8244,
      "lu": 8245,
      "Ġrehabilit": 8246,
      "ĠChern": 8247,
      "iction": 8248,
      "pping": 8249,
      "Ġquant": 8250,
      "Ġassists": 8251,
      "Ġ67": 8252,
      "tenance": 8253,
      "skaya": 8254,
      "Ġadvantages": 8255,
      "Ġcoup": 8256,
      "ĠFormer": 8257,
      "lim": 8258,
      "Ġwalls": 8259,
      "stal": 8260,
      "Ġprosecution": 8261,
      "ips": 8262,
      "Ġrecall": 8263,
      "Ġanywhere": 8264,
      "Ġexperiment": 8265,
      "ĠStrategic": 8266,
      "ĠAFP": 8267,
      "Ġoligarch": 8268,
      "Ġcaut": 8269,
      "unt": 8270,
      "ĠMurod": 8271,
      "Ġasylum": 8272,
      "Ġorganizers": 8273,
      "Ġemerge": 8274,
      "Ġdisciples": 8275,
      "Ġsettlements": 8276,
      "Ġdeliberately": 8277,
      "iets": 8278,
      "Ġanonym": 8279,
      "sific": 8280,
      "emed": 8281,
      "Ġsubstitut": 8282,
      "Ġcenturies": 8283,
      "Ġcommanders": 8284,
      "Ġliters": 8285,
      "Ġlifestyle": 8286,
      "gic": 8287,
      "omic": 8288,
      "accept": 8289,
      "Ġshift": 8290,
      "ĠTursun": 8291,
      "ĠSoviets": 8292,
      "Ġforecasts": 8293,
      "Ġadvancing": 8294,
      "Ġfleet": 8295,
      "ĠDid": 8296,
      "Ġsurround": 8297,
      "ASS": 8298,
      "Ġcapacities": 8299,
      "ĠEverything": 8300,
      "Reg": 8301,
      "ĠRomania": 8302,
      "Ġunexpectedly": 8303,
      "ĠMarket": 8304,
      "arova": 8305,
      "Ġant": 8306,
      "Ġdivers": 8307,
      "ipes": 8308,
      "ĠWars": 8309,
      "astro": 8310,
      "phone": 8311,
      "ressor": 8312,
      "ieties": 8313,
      "Ġkilometer": 8314,
      "Ġcongress": 8315,
      "Ġunclear": 8316,
      "vol": 8317,
      "Ġdark": 8318,
      "ĠToy": 8319,
      "ĠKen": 8320,
      "Ġworksh": 8321,
      "medov": 8322,
      "ĠPrize": 8323,
      "ĠSaf": 8324,
      "Ġmodernization": 8325,
      "Ġexpertise": 8326,
      "Ġbench": 8327,
      "cles": 8328,
      "Ġnomin": 8329,
      "artial": 8330,
      "Ġnoting": 8331,
      "ĠKakh": 8332,
      "aircraft": 8333,
      "atorium": 8334,
      "shon": 8335,
      "ĠGovernment": 8336,
      "Ġpleased": 8337,
      "Ġpsychological": 8338,
      "ĠDamas": 8339,
      "Ġdecades": 8340,
      "ĠVin": 8341,
      "ĠAliyev": 8342,
      "Ġlanded": 8343,
      "Ġstatistical": 8344,
      "Ġskill": 8345,
      "Ġastron": 8346,
      "enant": 8347,
      "Ġalive": 8348,
      "ĠPy": 8349,
      "Ġhasn": 8350,
      "ignity": 8351,
      "Ġdisconn": 8352,
      "Ġplacing": 8353,
      "osi": 8354,
      "ĠÃķz": 8355,
      "asar": 8356,
      "ilding": 8357,
      "stand": 8358,
      "Ġrelation": 8359,
      "Ġmaintenance": 8360,
      "Ġskilled": 8361,
      "Ġfreight": 8362,
      "speed": 8363,
      "ĠCombating": 8364,
      "Measures": 8365,
      "ĠFurthermore": 8366,
      "TI": 8367,
      "Ġreaction": 8368,
      "ĠFore": 8369,
      "ĠWhere": 8370,
      "Ġlarger": 8371,
      "Ġfeet": 8372,
      "Ġlesson": 8373,
      "Ġcounterpart": 8374,
      "being": 8375,
      "Ġfreedoms": 8376,
      "Ġfellow": 8377,
      "Ġpromote": 8378,
      "Ġdoubled": 8379,
      "ĠInterestingly": 8380,
      "Ġempty": 8381,
      "Jomart": 8382,
      "Ġhinder": 8383,
      "ĠYer": 8384,
      "Ġconversations": 8385,
      "Ġalleg": 8386,
      "ĠDigital": 8387,
      "eva": 8388,
      "Ġ66": 8389,
      "Ġknowing": 8390,
      "Ġexaminations": 8391,
      "Ġidentification": 8392,
      "Ġcongratulated": 8393,
      "Ġdiagnosed": 8394,
      "ĠKuleba": 8395,
      "AZ": 8396,
      "PSG": 8397,
      "dem": 8398,
      "ayz": 8399,
      "Ġseed": 8400,
      "abz": 8401,
      "ĠLib": 8402,
      "Ġclients": 8403,
      "Ġtelecomm": 8404,
      "Ġfunctions": 8405,
      "sification": 8406,
      "Green": 8407,
      "Ġnone": 8408,
      "ĠNear": 8409,
      "Ġmoreover": 8410,
      "Ġairspace": 8411,
      "Ġreceives": 8412,
      "ĠInvestigative": 8413,
      "No": 8414,
      "Ġrival": 8415,
      "Ġarising": 8416,
      "Ġapprove": 8417,
      "Ġsanitary": 8418,
      "Ġemerging": 8419,
      "ĠEngine": 8420,
      "Ġquotas": 8421,
      "Ġexperiencing": 8422,
      "cher": 8423,
      "ein": 8424,
      "Ġstored": 8425,
      "ulf": 8426,
      "ĠOleg": 8427,
      "ĠLu": 8428,
      "Ġproven": 8429,
      "oking": 8430,
      "Ġdefensive": 8431,
      "Ġinterrog": 8432,
      "Ġherself": 8433,
      "Ġdrive": 8434,
      "Ġpublishing": 8435,
      "Ġshowc": 8436,
      "ĠInvestment": 8437,
      "anese": 8438,
      "ĠDenov": 8439,
      "Ġchairmanship": 8440,
      "Ġhorse": 8441,
      "Ġdormitory": 8442,
      "Ġtouched": 8443,
      "rimin": 8444,
      "Ġnations": 8445,
      "ĠAven": 8446,
      "ĠCal": 8447,
      "Ġseat": 8448,
      "ibly": 8449,
      "ĠAli": 8450,
      "ĠProced": 8451,
      "shod": 8452,
      "Ġpotat": 8453,
      "Ġdisappear": 8454,
      "ĠBundes": 8455,
      "Ġobstacles": 8456,
      "acceptable": 8457,
      "ĠKakhovka": 8458,
      "Ġcast": 8459,
      "ĠMong": 8460,
      "ecurity": 8461,
      "Ġapproaches": 8462,
      "ĠKhiva": 8463,
      "Ġtrend": 8464,
      "ĠReportedly": 8465,
      "Ġinflicted": 8466,
      "Ġunsuccess": 8467,
      "Ġturb": 8468,
      "Ġcin": 8469,
      "ĠIly": 8470,
      "ĠMur": 8471,
      "Ġforensic": 8472,
      "Ġtreaty": 8473,
      "Ġscheme": 8474,
      "Ġsolidarity": 8475,
      "Ġsolely": 8476,
      "De": 8477,
      "Ġfill": 8478,
      "Ġthus": 8479,
      "ollah": 8480,
      "Ġinterfe": 8481,
      "Ġ2001": 8482,
      "Ġsuspects": 8483,
      "Ġholds": 8484,
      "Ġpiece": 8485,
      "ĠOverall": 8486,
      "Ġwaters": 8487,
      "abotage": 8488,
      "42": 8489,
      "Ġnom": 8490,
      "iston": 8491,
      "Ġloved": 8492,
      "rencies": 8493,
      "Ġpassports": 8494,
      "Ġpoet": 8495,
      "ographic": 8496,
      "Ġterminated": 8497,
      "Ġembargo": 8498,
      "dor": 8499,
      "zb": 8500,
      "Ġtens": 8501,
      "ĠTreat": 8502,
      "Ġnet": 8503,
      "imed": 8504,
      "Ġeventually": 8505,
      "Ġdevast": 8506,
      "matics": 8507,
      "Ġhistoric": 8508,
      "Ġmagaz": 8509,
      "gal": 8510,
      "Ġspaces": 8511,
      "Ġ2003": 8512,
      "Ġdisputes": 8513,
      "Ġ1980": 8514,
      "Liverpool": 8515,
      "ĠRus": 8516,
      "ivan": 8517,
      "ĠBoeing": 8518,
      "Ġ62": 8519,
      "Ġvisible": 8520,
      "ĠProfessor": 8521,
      "ĠGuterres": 8522,
      "NA": 8523,
      "organ": 8524,
      "Ġbachelor": 8525,
      "ster": 8526,
      "ĠKatt": 8527,
      "Ġincur": 8528,
      "Ġunderway": 8529,
      "Ġ97": 8530,
      "Ġaudience": 8531,
      "Ġcircumvent": 8532,
      "Ġovers": 8533,
      "Ġhiding": 8534,
      "ĠSum": 8535,
      "ĠFSB": 8536,
      "emiological": 8537,
      "agraph": 8538,
      "acific": 8539,
      "ĠNort": 8540,
      "ĠOcean": 8541,
      "ĠForce": 8542,
      "ĠMirziyoyeva": 8543,
      "Ġtroub": 8544,
      "ĠAlliance": 8545,
      "arantine": 8546,
      "ĠAbdurahmonov": 8547,
      "ĠEuras": 8548,
      "gidromet": 8549,
      "Ġkitchen": 8550,
      "Ġuran": 8551,
      "ĠFour": 8552,
      "ĠFood": 8553,
      "ĠKab": 8554,
      "ĠJens": 8555,
      "ieut": 8556,
      "Ġworker": 8557,
      "Ġinvitation": 8558,
      "Ġ98": 8559,
      "Ġfeed": 8560,
      "Ġlooked": 8561,
      "Ġearthquakes": 8562,
      "Ġceremon": 8563,
      "IMARS": 8564,
      "ĠEmployment": 8565,
      "Ġuranium": 8566,
      "card": 8567,
      "ĠTat": 8568,
      "Ġimportantly": 8569,
      "Ġfarms": 8570,
      "Ġdiplomat": 8571,
      "Ġmagnitude": 8572,
      "uv": 8573,
      "Ġpounds": 8574,
      "Ġbreat": 8575,
      "ĠTASS": 8576,
      "antly": 8577,
      "apoli": 8578,
      "place": 8579,
      "Ġconfront": 8580,
      "Ġ180": 8581,
      "Ġpromise": 8582,
      "Ġaddressing": 8583,
      "anche": 8584,
      "Ġcleaning": 8585,
      "Ġaudio": 8586,
      "ĠMahmud": 8587,
      "ĠBakirov": 8588,
      "Ġreligion": 8589,
      "ĠIssues": 8590,
      "iencies": 8591,
      "Ġstars": 8592,
      "ĠBax": 8593,
      "odon": 8594,
      "dustrial": 8595,
      "ĠJer": 8596,
      "Ġadult": 8597,
      "bersecurity": 8598,
      "Ġdetermining": 8599,
      "Ġacquired": 8600,
      "Ġpackages": 8601,
      "Ġspoken": 8602,
      "Ġundoubtedly": 8603,
      "ĠRobert": 8604,
      "ieutenant": 8605,
      "\")": 8606,
      "noc": 8607,
      "Ġharsh": 8608,
      "resh": 8609,
      "Ġunited": 8610,
      "ĠOmbudsman": 8611,
      "Ġtransplant": 8612,
      "Ġseconds": 8613,
      "Ġcircles": 8614,
      "author": 8615,
      "Ġparam": 8616,
      "Ġaffecting": 8617,
      "Ġdynam": 8618,
      "mazor": 8619,
      "Ġlux": 8620,
      "Ġbypass": 8621,
      "Ġhack": 8622,
      "Ġ190": 8623,
      "ĠShoy": 8624,
      "Ġgrounds": 8625,
      "ĠPhil": 8626,
      "Ġsilk": 8627,
      "ĠAkmal": 8628,
      "Ġunusual": 8629,
      "Ġcounterfeit": 8630,
      "Tosh": 8631,
      "Ġmap": 8632,
      "Ġexit": 8633,
      "Ġ2009": 8634,
      "Ġvegetables": 8635,
      "mir": 8636,
      "roll": 8637,
      "ĠHIMARS": 8638,
      "Ġsuicide": 8639,
      "Ġconsolid": 8640,
      "Ġ69": 8641,
      "Ġdemol": 8642,
      "Ġmathe": 8643,
      "Ġwheel": 8644,
      "ringing": 8645,
      "Ġindifferent": 8646,
      "unyodkor": 8647,
      "ĠTaking": 8648,
      "ĠIk": 8649,
      "ĠPat": 8650,
      "riend": 8651,
      "Ġshots": 8652,
      "ĠLangu": 8653,
      "ĠYur": 8654,
      "ĠSaidov": 8655,
      "Ġmultif": 8656,
      "Ġseparated": 8657,
      "Ġburied": 8658,
      "zinka": 8659,
      "Ġsure": 8660,
      "oma": 8661,
      "ĠIM": 8662,
      "istor": 8663,
      "ĠUp": 8664,
      "ĠDutch": 8665,
      "Ġspect": 8666,
      "ĠPeace": 8667,
      "ĠWarsaw": 8668,
      "itively": 8669,
      "iling": 8670,
      "ille": 8671,
      "rav": 8672,
      "adan": 8673,
      "ĠStock": 8674,
      "Ġactual": 8675,
      "aze": 8676,
      "Ġdepict": 8677,
      "stana": 8678,
      "Ġrare": 8679,
      "ĠAbu": 8680,
      "Ġsolved": 8681,
      "Ġworthy": 8682,
      "ĠAbduq": 8683,
      "ĠIndonesia": 8684,
      "including": 8685,
      "oral": 8686,
      "ĠSilk": 8687,
      "ĠCam": 8688,
      "ĠRas": 8689,
      "ĠRad": 8690,
      "Ġvirt": 8691,
      "Ġcaptain": 8692,
      "orthy": 8693,
      "Ġinterviews": 8694,
      "Ġparks": 8695,
      "Ġgreenhouses": 8696,
      "ĠErkin": 8697,
      "ometimes": 8698,
      "Ġly": 8699,
      "Ġfaster": 8700,
      "Ġstriving": 8701,
      "ĠDarya": 8702,
      "Ġcoverage": 8703,
      "ĠArsenal": 8704,
      "ĠAustria": 8705,
      "aturally": 8706,
      "Ġdeficiencies": 8707,
      "aken": 8708,
      "ĠKarshi": 8709,
      "quid": 8710,
      "Ġencl": 8711,
      "Ġbusy": 8712,
      "Ġfounded": 8713,
      "Ġvictories": 8714,
      "ĠResources": 8715,
      "Ġbridges": 8716,
      "ĠElon": 8717,
      "elihood": 8718,
      "Ġsuperiority": 8719,
      "Ġlikelihood": 8720,
      "Ġcourtyard": 8721,
      "gi": 8722,
      "Ġtheft": 8723,
      "Ġgar": 8724,
      "ĠPatri": 8725,
      "ĠGT": 8726,
      "Ġuses": 8727,
      "Ġrecovered": 8728,
      "ikov": 8729,
      "Ġtransported": 8730,
      "ĠFinnish": 8731,
      "keeping": 8732,
      "Ġexpecting": 8733,
      "Ġfirmly": 8734,
      "AC": 8735,
      "Ġran": 8736,
      "Ġwarfare": 8737,
      "manuel": 8738,
      "ĠQor": 8739,
      "ika": 8740,
      "Ġexchanging": 8741,
      "ĠWithout": 8742,
      "Ġpainful": 8743,
      "78": 8744,
      "Nas": 8745,
      "vis": 8746,
      "Ġpipes": 8747,
      "Ġhes": 8748,
      "tech": 8749,
      "Ġovert": 8750,
      "Ġsmoke": 8751,
      "Ġreflecting": 8752,
      "Ġseeking": 8753,
      "ĠShaykh": 8754,
      "Ġleather": 8755,
      "Ġ350": 8756,
      "Ġ2004": 8757,
      "Ġcollaborate": 8758,
      "Ġcontaining": 8759,
      "Ġcelebration": 8760,
      "ĠDenis": 8761,
      "Ġregistering": 8762,
      "Ġprobability": 8763,
      "All": 8764,
      "ean": 8765,
      "store": 8766,
      "ĠCatal": 8767,
      "terror": 8768,
      "ĠHum": 8769,
      "Ġworse": 8770,
      "Ġbride": 8771,
      "Ġbusinessman": 8772,
      "Ġyounger": 8773,
      "ĠEmmanuel": 8774,
      "Ġterrorists": 8775,
      "Ġdivor": 8776,
      "Ãķzgidromet": 8777,
      "ĠNetworks": 8778,
      "Ġdistan": 8779,
      "ĠMil": 8780,
      "ĠRahmon": 8781,
      "ĠYash": 8782,
      "Ġfinish": 8783,
      "Ġrecre": 8784,
      "Ġmaneu": 8785,
      "Ġperiods": 8786,
      "Ġsuccesses": 8787,
      "Ġ1994": 8788,
      "ĠAlexey": 8789,
      "Ġconfidential": 8790,
      "Ġepis": 8791,
      "Ġcomparison": 8792,
      "ae": 8793,
      "rets": 8794,
      "Ġfat": 8795,
      "Ġloyal": 8796,
      "eth": 8797,
      "andex": 8798,
      "ĠNaturally": 8799,
      "Ġ61": 8800,
      "Ġtaxpay": 8801,
      "China": 8802,
      "Ġinnoc": 8803,
      "inger": 8804,
      "olen": 8805,
      "ĠMI": 8806,
      "ĠPel": 8807,
      "abric": 8808,
      "olden": 8809,
      "Ġstriking": 8810,
      "Ġdigit": 8811,
      "Ġpedagogical": 8812,
      "Ġsubsidy": 8813,
      "ĠJÃµrayev": 8814,
      "final": 8815,
      "real": 8816,
      "Ġbases": 8817,
      "Ġstood": 8818,
      "Ġintensive": 8819,
      "Ġ900": 8820,
      "ĠAbb": 8821,
      "Ġdestroying": 8822,
      "Ġbreaking": 8823,
      "ĠApparently": 8824,
      "Ġclaiming": 8825,
      "Ġfulfilling": 8826,
      "ĠAntonio": 8827,
      "Ġwatching": 8828,
      "Ġsurprised": 8829,
      "ĠSlovakia": 8830,
      "Ġprescribed": 8831,
      "She": 8832,
      "gian": 8833,
      "handed": 8834,
      "winter": 8835,
      "ĠAstana": 8836,
      "amov": 8837,
      "Ġyellow": 8838,
      "Ġrot": 8839,
      "Ġtwenty": 8840,
      "phabet": 8841,
      "lessly": 8842,
      "Ġurgently": 8843,
      "Ġsurprising": 8844,
      "ĠCertain": 8845,
      "Ġsurrounded": 8846,
      "How": 8847,
      "Ġsong": 8848,
      "achev": 8849,
      "ĠKass": 8850,
      "ĠGreen": 8851,
      "Ġdepth": 8852,
      "Ġ2002": 8853,
      "Ġdetect": 8854,
      "ferential": 8855,
      "Ġfailing": 8856,
      "ographer": 8857,
      "Ġautomated": 8858,
      "Ġdreams": 8859,
      "Now": 8860,
      "ĠAy": 8861,
      "Ġrepaired": 8862,
      "Ġowns": 8863,
      "Ġplanes": 8864,
      "Ġdebut": 8865,
      "missions": 8866,
      "Ġgenocide": 8867,
      "ĠJosep": 8868,
      "Ġorphan": 8869,
      "Af": 8870,
      "electric": 8871,
      "Ġthrown": 8872,
      "usc": 8873,
      "unch": 8874,
      "ensity": 8875,
      "Ġedition": 8876,
      "Ġlegit": 8877,
      "Ġelements": 8878,
      "Ġhelicopter": 8879,
      "Ġunlikely": 8880,
      "hane": 8881,
      "sen": 8882,
      "ading": 8883,
      "ĠLv": 8884,
      "ĠArmy": 8885,
      "ĠValer": 8886,
      "Ġmachines": 8887,
      "Ġvacant": 8888,
      "Ġvegetable": 8889,
      "humanitarian": 8890,
      "Ġconvinced": 8891,
      "ĠProgram": 8892,
      "ker": 8893,
      "Ġtight": 8894,
      "Ġsap": 8895,
      "ayrat": 8896,
      "ashvili": 8897,
      "Ġtradition": 8898,
      "Ġbless": 8899,
      "Ġbrings": 8900,
      "ĠLeban": 8901,
      "ĠEnter": 8902,
      "Ġlisten": 8903,
      "Ġhostages": 8904,
      "ĠHungarian": 8905,
      "Ġgrandm": 8906,
      "Ġcoinc": 8907,
      "Ġaccumulated": 8908,
      "bahor": 8909,
      "ĠLebanon": 8910,
      "EI": 8911,
      "Or": 8912,
      "zed": 8913,
      "enter": 8914,
      "ĠBrig": 8915,
      "Ġoutages": 8916,
      "Ġsentences": 8917,
      "Ġfinanced": 8918,
      "ĠBeh": 8919,
      "Ġrecommendation": 8920,
      "ĠStudies": 8921,
      "risabz": 8922,
      "ĠOrtiqxÃµjayev": 8923,
      "ĠKassym": 8924,
      "ESCO": 8925,
      "power": 8926,
      "Ġwages": 8927,
      "rolet": 8928,
      "urch": 8929,
      "ĠSk": 8930,
      "Ġunrest": 8931,
      "Ġsuc": 8932,
      "arked": 8933,
      "ĠShoh": 8934,
      "Ġequality": 8935,
      "Ġnationality": 8936,
      "iola": 8937,
      "Ġ160": 8938,
      "Ġfeature": 8939,
      "Ġprofessions": 8940,
      "ĠNorboyeva": 8941,
      "Ġownership": 8942,
      "ĠChechen": 8943,
      "Ġstipulated": 8944,
      "ashinyan": 8945,
      "ĠTreasury": 8946,
      "Milan": 8947,
      "Ġdignity": 8948,
      "ĠMich": 8949,
      "ĠChev": 8950,
      "Ġresumed": 8951,
      "ĠLoc": 8952,
      "Ġemissions": 8953,
      "Ġhitting": 8954,
      "Ġlinked": 8955,
      "Ġpreserved": 8956,
      "Ġbrigade": 8957,
      "Ġuniform": 8958,
      "Ġsucceed": 8959,
      "48": 8960,
      "inated": 8961,
      "Ġsabotage": 8962,
      "Ġthrew": 8963,
      "ĠTol": 8964,
      "ĠPashinyan": 8965,
      "ĠBook": 8966,
      "Ġrepairs": 8967,
      "Ġflu": 8968,
      "Ġfootage": 8969,
      "Ġinstalling": 8970,
      "ĠPalace": 8971,
      "Ġissuance": 8972,
      "Ġsettlement": 8973,
      "Ġbags": 8974,
      "Bayern": 8975,
      "PS": 8976,
      "din": 8977,
      "Ġsn": 8978,
      "Ġcovers": 8979,
      "ĠDet": 8980,
      "ĠFayz": 8981,
      "apers": 8982,
      "irect": 8983,
      "ostov": 8984,
      "ĠSho": 8985,
      "Ġbehav": 8986,
      "Ġquota": 8987,
      "Ġathlete": 8988,
      "Ġgreater": 8989,
      "Ġsuspicion": 8990,
      "Ġkilograms": 8991,
      "ĠDemocrats": 8992,
      "ĠMongol": 8993,
      "Ros": 8994,
      "itan": 8995,
      "arat": 8996,
      "ica": 8997,
      "ĠSSR": 8998,
      "Ġseize": 8999,
      "ĠLy": 9000,
      "anka": 9001,
      "uality": 9002,
      "born": 9003,
      "Ġseparately": 9004,
      "Ġfulfilled": 9005,
      "Ġquarterfinals": 9006,
      "Ġsupermark": 9007,
      "Ġblocking": 9008,
      "Ġexpectations": 9009,
      "Ġrecruit": 9010,
      "Ġinquiry": 9011,
      "technical": 9012,
      "ĠProcedure": 9013,
      "stock": 9014,
      "uli": 9015,
      "Ġsear": 9016,
      "ĠOs": 9017,
      "uda": 9018,
      "aste": 9019,
      "orship": 9020,
      "cessary": 9021,
      "ractical": 9022,
      "Ġplanting": 9023,
      "2026": 9024,
      "ĠNavoi": 9025,
      "Ġconsulting": 9026,
      "Ġconsultations": 9027,
      "ĠNiger": 9028,
      "Ġsurrender": 9029,
      "ĠNorthern": 9030,
      "ĠShoygu": 9031,
      "aments": 9032,
      "lon": 9033,
      "pret": 9034,
      "Ġforcing": 9035,
      "Ġgrew": 9036,
      "Ġalt": 9037,
      "ĠDes": 9038,
      "oye": 9039,
      "Ġsurg": 9040,
      "Ġbackground": 9041,
      "ĠOlmazor": 9042,
      "Ġfloors": 9043,
      "Ġloaded": 9044,
      "Ġpalace": 9045,
      "Ġprovinces": 9046,
      "usalem": 9047,
[...]
