{
  "version": "1.0",
  "truncation": null,
  "padding": null,
  "added_tokens": [
    {
      "id": 0,
      "content": "[PAD]",
      "single_word": false,
      "lstrip": false,
      "rstrip": false,
      "normalized": false,
      "special": true
    },
    {
      "id": 1,
      "content": "[UNK]",
      "single_word": false,
      "lstrip": false,
      "rstrip": false,
      "normalized": false,
      "special": true
    }
  ],
  "normalizer": null,
  "pre_tokenizer": {
    "type": "ByteLevel",
    "add_prefix_space": true,
    "trim_offsets": true,
    "use_regex": true
  },
  "post_processor": null,
  "decoder": null,
  "model": {
    "type": "BPE",
    "dropout": null,
    "unk_token": null,
    "continuing_subword_prefix": null,
    "end_of_word_suffix": null,
    "fuse_unk": false,
    "byte_fallback": false,
    "vocab": {
      "[PAD]": 0,
      "[UNK]": 1,
      "!": 2,
      "\"": 3,
      "#": 4,
      "$": 5,
      "%": 6,
      "&": 7,
      "'": 8,
      "(": 9,
      ")": 10,
      "*": 11,
      "+": 12,
      ",": 13,
      "-": 14,
      ".": 15,
      "/": 16,
      "0": 17,
      "1": 18,
      "2": 19,
      "3": 20,
      "4": 21,
      "5": 22,
      "6": 23,
      "7": 24,
      "8": 25,
      "9": 26,
      ":": 27,
      ";": 28,
      "<": 29,
      "=": 30,
      ">": 31,
      "?": 32,
      "@": 33,
      "A": 34,
      "B": 35,
      "C": 36,
      "D": 37,
      "E": 38,
      "F": 39,
      "G": 40,
      "H": 41,
      "I": 42,
      "J": 43,
      "K": 44,
      "L": 45,
      "M": 46,
      "N": 47,
      "O": 48,
      "P": 49,
      "Q": 50,
      "R": 51,
      "S": 52,
      "T": 53,
      "U": 54,
      "V": 55,
      "W": 56,
      "X": 57,
      "Y": 58,
      "Z": 59,
      "[": 60,
      "\\": 61,
      "]": 62,
      "^": 63,
      "_": 64,
      "a": 65,
      "b": 66,
      "c": 67,
      "d": 68,
      "e": 69,
      "f": 70,
      "g": 71,
      "h": 72,
      "i": 73,
      "j": 74,
      "k": 75,
      "l": 76,
      "m": 77,
      "n": 78,
      "o": 79,
      "p": 80,
      "q": 81,
      "r": 82,
      "s": 83,
      "t": 84,
      "u": 85,
      "v": 86,
      "w": 87,
      "x": 88,
      "y": 89,
      "z": 90,
      "{": 91,
      "|": 92,
      "}": 93,
      "~": 94,
      "¡": 95,
      "¢": 96,
      "£": 97,
      "¤": 98,
      "¥": 99,
      "¦": 100,
      "§": 101,
      "¨": 102,
      "©": 103,
      "ª": 104,
      "«": 105,
      "¬": 106,
      "®": 107,
      "¯": 108,
      "°": 109,
      "±": 110,
      "²": 111,
      "³": 112,
      "´": 113,
      "µ": 114,
      "¶": 115,
      "·": 116,
      "¸": 117,
      "¹": 118,
      "º": 119,
      "»": 120,
      "¼": 121,
      "½": 122,
      "¾": 123,
      "¿": 124,
      "Â": 125,
      "Ã": 126,
      "Ä": 127,
      "Å": 128,
      "Ç": 129,
      "È": 130,
      "É": 131,
      "Ì": 132,
      "Î": 133,
      "Ï": 134,
      "Ð": 135,
      "Ñ": 136,
      "Ò": 137,
      "×": 138,
      "á": 139,
      "â": 140,
      "å": 141,
      "è": 142,
      "ê": 143,
      "ë": 144,
      "ì": 145,
      "Ċ": 146,
      "Ġ": 147,
      "Ģ": 148,
      "ģ": 149,
      "Ĥ": 150,
      "ĥ": 151,
      "Ħ": 152,
      "ħ": 153,
      "Ĩ": 154,
      "ĩ": 155,
      "Ī": 156,
      "ī": 157,
      "Ĭ": 158,
      "ĭ": 159,
      "Į": 160,
      "į": 161,
      "İ": 162,
      "ı": 163,
      "Ĳ": 164,
      "ĳ": 165,
      "Ĵ": 166,
      "ĵ": 167,
      "Ķ": 168,
      "ķ": 169,
      "ĸ": 170,
      "Ĺ": 171,
      "ĺ": 172,
      "Ļ": 173,
      "ļ": 174,
      "Ľ": 175,
      "ľ": 176,
      "Ŀ": 177,
      "ŀ": 178,
      "Ł": 179,
      "ł": 180,
      "Ń": 181,
      "Ġt": 182,
      "he": 183,
      "in": 184,
      "Ġa": 185,
      "Ġthe": 186,
      "on": 187,
      "re": 188,
      "Ġo": 189,
      "er": 190,
      "at": 191,
      "en": 192,
      "is": 193,
      "or": 194,
      "Ġof": 195,
      "Ġc": 196,
      "an": 197,
      "ed": 198,
      "Ġs": 199,
      "Ġw": 200,
      "it": 201,
      "Ġp": 202,
      "Ġin": 203,
      "ion": 204,
      "es": 205,
      "ing": 206,
      "al": 207,
      "Ġf": 208,
      "ar": 209,
      "Ġb": 210,
      "Ġto": 211,
      "Ġan": 212,
      "ic": 213,
      "as": 214,
      "Ġd": 215,
      "ent": 216,
      "ro": 217,
      "Ġm": 218,
      "Ġand": 219,
      "ou": 220,
      "Ġh": 221,
      "Ġre": 222,
      "il": 223,
      "Ġth": 224,
      "ĠT": 225,
      "le": 226,
      "ation": 227,
      "ct": 228,
      "ĠA": 229,
      "Ġn": 230,
      "st": 231,
      "Ġbe": 232,
      "Ġe": 233,
      "om": 234,
      "ve": 235,
      "ur": 236,
      "ist": 237,
      "id": 238,
      "ĠI": 239,
      "Ġfor": 240,
      "ly": 241,
      "im": 242,
      "Ġis": 243,
      "Ġon": 244,
      "am": 245,
      "ol": 246,
      "ad": 247,
      "ut": 248,
      "ot": 249,
      "ce": 250,
      "ĠS": 251,
      "ir": 252,
      "Ġl": 253,
      "ĠThe": 254,
      "us": 255,
      "ĠU": 256,
      "Ġg": 257,
      "et": 258,
      "ig": 259,
      "Ġst": 260,
      "un": 261,
      "ment": 262,
      "ers": 263,
      "Ġcon": 264,
      "ill": 265,
      "ith": 266,
      "ay": 267,
      "Ġthat": 268,
      "ĠM": 269,
      "Ġpro": 270,
      "Ġwith": 271,
      "ch": 272,
      "ĠC": 273,
      "Ġde": 274,
      "ul": 275,
      "ort": 276,
      "res": 277,
      "Ġwe": 278,
      "Ġ2": 279,
      "iv": 280,
      "nt": 281,
      "ding": 282,
      "ra": 283,
      "ate": 284,
      "cc": 285,
      "ies": 286,
      "Ġwas": 287,
      "ĠR": 288,
      "Ġ1": 289,
      "op": 290,
      "se": 291,
      "Ġare": 292,
      "ĠP": 293,
      "ow": 294,
      "Ġit": 295,
      "Ġas": 296,
      "'s": 297,
      "ver": 298,
      "Ġat": 299,
      "Ġcom": 300,
      "ĠIn": 301,
      "ek": 302,
      "rom": 303,
      "ity": 304,
      "Ġal": 305,
      "Ġhe": 306,
      "Ġex": 307,
      "port": 308,
      "art": 309,
      "ld": 310,
      "est": 311,
      "Ġy": 312,
      "Ġfrom": 313,
      "Ġthis": 314,
      "ial": 315,
      "bek": 316,
      "iz": 317,
      "ĠB": 318,
      "Ġne": 319,
      "pe": 320,
      "if": 321,
      "Ġhas": 322,
      "Ġby": 323,
      "istan": 324,
      "Ġwh": 325,
      "and": 326,
      "Ġha": 327,
      "Â»": 328,
      "Â«": 329,
      "ĠD": 330,
      "ĠÂ«": 331,
      "zbek": 332,
      "ain": 333,
      "os": 334,
      "ter": 335,
      "Ġv": 336,
      "Ġwill": 337,
      "her": 338,
      "od": 339,
      "ĠF": 340,
      "ore": 341,
      "ĠUzbek": 342,
      "ions": 343,
      "Ġnot": 344,
      "ag": 345,
      "em": 346,
      "ak": 347,
      "ub": 348,
      "ab": 349,
      "um": 350,
      "ess": 351,
      "Ġhave": 352,
      "th": 353,
      "oc": 354,
      "Ġse": 355,
      "qu": 356,
      "ccor": 357,
      "ĠE": 358,
      "red": 359,
      "si": 360,
      "ary": 361,
      "Ġbeen": 362,
      "up": 363,
      "ated": 364,
      "Ġcou": 365,
      "Ġpl": 366,
      "Ġ20": 367,
      "ccording": 368,
      "Ġle": 369,
      "Ġ\"": 370,
      "ant": 371,
      "ip": 372,
      "el": 373,
      "ĠUzbekistan": 374,
      "du": 375,
      "igh": 376,
      "ĠN": 377,
      "ov": 378,
      "istr": 379,
      "ac": 380,
      "ĠO": 381,
      "ep": 382,
      "ive": 383,
      "Ġcomp": 384,
      "ĠK": 385,
      "Ġreg": 386,
      "Ġun": 387,
      "Ġres": 388,
      "ĠAccording": 389,
      "ĠW": 390,
      "Ġor": 391,
      "ĠH": 392,
      "ident": 393,
      "Ġag": 394,
      "ear": 395,
      "lic": 396,
      "Ġwor": 397,
      "ber": 398,
      "ous": 399,
      "ect": 400,
      "Ġwere": 401,
      "Ġch": 402,
      "ition": 403,
      "ations": 404,
      "ĠJ": 405,
      "ud": 406,
      "00": 407,
      "Ġim": 408,
      "Ġr": 409,
      "ĠG": 410,
      "ff": 411,
      "ice": 412,
      "ri": 413,
      "Ġen": 414,
      "pp": 415,
      "Ġint": 416,
      "orm": 417,
      "Ġ-": 418,
      "ult": 419,
      "Ġ(": 420,
      "Ġad": 421,
      "ign": 422,
      "ical": 423,
      "oun": 424,
      "der": 425,
      "Ġgo": 426,
      "ans": 427,
      "Ġinc": 428,
      "ue": 429,
      "all": 430,
      "so": 431,
      "Ġtheir": 432,
      "ure": 433,
      "ight": 434,
      "Ġper": 435,
      "Ġyear": 436,
      "ublic": 437,
      "ict": 438,
      "ĠL": 439,
      "Ġcount": 440,
      "Ġsh": 441,
      "per": 442,
      "Ġme": 443,
      "ie": 444,
      "ust": 445,
      "ug": 446,
      "Ġab": 447,
      "our": 448,
      "ational": 449,
      "Ġtr": 450,
      "Ġalso": 451,
      "ren": 452,
      "out": 453,
      "Ġte": 454,
      "Ġreport": 455,
      "ine": 456,
      "ction": 457,
      "Ġcountr": 458,
      "ime": 459,
      "Ġpart": 460,
      "form": 461,
      "ced": 462,
      "Ġwho": 463,
      "erv": 464,
      "Ġhis": 465,
      "ĠTh": 466,
      "ide": 467,
      "vel": 468,
      "ussi": 469,
      "gan": 470,
      "ard": 471,
      "Ġdis": 472,
      "ĠMin": 473,
      "Ġpe": 474,
      "ĠRussi": 475,
      "Ġ3": 476,
      "Ġall": 477,
      "ame": 478,
      "ap": 479,
      "ace": 480,
      "ash": 481,
      "ast": 482,
      "Ġcont": 483,
      "av": 484,
      "age": 485,
      "ong": 486,
      "ople": 487,
      "Ġk": 488,
      "uring": 489,
      "og": 490,
      "resident": 491,
      "illion": 492,
      "Ġwork": 493,
      "ities": 494,
      "ost": 495,
      "pl": 496,
      "ang": 497,
      "ll": 498,
      "ire": 499,
      "ance": 500,
      "ther": 501,
      "Ġoff": 502,
      "con": 503,
      "any": 504,
      "ru": 505,
      "Ġpeople": 506,
      "end": 507,
      "hed": 508,
      "Ġ201": 509,
      "ree": 510,
      "Ġnew": 511,
      "und": 512,
      "ally": 513,
      "ĠThis": 514,
      "ia": 515,
      "oll": 516,
      "Ġbeing": 517,
      "Ġhad": 518,
      "Ġapp": 519,
      "ĠCh": 520,
      "oy": 521,
      "Ġstate": 522,
      "ase": 523,
      "ens": 524,
      "Ġcan": 525,
      "Ġdec": 526,
      "Ġimp": 527,
      "ome": 528,
      "Ġcl": 529,
      "Ġam": 530,
      "Ġem": 531,
      "Ġj": 532,
      "ok": 533,
      "ich": 534,
      "ments": 535,
      "Ġact": 536,
      "Ġus": 537,
      "Ġpre": 538,
      "ĠSt": 539,
      "ish": 540,
      "Ġent": 541,
      "ass": 542,
      "Ġsu": 543,
      "dition": 544,
      "Ġpr": 545,
      "Ġregion": 546,
      "ased": 547,
      "ress": 548,
      "one": 549,
      "Ġour": 550,
      "cial": 551,
      "Ġthere": 552,
      "Ġcar": 553,
      "Ġcons": 554,
      "Ġout": 555,
      "enc": 556,
      "ors": 557,
      "Ġtime": 558,
      "ious": 559,
      "Ġone": 560,
      "Ġar": 561,
      "Ġsc": 562,
      "fter": 563,
      "ould": 564,
      "Ġspe": 565,
      "duct": 566,
      "Ġthey": 567,
      "Ġinter": 568,
      "Ġyou": 569,
      "formation": 570,
      "Ġabout": 571,
      "Ġev": 572,
      "rent": 573,
      "Ġqu": 574,
      "Ġits": 575,
      "cent": 576,
      "ory": 577,
      "ev": 578,
      "hen": 579,
      "velop": 580,
      "ized": 581,
      "aid": 582,
      "uc": 583,
      "ted": 584,
      "Ġdistr": 585,
      "ugh": 586,
      "ark": 587,
      "Ġ5": 588,
      "Ġcity": 589,
      "ied": 590,
      "irst": 591,
      "Ġann": 592,
      "ating": 593,
      "Ġprov": 594,
      "Ġserv": 595,
      "Ġro": 596,
      "ĠRep": 597,
      "ĠIt": 598,
      "min": 599,
      "Ġinv": 600,
      "cess": 601,
      "ern": 602,
      "als": 603,
      "lect": 604,
      "very": 605,
      "Ġthem": 606,
      "ik": 607,
      "Ġ4": 608,
      "old": 609,
      "ence": 610,
      "Ġother": 611,
      "ount": 612,
      "ian": 613,
      "Ġop": 614,
      "ble": 615,
      "Ġtak": 616,
      "kent": 617,
      "Ġinformation": 618,
      "Ġatt": 619,
      "ĠRepublic": 620,
      "ates": 621,
      "Ġdo": 622,
      "Ġlead": 623,
      "act": 624,
      "ater": 625,
      "mit": 626,
      "iy": 627,
      "ose": 628,
      "te": 629,
      "vern": 630,
      "ific": 631,
      "rit": 632,
      "ĠPresident": 633,
      "Ġcountry": 634,
      "Ġunder": 635,
      "ative": 636,
      "Ġdistrict": 637,
      "Ġwhich": 638,
      "air": 639,
      "ashkent": 640,
      "ĠUS": 641,
      "ays": 642,
      "ject": 643,
      "Ġagain": 644,
      "Ġind": 645,
      "Ġbut": 646,
      "ile": 647,
      "ach": 648,
      "ank": 649,
      "istry": 650,
      "ĠTashkent": 651,
      "Ġpos": 652,
      "Ġrel": 653,
      "Ġco": 654,
      "Ġorgan": 655,
      "Ġpartic": 656,
      "ade": 657,
      "Ġfirst": 658,
      "able": 659,
      "Ġsp": 660,
      "ĠAd": 661,
      "ts": 662,
      "Ġresult": 663,
      "Ġdevelop": 664,
      "Ġinst": 665,
      "ĠOn": 666,
      "ĠY": 667,
      "Ġbec": 668,
      "Ġsit": 669,
      "ents": 670,
      "ob": 671,
      "yst": 672,
      "ĠUn": 673,
      "oin": 674,
      "rough": 675,
      "ces": 676,
      "mer": 677,
      "urn": 678,
      "ack": 679,
      "Ġmillion": 680,
      "Ġpercent": 681,
      "Ġyears": 682,
      "Ġnum": 683,
      "Ġannoun": 684,
      "Ġmore": 685,
      "Ġinto": 686,
      "Ġteam": 687,
      "Ġup": 688,
      "Ġgovern": 689,
      "Ġrep": 690,
      "az": 691,
      "Ġplace": 692,
      "Ġsaid": 693,
      "uro": 694,
      "ĠAs": 695,
      "Ġiss": 696,
      "Ġmed": 697,
      "Ġed": 698,
      "pect": 699,
      "Ġrec": 700,
      "Ġsup": 701,
      "ĠRussia": 702,
      "resent": 703,
      "ystem": 704,
      "itut": 705,
      "ices": 706,
      "ge": 707,
      "erson": 708,
      "Ġduring": 709,
      "Ġincre": 710,
      "Ġdep": 711,
      "iss": 712,
      "aw": 713,
      "ĠV": 714,
      "Ġfin": 715,
      "Ġacc": 716,
      "Ġtrans": 717,
      "Ġtw": 718,
      "ph": 719,
      "ĠMinistry": 720,
      "fe": 721,
      "ild": 722,
      "gr": 723,
      "Ġ202": 724,
      "ures": 725,
      "Ġsystem": 726,
      "ove": 727,
      "aus": 728,
      "Ġagainst": 729,
      "Ġman": 730,
      "Ġwell": 731,
      "stan": 732,
      "amp": 733,
      "Ġannounced": 734,
      "Ġoffic": 735,
      "Ġcountries": 736,
      "urrent": 737,
      "Ġter": 738,
      "Ġparticip": 739,
      "Ġest": 740,
      "hip": 741,
      "olog": 742,
      "Ġcit": 743,
      "Ġmin": 744,
      "Ġsuch": 745,
      "Ġstud": 746,
      "Ġhim": 747,
      "rain": 748,
      "Ġexp": 749,
      "ĠWe": 750,
      "Ġ6": 751,
      "Ġeduc": 752,
      "Ġnumber": 753,
      "Ġmeet": 754,
      "ms": 755,
      "Ġass": 756,
      "Ġhead": 757,
      "Ġsitu": 758,
      "are": 759,
      "ister": 760,
      "Ġgro": 761,
      "ec": 762,
      "abl": 763,
      "ency": 764,
      "Ġperson": 765,
      "we": 766,
      "ract": 767,
      "ision": 768,
      "Ġintern": 769,
      "oreign": 770,
      "Ġthan": 771,
      "ars": 772,
      "ĠRussian": 773,
      "Ġob": 774,
      "Ġcor": 775,
      "Ġtwo": 776,
      "ished": 777,
      "ists": 778,
      "ĠSh": 779,
      "Ġorganiz": 780,
      "ditionally": 781,
      "Ġ7": 782,
      "ft": 783,
      "Ġthese": 784,
      "Ġsign": 785,
      "Ġcompany": 786,
      "Ġcitiz": 787,
      "ĠFor": 788,
      "Ġthrough": 789,
      "Ġdisc": 790,
      "Ġmon": 791,
      "ĠHe": 792,
      "ĠAdditionally": 793,
      "ilit": 794,
      "conom": 795,
      "Ġbu": 796,
      "ite": 797,
      "gh": 798,
      "ĠUk": 799,
      "Ġreported": 800,
      "ann": 801,
      "ib": 802,
      "pon": 803,
      "Ġpol": 804,
      "Ġloc": 805,
      "ĠCom": 806,
      "ax": 807,
      "Ġafter": 808,
      "ited": 809,
      "ĠAn": 810,
      "ient": 811,
      "Ġoper": 812,
      "ĠDe": 813,
      "Ġbet": 814,
      "Ġno": 815,
      "Ġprovid": 816,
      "ĠAt": 817,
      "ily": 818,
      "ry": 819,
      "Ġ19": 820,
      "ives": 821,
      "Ġover": 822,
      "now": 823,
      "tain": 824,
      "Ġconst": 825,
      "ention": 826,
      "Ġestabl": 827,
      "reat": 828,
      "artment": 829,
      "Ġelect": 830,
      "Ġac": 831,
      "lement": 832,
      "Ġchild": 833,
      "ood": 834,
      "Ġmeeting": 835,
      "Ġactiv": 836,
      "Ġspecial": 837,
      "ues": 838,
      "Ġsituation": 839,
      "Ġair": 840,
      "pr": 841,
      "Ġcomm": 842,
      "pt": 843,
      "Ġwould": 844,
      "Ġinvest": 845,
      "ants": 846,
      "ord": 847,
      "ric": 848,
      "ĠTur": 849,
      "ons": 850,
      "Ġcr": 851,
      "ĠInt": 852,
      "li": 853,
      "ield": 854,
      "gy": 855,
      "Ġonly": 856,
      "rest": 857,
      "ool": 858,
      "Ġdet": 859,
      "ulation": 860,
      "ks": 861,
      "Ġreports": 862,
      "ween": 863,
      "Ġproject": 864,
      "oot": 865,
      "here": 866,
      "other": 867,
      "ener": 868,
      "man": 869,
      "Ġplay": 870,
      "ĠDep": 871,
      "Ġsub": 872,
      "Ġbetween": 873,
      "000": 874,
      "wn": 875,
      "Ġmilit": 876,
      "Ġdire": 877,
      "Ġofficial": 878,
      "Ġ8": 879,
      ".\"": 880,
      "aj": 881,
      "Ġworld": 882,
      "les": 883,
      "lu": 884,
      "Ġcap": 885,
      "Ġgovernment": 886,
      "ctor": 887,
      "Ġmat": 888,
      "Ġimplement": 889,
      "rov": 890,
      "Ġ10": 891,
      "ah": 892,
      "chn": 893,
      "Ġconduct": 894,
      "ĠChin": 895,
      "rt": 896,
      "Ġstart": 897,
      "ploy": 898,
      "Ġcre": 899,
      "Ġsoc": 900,
      "ey": 901,
      "Ġmet": 902,
      "Ġday": 903,
      "itions": 904,
      "ases": 905,
      "Ġcurrent": 906,
      "'t": 907,
      "Ġcent": 908,
      "Ġheld": 909,
      "ility": 910,
      "Ġmain": 911,
      "Ġproduct": 912,
      "ocu": 913,
      "Ġimport": 914,
      "Ġlaw": 915,
      "airs": 916,
      "ĠMinister": 917,
      "Ġaut": 918,
      "Ġneed": 919,
      "imin": 920,
      "ĠTurk": 921,
      "ail": 922,
      "Ġvis": 923,
      "Ġpublic": 924,
      "Ġrem": 925,
      "Ġdr": 926,
      "ound": 927,
      "ivers": 928,
      "Ġph": 929,
      "cond": 930,
      "Ġdocu": 931,
      "Ġpop": 932,
      "ital": 933,
      "Ġbillion": 934,
      "ĠEuro": 935,
      "get": 936,
      "med": 937,
      "Ġbr": 938,
      "chool": 939,
      "Ġmilitary": 940,
      "ĠState": 941,
      "ĠQ": 942,
      "akh": 943,
      "Ġmy": 944,
      "Ġdue": 945,
      "ousand": 946,
      "ral": 947,
      "Ġif": 948,
      "Ġshould": 949,
      "Ġprev": 950,
      "Ġfl": 951,
      "Ġleg": 952,
      "sel": 953,
      "Ġthousand": 954,
      "Ġcitizens": 955,
      "ried": 956,
      "Ġpass": 957,
      "ffairs": 958,
      "arch": 959,
      "ouse": 960,
      "eration": 961,
      "Ġservice": 962,
      "),": 963,
      "fore": 964,
      "ĠRe": 965,
      "Ġ9": 966,
      "Ġeducation": 967,
      "Ġfield": 968,
      "Ġamount": 969,
      "ause": 970,
      "Ġrece": 971,
      "gram": 972,
      "day": 973,
      "Ġnational": 974,
      "mber": 975,
      "Ġcomple": 976,
      "Ġrespon": 977,
      "Ġinstitut": 978,
      "Ġhigh": 979,
      "xt": 980,
      "ruction": 981,
      "Ġocc": 982,
      "Ġgr": 983,
      "Ġpresident": 984,
      "Ġbuil": 985,
      "sible": 986,
      "Ġexper": 987,
      "ĠTr": 988,
      "Ġdoll": 989,
      "ual": 990,
      "Ġwithin": 991,
      "Ġdes": 992,
      "ward": 993,
      "abor": 994,
      "Ġnecess": 995,
      "Ġmade": 996,
      "Ġsome": 997,
      "imes": 998,
      "ĠCent": 999,
      "alth": 1000,
      "Ġmonth": 1001,
      "Ġprodu": 1002,
      "Ġbased": 1003,
      "Ġevery": 1004,
      "ared": 1005,
      ",\"": 1006,
      "ew": 1007,
      "Ġinf": 1008,
      "ministr": 1009,
      "ĠEurope": 1010,
      "ĠIf": 1011,
      "ĠIntern": 1012,
      "Ġprocess": 1013,
      "Ġap": 1014,
      "ever": 1015,
      "ified": 1016,
      "Ġmost": 1017,
      "ural": 1018,
      "Ġeconom": 1019,
      "ike": 1020,
      "Ġeff": 1021,
      "Ġfam": 1022,
      "Ġany": 1023,
      "mon": 1024,
      "Ġright": 1025,
      "Ġpur": 1026,
      "Ġeven": 1027,
      "Ġra": 1028,
      "ruct": 1029,
      "ĠIs": 1030,
      "ning": 1031,
      "hes": 1032,
      "owing": 1033,
      "irus": 1034,
      "Ġmark": 1035,
      "Ġmem": 1036,
      "Ġend": 1037,
      "ince": 1038,
      "Ġwhile": 1039,
      "Ġmod": 1040,
      "Ġcould": 1041,
      "Ġdecision": 1042,
      "raine": 1043,
      "ise": 1044,
      "ball": 1045,
      "Ġconf": 1046,
      "ĠAfter": 1047,
      "Ġinternational": 1048,
      "Ġrequ": 1049,
      "ron": 1050,
      "Ġcontin": 1051,
      "Ġforeign": 1052,
      "Ġrepresent": 1053,
      "wor": 1054,
      "uss": 1055,
      "ived": 1056,
      "Ġown": 1057,
      "Ġpay": 1058,
      "ered": 1059,
      "Ġactivities": 1060,
      "Ġknow": 1061,
      "arly": 1062,
      "Ġsecond": 1063,
      "ook": 1064,
      "ĠUkraine": 1065,
      "Åı": 1066,
      "idered": 1067,
      "Ġmeas": 1068,
      "Ġlast": 1069,
      "arm": 1070,
      "ven": 1071,
      ").": 1072,
      "ason": 1073,
      "ootball": 1074,
      "ivid": 1075,
      "Ġconsidered": 1076,
      "Ġthose": 1077,
      "ĠBut": 1078,
      "ense": 1079,
      "Ġstr": 1080,
      "Ġpopulation": 1081,
      "Ġwhere": 1082,
      "Ġtra": 1083,
      "ĠZ": 1084,
      "Ġchang": 1085,
      "arli": 1086,
      "Ġwhen": 1087,
      "Ġmany": 1088,
      "Ġequ": 1089,
      "Ġdiscuss": 1090,
      "uty": 1091,
      "ting": 1092,
      "ell": 1093,
      "Ġdollars": 1094,
      "Ġfoll": 1095,
      "Ġyour": 1096,
      "ission": 1097,
      "Ġemploy": 1098,
      "Ġprovided": 1099,
      "Ġbus": 1100,
      "ics": 1101,
      "ough": 1102,
      "Ġnecessary": 1103,
      "Ġso": 1104,
      "ets": 1105,
      "Ġchildren": 1106,
      "Ġdid": 1107,
      "ful": 1108,
      "osed": 1109,
      "ism": 1110,
      "Ġinte": 1111,
      "Ġconc": 1112,
      "Ġsec": 1113,
      "Ġcall": 1114,
      "ĠAl": 1115,
      "Ġsupport": 1116,
      "iness": 1117,
      "Ġgroup": 1118,
      "Ġinit": 1119,
      "Ġopen": 1120,
      "ake": 1121,
      "owever": 1122,
      "Ġvery": 1123,
      "atives": 1124,
      "Ġproducts": 1125,
      "ĠAffairs": 1126,
      "Ġarea": 1127,
      "Ġtechn": 1128,
      "eneral": 1129,
      "Ġ15": 1130,
      "luding": 1131,
      "arding": 1132,
      "Ġprot": 1133,
      "Ġwithout": 1134,
      "Ġenter": 1135,
      "Ġsame": 1136,
      "Ġdef": 1137,
      "Ġschool": 1138,
      "ower": 1139,
      "ty": 1140,
      "phas": 1141,
      "Ġemphas": 1142,
      "Ġpress": 1143,
      "Ġtake": 1144,
      "ĠDuring": 1145,
      "orth": 1146,
      "ĠPro": 1147,
      "str": 1148,
      "iew": 1149,
      "Ġfund": 1150,
      "Ġins": 1151,
      "iving": 1152,
      "ĠChina": 1153,
      "Ġnow": 1154,
      "ath": 1155,
      "Ġamong": 1156,
      "Ġlike": 1157,
      "Ġcarried": 1158,
      "hor": 1159,
      "ĠLe": 1160,
      "Ġvar": 1161,
      "Ġbl": 1162,
      "Ġret": 1163,
      "Ġestablished": 1164,
      "Ġagree": 1165,
      "ection": 1166,
      "Ġcompet": 1167,
      "Ġve": 1168,
      "Ġadministr": 1169,
      ".Â»": 1170,
      "Ġindivid": 1171,
      "ffic": 1172,
      "Ġmeasures": 1173,
      "Ġdif": 1174,
      "Ġfootball": 1175,
      "Ġsocial": 1176,
      "Ġoccur": 1177,
      "rep": 1178,
      "Ġprogram": 1179,
      "iven": 1180,
      "iod": 1181,
      "Ġdevelopment": 1182,
      "Ġdays": 1183,
      "Ġgas": 1184,
      "leg": 1185,
      "Ġsom": 1186,
      "Ġtook": 1187,
      "Ġbuilding": 1188,
      "Ġuse": 1189,
      "lud": 1190,
      "Ġconstruction": 1191,
      "Ġ<": 1192,
      "Ġext": 1193,
      "Ġlar": 1194,
      "bers": 1195,
      "Ġperiod": 1196,
      "iver": 1197,
      "ump": 1198,
      "oint": 1199,
      "Ġturn": 1200,
      "Ġservices": 1201,
      "ages": 1202,
      "Ġwin": 1203,
      "mitte": 1204,
      "tal": 1205,
      "ees": 1206,
      "Ġher": 1207,
      "Ġser": 1208,
      "Ġissue": 1209,
      "round": 1210,
      "way": 1211,
      "20": 1212,
      "Ġproble": 1213,
      "Ġmay": 1214,
      "Ġappe": 1215,
      "lev": 1216,
      "url": 1217,
      ",Â»": 1218,
      "Ġcol": 1219,
      "Ġens": 1220,
      "Ġleaders": 1221,
      "Ġcer": 1222,
      "ution": 1223,
      "ĠAb": 1224,
      "ament": 1225,
      "olv": 1226,
      "Ġthree": 1227,
      "Ġfound": 1228,
      "icle": 1229,
      "Ġwom": 1230,
      "uk": 1231,
      "led": 1232,
      "unity": 1233,
      "Ġsm": 1234,
      "iminal": 1235,
      "ife": 1236,
      "onav": 1237,
      "eur": 1238,
      "ĠDepartment": 1239,
      "mittee": 1240,
      "onavirus": 1241,
      "ather": 1242,
      "Ġmust": 1243,
      "ured": 1244,
      "Ġtaken": 1245,
      "ĠKore": 1246,
      "Ġinterest": 1247,
      "Ġworking": 1248,
      "Ġbor": 1249,
      "Ġwater": 1250,
      "ings": 1251,
      "reneur": 1252,
      "repreneur": 1253,
      "pected": 1254,
      "ran": 1255,
      "Ġanother": 1256,
      "ĠMir": 1257,
      "Ġattack": 1258,
      "ĠWh": 1259,
      "Ġbod": 1260,
      "Ġexpl": 1261,
      "Ġform": 1262,
      "ĠPr": 1263,
      "Ġauthor": 1264,
      "ĠSam": 1265,
      "Ġdoes": 1266,
      "ij": 1267,
      "Ġadv": 1268,
      "its": 1269,
      "ene": 1270,
      "oyev": 1271,
      "Ġcoronavirus": 1272,
      "Ġaccording": 1273,
      "Ġvarious": 1274,
      "Ġinstitutions": 1275,
      "Ġincrease": 1276,
      "Ġmarket": 1277,
      "ĠJan": 1278,
      "Ġprep": 1279,
      "Ġissues": 1280,
      "Ġtax": 1281,
      "af": 1282,
      "Ġtotal": 1283,
      "Ġbeg": 1284,
      "ner": 1285,
      "outh": 1286,
      "Ġqual": 1287,
      "Ġcases": 1288,
      "Ġful": 1289,
      "Ġwar": 1290,
      "Ġregional": 1291,
      "ĠThere": 1292,
      "Ġbel": 1293,
      "Ġland": 1294,
      "urity": 1295,
      "Ġlocal": 1296,
      "ayev": 1297,
      "Ġfollowing": 1298,
      "ds": 1299,
      "Ġaddition": 1300,
      "ĠEuropean": 1301,
      "Ġdirect": 1302,
      "Ġ12": 1303,
      "Ġsent": 1304,
      "Ġsever": 1305,
      "Ġdocuments": 1306,
      "ept": 1307,
      "Ġpresent": 1308,
      "rol": 1309,
      "gency": 1310,
      "Ġart": 1311,
      "Ġcond": 1312,
      "Ġref": 1313,
      "Ġhig": 1314,
      "Ġhouse": 1315,
      "operation": 1316,
      "Ġdem": 1317,
      "own": 1318,
      "ĠHowever": 1319,
      "Ġconducted": 1320,
      "uary": 1321,
      "ute": 1322,
      "Ġsur": 1323,
      "ick": 1324,
      "Ġremain": 1325,
      "Ġregarding": 1326,
      "ember": 1327,
      "Ġlevel": 1328,
      "ĠWor": 1329,
      "Ġgu": 1330,
      "Ġgood": 1331,
      "Ġplann": 1332,
      "work": 1333,
      "cil": 1334,
      "Ġmedical": 1335,
      "Ġbank": 1336,
      "nal": 1337,
      "ĠJanuary": 1338,
      "read": 1339,
      "ĠMay": 1340,
      "Ġrelated": 1341,
      "erm": 1342,
      "Ġseveral": 1343,
      "Ġimportant": 1344,
      "ises": 1345,
      "Ġset": 1346,
      "feren": 1347,
      "ying": 1348,
      "Ġ$": 1349,
      "oney": 1350,
      "lin": 1351,
      "Ġemphasized": 1352,
      "uals": 1353,
      "Ġ11": 1354,
      "ety": 1355,
      "Ġlegal": 1356,
      "Ġfac": 1357,
      "meric": 1358,
      "ames": 1359,
      "Ġcase": 1360,
      "ĠKaz": 1361,
      "ports": 1362,
      "Ġindic": 1363,
      "Ġjust": 1364,
      "ĠThey": 1365,
      "Ġinvestig": 1366,
      "year": 1367,
      "Ġentrepreneur": 1368,
      "Ġsal": 1369,
      "Ġexpress": 1370,
      "anc": 1371,
      "ĠTrump": 1372,
      "ience": 1373,
      "ize": 1374,
      "Ġcourt": 1375,
      "Ġopport": 1376,
      "ately": 1377,
      "Ġterrit": 1378,
      "Ġappro": 1379,
      "ĠAr": 1380,
      "Ġregions": 1381,
      "ĠAmeric": 1382,
      "Ġvict": 1383,
      "Ġcoll": 1384,
      "Ġ200": 1385,
      "Ġgame": 1386,
      "Ġtimes": 1387,
      "ton": 1388,
      "Ġscore": 1389,
      "self": 1390,
      "ĠAf": 1391,
      "Ġadd": 1392,
      "Ġvisit": 1393,
      "ave": 1394,
      "Ġhel": 1395,
      "bor": 1396,
      "ĠKazakh": 1397,
      "Ġroad": 1398,
      "Ġprop": 1399,
      "Ġmoney": 1400,
      "ĠMirz": 1401,
      "Ġgoal": 1402,
      "Ġleader": 1403,
      "Ġtas": 1404,
      "land": 1405,
      "Ġorder": 1406,
      "ink": 1407,
      "Ġbecome": 1408,
      "Ġdel": 1409,
      "rem": 1410,
      "Ġstudents": 1411,
      "ization": 1412,
      "ustom": 1413,
      "Ġneg": 1414,
      "ession": 1415,
      "rees": 1416,
      "ret": 1417,
      "Ġaccount": 1418,
      "Ġareas": 1419,
      "Ġnews": 1420,
      "iol": 1421,
      "eng": 1422,
      "Ġclub": 1423,
      "ĠUnited": 1424,
      "ĠKy": 1425,
      "Ġsignific": 1426,
      "ampions": 1427,
      "uly": 1428,
      "Ġnext": 1429,
      "Ġresults": 1430,
      "ock": 1431,
      "Ġwhat": 1432,
      "ness": 1433,
      "line": 1434,
      "Ġeach": 1435,
      "Ġcontract": 1436,
      "ended": 1437,
      "uman": 1438,
      "iversity": 1439,
      "Ġ30": 1440,
      "Ġrecord": 1441,
      "Ġce": 1442,
      "Ġposition": 1443,
      "Ġhelp": 1444,
      "Ġequip": 1445,
      "Ġincluding": 1446,
      "Ġindividuals": 1447,
      "lear": 1448,
      "asing": 1449,
      "Ġveh": 1450,
      "ĠInd": 1451,
      "ange": 1452,
      "sec": 1453,
      "Ġprom": 1454,
      "raft": 1455,
      "Ġreturn": 1456,
      "une": 1457,
      "Ġfe": 1458,
      "ĠTurkey": 1459,
      "Ġtest": 1460,
      "The": 1461,
      "Ġaim": 1462,
      "ĠKazakhstan": 1463,
      "Ġval": 1464,
      "view": 1465,
      "Ġbusiness": 1466,
      "Ġmedia": 1467,
      "ober": 1468,
      "Ġsince": 1469,
      "oth": 1470,
      "aged": 1471,
      "Ġaround": 1472,
      "Ġread": 1473,
      "ĠCommittee": 1474,
      "istance": 1475,
      "Ġgiven": 1476,
      "Ġtrain": 1477,
      "eptember": 1478,
      "Ġsay": 1479,
      "go": 1480,
      "Ġconditions": 1481,
      "Ġalloc": 1482,
      "Ġiniti": 1483,
      "ĠMarch": 1484,
      "iously": 1485,
      "fic": 1486,
      "uch": 1487,
      "ached": 1488,
      "Ġpat": 1489,
      "Ġ16": 1490,
      "Ġoccurred": 1491,
      "ĠSy": 1492,
      "Ġeng": 1493,
      "ÄŁ": 1494,
      "ator": 1495,
      "ĠSeptember": 1496,
      "Ġfact": 1497,
      "ilities": 1498,
      "Ġhow": 1499,
      "ĠTe": 1500,
      "mitted": 1501,
      "rodu": 1502,
      "til": 1503,
      "Ġbefore": 1504,
      "io": 1505,
      "Ġvide": 1506,
      "Ġevent": 1507,
      "ros": 1508,
      "Ġ14": 1509,
      "Ġ18": 1510,
      "chie": 1511,
      "Ġwant": 1512,
      "ys": 1513,
      "Ġcooperation": 1514,
      "ĠWorld": 1515,
      "Ġinj": 1516,
      "Ġplac": 1517,
      "sive": 1518,
      "ĠAnd": 1519,
      "ature": 1520,
      "osp": 1521,
      "Ġla": 1522,
      "ically": 1523,
      "Ġneigh": 1524,
      "Ġeconomic": 1525,
      "ese": 1526,
      "ular": 1527,
      "Ġinclud": 1528,
      "Ġrepresentatives": 1529,
      "secut": 1530,
      "Ġagreement": 1531,
      "ĠSec": 1532,
      "Ġrelations": 1533,
      "eb": 1534,
      "Ġproduction": 1535,
      "Ġcenter": 1536,
      "ĠAsi": 1537,
      "Ġpower": 1538,
      "oung": 1539,
      "Ġ2018": 1540,
      "fer": 1541,
      "lection": 1542,
      "Ġlong": 1543,
      "mission": 1544,
      "Ġorganizations": 1545,
      "Ġident": 1546,
      "ĠCentral": 1547,
      "ply": 1548,
      "..": 1549,
      "Ġdev": 1550,
      "Ġincreased": 1551,
      "Ġsignificant": 1552,
      "ĠForeign": 1553,
      "Ġtechnolog": 1554,
      "ually": 1555,
      "Ġlist": 1556,
      "ĠKh": 1557,
      "Ġmonths": 1558,
      "Ġ2020": 1559,
      "Ġbegin": 1560,
      "Ġpolit": 1561,
      "Ġachie": 1562,
      "Ġapplic": 1563,
      "Ġfamily": 1564,
      "Ġfight": 1565,
      "Ġfunds": 1566,
      "ctober": 1567,
      "Ġ25": 1568,
      "Ġweek": 1569,
      "pril": 1570,
      "Ġpossible": 1571,
      "ison": 1572,
      "Ġtem": 1573,
      "Ġthen": 1574,
      "Ġused": 1575,
      "Ġcalled": 1576,
      "Ġviol": 1577,
      "Ġquest": 1578,
      "Ġwon": 1579,
      "Ġlarge": 1580,
      "Ġcaus": 1581,
      "ained": 1582,
      "cember": 1583,
      "ĠEn": 1584,
      "Ġnet": 1585,
      "ference": 1586,
      "Ġ13": 1587,
      "Ġintrodu": 1588,
      "Ġscient": 1589,
      "Ġagency": 1590,
      "Ġprof": 1591,
      "ugust": 1592,
      "ĠCon": 1593,
      "ĠOctober": 1594,
      "Ġincident": 1595,
      "Ġplan": 1596,
      "arkand": 1597,
      "tion": 1598,
      "ĠJuly": 1599,
      "emic": 1600,
      "Ġestablish": 1601,
      "Ġleft": 1602,
      "ired": 1603,
      "Ġuntil": 1604,
      "Ġlife": 1605,
      "ĠApril": 1606,
      "Ġcontrol": 1607,
      "Ġpolice": 1608,
      "isters": 1609,
      "Ġexam": 1610,
      "unic": 1611,
      "Ġcurrently": 1612,
      "ajor": 1613,
      "Ġdeg": 1614,
      "Ġ2019": 1615,
      "ĠKar": 1616,
      "ĠAugust": 1617,
      "ĠDecember": 1618,
      "Ġcapital": 1619,
      "Ġsector": 1620,
      "ovember": 1621,
      "Ġhealth": 1622,
      "Ġneighbor": 1623,
      "ĠInternal": 1624,
      "ck": 1625,
      "Ġhigher": 1626,
      "icles": 1627,
      "ources": 1628,
      "Ġyoung": 1629,
      "Ġbegan": 1630,
      "Ġallow": 1631,
      "ague": 1632,
      "Ġcompan": 1633,
      "Ġnoted": 1634,
      "Ġadministration": 1635,
      "mb": 1636,
      "ĠJune": 1637,
      "Ġeffect": 1638,
      "sib": 1639,
      "ĠSamarkand": 1640,
      "Ġ2017": 1641,
      "Ġbecame": 1642,
      "arlier": 1643,
      "ering": 1644,
      "alf": 1645,
      "Ġtour": 1646,
      "ĠNovember": 1647,
      "ex": 1648,
      "Ġlaun": 1649,
      "Ġlocated": 1650,
      "oci": 1651,
      "rib": 1652,
      "ĠKorea": 1653,
      "ĠIran": 1654,
      "Ġtransport": 1655,
      "Ġpres": 1656,
      "aster": 1657,
      "ror": 1658,
      "aterial": 1659,
      "Ġactions": 1660,
      "Ġenterpr": 1661,
      "iyoyev": 1662,
      "com": 1663,
      "Ġredu": 1664,
      "ird": 1665,
      "Ġchar": 1666,
      "oh": 1667,
      "reed": 1668,
      "Ġmembers": 1669,
      "Ġreceived": 1670,
      "Ġmodern": 1671,
      "Ġcompanies": 1672,
      "ĠSyri": 1673,
      "cept": 1674,
      "sh": 1675,
      "ournal": 1676,
      "Ġty": 1677,
      "road": 1678,
      "Ġpurch": 1679,
      "Ġprojects": 1680,
      "ators": 1681,
      "Ġcustom": 1682,
      "ample": 1683,
      "utin": 1684,
      "Ġbo": 1685,
      "ĠX": 1686,
      "Ġplanned": 1687,
      "stitut": 1688,
      "Ġstand": 1689,
      "Ġcriminal": 1690,
      "illed": 1691,
      "Ġmajor": 1692,
      "Ġresident": 1693,
      "ued": 1694,
      "ĠMirziyoyev": 1695,
      "ten": 1696,
      "ĠNational": 1697,
      "Ġmention": 1698,
      "Ġcome": 1699,
      "Â»,": 1700,
      "Ġdepartment": 1701,
      "Ġhist": 1702,
      "pecial": 1703,
      "mp": 1704,
      "ĠUkrain": 1705,
      "Ġsays": 1706,
      "Ġhand": 1707,
      "Ġfut": 1708,
      "Â».": 1709,
      "Ġvol": 1710,
      "ova": 1711,
      "Ġvideo": 1712,
      "ara": 1713,
      "ĠReg": 1714,
      "ancial": 1715,
      "Ġsold": 1716,
      "Ġsigned": 1717,
      "Ġpriv": 1718,
      "Ġsum": 1719,
      "ĠCoun": 1720,
      "Ġconv": 1721,
      "wards": 1722,
      "ijan": 1723,
      "Ġobs": 1724,
      "Ġ17": 1725,
      "Ġfire": 1726,
      "Ġattention": 1727,
      "Ġremin": 1728,
      "ĠPrime": 1729,
      "Ġdeter": 1730,
      "reng": 1731,
      "bs": 1732,
      "ĠCouncil": 1733,
      "Ġorganization": 1734,
      "Ġdesign": 1735,
      "ards": 1736,
      "Ġtoday": 1737,
      "Ġformer": 1738,
      "roved": 1739,
      "Ġexpected": 1740,
      "ĠPutin": 1741,
      "kat": 1742,
      "aking": 1743,
      "Ġmaterial": 1744,
      "Ġemployees": 1745,
      "ected": 1746,
      "Ġtop": 1747,
      "Ġexample": 1748,
      "atic": 1749,
      "ĠShav": 1750,
      "udget": 1751,
      "Ġterritory": 1752,
      "cy": 1753,
      "Ġprice": 1754,
      "hood": 1755,
      "ones": 1756,
      "ĠShavkat": 1757,
      "Ġtaking": 1758,
      "Ġforces": 1759,
      "ulture": 1760,
      "ghan": 1761,
      "ium": 1762,
      "ĠUnion": 1763,
      "Ġcertain": 1764,
      "ĠSe": 1765,
      "Ġstreng": 1766,
      "Ġelectric": 1767,
      "Ġwrit": 1768,
      "ross": 1769,
      "Ġfuture": 1770,
      "Ġdeath": 1771,
      "ind": 1772,
      "ged": 1773,
      "uf": 1774,
      "ĠNew": 1775,
      "Ġshe": 1776,
      "secutor": 1777,
      "ĠMos": 1778,
      "Ġche": 1779,
      "que": 1780,
      "Ġhome": 1781,
      "ences": 1782,
      "Ġopp": 1783,
      "ultural": 1784,
      "rd": 1785,
      "idd": 1786,
      "Ġask": 1787,
      "Ġround": 1788,
      "arant": 1789,
      "Ġbecause": 1790,
      "ĠJap": 1791,
      "Ġspec": 1792,
      "ix": 1793,
      "Ġreached": 1794,
      "Ġsou": 1795,
      "Ġseason": 1796,
      "Ġcollabor": 1797,
      "rup": 1798,
      "ves": 1799,
      "Ġpoin": 1800,
      "ability": 1801,
      "Ġbas": 1802,
      "Ġdemand": 1803,
      "Ġhuman": 1804,
      "ctions": 1805,
      "Ġexpressed": 1806,
      "ode": 1807,
      "rgy": 1808,
      "rgyz": 1809,
      "Ġproblems": 1810,
      "Ġtransfer": 1811,
      "ĠFrom": 1812,
      "ĠInternational": 1813,
      "alk": 1814,
      "Ġdiscussed": 1815,
      "ruary": 1816,
      "ebruary": 1817,
      "urrently": 1818,
      "ped": 1819,
      "ĠArt": 1820,
      "Ġexch": 1821,
      "ĠAfghan": 1822,
      "Ġway": 1823,
      "Ġtrade": 1824,
      "ond": 1825,
      "Ġprovide": 1826,
      "ateg": 1827,
      "over": 1828,
      "Ġpract": 1829,
      "Ġcour": 1830,
      "rab": 1831,
      "Ġemer": 1832,
      "Ġoffice": 1833,
      "Ġget": 1834,
      "oday": 1835,
      "ĠBe": 1836,
      "ĠUkrainian": 1837,
      "Ġadop": 1838,
      "Ġboth": 1839,
      "Ġprevent": 1840,
      "ĠJapan": 1841,
      "Ġsim": 1842,
      "ĠBel": 1843,
      "not": 1844,
      "por": 1845,
      "Ġevents": 1846,
      "Ġshort": 1847,
      "Ġhosp": 1848,
      "ĠUN": 1849,
      "ceed": 1850,
      "ĠFebruary": 1851,
      "Ġrights": 1852,
      "Ġ24": 1853,
      "Ġreason": 1854,
      "Ġdegrees": 1855,
      "ners": 1856,
      "ĠSp": 1857,
      "Ġstarted": 1858,
      "Ġmentioned": 1859,
      "urther": 1860,
      "Ġfour": 1861,
      "Ġopin": 1862,
      "ĠKyrgyz": 1863,
      "ĠCr": 1864,
      "Ġregul": 1865,
      "Ġdocument": 1866,
      "ched": 1867,
      "Ġstates": 1868,
      "Ġwomen": 1869,
      "ĠDeputy": 1870,
      "els": 1871,
      "Ġindu": 1872,
      "ĠGeneral": 1873,
      "Ġfinancial": 1874,
      "ergy": 1875,
      "Ġopportunity": 1876,
      "ctors": 1877,
      "Ġeducational": 1878,
      "aff": 1879,
      "Ġorganized": 1880,
      "Ġofficials": 1881,
      "Ġdied": 1882,
      "Ġremind": 1883,
      "Ġobserv": 1884,
      "ots": 1885,
      "Ġ2016": 1886,
      "Ġstop": 1887,
      "ĠDevelop": 1888,
      "ĠFr": 1889,
      "Ġshow": 1890,
      "gest": 1891,
      "Ġinvolv": 1892,
      "Ġoil": 1893,
      "Ġmiss": 1894,
      "ised": 1895,
      "Ġwords": 1896,
      "Ġsus": 1897,
      "ĠBrit": 1898,
      "Ġaway": 1899,
      "Ġenergy": 1900,
      "atory": 1901,
      "Ġrest": 1902,
      "Ġlabor": 1903,
      "ĠCurrently": 1904,
      "ĠToday": 1905,
      "ĠAmerican": 1906,
      "Ġcomplex": 1907,
      "Ġ100": 1908,
      "Ġcontinue": 1909,
      "Ġgreat": 1910,
      "ĠSa": 1911,
      "oti": 1912,
      "ĠUniversity": 1913,
      "ways": 1914,
      "Ġobtain": 1915,
      "Ġpoints": 1916,
      "Ġrepublic": 1917,
      "Ġdetermin": 1918,
      "imov": 1919,
      "aly": 1920,
      "Ġsol": 1921,
      "Ġjournal": 1922,
      "ĠWhen": 1923,
      "cow": 1924,
      "ccess": 1925,
      "ising": 1926,
      "Ġmake": 1927,
      "ĠCenter": 1928,
      "Ġborder": 1929,
      "Ġrelev": 1930,
      "Ġstre": 1931,
      "sibility": 1932,
      "Ġsan": 1933,
      "ĠStates": 1934,
      "men": 1935,
      "Ġav": 1936,
      "angu": 1937,
      "Ġfree": 1938,
      "ving": 1939,
      "Ġadditional": 1940,
      "ological": 1941,
      "Ġmatter": 1942,
      "acc": 1943,
      "acher": 1944,
      "nel": 1945,
      "ald": 1946,
      "Ġhour": 1947,
      "Ġenv": 1948,
      "Ġfr": 1949,
      "Ġgl": 1950,
      "Ġchann": 1951,
      "ampionship": 1952,
      "Ġconsum": 1953,
      "aring": 1954,
      "agement": 1955,
      "ĠBank": 1956,
      "Ġnearly": 1957,
      "ĠSouth": 1958,
      "Ġtraffic": 1959,
      "itor": 1960,
      "Ġdown": 1961,
      "Ġhapp": 1962,
      "ĠServ": 1963,
      "Ġbudget": 1964,
      "Ġflight": 1965,
      "ĠLeague": 1966,
      "Ġproper": 1967,
      "ines": 1968,
      "Ġstill": 1969,
      "ull": 1970,
      "ĠMoscow": 1971,
      "uties": 1972,
      "Ġrelevant": 1973,
      "Ġ50": 1974,
      "then": 1975,
      "ĠDevelopment": 1976,
      "arliament": 1977,
      "Ġ21": 1978,
      "ficult": 1979,
      "Ġentrepreneurs": 1980,
      "Ġapproved": 1981,
      "Ġstated": 1982,
      "Ġarr": 1983,
      "Ġvehicles": 1984,
      "Ġ0": 1985,
      "Ġconsid": 1986,
      "Ġdifficult": 1987,
      "ĠMinisters": 1988,
      "ination": 1989,
      "Ġpost": 1990,
      "Ġpurp": 1991,
      "ification": 1992,
      "ufact": 1993,
      "Ġrequire": 1994,
      "abin": 1995,
      "ĠAbd": 1996,
      "Ġreal": 1997,
      "Ġproced": 1998,
      "igr": 1999,
      "epend": 2000,
      "Ġfurther": 2001,
      "used": 2002,
      "Ġ2021": 2003,
      "Ġimplementation": 2004,
      "Ġwebs": 2005,
      "Ġconn": 2006,
      "Ġvot": 2007,
      "Ġworks": 2008,
      "isl": 2009,
      "Ġincreasing": 2010,
      "Ġdise": 2011,
      "Ġ22": 2012,
      "Ġsecurity": 2013,
      "Ġrese": 2014,
      "hib": 2015,
      "Ġdeveloped": 2016,
      "Ġdam": 2017,
      "Ġnegoti": 2018,
      "ĠEarlier": 2019,
      "Ġconfir": 2020,
      "andid": 2021,
      "Ġstrengthen": 2022,
      "Ġhalf": 2023,
      "arily": 2024,
      "Ġmeters": 2025,
      "Ġquality": 2026,
      "Ġhere": 2027,
      "Ġprices": 2028,
      "Ġstatement": 2029,
      "Ġequipment": 2030,
      "Ġdeb": 2031,
      "Ġterror": 2032,
      "ends": 2033,
      "arent": 2034,
      "Ġcompetition": 2035,
      "iyev": 2036,
      "Ġoperation": 2037,
      "lus": 2038,
      "utes": 2039,
      "ĠGerm": 2040,
      "Ġsupply": 2041,
      "Ġparticipated": 2042,
      "ims": 2043,
      "rove": 2044,
      "Ġ2022": 2045,
      "Ġcitizen": 2046,
      "isting": 2047,
      "Ġperform": 2048,
      "rik": 2049,
      "duc": 2050,
      "ai": 2051,
      "augh": 2052,
      "ĠEx": 2053,
      "ĠArab": 2054,
      "Ġimplemented": 2055,
      "izing": 2056,
      "ĠAm": 2057,
      "Ġparticipate": 2058,
      "ĠDon": 2059,
      "amed": 2060,
      "Ġmatch": 2061,
      "ĠFin": 2062,
      "att": 2063,
      "Ġfinal": 2064,
      "enal": 2065,
      "ĠEng": 2066,
      "uh": 2067,
      "Ġassistance": 2068,
      "ĠOr": 2069,
      "Ġallocated": 2070,
      "ians": 2071,
      "ubl": 2072,
      "encies": 2073,
      "Ġnight": 2074,
      "Ġcame": 2075,
      "Ġcrit": 2076,
      "Ġgovernor": 2077,
      "Ġ23": 2078,
      "Ġmove": 2079,
      "stry": 2080,
      "vest": 2081,
      "icy": 2082,
      "Ġensure": 2083,
      "ĠMed": 2084,
      "Ġcomplete": 2085,
      "Ġaff": 2086,
      "Ġliving": 2087,
      "Ġarrest": 2088,
      "ively": 2089,
      "Ġtowards": 2090,
      "Ġsuccess": 2091,
      "Ġpasseng": 2092,
      "Ġrecent": 2093,
      "Ġback": 2094,
      "idence": 2095,
      "ĠSc": 2096,
      "ential": 2097,
      "Ġcandid": 2098,
      "Ġdeveloping": 2099,
      "ĠEduc": 2100,
      "Ġteacher": 2101,
      "Ġsk": 2102,
      "ĠSup": 2103,
      "Ġmov": 2104,
      "Ġlangu": 2105,
      "Ġworth": 2106,
      "sk": 2107,
      "ajik": 2108,
      "Ġfil": 2109,
      "Ġleading": 2110,
      "Ġpersonnel": 2111,
      "hest": 2112,
      "for": 2113,
      "mat": 2114,
      "Ġdecre": 2115,
      "ĠAfghanistan": 2116,
      "ĠGermany": 2117,
      "ĠAgency": 2118,
      "Ġlet": 2119,
      "Ġframe": 2120,
      "ĠAss": 2121,
      "Ġpolitical": 2122,
      "omm": 2123,
      "pid": 2124,
      "Ġrepresentative": 2125,
      "ĠNo": 2126,
      "Ġexchange": 2127,
      "Ġcannot": 2128,
      "ients": 2129,
      "ĠGo": 2130,
      "IS": 2131,
      "Ġel": 2132,
      "Ġtasks": 2133,
      "Ġinstall": 2134,
      "Ġneighborhood": 2135,
      "ĠFed": 2136,
      "Ġchanges": 2137,
      "ories": 2138,
      "ĠCode": 2139,
      "Ġput": 2140,
      "Ġpropos": 2141,
      "Ġdeputy": 2142,
      "Ġjob": 2143,
      "Ġvacc": 2144,
      "ale": 2145,
      "SC": 2146,
      "Ġdat": 2147,
      "Ġmanufact": 2148,
      "ĠBec": 2149,
      "Ġname": 2150,
      "Ġcollaboration": 2151,
      "Ġsoums": 2152,
      "iq": 2153,
      "ĠKyrgyzstan": 2154,
      "ĠRes": 2155,
      "Ġsee": 2156,
      "ĠUSA": 2157,
      "Ġcur": 2158,
      "Ġauthorities": 2159,
      "let": 2160,
      "ukh": 2161,
      "Ġgrow": 2162,
      "Ġpublication": 2163,
      "Ġenterprises": 2164,
      "Ġmeans": 2165,
      "Ġbodies": 2166,
      "nov": 2167,
      "Ġconference": 2168,
      "Ġnat": 2169,
      "ional": 2170,
      "ided": 2171,
      "hod": 2172,
      "Ġnear": 2173,
      "retary": 2174,
      "Ġusing": 2175,
      "Ġdon": 2176,
      "ology": 2177,
      "Ġappoin": 2178,
      "ĠTajik": 2179,
      "Ġwebsite": 2180,
      "Ġplaces": 2181,
      "ĠPart": 2182,
      "abinet": 2183,
      "Ġcreated": 2184,
      "Ġoperations": 2185,
      "urg": 2186,
      "Ġrul": 2187,
      "ĠAz": 2188,
      "Ġdecree": 2189,
      "ccord": 2190,
      "Ġcondition": 2191,
      "esp": 2192,
      "ferent": 2193,
      "ĠPol": 2194,
      "Ġold": 2195,
      "Ġpo": 2196,
      "Ġ199": 2197,
      "Ġgames": 2198,
      "Ġsing": 2199,
      "Ġresponsible": 2200,
      "iron": 2201,
      "Ġhospital": 2202,
      "Ġeconomy": 2203,
      "cing": 2204,
      "Ġpubl": 2205,
      "ĠChinese": 2206,
      "airman": 2207,
      "rael": 2208,
      "less": 2209,
      "Ġproviding": 2210,
      "Ġaccord": 2211,
      "ĠNorth": 2212,
      "Ġjoint": 2213,
      "Ġtraining": 2214,
      "ĠThen": 2215,
      "arn": 2216,
      "Ġbelie": 2217,
      "Ġframework": 2218,
      "ĠYou": 2219,
      "Ġimprove": 2220,
      "Ġpaid": 2221,
      "ĠNav": 2222,
      "ĠPe": 2223,
      "Ġgeneral": 2224,
      "Ġbene": 2225,
      "Ġfive": 2226,
      "obal": 2227,
      "Ġrate": 2228,
      "Ġyouth": 2229,
      "ĠBecause": 2230,
      "Ġpot": 2231,
      "Ġaccordance": 2232,
      "Ġfar": 2233,
      "Ġinvestigation": 2234,
      "Ġthird": 2235,
      "lymp": 2236,
      "ches": 2237,
      "Ġeuro": 2238,
      "aryo": 2239,
      "Ġfully": 2240,
      "rop": 2241,
      "lom": 2242,
      "Ġbeginning": 2243,
      "ensive": 2244,
      "ume": 2245,
      "Ġfood": 2246,
      "Ġacqu": 2247,
      "Ġnegotiations": 2248,
      "ĠFer": 2249,
      "Ġschools": 2250,
      "ĠEducation": 2251,
      "Ġled": 2252,
      "ĠSyria": 2253,
      "Ġconvers": 2254,
      "thing": 2255,
      "Ġ27": 2256,
      "obile": 2257,
      "ival": 2258,
      "jon": 2259,
      "Ġport": 2260,
      "Ġcal": 2261,
      "ront": 2262,
      "Ġaddress": 2263,
      "Ġappointed": 2264,
      "Ġcare": 2265,
      "ĠIsrael": 2266,
      "Ġcars": 2267,
      "Ġalong": 2268,
      "ĠCabinet": 2269,
      "ĠInstitut": 2270,
      "cement": 2271,
      "Ġprim": 2272,
      "lam": 2273,
      "Ġhol": 2274,
      "Ġdetermined": 2275,
      "most": 2276,
      "Ġpresented": 2277,
      "Ġgoals": 2278,
      "pes": 2279,
      "eters": 2280,
      "Ġstat": 2281,
      "ĠSer": 2282,
      "Ġleast": 2283,
      "Ġhistory": 2284,
      "Ġidentified": 2285,
      "selves": 2286,
      "raw": 2287,
      "rency": 2288,
      "Ġcommunic": 2289,
      "Ġstrong": 2290,
      "Ġwoman": 2291,
      "ĠCup": 2292,
      "Ġsports": 2293,
      "Ġspread": 2294,
      "ee": 2295,
      "row": 2296,
      "ko": 2297,
      "Ġhous": 2298,
      "Ġthough": 2299,
      "Ġstaff": 2300,
      "ier": 2301,
      "Ġbody": 2302,
      "Ġmight": 2303,
      "ĠAll": 2304,
      "udi": 2305,
      "Ġteams": 2306,
      "ogn": 2307,
      "Ġexperts": 2308,
      "ending": 2309,
      "ivil": 2310,
      "Ġelections": 2311,
      "ructure": 2312,
      "Ġadopted": 2313,
      "Ġcost": 2314,
      "ĠOl": 2315,
      "rought": 2316,
      "inc": 2317,
      "ĠDef": 2318,
      "Ġfore": 2319,
      "ĠOlymp": 2320,
      "ane": 2321,
      "Ġmuch": 2322,
      "Ġbuildings": 2323,
      "br": 2324,
      "Ġrecorded": 2325,
      "my": 2326,
      "illeg": 2327,
      "ved": 2328,
      "reme": 2329,
      "Ġ2015": 2330,
      "Ġproblem": 2331,
      "Ġclose": 2332,
      "Ġtar": 2333,
      "ĠOne": 2334,
      "Ġsmall": 2335,
      "Ġfall": 2336,
      "Ġchannel": 2337,
      "Åİ": 2338,
      "conomic": 2339,
      "Ġexport": 2340,
      "Ġpreviously": 2341,
      "afety": 2342,
      "Ġ26": 2343,
      "ges": 2344,
      "ently": 2345,
      "ĠMus": 2346,
      "ĠHealth": 2347,
      "19": 2348,
      "Ġrank": 2349,
      "Ġsell": 2350,
      "Ġnatural": 2351,
      "ĠArticle": 2352,
      "arter": 2353,
      "Ġes": 2354,
      "Ġopinion": 2355,
      "Ġilleg": 2356,
      "uclear": 2357,
      "Ġaimed": 2358,
      "Ġbeh": 2359,
      "ĠAir": 2360,
      "Ġintroduced": 2361,
      "Ġindepend": 2362,
      "50": 2363,
      "Ġobject": 2364,
      "Ġhaving": 2365,
      "Ġdefe": 2366,
      "Ġtrad": 2367,
      "Ġscientific": 2368,
      "ĠNow": 2369,
      "Ġkilled": 2370,
      "ior": 2371,
      "ĠAsian": 2372,
      "ats": 2373,
      "iety": 2374,
      "Ġparticipation": 2375,
      "Ġplans": 2376,
      "Ġreform": 2377,
      "Ġknown": 2378,
      "Ġbasis": 2379,
      "lad": 2380,
      "Ġagencies": 2381,
      "ĠTurkish": 2382,
      "ares": 2383,
      "craft": 2384,
      "Ġprivate": 2385,
      "Ġquestion": 2386,
      "Ġagric": 2387,
      "Ġmanagement": 2388,
      "Ġ28": 2389,
      "Ġfarm": 2390,
      "cel": 2391,
      "Ġserious": 2392,
      "Ġplayers": 2393,
      "Ġpeace": 2394,
      "reen": 2395,
      "Uzbek": 2396,
      "ĠTajikistan": 2397,
      "irc": 2398,
      "AT": 2399,
      "Ġplant": 2400,
      "hold": 2401,
      "ram": 2402,
      "Ġvictory": 2403,
      "Ġeuros": 2404,
      "Ġthreat": 2405,
      "Ġside": 2406,
      "ne": 2407,
      "ource": 2408,
      "par": 2409,
      "Ġwhy": 2410,
      "Ġobserved": 2411,
      ".,": 2412,
      "Ġcoach": 2413,
      "Ġcities": 2414,
      "Ġbrought": 2415,
      "ling": 2416,
      "Ġlaunched": 2417,
      "Ġleadership": 2418,
      "Ġli": 2419,
      "Ġtons": 2420,
      "Ġchange": 2421,
      "pa": 2422,
      "ests": 2423,
      "Ġstudy": 2424,
      "Ġstrik": 2425,
      "ronic": 2426,
      "Ġstage": 2427,
      "30": 2428,
      "Ġplayer": 2429,
      "Ġweap": 2430,
      "Ġhours": 2431,
      "ify": 2432,
      "Ġgrad": 2433,
      "Ġcompared": 2434,
      "ury": 2435,
      "Ġinjured": 2436,
      "Ġborn": 2437,
      "Ġeffort": 2438,
      "strict": 2439,
      "Ġtreat": 2440,
      "Ġstarting": 2441,
      "ukhara": 2442,
      "Ġrestrict": 2443,
      "Ġreview": 2444,
      "Ġrecogn": 2445,
      "ĠUZ": 2446,
      "uel": 2447,
      "Ġhot": 2448,
      "Ġdeliver": 2449,
      "Ġexperience": 2450,
      "Ġinitial": 2451,
      "ina": 2452,
      "Ġcarry": 2453,
      "Ġpurpose": 2454,
      "oz": 2455,
      "Ġtypes": 2456,
      "ironment": 2457,
      "Ġbecom": 2458,
      "Ġten": 2459,
      "Ġfri": 2460,
      "Ġcaused": 2461,
      "ung": 2462,
      "Ġemb": 2463,
      "Ġonce": 2464,
      "ude": 2465,
      "ery": 2466,
      "ĠDefense": 2467,
      "Ġsanctions": 2468,
      "ech": 2469,
      "Ġvill": 2470,
      "Ġcere": 2471,
      "Ġage": 2472,
      "Ġsubject": 2473,
      "irl": 2474,
      "enced": 2475,
      "eep": 2476,
      "Ġkil": 2477,
      "Ġbro": 2478,
      "Ġregard": 2479,
      "Ġcomb": 2480,
      "osition": 2481,
      "ruption": 2482,
      "sc": 2483,
      "isf": 2484,
      "ĠService": 2485,
      "Ġ40": 2486,
      "Ġterms": 2487,
      "Ġcollect": 2488,
      "\".": 2489,
      "Ġprofession": 2490,
      "gana": 2491,
      "ĠWith": 2492,
      "ĠSaudi": 2493,
      "Ġwhe": 2494,
      "Ġparliament": 2495,
      "Ġcert": 2496,
      "ĠSecurity": 2497,
      "Ġvalue": 2498,
      "ĠInstitute": 2499,
      "Ġofficers": 2500,
      "Ġable": 2501,
      "Ġyet": 2502,
      "Ġvolume": 2503,
      "hing": 2504,
      "Ġris": 2505,
      "Ġtemper": 2506,
      "ĠAndijan": 2507,
      "Ġpresidential": 2508,
      "Ġexceed": 2509,
      "nd": 2510,
      "ĠOur": 2511,
      "Ġpenal": 2512,
      "Ġdata": 2513,
      "Ġpatients": 2514,
      "Ġpolicy": 2515,
      "Ġlost": 2516,
      "Ġnon": 2517,
      "Ġexec": 2518,
      "Ġtechnologies": 2519,
      "Ġmember": 2520,
      "atisf": 2521,
      "Ġneeds": 2522,
      "Ġothers": 2523,
      "Ġcreate": 2524,
      "Ġparticipants": 2525,
      "Ġmother": 2526,
      "Ġinvestment": 2527,
      "Ġhost": 2528,
      "Ġcirc": 2529,
      "Ġceremon": 2530,
      "Ġarrested": 2531,
      "ĠEven": 2532,
      "Ġdest": 2533,
      "Ġcoming": 2534,
      "Ġprocedure": 2535,
      "Ġthink": 2536,
      "wit": 2537,
      "Ġfacilities": 2538,
      "Ġfamil": 2539,
      "Ġreach": 2540,
      "Ġfront": 2541,
      "anding": 2542,
      "ored": 2543,
      "isions": 2544,
      "Ġtask": 2545,
      "Ġresol": 2546,
      "Ġcourse": 2547,
      "Ġparties": 2548,
      "Ġprotect": 2549,
      "Ġlit": 2550,
      "itive": 2551,
      "Ġattract": 2552,
      "cast": 2553,
      "Ġhom": 2554,
      "Ġopened": 2555,
      "Ġrele": 2556,
      "Ġcustoms": 2557,
      "Ġlanguage": 2558,
      "Ġinterview": 2559,
      "Ġrequirements": 2560,
      "works": 2561,
      "Ġabroad": 2562,
      "eal": 2563,
      "Ġdraft": 2564,
      "Ġresponse": 2565,
      "Ġchampionship": 2566,
      "Ġresearch": 2567,
      "iplom": 2568,
      "Ġwent": 2569,
      "Ġnuclear": 2570,
      "oad": 2571,
      "imately": 2572,
      "ĠFergana": 2573,
      "iers": 2574,
      "verage": 2575,
      "Ġbest": 2576,
      "Ġattem": 2577,
      "Ġconflic": 2578,
      "ĠGer": 2579,
      "Ġinternet": 2580,
      "Ġide": 2581,
      "Ġdirector": 2582,
      "Ġleave": 2583,
      "Ġgoods": 2584,
      "ĠMar": 2585,
      "ĠDue": 2586,
      "Ġless": 2587,
      "arantine": 2588,
      "Ġtalk": 2589,
      "ĠBukhara": 2590,
      "arth": 2591,
      "\",": 2592,
      "Ġago": 2593,
      "Ġbook": 2594,
      "Ġelection": 2595,
      "iting": 2596,
      "Ġcommunity": 2597,
      "Ġconducting": 2598,
      "ĠUZS": 2599,
      "Ġcateg": 2600,
      "Ġensuring": 2601,
      "aman": 2602,
      "Ġpayment": 2603,
      "Ġtechnical": 2604,
      "ĠWhat": 2605,
      "ulated": 2606,
      "Ġsociety": 2607,
      "ĠThese": 2608,
      "Ġmult": 2609,
      "ĠIslam": 2610,
      "Ġassoci": 2611,
      "ope": 2612,
      "Ġinternal": 2613,
      "Ġconversation": 2614,
      "ona": 2615,
      "erous": 2616,
      "ĠCity": 2617,
      "Ġdifferent": 2618,
      "Ġconfirmed": 2619,
      "Ġphot": 2620,
      "ĠFrance": 2621,
      "aled": 2622,
      "Ġnetwork": 2623,
      "Ġoperating": 2624,
      "iet": 2625,
      "Ġkm": 2626,
      "Ġsmart": 2627,
      "Ġdecided": 2628,
      "Ġachieve": 2629,
      "overed": 2630,
      "Ġcamp": 2631,
      "Ġalways": 2632,
      "We": 2633,
      "Ġaward": 2634,
      "osh": 2635,
      "ĠOff": 2636,
      "Ġexplos": 2637,
      "Ġmethod": 2638,
      "mad": 2639,
      "Ġconclus": 2640,
      "ĠPh": 2641,
      "Ġlater": 2642,
      "Ġpublished": 2643,
      "Ġclear": 2644,
      "pects": 2645,
      "Ġspok": 2646,
      "Ġmass": 2647,
      "enses": 2648,
      "Ġclass": 2649,
      "...": 2650,
      "Ġsuff": 2651,
      "Ġfind": 2652,
      "Ġinitiated": 2653,
      "ĠSen": 2654,
      "Ġprec": 2655,
      "Ġpotential": 2656,
      "Ġconstruct": 2657,
      "Ġdirection": 2658,
      "Ġ29": 2659,
      "Ġpast": 2660,
      "pecially": 2661,
      "Ġlos": 2662,
      "Ġentities": 2663,
      "Ġcle": 2664,
      "Ġdecl": 2665,
      "ique": 2666,
      "Ġthemselves": 2667,
      "know": 2668,
      "ĠJSC": 2669,
      "ĠFirst": 2670,
      "Ġready": 2671,
      "Ġabove": 2672,
      "Ġlook": 2673,
      "Ġline": 2674,
      "Ġdistrib": 2675,
      "Ġproperty": 2676,
      "Ġrules": 2677,
      "Ġgirl": 2678,
      "Ġglobal": 2679,
      "alp": 2680,
      "Ġaccident": 2681,
      "Ġprison": 2682,
      "Ġaircraft": 2683,
      "ĠGu": 2684,
      "Ġmigr": 2685,
      "Ġconcern": 2686,
      "Ġpassed": 2687,
      "lig": 2688,
      "Ġasked": 2689,
      "ĠVlad": 2690,
      "Ġscored": 2691,
      "Ġz": 2692,
      "Ġreceive": 2693,
      "Ġsingle": 2694,
      "aut": 2695,
      "Ġbring": 2696,
      "Ġnamed": 2697,
      "unities": 2698,
      "Ġhimself": 2699,
      "ĠPeople": 2700,
      "Ġrecomm": 2701,
      "Ġactivity": 2702,
      "Ġdemon": 2703,
      "kh": 2704,
      "Ġsl": 2705,
      "Ġquarantine": 2706,
      "rect": 2707,
      "10": 2708,
      "Ġenc": 2709,
      "Ġdemonstr": 2710,
      "ĠApp": 2711,
      "ring": 2712,
      "Ġmaterials": 2713,
      "Ġsystems": 2714,
      "Ġlim": 2715,
      "atch": 2716,
      "ĠCriminal": 2717,
      "ĠKarak": 2718,
      "Ġgrant": 2719,
      "ledge": 2720,
      "erc": 2721,
      "Ġdefense": 2722,
      "arus": 2723,
      "to": 2724,
      "Ġunderst": 2725,
      "Ġsource": 2726,
      "Ġpartners": 2727,
      "ĠPublic": 2728,
      "Ġonline": 2729,
      "Ġparent": 2730,
      "Ġcompletely": 2731,
      "erb": 2732,
      "Ġlive": 2733,
      "amangan": 2734,
      "Ġspecialists": 2735,
      "ancing": 2736,
      "Ġappl": 2737,
      "Ġefforts": 2738,
      "Ġcivil": 2739,
      "Ġdiplom": 2740,
      "raph": 2741,
      "Ġpand": 2742,
      "ĠIndia": 2743,
      "Ġpoint": 2744,
      "Ġdistricts": 2745,
      "ĠFederation": 2746,
      "sequ": 2747,
      "pted": 2748,
      "ĠTo": 2749,
      "Ġlow": 2750,
      "Ġpersonal": 2751,
      "ĠGerman": 2752,
      "alpak": 2753,
      "ened": 2754,
      "Ġsepar": 2755,
      "Ġâ": 2756,
      "Ġweapons": 2757,
      "ĠAsia": 2758,
      "ĠKarakalpak": 2759,
      "Ġgener": 2760,
      "Ġdevices": 2761,
      "itude": 2762,
      "Ġcommission": 2763,
      "Ġentire": 2764,
      "ĠSecretary": 2765,
      "Ġtourn": 2766,
      "Ġlight": 2767,
      "aving": 2768,
      "ĠGe": 2769,
      "Ġhousehold": 2770,
      "Ġdriver": 2771,
      "Ġstation": 2772,
      "Ġfail": 2773,
      "ins": 2774,
      "forcement": 2775,
      "Ġmatches": 2776,
      "roving": 2777,
      "Ġhon": 2778,
      "ĠJust": 2779,
      "Ġacross": 2780,
      "imir": 2781,
      "Ġenvironment": 2782,
      "ifically": 2783,
      "Ġtravel": 2784,
      "Ġsession": 2785,
      "Ġeveryone": 2786,
      "book": 2787,
      "Ġsources": 2788,
      "Ġelectricity": 2789,
      "ters": 2790,
      "Ġelectronic": 2791,
      "ping": 2792,
      "ĠNamangan": 2793,
      "ĠBelarus": 2794,
      "Ġpandemic": 2795,
      "ple": 2796,
      "Ġded": 2797,
      "igious": 2798,
      "Ġbelong": 2799,
      "Ġbuilt": 2800,
      "uted": 2801,
      "ĠCommission": 2802,
      "Ġord": 2803,
      "Ġimplementing": 2804,
      "Ġcommunication": 2805,
      "the": 2806,
      "Ġcreating": 2807,
      "Ġdeleg": 2808,
      "ĠOffice": 2809,
      "ems": 2810,
      "Ġprograms": 2811,
      "ĠVladimir": 2812,
      "Ġminutes": 2813,
      "Ġpositions": 2814,
      "Ġtempor": 2815,
      "Ġprotection": 2816,
      "rev": 2817,
      "ows": 2818,
      "Ġcenters": 2819,
      "Ġlegisl": 2820,
      "Ġrequest": 2821,
      "Ġ31": 2822,
      "ĠOrgan": 2823,
      "Ġmobile": 2824,
      "Ġindustry": 2825,
      "otton": 2826,
      "Ġprevious": 2827,
      "ening": 2828,
      "ĠKarakalpakstan": 2829,
      "Ġtemperature": 2830,
      "Ġfew": 2831,
      "agn": 2832,
      "Ġmaking": 2833,
      "ert": 2834,
      "Ġsusp": 2835,
      "FA": 2836,
      "Ġupon": 2837,
      "Ġmanaged": 2838,
      "Ġhold": 2839,
      "On": 2840,
      "Ġpromot": 2841,
      "Ġprosecutor": 2842,
      "aint": 2843,
      "Ġparty": 2844,
      "fully": 2845,
      "Ġlives": 2846,
      "Ģ¢": 2847,
      "Ġsmartph": 2848,
      "Ġmar": 2849,
      "Ġpurchase": 2850,
      "ĠWest": 2851,
      "oÄŁ": 2852,
      "uz": 2853,
      "istics": 2854,
      "Ġjoin": 2855,
      "ĠProsecutor": 2856,
      "ĠâĢ¢": 2857,
      "ĠInvest": 2858,
      "Ġvirus": 2859,
      "era": 2860,
      "ĠBritish": 2861,
      "Ġissued": 2862,
      "ances": 2863,
      "Ġquestions": 2864,
      "Ġminute": 2865,
      "Ġspeed": 2866,
      "Ġdom": 2867,
      "Ġteachers": 2868,
      "rench": 2869,
      "ĠBased": 2870,
      "Ġacad": 2871,
      "Ġalmost": 2872,
      "Ġunique": 2873,
      "Ġmor": 2874,
      "Ġmaintain": 2875,
      "Ġprepared": 2876,
      "Ġinstitution": 2877,
      "rast": 2878,
      "strial": 2879,
      "Ġtro": 2880,
      "Ġopportunities": 2881,
      "Ġphone": 2882,
      "Ġautom": 2883,
      "Ġgold": 2884,
      "Ġjud": 2885,
      "Ġparents": 2886,
      "ximately": 2887,
      "lish": 2888,
      "Ġgive": 2889,
      "ief": 2890,
      "Ġfather": 2891,
      "Ġans": 2892,
      "ocr": 2893,
      "icated": 2894,
      "Ġagreed": 2895,
      "Ġsix": 2896,
      "Ġapplication": 2897,
      "Ġcurrency": 2898,
      "ĠTherefore": 2899,
      "Ġworkers": 2900,
      "izz": 2901,
      "ĠArabia": 2902,
      "Ġcontinu": 2903,
      "ush": 2904,
      "Ġ60": 2905,
      "reet": 2906,
      "ishing": 2907,
      "Ġinvolved": 2908,
      "Ġcalc": 2909,
      "Ġshare": 2910,
      "Ġvisited": 2911,
      "Ġball": 2912,
      "Ġstep": 2913,
      "avor": 2914,
      "ĠMore": 2915,
      "Ġnetworks": 2916,
      "Ġview": 2917,
      "Ġsqu": 2918,
      "ĠEm": 2919,
      "Ġtourism": 2920,
      "Ġdetail": 2921,
      "Ġcapac": 2922,
      "Ġparticipating": 2923,
      "ĠDonald": 2924,
      "Ġknowledge": 2925,
      "Ġ2023": 2926,
      "Ġaccused": 2927,
      "ĠSo": 2928,
      "Ġmodel": 2929,
      "ĠAle": 2930,
      "Ġaverage": 2931,
      "vert": 2932,
      "Ġceremony": 2933,
      "emy": 2934,
      "ĠFrench": 2935,
      "ĠCo": 2936,
      "ĠInformation": 2937,
      "Ġmedic": 2938,
      "Ġreve": 2939,
      "oms": 2940,
      "Ġworked": 2941,
      "imum": 2942,
      "ĠEnglish": 2943,
      "Ġphys": 2944,
      "Ġfields": 2945,
      "anced": 2946,
      "Ġeas": 2947,
      "Ġsituations": 2948,
      "lying": 2949,
      "Ġincluded": 2950,
      "arya": 2951,
      "ops": 2952,
      "ses": 2953,
      "Ġath": 2954,
      "Ġenforcement": 2955,
      "ifying": 2956,
      "ides": 2957,
      "Ġcompl": 2958,
      "Ġdi": 2959,
      "Ġjournalists": 2960,
      "arian": 2961,
      "ĠNavo": 2962,
      "Ġdeputies": 2963,
      "Ġarticle": 2964,
      "Ġlargest": 2965,
      "arov": 2966,
      "ĠBy": 2967,
      "iation": 2968,
      "Ġpenalty": 2969,
      "ĠKorean": 2970,
      "Ġfull": 2971,
      "ption": 2972,
      "Ġtournament": 2973,
      "In": 2974,
      "Ġbase": 2975,
      "iences": 2976,
      "Ġarmy": 2977,
      "Ġthing": 2978,
      "Ġproduced": 2979,
      "rip": 2980,
      "Ġsafety": 2981,
      "Ġadministrative": 2982,
      "Ġincome": 2983,
      "Ġcotton": 2984,
      "Ġreturned": 2985,
      "fort": 2986,
      "Ġresidents": 2987,
      "rs": 2988,
      "Ġarrived": 2989,
      "Ġstudent": 2990,
      "fficient": 2991,
      "Ġrapid": 2992,
      "Ġemergency": 2993,
      "ĠSenate": 2994,
      "Ġgroups": 2995,
      "Ġmajority": 2996,
      "Ġrepl": 2997,
      "raq": 2998,
      "Ġconven": 2999,
      "ĠMy": 3000,
      "Ġresources": 3001,
      "LC": 3002,
      "Ġnorm": 3003,
      "henko": 3004,
      "ĠCour": 3005,
      "Ġminister": 3006,
      "Ġfamilies": 3007,
      "Ġstandards": 3008,
      "Ġforced": 3009,
      "ador": 3010,
      "Ġvehicle": 3011,
      "Ġrequired": 3012,
      "Ġinform": 3013,
      "uck": 3014,
      "ĠAust": 3015,
      "pection": 3016,
      "Ġassess": 3017,
      "Ġweather": 3018,
      "Ġaffairs": 3019,
      "Ġreforms": 3020,
      "Ġdisease": 3021,
      "Ġplayed": 3022,
      "rastructure": 3023,
      "ti": 3024,
      "Ġsale": 3025,
      "Ġpassengers": 3026,
      "Ġturned": 3027,
      "Ġinterests": 3028,
      "amber": 3029,
      "ĠIS": 3030,
      "Ġdirections": 3031,
      "asons": 3032,
      "Ġdisp": 3033,
      "Ġincludes": 3034,
      "Ġallowed": 3035,
      "Ġgoing": 3036,
      "ither": 3037,
      "Ġfun": 3038,
      "na": 3039,
      "Ġmut": 3040,
      "artments": 3041,
      "Ġhy": 3042,
      "Ġdevice": 3043,
      "ĠPar": 3044,
      "ĠLLC": 3045,
      "eral": 3046,
      "Ġcertific": 3047,
      "ĠSur": 3048,
      "ĠTV": 3049,
      "Ġeverything": 3050,
      "semb": 3051,
      "istered": 3052,
      "Ġcentral": 3053,
      "Ġlic": 3054,
      "ead": 3055,
      "Ġill": 3056,
      "Ġrole": 3057,
      "ta": 3058,
      "Ġadded": 3059,
      "Ġquarter": 3060,
      "Ġcritic": 3061,
      "Ġpayments": 3062,
      "Ġvillage": 3063,
      "Ġillegal": 3064,
      "Ġconstitut": 3065,
      "Ġbuy": 3066,
      "Ġlaws": 3067,
      "Ġwind": 3068,
      "ellig": 3069,
      "struction": 3070,
      "Ġproposed": 3071,
      "Ġflights": 3072,
      "Ġbox": 3073,
      "Ġtoget": 3074,
      "Ġtogether": 3075,
      "Ġsaying": 3076,
      "iddin": 3077,
      "side": 3078,
      "ires": 3079,
      "ĠDire": 3080,
      "Ġmonitor": 3081,
      "Ġsy": 3082,
      "Ġrisk": 3083,
      "Ġhouses": 3084,
      "Ġvictims": 3085,
      "ĠCan": 3086,
      "Ġunderstand": 3087,
      "ension": 3088,
      "uries": 3089,
      "Ġresidential": 3090,
      "ĠPl": 3091,
      "going": 3092,
      "ama": 3093,
      "Ġquick": 3094,
      "Ġavail": 3095,
      "Ġconclud": 3096,
      "ĠErd": 3097,
      "Ġbre": 3098,
      "akes": 3099,
      "ĠSpecial": 3100,
      "Ġpil": 3101,
      "lebr": 3102,
      "ĠAdministr": 3103,
      "Ġunits": 3104,
      "Ġcla": 3105,
      "Ġkilom": 3106,
      "Ġbanks": 3107,
      "Ġcorruption": 3108,
      "iday": 3109,
      "aily": 3110,
      "arc": 3111,
      "Ġmus": 3112,
      "Ġdamage": 3113,
      "obod": 3114,
      "Ġsoon": 3115,
      "Ġfavor": 3116,
      "Ġcrime": 3117,
      "Ġgrowth": 3118,
      "Ġrespect": 3119,
      "Ġ2014": 3120,
      "aries": 3121,
      "Ġimproving": 3122,
      "Ġlo": 3123,
      "Ġdedicated": 3124,
      "hern": 3125,
      "Ġson": 3126,
      "be": 3127,
      "Ġtreatment": 3128,
      "gen": 3129,
      "Ġdated": 3130,
      "Ġlack": 3131,
      "Ġtechnology": 3132,
      "Ġearly": 3133,
      "Ġachieved": 3134,
      "ordin": 3135,
      "Ġinstalled": 3136,
      "Ġagricultural": 3137,
      "Ġengine": 3138,
      "Ġsoldiers": 3139,
      "Ġinfrastructure": 3140,
      "Ġcompleted": 3141,
      "Real": 3142,
      "ATO": 3143,
      "ĠCourt": 3144,
      "ĠFinance": 3145,
      "ĠHouse": 3146,
      "Ġentered": 3147,
      "aught": 3148,
      "ĠComp": 3149,
      "Ġorganizing": 3150,
      "Ġheart": 3151,
      "aration": 3152,
      "Ġeffective": 3153,
      "ready": 3154,
      "Ġcelebr": 3155,
      "Ġmist": 3156,
      "Ġpractice": 3157,
      "Ġdebt": 3158,
      "Ġseries": 3159,
      "ĠIraq": 3160,
      "erve": 3161,
      "ĠInc": 3162,
      "Ġcommitted": 3163,
      "Ġfootballer": 3164,
      "Ġbelieve": 3165,
      "Ġconsider": 3166,
      "Ġtarget": 3167,
      "Ġsectors": 3168,
      "ĠOb": 3169,
      "ashing": 3170,
      "ĠComm": 3171,
      "respon": 3172,
      "Ġparticular": 3173,
      "incip": 3174,
      "ĠAssoci": 3175,
      "Ġelimin": 3176,
      "Ġprofessional": 3177,
      "12": 3178,
      "zm": 3179,
      "urb": 3180,
      "eed": 3181,
      "ĠMad": 3182,
      "Ġopening": 3183,
      "Ġequipped": 3184,
      "ĠDo": 3185,
      "Ġkg": 3186,
      "AS": 3187,
      "Ġdelegation": 3188,
      "acy": 3189,
      "Ġairport": 3190,
      "Ġfell": 3191,
      "Ġground": 3192,
      "Ġitself": 3193,
      "ivered": 3194,
      "rior": 3195,
      "Ġlif": 3196,
      "Ġanal": 3197,
      "Ġterrorist": 3198,
      "Ġrad": 3199,
      "Ġlot": 3200,
      "ateral": 3201,
      "Ġfreed": 3202,
      "Ġconflict": 3203,
      "rehen": 3204,
      "Ġresolv": 3205,
      "Ġship": 3206,
      "istration": 3207,
      "Ġdelivered": 3208,
      "Ġbrand": 3209,
      "Ġbenef": 3210,
      "ĠNATO": 3211,
      "Ġalready": 3212,
      "ĠStreet": 3213,
      "ĠLeg": 3214,
      "zil": 3215,
      "Ġcapacity": 3216,
      "Ġremains": 3217,
      "medi": 3218,
      "ned": 3219,
      "roup": 3220,
      "elligence": 3221,
      "Ġpark": 3222,
      "Ġappear": 3223,
      "ĠBo": 3224,
      "Ġdetained": 3225,
      "Ġcontrib": 3226,
      "Ġprincip": 3227,
      "hev": 3228,
      "ality": 3229,
      "Ġattacks": 3230,
      "Ġinitiative": 3231,
      "Ġarmed": 3232,
      "Ġnegative": 3233,
      "ĠAnt": 3234,
      "Ġnever": 3235,
      "aning": 3236,
      "Ġexpand": 3237,
      "Ġinfection": 3238,
      "Ġacademic": 3239,
      "Ġairpl": 3240,
      "Ġcard": 3241,
      "Ġstreets": 3242,
      "rid": 3243,
      "ined": 3244,
      "itness": 3245,
      "hel": 3246,
      "Ġinnov": 3247,
      "ef": 3248,
      "ĠJizz": 3249,
      "ĠBl": 3250,
      "ĠMon": 3251,
      "espite": 3252,
      "erba": 3253,
      "Ġconclusion": 3254,
      "Ġsignificantly": 3255,
      "Ġaw": 3256,
      "anch": 3257,
      "Ġforce": 3258,
      "Ġimposed": 3259,
      "erbaijan": 3260,
      "Ġenh": 3261,
      "Ġmess": 3262,
      "inal": 3263,
      "Ġdiv": 3264,
      "Ġwarm": 3265,
      "ĠNavoiy": 3266,
      "Ġchanged": 3267,
      "Ġeffic": 3268,
      "ĠHow": 3269,
      "Ġpossibility": 3270,
      "rig": 3271,
      "Ġsummit": 3272,
      "ĠCor": 3273,
      "riate": 3274,
      "Ġmovement": 3275,
      "ĠOrganization": 3276,
      "Ġbehind": 3277,
      "Ġdang": 3278,
      "mar": 3279,
      "Ġplaced": 3280,
      "action": 3281,
      "Ġstreet": 3282,
      "Ġpar": 3283,
      "Ġpreparing": 3284,
      "Ġspent": 3285,
      "Ġdig": 3286,
      "Ġindividual": 3287,
      "Ġansw": 3288,
      "Ġcross": 3289,
      "Ġprohib": 3290,
      "Ġavailable": 3291,
      "Ġamounted": 3292,
      "Ġ70": 3293,
      "ĠNur": 3294,
      "Ġcontact": 3295,
      "Ġpros": 3296,
      "Ġdecisions": 3297,
      "Ġexerc": 3298,
      "Ġcho": 3299,
      "Ġrespond": 3300,
      "ĠTechn": 3301,
      "Ġspace": 3302,
      "ork": 3303,
      "Ġusers": 3304,
      "arb": 3305,
      "son": 3306,
      "Ġregistered": 3307,
      "eter": 3308,
      "15": 3309,
      "ĠBritain": 3310,
      "itation": 3311,
      "assy": 3312,
      "Ġimpact": 3313,
      "ĠAc": 3314,
      "Ġlaunch": 3315,
      "Ġcover": 3316,
      "Ġfoc": 3317,
      "Ġforward": 3318,
      "chan": 3319,
      "ĠSw": 3320,
      "oq": 3321,
      "Ġpun": 3322,
      "Ġoppon": 3323,
      "Ġbecoming": 3324,
      "Ġoblig": 3325,
      "ilateral": 3326,
      "Ġmeetings": 3327,
      "ĠMe": 3328,
      "estic": 3329,
      "Ġplanning": 3330,
      "Ġmanner": 3331,
      "ĠCol": 3332,
      "ĠMuh": 3333,
      "Ġsubmitted": 3334,
      "Ġcomment": 3335,
      "ĠFund": 3336,
      "Ġministry": 3337,
      "Ġdoctors": 3338,
      "Ġut": 3339,
      "abilities": 3340,
      "Ġinspect": 3341,
      "Ġcultural": 3342,
      "Ġtext": 3343,
      "Ġapprop": 3344,
      "ills": 3345,
      "Ġhect": 3346,
      "aging": 3347,
      "Ġrevealed": 3348,
      "Ġcam": 3349,
      "ĠAzerbaijan": 3350,
      "tle": 3351,
      "ĠDirector": 3352,
      "ze": 3353,
      "ĠOlympic": 3354,
      "imate": 3355,
      "Ġcandidate": 3356,
      "illing": 3357,
      "Ġdiscussion": 3358,
      "Ġfans": 3359,
      "ĠDespite": 3360,
      "Ġdraw": 3361,
      "Ġfilm": 3362,
      "Ġpractical": 3363,
      "undred": 3364,
      "aign": 3365,
      "Ġdiseases": 3366,
      "ams": 3367,
      "Ġwhether": 3368,
      "Ġobtained": 3369,
      "Ġremaining": 3370,
      "Ġformed": 3371,
      "Ġroads": 3372,
      "Ġexplosion": 3373,
      "irov": 3374,
      "ĠPrev": 3375,
      "Ġuniversity": 3376,
      "Ġresolution": 3377,
      "vernment": 3378,
      "ĠFace": 3379,
      "Ġabs": 3380,
      "though": 3381,
      "mercial": 3382,
      "ky": 3383,
      "Ġappeal": 3384,
      "ĠChairman": 3385,
      "Ġwide": 3386,
      "ĠJustice": 3387,
      "Ġclosed": 3388,
      "Ġreasons": 3389,
      "ĠSince": 3390,
      "ĠDem": 3391,
      "Ġreduce": 3392,
      "Ġpict": 3393,
      "ĠTele": 3394,
      "Ġwritten": 3395,
      "miss": 3396,
      "Ġ198": 3397,
      "Ġstatus": 3398,
      "Ġtransportation": 3399,
      "Ġtelev": 3400,
      "ĠPal": 3401,
      "Ġactive": 3402,
      "of": 3403,
      "Ġprior": 3404,
      "Ġagreements": 3405,
      "ĠChamber": 3406,
      "Ġbroad": 3407,
      "Ġexhib": 3408,
      "Ġauthority": 3409,
      "arcel": 3410,
      "ĠCons": 3411,
      "Ġimportance": 3412,
      "ĠISIS": 3413,
      "aches": 3414,
      "ĠChampions": 3415,
      "Ġsem": 3416,
      "Ġquickly": 3417,
      "Ġpath": 3418,
      "Ġimm": 3419,
      "arcelona": 3420,
      "Ġspeech": 3421,
      "Ġcategory": 3422,
      "ashington": 3423,
      "ĠEvery": 3424,
      "Ġindustrial": 3425,
      "Ġstations": 3426,
      "Ġletter": 3427,
      "Ġ+": 3428,
      "Ġended": 3429,
      "by": 3430,
      "Ġcampaign": 3431,
      "Ġrestrictions": 3432,
      "Ġstopped": 3433,
      "Ġrecon": 3434,
      "Ġhowever": 3435,
      "Ġthings": 3436,
      "Ġdeal": 3437,
      "ilar": 3438,
      "ander": 3439,
      "Ġsummer": 3440,
      "Ġfeel": 3441,
      "Ġrub": 3442,
      "Ġspoke": 3443,
      "ĠEconomic": 3444,
      "Ġintended": 3445,
      "Ġkilometers": 3446,
      "atform": 3447,
      "Ġsug": 3448,
      "iff": 3449,
      "ĠWashington": 3450,
      "Ġregulations": 3451,
      "dom": 3452,
      "itary": 3453,
      "Ġexpert": 3454,
      "ĠGroup": 3455,
      "Ġinflu": 3456,
      "iles": 3457,
      "Ġcontain": 3458,
      "ĠFacebook": 3459,
      "ĠCl": 3460,
      "ially": 3461,
      "Ġmechan": 3462,
      "Ġprocesses": 3463,
      "Ġstrengthening": 3464,
      "Ġbranch": 3465,
      "Ġhighest": 3466,
      "Ġwa": 3467,
      "ĠMan": 3468,
      "Ġpositive": 3469,
      "Ġcoun": 3470,
      "Ġearth": 3471,
      "oved": 3472,
      "Ġamounts": 3473,
      "Ġcorrespon": 3474,
      "Ġoccup": 3475,
      "ondon": 3476,
      "Ġaccept": 3477,
      "igned": 3478,
      "oses": 3479,
      "Ġtre": 3480,
      "ĠAct": 3481,
      "ĠBra": 3482,
      "ĠHis": 3483,
      "orn": 3484,
      "roll": 3485,
      "Ġ35": 3486,
      "Ġscientists": 3487,
      "ĠGeor": 3488,
      "iddle": 3489,
      "Ġshar": 3490,
      "Ġreleased": 3491,
      "paper": 3492,
      "Ġcrimes": 3493,
      "Ġcash": 3494,
      "ĠParty": 3495,
      "ger": 3496,
      "Ġreserv": 3497,
      "Ġsomet": 3498,
      "Ġviolations": 3499,
      "ony": 3500,
      "Ġexact": 3501,
      "ammad": 3502,
      "uv": 3503,
      "Ġspecialized": 3504,
      "ĠLondon": 3505,
      "assador": 3506,
      "ties": 3507,
      "Ġprimarily": 3508,
      "Ġtrillion": 3509,
      "ĠBefore": 3510,
      "Ġcouncil": 3511,
      "Ġresponsibility": 3512,
      "Ġdomestic": 3513,
      "Ġplatform": 3514,
      "Ġinjuries": 3515,
      "ari": 3516,
      "ĠThat": 3517,
      "gress": 3518,
      "Ġ500": 3519,
      "Ġfamous": 3520,
      "ĠSea": 3521,
      "Ġface": 3522,
      "Ġdecreased": 3523,
      "Ġnewspaper": 3524,
      "Ġexpenses": 3525,
      "Ġsomeone": 3526,
      "ograph": 3527,
      "Ġwitness": 3528,
      "Ġapproximately": 3529,
      "ĠAmong": 3530,
      "iding": 3531,
      "ĠMusl": 3532,
      "Ġbig": 3533,
      "Ġmissile": 3534,
      "Ġawarded": 3535,
      "Ġlegislation": 3536,
      "ĠUs": 3537,
      "Ġclar": 3538,
      "Ġindicated": 3539,
      "Ġamb": 3540,
      "Ġhundred": 3541,
      "Ġspir": 3542,
      "oring": 3543,
      "known": 3544,
      "Ġpressure": 3545,
      "Ġcold": 3546,
      "Ġhar": 3547,
      "ĠSecond": 3548,
      "Ġapplied": 3549,
      "ĠKing": 3550,
      "uters": 3551,
      "Ġofficially": 3552,
      "ocratic": 3553,
      "Ġproposals": 3554,
      "Äŀ": 3555,
      "Ġinvolving": 3556,
      "Ġdirectly": 3557,
      "Ġhectares": 3558,
      "ico": 3559,
      "Ġ80": 3560,
      "Ġdiss": 3561,
      "ĠSupreme": 3562,
      "ores": 3563,
      "Ġchairman": 3564,
      "Ġhistor": 3565,
      "rote": 3566,
      "Ġtransferred": 3567,
      "Ġ90": 3568,
      "Ġcompetitions": 3569,
      "ternal": 3570,
      "ĠAnother": 3571,
      "Ġsalary": 3572,
      "ka": 3573,
      "ĠTurkmen": 3574,
      "Ġdate": 3575,
      "Ġcausing": 3576,
      "Ġweight": 3577,
      "isis": 3578,
      "Ġbar": 3579,
      "Ġrun": 3580,
      "Th": 3581,
      "ilov": 3582,
      "Ġespecially": 3583,
      "ĠTelegram": 3584,
      "Ġregistration": 3585,
      "Ġscene": 3586,
      "Ġaction": 3587,
      "Ġped": 3588,
      "Ġserve": 3589,
      "ez": 3590,
      "Ġmen": 3591,
      "isher": 3592,
      "Ġrail": 3593,
      "ĠAcad": 3594,
      "Ġsurve": 3595,
      "Ġdone": 3596,
      "Ġsentenced": 3597,
      "urod": 3598,
      "Ġfig": 3599,
      "rad": 3600,
      "ĠAh": 3601,
      "ĠRel": 3602,
      "Ġinstruct": 3603,
      "Ġrepair": 3604,
      "Ġcommercial": 3605,
      "iden": 3606,
      "Ġtal": 3607,
      "Ġcheck": 3608,
      "Ġden": 3609,
      "ester": 3610,
      "Ġdidn": 3611,
      "ĠAfric": 3612,
      "ountain": 3613,
      "Ġrecognized": 3614,
      "aq": 3615,
      "adium": 3616,
      "Ġgave": 3617,
      "Ġdou": 3618,
      "Ġdeep": 3619,
      "Ġtrust": 3620,
      "omb": 3621,
      "Ġdaugh": 3622,
      "Ġguarant": 3623,
      "Ġconcluded": 3624,
      "Ġtype": 3625,
      "ĠSyrian": 3626,
      "Ġpassenger": 3627,
      "Ġbegun": 3628,
      "Ġconsequ": 3629,
      "Ġvers": 3630,
      "anov": 3631,
      "Uzbekistan": 3632,
      "Ġexplained": 3633,
      "ule": 3634,
      "atri": 3635,
      "Ġquot": 3636,
      "Ġapproach": 3637,
      "Ġdesignated": 3638,
      "Ġsite": 3639,
      "sembly": 3640,
      "Ġkeep": 3641,
      "itarian": 3642,
      "Ġconnection": 3643,
      "Ġdece": 3644,
      "ging": 3645,
      "anish": 3646,
      "Ġver": 3647,
      "acter": 3648,
      "roy": 3649,
      "Ġunable": 3650,
      "lected": 3651,
      "Ġharm": 3652,
      "ĠIncluding": 3653,
      "Ġkn": 3654,
      "Ġexc": 3655,
      "Ġfulf": 3656,
      "16": 3657,
      "ĠAssociation": 3658,
      "Ġstudying": 3659,
      "Ġfarmers": 3660,
      "Ġdeclared": 3661,
      "Ġcred": 3662,
      "istic": 3663,
      "Ġconnect": 3664,
      "Ġappropriate": 3665,
      "Ġsimilar": 3666,
      "Ġfriend": 3667,
      "Ġemployment": 3668,
      "ularly": 3669,
      "Ġstay": 3670,
      "lf": 3671,
      "ĠBer": 3672,
      "40": 3673,
      "18": 3674,
      "ĠSpe": 3675,
      "Ġaud": 3676,
      "Ġcapt": 3677,
      "AE": 3678,
      "Ġengaged": 3679,
      "Ġenterprise": 3680,
      "ĠJapanese": 3681,
      "Ġmigrants": 3682,
      "Ġexisting": 3683,
      "Ġgradu": 3684,
      "Ġmorning": 3685,
      "99": 3686,
      "aps": 3687,
      "Ġseve": 3688,
      "Ġimmedi": 3689,
      "ĠBrazil": 3690,
      "Ġholding": 3691,
      "ĠBiden": 3692,
      "Ġtoo": 3693,
      "Ġearthqu": 3694,
      "Ġcontinues": 3695,
      "Ġproposal": 3696,
      "Ġanaly": 3697,
      "ĠAmerica": 3698,
      "ĠIslamic": 3699,
      "crib": 3700,
      "Ġintelligence": 3701,
      "Ġtelevision": 3702,
      "Ġhope": 3703,
      "Ġclubs": 3704,
      "Ġvaccine": 3705,
      "Ġey": 3706,
      "Ġongoing": 3707,
      "Ġphysical": 3708,
      "Ġaffect": 3709,
      "Ġmaster": 3710,
      "Ġcommittee": 3711,
      "ĠGul": 3712,
      "Ġowners": 3713,
      "Ġparts": 3714,
      "Ġenough": 3715,
      "Ġdaily": 3716,
      "ĠNet": 3717,
      "Ġemployee": 3718,
      "Ġmom": 3719,
      "izes": 3720,
      "Ġmayor": 3721,
      "ĠKyiv": 3722,
      "Åır": 3723,
      "oÄŁan": 3724,
      "time": 3725,
      "onov": 3726,
      "sy": 3727,
      "ĠItaly": 3728,
      "berg": 3729,
      "Ġdesp": 3730,
      "ĠOf": 3731,
      "Ġprimary": 3732,
      "Ġreceiving": 3733,
      "iency": 3734,
      "Ġmot": 3735,
      "urd": 3736,
      "Ġhonor": 3737,
      "Ġbrother": 3738,
      "istrict": 3739,
      "Ġi": 3740,
      "Ġcrisis": 3741,
      "lines": 3742,
      "arning": 3743,
      "Ġthroughout": 3744,
      "Ġinterested": 3745,
      "inder": 3746,
      "isc": 3747,
      "Ġseen": 3748,
      "rary": 3749,
      "osing": 3750,
      "yle": 3751,
      "Ġadvert": 3752,
      "Ġjobs": 3753,
      "Ġ300": 3754,
      "Ġattempt": 3755,
      "Ġhard": 3756,
      "22": 3757,
      "ĠMaj": 3758,
      "Ġlat": 3759,
      "Ġreven": 3760,
      "Ġspecific": 3761,
      "ĠErdoÄŁan": 3762,
      "Ġgif": 3763,
      "ĠYork": 3764,
      "Ġaid": 3765,
      "Ġcoal": 3766,
      "Ġmarkets": 3767,
      "ĠNaz": 3768,
      "Ġtourists": 3769,
      "atar": 3770,
      "Ġcounter": 3771,
      "ĠPreviously": 3772,
      "uter": 3773,
      "eg": 3774,
      "orezm": 3775,
      "istries": 3776,
      "hester": 3777,
      "ĠEl": 3778,
      "ote": 3779,
      "Ġcarrying": 3780,
      "Ġmid": 3781,
      "Ġleaving": 3782,
      "stances": 3783,
      "Ġple": 3784,
      "Ġcandidates": 3785,
      "rel": 3786,
      "Ġclaim": 3787,
      "ugg": 3788,
      "Ġmanufacture": 3789,
      "ani": 3790,
      "Ġfru": 3791,
      "Ġtrip": 3792,
      "anchester": 3793,
      "ĠTrade": 3794,
      "500": 3795,
      "Ġreporting": 3796,
      "qad": 3797,
      "ĠMuhammad": 3798,
      "Ġculture": 3799,
      "zod": 3800,
      "Ġtopic": 3801,
      "Ġrain": 3802,
      "Ġdrug": 3803,
      "Sh": 3804,
      "Ġesc": 3805,
      "Ġathlet": 3806,
      "Ġrecommend": 3807,
      "ĠPak": 3808,
      "ya": 3809,
      "Ġinspection": 3810,
      "chol": 3811,
      "Ġsevere": 3812,
      "Ġmos": 3813,
      "Ġunivers": 3814,
      "Barcelona": 3815,
      "Ġdrink": 3816,
      "Ġtit": 3817,
      "ĠUr": 3818,
      "Ġdesigned": 3819,
      "ĠSuch": 3820,
      "ĠTurkmenistan": 3821,
      "ada": 3822,
      "light": 3823,
      "Ġstadium": 3824,
      "Ġconstructed": 3825,
      "Ġmach": 3826,
      "Ġstruct": 3827,
      "ĠArmen": 3828,
      "17": 3829,
      "Ġintens": 3830,
      "ought": 3831,
      "ĠTrans": 3832,
      "Ġowner": 3833,
      "Ġsufficient": 3834,
      "ĠJizzakh": 3835,
      "Ġcause": 3836,
      "Ġsubmit": 3837,
      "Ġsil": 3838,
      "Ġsw": 3839,
      "Ġheads": 3840,
      "Ġconsequences": 3841,
      "itable": 3842,
      "Ġraised": 3843,
      "chi": 3844,
      "Ġroute": 3845,
      "Ġcustomers": 3846,
      "Ġbir": 3847,
      "burg": 3848,
      "ĠRepublican": 3849,
      "Ġseparate": 3850,
      "Ġestablishment": 3851,
      "Ġfre": 3852,
      "Ġcaught": 3853,
      "Ġduties": 3854,
      "Ġcompens": 3855,
      "Ġteach": 3856,
      "ĠTax": 3857,
      "afe": 3858,
      "Ġadvant": 3859,
      "ĠAk": 3860,
      "atov": 3861,
      "Ġdefeated": 3862,
      "ĠKhorezm": 3863,
      "Ġwanted": 3864,
      "Ġcomes": 3865,
      "Ġsatisf": 3866,
      "Ġrelatives": 3867,
      "Ġcorrect": 3868,
      "Ġmulti": 3869,
      "Ġindicators": 3870,
      "witter": 3871,
      "21": 3872,
      "Ġeither": 3873,
      "Ġplane": 3874,
      "Ġestablishing": 3875,
      "ĠZel": 3876,
      "Ġamounting": 3877,
      "Ġsupporting": 3878,
      "Ġsearch": 3879,
      "app": 3880,
      "ategic": 3881,
      "Uz": 3882,
      "ites": 3883,
      "ali": 3884,
      "head": 3885,
      "ĠTwitter": 3886,
      "ĠEnt": 3887,
      "ashqad": 3888,
      "Ġwants": 3889,
      "Ġshot": 3890,
      "Ġtable": 3891,
      "Ġdistance": 3892,
      "Ġsche": 3893,
      "ĠMedical": 3894,
      "hedul": 3895,
      "Ġschedul": 3896,
      "Ġlatest": 3897,
      "Ġcy": 3898,
      "Ġintegr": 3899,
      "Ġpage": 3900,
      "Ġstudies": 3901,
      "25": 3902,
      "Ġcombat": 3903,
      "gypt": 3904,
      "ficial": 3905,
      "Ġextra": 3906,
      "ashqadaryo": 3907,
      "Ġcertificate": 3908,
      "onald": 3909,
      "Ġreviewed": 3910,
      "ĠRegional": 3911,
      "ĠSome": 3912,
      "Ġdoctor": 3913,
      "Ġdespite": 3914,
      "anks": 3915,
      "Ġquite": 3916,
      "60": 3917,
      "Ġconsist": 3918,
      "Ġsmartphone": 3919,
      "lis": 3920,
      "IA": 3921,
      "Ġcance": 3922,
      "Ġindicator": 3923,
      "Ġdiscovered": 3924,
      "Ġwithd": 3925,
      "Ġportal": 3926,
      "Ġmand": 3927,
      "ĠEU": 3928,
      "ĠRah": 3929,
      "ĠZelens": 3930,
      "urance": 3931,
      "Ġfriends": 3932,
      "Ġmutual": 3933,
      "Ġbilateral": 3934,
      "Ġexams": 3935,
      "Ġadmitted": 3936,
      "Ġdecrease": 3937,
      "oon": 3938,
      "Ġwrote": 3939,
      "aur": 3940,
      "rehensive": 3941,
      "Ġblock": 3942,
      "Ġtradition": 3943,
      "Ch": 3944,
      "iveness": 3945,
      "Ġfuel": 3946,
      "Ġinfected": 3947,
      "ĠLast": 3948,
      "ĠMess": 3949,
      "ĠEgypt": 3950,
      "Ġindependence": 3951,
      "Ġexercises": 3952,
      "ano": 3953,
      "Ġentr": 3954,
      "Ġinclude": 3955,
      "ĠQashqadaryo": 3956,
      "ĠAbdull": 3957,
      "Ġdefend": 3958,
      "arsh": 3959,
      "Ġannual": 3960,
      "ĠÅİ": 3961,
      "Ġathletes": 3962,
      "Ġwaste": 3963,
      "Ġ197": 3964,
      "iro": 3965,
      "Ġexamination": 3966,
      "Ġadvanced": 3967,
      "Ġshoot": 3968,
      "Ġacce": 3969,
      "ĠJoh": 3970,
      "Ġstudied": 3971,
      "anned": 3972,
      "Ġstrict": 3973,
      "Ġearn": 3974,
      "Ġdismiss": 3975,
      "Ġmountain": 3976,
      "ĠTra": 3977,
      "Ġopposition": 3978,
      "economic": 3979,
      "astern": 3980,
      "Ġones": 3981,
      "Ġopponent": 3982,
      "Ġappeared": 3983,
      "au": 3984,
      "Ġpack": 3985,
      "ĠAustral": 3986,
      "Ġpromised": 3987,
      "endments": 3988,
      "ĠÄŀ": 3989,
      "ainted": 3990,
      "ĠScient": 3991,
      "Ġsupported": 3992,
      "Ġallows": 3993,
      "Ġmonitoring": 3994,
      "Ġsend": 3995,
      "Ġspirit": 3996,
      "Ġrepe": 3997,
      "Ġappeals": 3998,
      "reg": 3999,
      "Ġinstead": 4000,
      "ĠSal": 4001,
      "ible": 4002,
      "Ġeld": 4003,
      "ĠAcademy": 4004,
      "ĠPakistan": 4005,
      "ĠProt": 4006,
      "uan": 4007,
      "Ġlearn": 4008,
      "ender": 4009,
      "ĠGeorg": 4010,
      "ĠIm": 4011,
      "ĠParis": 4012,
      "Ġwealth": 4013,
      "Ġsuppl": 4014,
      "Ġconsult": 4015,
      "asion": 4016,
      "Ġsupp": 4017,
      "Ġidea": 4018,
      "Ġdrivers": 4019,
      "Ġclin": 4020,
      "ĠSpanish": 4021,
      "ĠForces": 4022,
      "Ġdangerous": 4023,
      "gel": 4024,
      "Ġself": 4025,
      "Ġterm": 4026,
      "ĠIndu": 4027,
      "Ġevening": 4028,
      "ĠOliy": 4029,
      "Ġselling": 4030,
      "Ġgot": 4031,
      "Ġpers": 4032,
      "Ġprohibited": 4033,
      "Ġliter": 4034,
      "Ġpaying": 4035,
      "ĠDav": 4036,
      "Ġ32": 4037,
      "Ġpartnership": 4038,
      "Ġtemporarily": 4039,
      "Ġblood": 4040,
      "ĠDay": 4041,
      "Ġorganize": 4042,
      "care": 4043,
      "Ġcove": 4044,
      "ley": 4045,
      "ĠMajlis": 4046,
      "ategy": 4047,
      "Ġbeneficial": 4048,
      "Ġprotest": 4049,
      "ĠChampionship": 4050,
      "Ġtroops": 4051,
      "alib": 4052,
      "ĠObama": 4053,
      "Ġentering": 4054,
      "Ġimmediately": 4055,
      "Ġfee": 4056,
      "cl": 4057,
      "Ġfreedom": 4058,
      "Ġcommit": 4059,
      "Ġresulting": 4060,
      "Ġbelonging": 4061,
      "Ġpopular": 4062,
      "ampion": 4063,
      "Ġdefeat": 4064,
      "Ġgrand": 4065,
      "ĠMoreover": 4066,
      "Ġcovered": 4067,
      "Ġvac": 4068,
      "Ġbetter": 4069,
      "Ġtick": 4070,
      "Ġexpensive": 4071,
      "Ġearthquake": 4072,
      "atal": 4073,
      "Ġoffered": 4074,
      "rison": 4075,
      "Ġguests": 4076,
      "Ġregime": 4077,
      "icro": 4078,
      "Ġreduced": 4079,
      "Ġchief": 4080,
      "Ġresolved": 4081,
      "Ġgranted": 4082,
      "Ġoutside": 4083,
      "Ġaccess": 4084,
      "Ġpatient": 4085,
      "sid": 4086,
      "Ġassist": 4087,
      "Ġinvestments": 4088,
      "Ġexhibition": 4089,
      "ĠWhite": 4090,
      "Ġcontracts": 4091,
      "ĠGreat": 4092,
      "Ġau": 4093,
      "Ġbreak": 4094,
      "Ġairplane": 4095,
      "Ġdaughter": 4096,
      "oor": 4097,
      "Ġpolitic": 4098,
      "Ġprovides": 4099,
      "Ġfocus": 4100,
      "ili": 4101,
      "Ġspecifically": 4102,
      "ĠNor": 4103,
      "Ġillness": 4104,
      "ysis": 4105,
      "Åıl": 4106,
      "Ġextreme": 4107,
      "ny": 4108,
      "Ġenvis": 4109,
      "Ġcut": 4110,
      "Ġroom": 4111,
      "Ġrating": 4112,
      "lands": 4113,
      "ĠLabor": 4114,
      "ĠLegisl": 4115,
      "Ġaccepted": 4116,
      "Ġlicense": 4117,
      "Ġdestroy": 4118,
      "ĠII": 4119,
      "atures": 4120,
      "ĠPort": 4121,
      "Ġwife": 4122,
      "Ġstandard": 4123,
      "Ġestim": 4124,
      "Ġhomes": 4125,
      "Ġearlier": 4126,
      "Ġhomel": 4127,
      "Ġforum": 4128,
      "term": 4129,
      "Ġscheduled": 4130,
      "Ġunknown": 4131,
      "Ġperman": 4132,
      "Ġmoving": 4133,
      "Ġcorrespond": 4134,
      "Ġapplicants": 4135,
      "Ġhighly": 4136,
      "Ġsubst": 4137,
      "Ġrev": 4138,
      "ĠRam": 4139,
      "Ġbeaut": 4140,
      "owers": 4141,
      "Ġbri": 4142,
      "Ġsales": 4143,
      "ĠFar": 4144,
      "Ġjournalist": 4145,
      "ĠGuard": 4146,
      "Ġtrees": 4147,
      "appe": 4148,
      "Ġreporter": 4149,
      "ĠWhy": 4150,
      "Ġboard": 4151,
      "Ġess": 4152,
      "ĠSan": 4153,
      "Ġapply": 4154,
      "ĠInst": 4155,
      "Ġministries": 4156,
      "ĠRonald": 4157,
      "Ġgreen": 4158,
      "Ġhands": 4159,
      "Ġcomprehensive": 4160,
      "Ġbuild": 4161,
      "Ġequal": 4162,
      "urs": 4163,
      "ĠJohn": 4164,
      "Ġhit": 4165,
      "ĠInter": 4166,
      "Ġcharacter": 4167,
      "Ġcollected": 4168,
      "ulations": 4169,
      "Ġreligious": 4170,
      "utions": 4171,
      "erly": 4172,
      "ĠAg": 4173,
      "Ġweeks": 4174,
      "Ġpurchased": 4175,
      "Ġbroadcast": 4176,
      "Ġrecently": 4177,
      "ĠSerge": 4178,
      "Ġlower": 4179,
      "Ġheav": 4180,
      "mical": 4181,
      "Ġadvance": 4182,
      "Ġmonthly": 4183,
      "ĠEconom": 4184,
      "Ġwhose": 4185,
      "inated": 4186,
      "orders": 4187,
      "Ġtold": 4188,
      "kov": 4189,
      "Ġarch": 4190,
      "Ġcolle": 4191,
      "ĠHam": 4192,
      "ĠAdministration": 4193,
      "Ġdisaster": 4194,
      "Ġchampion": 4195,
      "Ġutil": 4196,
      "ĠSpain": 4197,
      "Ġmedal": 4198,
      "Ġlawy": 4199,
      "tak": 4200,
      "anches": 4201,
      "ĠAlex": 4202,
      "amb": 4203,
      "Ġdead": 4204,
      "Ġconcept": 4205,
      "Ġnation": 4206,
      "Ġexpanding": 4207,
      "ĠSwed": 4208,
      "ĠMessi": 4209,
      "ental": 4210,
      "Ġnumbers": 4211,
      "Ġcontinued": 4212,
      "Ġsquare": 4213,
      "Ġdepartments": 4214,
      "Ġrefug": 4215,
      "Ġ33": 4216,
      "Ġresidence": 4217,
      "Ġwid": 4218,
      "ham": 4219,
      "Ġsuccessfully": 4220,
      "Ġtrial": 4221,
      "Ġsecret": 4222,
      "Ġsuggest": 4223,
      "Ġfra": 4224,
      "Ġcareer": 4225,
      "Ġanim": 4226,
      "ĠEr": 4227,
      "ming": 4228,
      "Ġparticularly": 4229,
      "ĠReuters": 4230,
      "hy": 4231,
      "ĠPress": 4232,
      "ĠLaw": 4233,
      "Ġoften": 4234,
      "ĠYouth": 4235,
      "Ġfest": 4236,
      "ĠApple": 4237,
      "rat": 4238,
      "Ġserving": 4239,
      "wo": 4240,
      "Ġresc": 4241,
      "Ġinteresting": 4242,
      "Ġ45": 4243,
      "Ġdelivery": 4244,
      "fortun": 4245,
      "Ġfine": 4246,
      "Ġmas": 4247,
      "ke": 4248,
      "Ġpharm": 4249,
      "Ġupd": 4250,
      "Ġacquainted": 4251,
      "ĠHig": 4252,
      "ĠHead": 4253,
      "Ġexecution": 4254,
      "Ġaspects": 4255,
      "Ġoperate": 4256,
      "ĠUm": 4257,
      "Ġactively": 4258,
      "Ġvolun": 4259,
      "Ġbirth": 4260,
      "ID": 4261,
      "Ġtests": 4262,
      "Ġnumerous": 4263,
      "Ġevidence": 4264,
      "Ġadvis": 4265,
      "Ġterritories": 4266,
      "Ġstrike": 4267,
      "CO": 4268,
      "anging": 4269,
      "Ġopinions": 4270,
      "oly": 4271,
      "field": 4272,
      "Ġneighboring": 4273,
      "Ġrates": 4274,
      "Ġprovince": 4275,
      "oura": 4276,
      "ĠBah": 4277,
      "Ġpreparation": 4278,
      "ĠQatar": 4279,
      "Ġremained": 4280,
      "Ġlimited": 4281,
      "Ġgrat": 4282,
      "ously": 4283,
      "aper": 4284,
      "alu": 4285,
      "Ġimprison": 4286,
      "kin": 4287,
      "ĠWar": 4288,
      "ox": 4289,
      "Ġpain": 4290,
      "Ġtariff": 4291,
      "ape": 4292,
      "This": 4293,
      "Ġmoved": 4294,
      "Ġoffer": 4295,
      "Ġhotel": 4296,
      "Ġanswer": 4297,
      "Ġtried": 4298,
      "Ġdiagn": 4299,
      "mal": 4300,
      "ĠGames": 4301,
      "cer": 4302,
      "ĠLegislative": 4303,
      "inary": 4304,
      "Ġhealthcare": 4305,
      "ĠAgr": 4306,
      "Ġtrying": 4307,
      "Ġlog": 4308,
      "Ġdist": 4309,
      "xond": 4310,
      "athe": 4311,
      "standing": 4312,
      "story": 4313,
      "cribed": 4314,
      "Ġcop": 4315,
      "24": 4316,
      "ĠItal": 4317,
      "ĠPer": 4318,
      "Ġplaying": 4319,
      "ovich": 4320,
      "Ġpriority": 4321,
      "Ġassigned": 4322,
      "Ġskills": 4323,
      "Ġmoment": 4324,
      "ĠKarimov": 4325,
      "Ġsuffered": 4326,
      "wide": 4327,
      "Ġprecise": 4328,
      "Ġfactory": 4329,
      "Ġhousing": 4330,
      "ĠDistrict": 4331,
      "ployment": 4332,
      "ulate": 4333,
      "ĠAbdu": 4334,
      "wh": 4335,
      "ipe": 4336,
      "pped": 4337,
      "xondaryo": 4338,
      "rec": 4339,
      "ĠVal": 4340,
      "Ġtaxes": 4341,
      "Ġscience": 4342,
      "Ġprivile": 4343,
      "Ġminimum": 4344,
      "ĠKingdom": 4345,
      "Ġbrid": 4346,
      "Ġdollar": 4347,
      "ĠFootball": 4348,
      "Ġposted": 4349,
      "pass": 4350,
      "Ġwinter": 4351,
      "ĠConstitut": 4352,
      "Ġmethods": 4353,
      "iversary": 4354,
      "Ġpunish": 4355,
      "Ġshop": 4356,
      "ĠEs": 4357,
      "Ġsection": 4358,
      "Ġcosts": 4359,
      "ĠSergey": 4360,
      "astic": 4361,
      "Ġwalk": 4362,
      "Ġelected": 4363,
      "Ġsecured": 4364,
      "Ġinside": 4365,
      "ĠWestern": 4366,
      "ĠMal": 4367,
      "Ġveget": 4368,
      "Ġdissatisf": 4369,
      "Ġconsumers": 4370,
      "ĠSurxondaryo": 4371,
      "Ġserved": 4372,
      "Ġgetting": 4373,
      "Ġcompatri": 4374,
      "ĠEmer": 4375,
      "Ġrailway": 4376,
      "Ġvisa": 4377,
      "Ġinformed": 4378,
      "Ġ'": 4379,
      "80": 4380,
      "Ġstructures": 4381,
      "ĠHigher": 4382,
      "ĠSov": 4383,
      "fin": 4384,
      "Ġspeak": 4385,
      "eum": 4386,
      "Ġsust": 4387,
      "Ġimpos": 4388,
      "BC": 4389,
      "ĠTour": 4390,
      "ĠShe": 4391,
      "Ġcomposition": 4392,
      "Ġofficer": 4393,
      "olve": 4394,
      "Ġschol": 4395,
      "Ġge": 4396,
      "Ġir": 4397,
      "iological": 4398,
      "ĠRoad": 4399,
      "Ġmanufacturing": 4400,
      "odir": 4401,
      "Ġrecovered": 4402,
      "Ġcouldn": 4403,
      "ĠZelensky": 4404,
      "ero": 4405,
      "Ġfle": 4406,
      "Ġrock": 4407,
      "Ġstrategic": 4408,
      "Ġkind": 4409,
      "Ġexternal": 4410,
      "Ġspecialist": 4411,
      "gaz": 4412,
      "Ġexperi": 4413,
      "Ġtrue": 4414,
      "Ġdre": 4415,
      "Ġsomething": 4416,
      "ĠHere": 4417,
      "Ġ36": 4418,
      "essions": 4419,
      "ights": 4420,
      "Ġtermin": 4421,
      "Ġinvestigative": 4422,
      "Ġneeded": 4423,
      "Ġforecast": 4424,
      "Ġindependent": 4425,
      "yan": 4426,
      "Ġprovision": 4427,
      "11": 4428,
      "Ġregulation": 4429,
      "Ġseems": 4430,
      "Ġexceeded": 4431,
      "la": 4432,
      "grat": 4433,
      "ĠAut": 4434,
      "ivity": 4435,
      "ented": 4436,
      "Ġintention": 4437,
      "ĠRonaldo": 4438,
      "Ġexactly": 4439,
      "bul": 4440,
      "Ġbecomes": 4441,
      "Ġregister": 4442,
      "Ġcredit": 4443,
      "Ġshown": 4444,
      "Ġanniversary": 4445,
      "23": 4446,
      "Ġdispl": 4447,
      "Ġproceed": 4448,
      "Ġcontent": 4449,
      "ĠMah": 4450,
      "Ġinvestors": 4451,
      "ĠKim": 4452,
      "ĠAlisher": 4453,
      "Ġversion": 4454,
      "ĠLat": 4455,
      "Ġdeaths": 4456,
      "Ġcriticized": 4457,
      "Ġbranches": 4458,
      "Ġfactors": 4459,
      "Ġboy": 4460,
      "Ġtwice": 4461,
      "Ġsen": 4462,
      "Manchester": 4463,
      "Ġbooks": 4464,
      "Ġcongrat": 4465,
      "ĠIranian": 4466,
      "ĠEast": 4467,
      "ĠCulture": 4468,
      "iance": 4469,
      "Ġimpossible": 4470,
      "ground": 4471,
      "Ġconsisting": 4472,
      "Ġmissiles": 4473,
      "Ġdiscussions": 4474,
      "Ġobjects": 4475,
      "Ġencount": 4476,
      "Ġdoub": 4477,
      "Ġ37": 4478,
      "acu": 4479,
      "aliban": 4480,
      "Ġdiscip": 4481,
      "Ġopt": 4482,
      "Ġdrinking": 4483,
      "Ġapplications": 4484,
      "ocial": 4485,
      "Ġthousands": 4486,
      "Ġfundament": 4487,
      "Ġagriculture": 4488,
      "If": 4489,
      "asures": 4490,
      "ĠMedia": 4491,
      "Ġinsurance": 4492,
      "ĠRelations": 4493,
      "Ġclean": 4494,
      "Ġsecondary": 4495,
      "ĠCar": 4496,
      "Ġkey": 4497,
      "ĠVol": 4498,
      "Ph": 4499,
      "Ġranking": 4500,
      "Ġburn": 4501,
      "ĠCooperation": 4502,
      "gent": 4503,
      "Ġmilitants": 4504,
      "ĠCustom": 4505,
      "Ġstore": 4506,
      "Ġbal": 4507,
      "lation": 4508,
      "Ġred": 4509,
      "Ġ2013": 4510,
      "Ġanc": 4511,
      "ĠUz": 4512,
      "Ġability": 4513,
      "ĠMac": 4514,
      "Ġphase": 4515,
      "SR": 4516,
      "Ġfair": 4517,
      "Ġtransition": 4518,
      "Ġinfluence": 4519,
      "Ġciting": 4520,
      "ĠWithin": 4521,
      "Ġartific": 4522,
      "Ġliber": 4523,
      "Ġhomeland": 4524,
      "ĠMark": 4525,
      "Ġbatt": 4526,
      "dict": 4527,
      "ĠPM": 4528,
      "Ġ34": 4529,
      "ermine": 4530,
      "Ġfoun": 4531,
      "Ġaspect": 4532,
      "Ġassociated": 4533,
      "Ġmandatory": 4534,
      "Ġgratitude": 4535,
      "ager": 4536,
      "eds": 4537,
      "Ġentry": 4538,
      "ĠShah": 4539,
      "ĠIns": 4540,
      "ĠLater": 4541,
      "Ġphoto": 4542,
      "AM": 4543,
      "ĠPoland": 4544,
      "Ġeditor": 4545,
      "Ġfinancing": 4546,
      "Ġholiday": 4547,
      "Ġconvenient": 4548,
      "anged": 4549,
      "Ġdetermine": 4550,
      "35": 4551,
      "jayev": 4552,
      "Ġformal": 4553,
      "Ġexem": 4554,
      "Ġbrief": 4555,
      "ĠDen": 4556,
      "Ġrubles": 4557,
      "Ġinstructions": 4558,
      "Ġextremely": 4559,
      "Ġec": 4560,
      "ĠRepresent": 4561,
      "Ġuniversities": 4562,
      "Ġ150": 4563,
      "ĠServices": 4564,
      "gart": 4565,
      "Ġadvantage": 4566,
      "ston": 4567,
      "ula": 4568,
      "Ġhistorical": 4569,
      "bit": 4570,
      "Ġelectr": 4571,
      "Ġcollection": 4572,
      "ĠEmergency": 4573,
      "Ġdemands": 4574,
      "Ġdiplomatic": 4575,
      "ext": 4576,
      "off": 4577,
      "ĠTwo": 4578,
      "Ġevacu": 4579,
      "Ġfoot": 4580,
      "Ġreserves": 4581,
      "ĠCIS": 4582,
      "idency": 4583,
      "Ġremoved": 4584,
      "Ġfoundation": 4585,
      "Ġpension": 4586,
      "earch": 4587,
      "ĠRegarding": 4588,
      "Ġpersons": 4589,
      "oul": 4590,
      "Ġfir": 4591,
      "atter": 4592,
      "istant": 4593,
      "nergy": 4594,
      "Ġdoesn": 4595,
      "ĠSher": 4596,
      "Ġprocessing": 4597,
      "Ġengage": 4598,
      "Ġentrepreneurship": 4599,
      "ĠPrem": 4600,
      "Ġdiscl": 4601,
      "Ġexplan": 4602,
      "Ġpan": 4603,
      "Ġstructure": 4604,
      "Ġgeneration": 4605,
      "ney": 4606,
      "Ġterrorism": 4607,
      "ĠSpec": 4608,
      "ĠElect": 4609,
      "Ġrather": 4610,
      "utive": 4611,
      "Ġconsumption": 4612,
      "Ġfourth": 4613,
      "Ġguil": 4614,
      "hips": 4615,
      "ĠPalest": 4616,
      "ialog": 4617,
      "Ġconsidering": 4618,
      "Ġdirected": 4619,
      "Ġnecessity": 4620,
      "Ġencoura": 4621,
      "Ġillegally": 4622,
      "Ġresulted": 4623,
      "Ġvotes": 4624,
      "Ġlands": 4625,
      "ĠTok": 4626,
      "Ġdriving": 4627,
      "irt": 4628,
      "ilan": 4629,
      "coming": 4630,
      "ĠItalian": 4631,
      "Ġcomplain": 4632,
      "orrow": 4633,
      "Ġaccom": 4634,
      "Ġtemporary": 4635,
      "Ġhumanitarian": 4636,
      "unications": 4637,
      "Ġwithdraw": 4638,
      "Ġproduce": 4639,
      "ayer": 4640,
      "ĠChe": 4641,
      "ĠSoviet": 4642,
      "bank": 4643,
      "edding": 4644,
      "Ġpoll": 4645,
      "ĠGaz": 4646,
      "dule": 4647,
      "Al": 4648,
      "yo": 4649,
      "Ġrange": 4650,
      "emen": 4651,
      "Ġinitially": 4652,
      "Ġzone": 4653,
      "Ġban": 4654,
      "Ġinvolve": 4655,
      "rupt": 4656,
      "Ġdepr": 4657,
      "ĠMadrid": 4658,
      "Ġembassy": 4659,
      "Ġplants": 4660,
      "Ġpermanent": 4661,
      "14": 4662,
      "Ġborders": 4663,
      "Ġnames": 4664,
      "Ġnature": 4665,
      "ĠLuk": 4666,
      "DP": 4667,
      "ole": 4668,
      "Ġairline": 4669,
      "erate": 4670,
      "esterday": 4671,
      "isms": 4672,
      "ĠCong": 4673,
      "Ġpresentation": 4674,
      "use": 4675,
      "Ġspot": 4676,
      "Ġcards": 4677,
      "ĠInit": 4678,
      "ĠRussians": 4679,
      "ĠEnergy": 4680,
      "Ġdigital": 4681,
      "Ġwatch": 4682,
      "Ġmax": 4683,
      "Ġitems": 4684,
      "iya": 4685,
      "Ġsuspended": 4686,
      "Ġrent": 4687,
      "olished": 4688,
      "apt": 4689,
      "Ġinnovative": 4690,
      "Ġdemanded": 4691,
      "ĠAgric": 4692,
      "Ġexcess": 4693,
      "Ġlittle": 4694,
      "Ġtransform": 4695,
      "Ġextended": 4696,
      "Ġdetails": 4697,
      "Ġanalysis": 4698,
      "keep": 4699,
      "Ġgather": 4700,
      "Ġelev": 4701,
      "ĠLet": 4702,
      "band": 4703,
      "Ġthought": 4704,
      "ĠBr": 4705,
      "ĠIsraeli": 4706,
      "Ġepid": 4707,
      "ĠArmed": 4708,
      "pir": 4709,
      "ĠFI": 4710,
      "Ġprepare": 4711,
      "Ġindicates": 4712,
      "Ġelse": 4713,
      "Ġprest": 4714,
      "Ġheard": 4715,
      "Ġranks": 4716,
      "orthern": 4717,
      "Ġrestaur": 4718,
      "Ġschedule": 4719,
      "Ġallocate": 4720,
      "Ġant": 4721,
      "Ġanti": 4722,
      "ĠDemocratic": 4723,
      "ĠAbdul": 4724,
      "Ġmeat": 4725,
      "orial": 4726,
      "Ġpsy": 4727,
      "Ġstability": 4728,
      "Ġ400": 4729,
      "13": 4730,
      "Ġcapable": 4731,
      "Ġcentury": 4732,
      "Ġpreschool": 4733,
      "ĠBelg": 4734,
      "Ġreaching": 4735,
      "Ġrule": 4736,
      "omen": 4737,
      "Ġsecretary": 4738,
      "ipov": 4739,
      "Ġlocation": 4740,
      "ĠSpecifically": 4741,
      "Ġregular": 4742,
      "ĠSchool": 4743,
      "Ġrefe": 4744,
      "Ġrise": 4745,
      "ĠNews": 4746,
      "Ġpermission": 4747,
      "Ġurg": 4748,
      "ĠPremier": 4749,
      "Ġappearance": 4750,
      "fortunately": 4751,
      "Ġbad": 4752,
      "Ġren": 4753,
      "Ġobtaining": 4754,
      "Ġdistributed": 4755,
      "indergart": 4756,
      "Ġbill": 4757,
      "uting": 4758,
      "ĠMex": 4759,
      "Ġefficiency": 4760,
      "Ġconstant": 4761,
      "Ġera": 4762,
      "Ġcargo": 4763,
      "ologies": 4764,
      "Ġorig": 4765,
      "Ġremote": 4766,
      "Ġhyd": 4767,
      "athered": 4768,
      "ĠArgent": 4769,
      "Ġrelative": 4770,
      "arters": 4771,
      "Ġrob": 4772,
      "ably": 4773,
      "Ġheavy": 4774,
      "Ġrecommended": 4775,
      "matov": 4776,
      "Ġsubjects": 4777,
      "Ġgathered": 4778,
      "government": 4779,
      "ino": 4780,
      "pro": 4781,
      "Ġexist": 4782,
      "ĠAssembly": 4783,
      "Ġpoor": 4784,
      ">,": 4785,
      "ĠCO": 4786,
      "Ġpassport": 4787,
      "45": 4788,
      "Ġshowing": 4789,
      "Ġamendments": 4790,
      "monov": 4791,
      "Ġsoms": 4792,
      "Ġstating": 4793,
      "Ġimported": 4794,
      "Ġpie": 4795,
      "uration": 4796,
      "igation": 4797,
      "Ġemerged": 4798,
      "ott": 4799,
      "ĠRom": 4800,
      "ĠWork": 4801,
      "Ġhal": 4802,
      "iful": 4803,
      "Ġgra": 4804,
      "Ġexports": 4805,
      "Ġsuspected": 4806,
      "Ġseven": 4807,
      "ĠConstruction": 4808,
      "ĠMer": 4809,
      "Ġtry": 4810,
      "olution": 4811,
      "Ġfollow": 4812,
      "ĠIndustry": 4813,
      "Ġsafe": 4814,
      "ĠBus": 4815,
      "Ġfighting": 4816,
      "itals": 4817,
      "Ġmetro": 4818,
      "Ġwaiting": 4819,
      "Ġwarned": 4820,
      "Ġliability": 4821,
      "Ġplots": 4822,
      "ĠEngland": 4823,
      "Ġwedding": 4824,
      "Ġkindergart": 4825,
      "Ġgard": 4826,
      "Ġpurposes": 4827,
      "ĠSafety": 4828,
      "Ġtakes": 4829,
      "Ġspend": 4830,
      "Ġadmission": 4831,
      "Ġcontroll": 4832,
      "Ġdisappe": 4833,
      "Ġfounder": 4834,
      "ĠBar": 4835,
      "Ġahead": 4836,
      "ĠBor": 4837,
      "Ġtell": 4838,
      "ols": 4839,
      "eing": 4840,
      "ĠUAE": 4841,
      "ĠStud": 4842,
      "Ġbanned": 4843,
      "Ġpipe": 4844,
      "Ġfraud": 4845,
      "Ġcommon": 4846,
      "Ġobligations": 4847,
      "Ġlonger": 4848,
      "Ġexpect": 4849,
      "Ġfollows": 4850,
      "Ġaddressed": 4851,
      "abad": 4852,
      "Ġresign": 4853,
      "Ġannually": 4854,
      "agon": 4855,
      "ĠSing": 4856,
      "Ġshares": 4857,
      "Ġintroduce": 4858,
      "ĠDec": 4859,
      "ĠOlympics": 4860,
      "ĠHuman": 4861,
      "Ġbenefit": 4862,
      "ayed": 4863,
      "house": 4864,
      "ĠSports": 4865,
      "Ġnewly": 4866,
      "Ġgirls": 4867,
      "het": 4868,
      "Ġpresence": 4869,
      "Ġmosque": 4870,
      "lled": 4871,
      "icted": 4872,
      "Ġmedals": 4873,
      "atur": 4874,
      "ĠAlthough": 4875,
      "utical": 4876,
      "Ġclimate": 4877,
      "AR": 4878,
      "Ġcub": 4879,
      "Ġhealthy": 4880,
      "iable": 4881,
      "Ġrelease": 4882,
      "Ġreadiness": 4883,
      "Ġelectrical": 4884,
      "Ġlearning": 4885,
      "rap": 4886,
      "Ġauction": 4887,
      "Ġcontinuing": 4888,
      "Ġblack": 4889,
      "Ġnothing": 4890,
      "Ġviolation": 4891,
      "ikh": 4892,
      "ĠProtection": 4893,
      "Ġ38": 4894,
      "ulov": 4895,
      "Ġdeceased": 4896,
      "St": 4897,
      "stanbul": 4898,
      "Ġfif": 4899,
      "Ġtele": 4900,
      "ounds": 4901,
      "Ġhall": 4902,
      "Ġlevels": 4903,
      "aceutical": 4904,
      "ĠOnly": 4905,
      "Ġtargeted": 4906,
      "200": 4907,
      "ijing": 4908,
      "emed": 4909,
      "ĠBek": 4910,
      "ashed": 4911,
      "Ġloans": 4912,
      "Ġcreative": 4913,
      "ialogue": 4914,
      "Ġsuccessful": 4915,
      "Ġdismissed": 4916,
      "ĠFIFA": 4917,
      "ns": 4918,
      "Ġpermit": 4919,
      "Ġvia": 4920,
      "ĠCrime": 4921,
      "Ġadvertising": 4922,
      "ogical": 4923,
      "abet": 4924,
      "rian": 4925,
      "Ġviews": 4926,
      "ĠEspecially": 4927,
      "Ġartificial": 4928,
      "Ġwidely": 4929,
      "cle": 4930,
      "Ġwall": 4931,
      "ĠCont": 4932,
      "obil": 4933,
      "Ġcomputer": 4934,
      "elt": 4935,
      "inh": 4936,
      "Ġunit": 4937,
      "Ġsolve": 4938,
      "Ġcreation": 4939,
      "ota": 4940,
      "Ġhouseholds": 4941,
      "Ġmaximum": 4942,
      "Ġnor": 4943,
      "uth": 4944,
      "ogle": 4945,
      "ples": 4946,
      "Ġextensive": 4947,
      "Ġsnow": 4948,
      "ifications": 4949,
      "Ġministers": 4950,
      "ĠYun": 4951,
      "Ġeyes": 4952,
      "ayers": 4953,
      "General": 4954,
      "Ġprocedures": 4955,
      "Ġfrequ": 4956,
      "ĠCustoms": 4957,
      "Ġdestroyed": 4958,
      "Ġexplain": 4959,
      "su": 4960,
      "Ġwinners": 4961,
      "ĠTourism": 4962,
      "Ġpictures": 4963,
      "Ġrefer": 4964,
      "Ġeasy": 4965,
      "Ġresponded": 4966,
      "ployed": 4967,
      "nam": 4968,
      "Ġwinner": 4969,
      "Ġprotests": 4970,
      "cep": 4971,
      "iber": 4972,
      "ÄŁon": 4973,
      "Ġblog": 4974,
      "Ġnom": 4975,
      "ĠBeijing": 4976,
      "Ġambassador": 4977,
      "Ġentrance": 4978,
      "Int": 4979,
      "ĠTem": 4980,
      "Ġleads": 4981,
      "enez": 4982,
      "Ġreturning": 4983,
      "oid": 4984,
      "Ġaccus": 4985,
      "rew": 4986,
      "ĠExper": 4987,
      "Ġqualified": 4988,
      "itect": 4989,
      "Ġgiving": 4990,
      "ocational": 4991,
      "ĠEc": 4992,
      "It": 4993,
      "Ġ196": 4994,
      "Ġcompatriots": 4995,
      "andon": 4996,
      "Ġdamaged": 4997,
      "Ġbringing": 4998,
      "Ġ2012": 4999,
      "ĠUSSR": 5000,
      "Ġtested": 5001,
      "Ġlate": 5002,
      "Ġsalaries": 5003,
      "Ġarticles": 5004,
      "ault": 5005,
      "Ġstrikes": 5006,
      "ildren": 5007,
      "zor": 5008,
      "ĠTosh": 5009,
      "Ġhappened": 5010,
      "met": 5011,
      "int": 5012,
      "Ġgovernors": 5013,
      "Ġsurg": 5014,
      "Ġdesire": 5015,
      "ĠClin": 5016,
      "Ġpartner": 5017,
      "Ġsolution": 5018,
      "Ġrefugees": 5019,
      "Ġloss": 5020,
      "Ġanyone": 5021,
      "Ġinvited": 5022,
      "Ġraw": 5023,
      "ining": 5024,
      "Ġaccel": 5025,
      "At": 5026,
      "ĠShar": 5027,
      "Ġbridge": 5028,
      "37": 5029,
      "Ġscholars": 5030,
      "Ġdeman": 5031,
      "Ġaviation": 5032,
      "Ġdemanding": 5033,
      "ĠGoogle": 5034,
      "xon": 5035,
      "inations": 5036,
      "Ġelderly": 5037,
      "Ġassociation": 5038,
      "Ġfed": 5039,
      "ĠArmenia": 5040,
      "'m": 5041,
      "ables": 5042,
      "Ġchannels": 5043,
      "Ġsharp": 5044,
      "Ġteaching": 5045,
      "ĠIstanbul": 5046,
      "ĠSocial": 5047,
      "arting": 5048,
      "Ġreserve": 5049,
      "pective": 5050,
      "fect": 5051,
      "Ġsmartphones": 5052,
      "Ġfarming": 5053,
      "Ġhor": 5054,
      "Ġdifference": 5055,
      "lete": 5056,
      "ĠSund": 5057,
      "ivation": 5058,
      "Ġchemical": 5059,
      "me": 5060,
      "epa": 5061,
      "Ġ75": 5062,
      "Ġincreases": 5063,
      "Ġprinciples": 5064,
      "ĠSird": 5065,
      "Ġthoughts": 5066,
      "90": 5067,
      "Ġcapabilities": 5068,
      "Ġalone": 5069,
      "Ġmistake": 5070,
      "ĠAfrica": 5071,
      "iter": 5072,
      "Ġdro": 5073,
      "ĠParliament": 5074,
      "ĠKom": 5075,
      "Ġclos": 5076,
      "Ġmission": 5077,
      "ighter": 5078,
      "Ġflag": 5079,
      "Ġmeasure": 5080,
      "Ġpoison": 5081,
      "Ġcompensation": 5082,
      "ĠOver": 5083,
      "Ġanalyz": 5084,
      "leep": 5085,
      "ĠGeorgia": 5086,
      "Ġfootballers": 5087,
      "Ġassets": 5088,
      "itiz": 5089,
      "ĠAv": 5090,
      "ĠNov": 5091,
      "Ġabandon": 5092,
      "enezuel": 5093,
      "Ġcrop": 5094,
      "Ġfailed": 5095,
      "Ġsubsc": 5096,
      "part": 5097,
      "iminary": 5098,
      "ĠCanada": 5099,
      "Ġheating": 5100,
      "Ġmodels": 5101,
      "esh": 5102,
      "Ġscreen": 5103,
      "Ġpresidency": 5104,
      "ĠNot": 5105,
      "Ġacknow": 5106,
      "Ġtimely": 5107,
      "ĠBob": 5108,
      "udd": 5109,
      "Ġtruck": 5110,
      "Ġrecommendations": 5111,
      "arshi": 5112,
      "ĠYang": 5113,
      "ĠiPh": 5114,
      "Ġtraditional": 5115,
      "iar": 5116,
      "ĠVenezuel": 5117,
      "ĠAustralia": 5118,
      "ĠEarth": 5119,
      "ĠTheir": 5120,
      "comings": 5121,
      "ĠResearch": 5122,
      "Ġwrites": 5123,
      "Ġpunishment": 5124,
      "Ġcoordin": 5125,
      "Ġpred": 5126,
      "Ġprize": 5127,
      "Ġthor": 5128,
      "Ġweak": 5129,
      "quarters": 5130,
      "Ġcommand": 5131,
      "Ġprisoners": 5132,
      "ĠPortug": 5133,
      "Ġformat": 5134,
      "Ġactually": 5135,
      "hers": 5136,
      "Ġcarri": 5137,
      "Ġhospitals": 5138,
      "ris": 5139,
      "ĠCE": 5140,
      "Ġparliamentary": 5141,
      "ĠKrem": 5142,
      "Ġrural": 5143,
      "Ġ2011": 5144,
      "Ġpurchasing": 5145,
      "urt": 5146,
      "Ġlived": 5147,
      "Ġshortcomings": 5148,
      "ĠConstitution": 5149,
      "Ġcubic": 5150,
      "Ġstores": 5151,
      "ĠYear": 5152,
      "Ġperformance": 5153,
      "Ġreducing": 5154,
      "Ġperformed": 5155,
      "Ġconsists": 5156,
      "ĠRights": 5157,
      "Ġspecified": 5158,
      "Ġfigure": 5159,
      "Ġmainly": 5160,
      "crip": 5161,
      "gu": 5162,
      "inter": 5163,
      "ĠCongress": 5164,
      "Ġstrategy": 5165,
      "27": 5166,
      "Ġestate": 5167,
      "Ġshopping": 5168,
      "Ġduty": 5169,
      "ÅırÄŁon": 5170,
      "ler": 5171,
      "ivalent": 5172,
      "ĠNazarb": 5173,
      "ĠRed": 5174,
      "Ġaccounts": 5175,
      "come": 5176,
      "Ġdegree": 5177,
      "Ġthorough": 5178,
      "Ġcult": 5179,
      "Ġissu": 5180,
      "ĠIb": 5181,
      "Ġbit": 5182,
      "Ġorders": 5183,
      "Ġreading": 5184,
      "Ġcalls": 5185,
      "ux": 5186,
      "ayy": 5187,
      "Ġcamera": 5188,
      "ĠThus": 5189,
      "ĠTransport": 5190,
      "Ġcorpor": 5191,
      "ĠGoals": 5192,
      "hab": 5193,
      "Ġinqu": 5194,
      "Ġonto": 5195,
      "Ġmeaning": 5196,
      "Ġdivision": 5197,
      "ĠTimes": 5198,
      "governmental": 5199,
      "Ġreplac": 5200,
      "Ġworldwide": 5201,
      "like": 5202,
      "Ġstatements": 5203,
      "iyor": 5204,
      "oline": 5205,
      "Ġ55": 5206,
      "Ġbeautiful": 5207,
      "actions": 5208,
      "Ġsides": 5209,
      "ĠMass": 5210,
      "Ġconfidence": 5211,
      "Ġreflect": 5212,
      "ilk": 5213,
      "Ġwonder": 5214,
      "lov": 5215,
      "Ġreject": 5216,
      "Ġdrones": 5217,
      "Ġwinning": 5218,
      "ken": 5219,
      "nes": 5220,
      "Ġloan": 5221,
      "Ġfinding": 5222,
      "Ġfriendly": 5223,
      "osti": 5224,
      "ĠJong": 5225,
      "ĠMot": 5226,
      "Ġenhance": 5227,
      "imb": 5228,
      "ĠFriday": 5229,
      "sung": 5230,
      "Ġpreventing": 5231,
      "ĠPolice": 5232,
      "Ġer": 5233,
      "Ġlosses": 5234,
      "Ġmessage": 5235,
      "ma": 5236,
      "Ġpsych": 5237,
      "usband": 5238,
      "Ġfunction": 5239,
      "raf": 5240,
      "vers": 5241,
      "Ġattacked": 5242,
      "Ġwarning": 5243,
      "Ġprivileges": 5244,
      "oros": 5245,
      "ĠManagement": 5246,
      "ĠSu": 5247,
      "Ġideas": 5248,
      "Ġcalling": 5249,
      "ĠKremlin": 5250,
      "aves": 5251,
      "takor": 5252,
      "ĠSamsung": 5253,
      "agram": 5254,
      "liance": 5255,
      "olute": 5256,
      "Ġgradually": 5257,
      "ware": 5258,
      "face": 5259,
      "oration": 5260,
      "ĠMany": 5261,
      "Ġfast": 5262,
      "ĠPresidential": 5263,
      "Ġsimple": 5264,
      "anes": 5265,
      "Ġturns": 5266,
      "Ġlanguages": 5267,
      "Ġ48": 5268,
      "Ġgrowing": 5269,
      "ĠInitially": 5270,
      "Ġviolence": 5271,
      "IC": 5272,
      "ĠAziz": 5273,
      "ĠMiddle": 5274,
      "Ġevalu": 5275,
      "ĠYunus": 5276,
      "Ġtrading": 5277,
      "Ġbalance": 5278,
      "Ġsoft": 5279,
      "emale": 5280,
      "Ġpassing": 5281,
      "Ġregularly": 5282,
      "rey": 5283,
      "Ġeasily": 5284,
      "rist": 5285,
      "Ġoffices": 5286,
      "Ġplastic": 5287,
      "ĠStr": 5288,
      "ĠFl": 5289,
      "ana": 5290,
      "ĠJo": 5291,
      "itu": 5292,
      "Ġinfect": 5293,
      "Ġdistribution": 5294,
      "Ġsupposed": 5295,
      "kara": 5296,
      "Ġanything": 5297,
      "ĠSaid": 5298,
      "ntil": 5299,
      "ded": 5300,
      "ĠCompany": 5301,
      "Russi": 5302,
      "ilitary": 5303,
      "boyev": 5304,
      "ĠTechnologies": 5305,
      "Ġsubstances": 5306,
      "Ġcontrary": 5307,
      "Åİz": 5308,
      "Ġeffectiveness": 5309,
      "Ġsuffering": 5310,
      "ĠPark": 5311,
      "Ġinflation": 5312,
      "Ġentrepreneurial": 5313,
      "Ġcommented": 5314,
      "Ġimprisonment": 5315,
      "Ġcategories": 5316,
      "Ġclust": 5317,
      "Ġhusband": 5318,
      "Ġpowerful": 5319,
      "Ġlove": 5320,
      "Ġnorth": 5321,
      "Ġlooking": 5322,
      "Ġclearly": 5323,
      "ĠMuslim": 5324,
      "icial": 5325,
      "Ġ2010": 5326,
      "Ġpreserv": 5327,
      "ĠMod": 5328,
      "expected": 5329,
      "Ġhappy": 5330,
      "ĠPeters": 5331,
      "ĠAnkara": 5332,
      "Ġdialogue": 5333,
      "rag": 5334,
      "essor": 5335,
      "Ġdenied": 5336,
      "haps": 5337,
      "Ġreally": 5338,
      "Ġequivalent": 5339,
      "Ġcourts": 5340,
      "ĠSuper": 5341,
      "Ġmusic": 5342,
      "Ġsolv": 5343,
      "ĠHy": 5344,
      "Ġchanging": 5345,
      "Ġphotos": 5346,
      "ĠBen": 5347,
      "che": 5348,
      "Ġfaced": 5349,
      "ĠTraffic": 5350,
      "Ġwel": 5351,
      "Ġcircum": 5352,
      "ĠKash": 5353,
      "Ġprel": 5354,
      "Ġsubsid": 5355,
      "nik": 5356,
      "Ġdoing": 5357,
      "Ġoffers": 5358,
      "cont": 5359,
      "Ġaffected": 5360,
      "Ġmanufacturers": 5361,
      "ĠIndian": 5362,
      "Ġconsumer": 5363,
      "where": 5364,
      "Ġsuper": 5365,
      "ĠThrough": 5366,
      "ĠSCO": 5367,
      "ĠMor": 5368,
      "Ġheadquarters": 5369,
      "ivate": 5370,
      "Ġprotecting": 5371,
      "Tashkent": 5372,
      "Ġresolve": 5373,
      "Ġrequested": 5374,
      "Ġprestigious": 5375,
      "Ġcritical": 5376,
      "ĠUntil": 5377,
      "Ġforms": 5378,
      "Ġattracting": 5379,
      "Ġlimit": 5380,
      "ha": 5381,
      "Ġconfident": 5382,
      "Ġsole": 5383,
      "Ġformation": 5384,
      "Ġpicture": 5385,
      "Ġsaw": 5386,
      "licop": 5387,
      "Ġ39": 5388,
      "Ġfate": 5389,
      "ĠOd": 5390,
      "Ġbi": 5391,
      "Ġroutes": 5392,
      "Ġexperienced": 5393,
      "Ġcorrespondent": 5394,
      "ĠiPhone": 5395,
      "Ġposs": 5396,
      "ola": 5397,
      "aya": 5398,
      "Ġsurpr": 5399,
      "Ġmotor": 5400,
      "idov": 5401,
      "Ġmill": 5402,
      "Ġhelicop": 5403,
      "oes": 5404,
      "Ġinjury": 5405,
      "ĠPetersburg": 5406,
      "ĠForm": 5407,
      "Ġgasoline": 5408,
      "Ġvote": 5409,
      "quality": 5410,
      "ody": 5411,
      "ĠBusiness": 5412,
      "ĠDmit": 5413,
      "Ġflood": 5414,
      "ĠLukas": 5415,
      "etition": 5416,
      "oom": 5417,
      "asc": 5418,
      "ĠAM": 5419,
      "Ġfarmer": 5420,
      "Ġpreliminary": 5421,
      "ĠMonday": 5422,
      "Ġbuses": 5423,
      "ĠSunday": 5424,
      "Ġtreated": 5425,
      "Ġflow": 5426,
      "Ġfulfill": 5427,
      "998": 5428,
      "Ġvideos": 5429,
      "zh": 5430,
      "Ġmiddle": 5431,
      "Ġeffectively": 5432,
      "Ġstrength": 5433,
      "Ġstanding": 5434,
      "ogram": 5435,
      "Ġfinished": 5436,
      "Ġsquad": 5437,
      "ĠAbdur": 5438,
      "Ġdetected": 5439,
      "fers": 5440,
      "Ġalter": 5441,
      "Ġasking": 5442,
      "kad": 5443,
      "ellect": 5444,
      "ĠWhile": 5445,
      "Ġfestival": 5446,
      "ĠSciences": 5447,
      "ĠHer": 5448,
      "Ġaware": 5449,
      "Ġexcept": 5450,
      "Ġ2024": 5451,
      "Ġauthorized": 5452,
      "Ġfallen": 5453,
      "Ġheat": 5454,
      "ĠMost": 5455,
      "Ġefficient": 5456,
      "Ġsurvey": 5457,
      "iled": 5458,
      "Ġpreventive": 5459,
      "Ġsolutions": 5460,
      "Ġunem": 5461,
      "ĠJam": 5462,
      "Ġbenefits": 5463,
      "ĠIl": 5464,
      "Ġneighborhoods": 5465,
      "sels": 5466,
      "Ġvalues": 5467,
      "Ġword": 5468,
      "Ġeditorial": 5469,
      "Ġseized": 5470,
      "ĠSpecialized": 5471,
      "Ġchoose": 5472,
      "Ġoccupied": 5473,
      "ĠSweden": 5474,
      "Ġconcerning": 5475,
      "Ġcauses": 5476,
      "Ġexperim": 5477,
      "Ġcaptured": 5478,
      "Ġabsolute": 5479,
      "ban": 5480,
      "Ġsentence": 5481,
      "ĠNazarbayev": 5482,
      "ivest": 5483,
      "Ġmemory": 5484,
      "itizens": 5485,
      "ĠMuslims": 5486,
      "Ad": 5487,
      "Ġtom": 5488,
      "ivestock": 5489,
      "Ġpedest": 5490,
      "Ġguilty": 5491,
      "Ġwriting": 5492,
      "PS": 5493,
      "Ġannouncement": 5494,
      "Ġyourself": 5495,
      "Ġdifficulties": 5496,
      "Ġlawyer": 5497,
      "ĠInstagram": 5498,
      "Ġsouth": 5499,
      "comm": 5500,
      "Ġcharity": 5501,
      "Ġtourist": 5502,
      "emiological": 5503,
      "Ġmedicine": 5504,
      "Ġpowers": 5505,
      "Ġcompliance": 5506,
      "Ġdetailed": 5507,
      "Ġenhancing": 5508,
      "zer": 5509,
      "Ġcreat": 5510,
      "Ġsigns": 5511,
      "Ġhappen": 5512,
      "Ġoperational": 5513,
      "Ġdemonstrated": 5514,
      "Ġpilgr": 5515,
      "Ġrepeated": 5516,
      "umb": 5517,
      "Ġprosper": 5518,
      "oke": 5519,
      "Ġ44": 5520,
      "Ġreduction": 5521,
      "Ġshooting": 5522,
      "ĠAmb": 5523,
      "Ġfacility": 5524,
      "Ġ65": 5525,
      "Ġshowed": 5526,
      "Ġmobil": 5527,
      "Ġvictim": 5528,
      "espread": 5529,
      "ries": 5530,
      "Ġtesting": 5531,
      "Ġpharmaceutical": 5532,
      "arq": 5533,
      "sea": 5534,
      "Ġsout": 5535,
      "ĠPhil": 5536,
      "Ġmanufactured": 5537,
      "VID": 5538,
      "Ġrefused": 5539,
      "ship": 5540,
      "Ġestimated": 5541,
      "Ġeliminate": 5542,
      "ĠLukashenko": 5543,
      "Ġeight": 5544,
      "ĠAmericans": 5545,
      "Ġfemale": 5546,
      "overty": 5547,
      "agogical": 5548,
      "bod": 5549,
      "Ġund": 5550,
      "eria": 5551,
      "Ġcharge": 5552,
      "ĠBakh": 5553,
      "Ġfloor": 5554,
      "Ġconnected": 5555,
      "Ġspring": 5556,
      "ĠEconomy": 5557,
      "70": 5558,
      "inite": 5559,
      "asant": 5560,
      "aziz": 5561,
      "Ġcamer": 5562,
      "Ġwidespread": 5563,
      "Ġachievements": 5564,
      "Ġult": 5565,
      "ĠSitu": 5566,
      "ĠGaza": 5567,
      "Ġmyself": 5568,
      "Ġgoalkeep": 5569,
      "Ġgone": 5570,
      "oroshenko": 5571,
      "Ġpaper": 5572,
      "Ġobst": 5573,
      "Ġfacing": 5574,
      "ĠRecent": 5575,
      "Ġharvest": 5576,
      "Ġreb": 5577,
      "dum": 5578,
      "ĠFederal": 5579,
      "Ġsize": 5580,
      "pool": 5581,
      "Ġkept": 5582,
      "Ġseek": 5583,
      "Ġimproved": 5584,
      "Ġapproached": 5585,
      "urodov": 5586,
      "Ġsites": 5587,
      "Ġterrorists": 5588,
      "Ġfilled": 5589,
      "Ġstip": 5590,
      "ube": 5591,
      "Ġprogress": 5592,
      "law": 5593,
      "Ġrequires": 5594,
      "parency": 5595,
      "Ġsending": 5596,
      "Ġgen": 5597,
      "ĠInnov": 5598,
      "ĠDil": 5599,
      "orov": 5600,
      "ĠStarting": 5601,
      "Ġconclusions": 5602,
      "Ġancient": 5603,
      "Ġdivid": 5604,
      "level": 5605,
      "Ġunexpected": 5606,
      "Ġconflicts": 5607,
      "ensions": 5608,
      "Ġcourses": 5609,
      "ĠAhmad": 5610,
      "jonov": 5611,
      "Ġenvironmental": 5612,
      "Ġcomplic": 5613,
      "Ġcoalition": 5614,
      "Ġcertainly": 5615,
      "ĠLib": 5616,
      "Ġsave": 5617,
      "Ġshall": 5618,
      "Ġvoters": 5619,
      "Ġmean": 5620,
      "Ġhero": 5621,
      "Ġmaintaining": 5622,
      "28": 5623,
      "ĠDub": 5624,
      "Ġsoum": 5625,
      "Ġsimpl": 5626,
      "ss": 5627,
      "Ġrocket": 5628,
      "umn": 5629,
      "Ġmicro": 5630,
      "ĠKam": 5631,
      "Ġdiscount": 5632,
      "Ġmidfield": 5633,
      "chiq": 5634,
      "ĠPoroshenko": 5635,
      "tepa": 5636,
      "Ġachieving": 5637,
      "Ġvocational": 5638,
      "ureau": 5639,
      "Ġappoint": 5640,
      "Ġsuperv": 5641,
      "igration": 5642,
      "Ġbroke": 5643,
      "Ġhydro": 5644,
      "Ġordinary": 5645,
      "Ġpublications": 5646,
      "ĠProgram": 5647,
      "Ġsens": 5648,
      "Ġdepart": 5649,
      "TO": 5650,
      "Ġattempted": 5651,
      "under": 5652,
      "Ġprecisely": 5653,
      "Ġlink": 5654,
      "Ġjoined": 5655,
      "icip": 5656,
      "Ġsharply": 5657,
      "ogan": 5658,
      "atically": 5659,
      "Ġhop": 5660,
      "Ġstages": 5661,
      "Ġproducing": 5662,
      "Ġdefic": 5663,
      "ukus": 5664,
      "Ġreplace": 5665,
      "kor": 5666,
      "apore": 5667,
      "26": 5668,
      "Ġclasses": 5669,
      "Ġmuseum": 5670,
      "Ġmechanisms": 5671,
      "Ġunf": 5672,
      "Ġsessions": 5673,
      "eor": 5674,
      "Ġprompt": 5675,
      ");": 5676,
      "Åız": 5677,
      "Ġwish": 5678,
      "Ġtomorrow": 5679,
      "Ġselected": 5680,
      "ĠCommunications": 5681,
      "Ġshows": 5682,
      "Ġtruth": 5683,
      "Ġfactor": 5684,
      "ĠRecently": 5685,
      "ĠMain": 5686,
      "Ġinstitute": 5687,
      "Ġcitizenship": 5688,
      "ĠWell": 5689,
      "ĠJournal": 5690,
      "Ġportion": 5691,
      "orage": 5692,
      "Ġapartment": 5693,
      "Ġprofit": 5694,
      "Ġbatter": 5695,
      "ĠRust": 5696,
      "Ġsocio": 5697,
      "Ġstrugg": 5698,
      "Ġfighters": 5699,
      "Ġenvisaged": 5700,
      "gor": 5701,
      "Ġcommitting": 5702,
      "Ġfinance": 5703,
      "Ġdisabilities": 5704,
      "enda": 5705,
      "ĠAdministrative": 5706,
      "ĠUl": 5707,
      "Ġordered": 5708,
      "ĠSol": 5709,
      "Ġafford": 5710,
      "Ġvoting": 5711,
      "Ġreferee": 5712,
      "otic": 5713,
      "Ġ43": 5714,
      "Ġprospects": 5715,
      "Ġhanded": 5716,
      "Ġcomply": 5717,
      "Ġfruit": 5718,
      "Ġhum": 5719,
      "orms": 5720,
      "Ġnorms": 5721,
      "Ġmagn": 5722,
      "Ġ2000": 5723,
      "Ġregulatory": 5724,
      "Ġsea": 5725,
      "herlands": 5726,
      "Ġrooms": 5727,
      "Ġcameras": 5728,
      "ĠSituations": 5729,
      "Ġfal": 5730,
      "adast": 5731,
      "ĠSupport": 5732,
      ">.": 5733,
      "oj": 5734,
      "Ġsav": 5735,
      "Ġupcoming": 5736,
      "Ġthreats": 5737,
      "Ġavoid": 5738,
      "ordinary": 5739,
      "ĠSingapore": 5740,
      "Ġfear": 5741,
      "Ġshowc": 5742,
      "ĠGl": 5743,
      "ĠLa": 5744,
      "chen": 5745,
      "Ġprem": 5746,
      "ĠAgriculture": 5747,
      "Ġmis": 5748,
      "Ġbomb": 5749,
      "ĠIts": 5750,
      "Ġwage": 5751,
      "rawn": 5752,
      "Ġmemor": 5753,
      "ĠMet": 5754,
      "Ġarchitect": 5755,
      "ĠAmbassador": 5756,
      "Ġbron": 5757,
      "ĠIndepend": 5758,
      "ĠPent": 5759,
      "ĠMexico": 5760,
      "Ġhosts": 5761,
      "iant": 5762,
      "ĠCOVID": 5763,
      "Ġserves": 5764,
      "Ġindeed": 5765,
      "Ġhappening": 5766,
      "ography": 5767,
      "Ġbanking": 5768,
      "Ġchair": 5769,
      "Ġsignificance": 5770,
      "Ġpromotion": 5771,
      "ayd": 5772,
      "Ġshared": 5773,
      "ĠRIA": 5774,
      "ĠHung": 5775,
      "Ġfailure": 5776,
      "Ã©": 5777,
      "Ġgoes": 5778,
      "Ġjustice": 5779,
      "Ġlaboratory": 5780,
      "ĠClinton": 5781,
      "ym": 5782,
      "sibilities": 5783,
      "Ġmigration": 5784,
      "Ġwhom": 5785,
      "ras": 5786,
      "ĠInvestments": 5787,
      "Ġimprovement": 5788,
      "Ġspeaking": 5789,
      "Ġhospitalized": 5790,
      "overy": 5791,
      "Ġathlete": 5792,
      "ray": 5793,
      "yl": 5794,
      "Ġselection": 5795,
      "Ġlines": 5796,
      "Ġintends": 5797,
      "mosp": 5798,
      "ĠUzbeks": 5799,
      "Ġvirt": 5800,
      "Ġcrashed": 5801,
      "Ġsymb": 5802,
      "ferendum": 5803,
      "sun": 5804,
      "Ġlose": 5805,
      "Ġreception": 5806,
      "ĠMc": 5807,
      "techn": 5808,
      "finals": 5809,
      "load": 5810,
      "oud": 5811,
      "Ġdelivering": 5812,
      "Ġmistakes": 5813,
      "Ġcomplaints": 5814,
      "ĠQu": 5815,
      "Ġseriously": 5816,
      "Ġcomplaint": 5817,
      "Ġreliable": 5818,
      "Me": 5819,
      "anoat": 5820,
      "Ġsanitary": 5821,
      "raining": 5822,
      "ommod": 5823,
      "ologists": 5824,
      "Ġoverall": 5825,
      "Ġstorage": 5826,
      "Ġspouse": 5827,
      "ĠAlexander": 5828,
      "Ġagenda": 5829,
      "Ġunified": 5830,
      "Ġbasic": 5831,
      "Ġhundreds": 5832,
      "room": 5833,
      "Ġradio": 5834,
      "Ġcrossing": 5835,
      "Ġfirm": 5836,
      "ĠUnfortunately": 5837,
      "ĠFoll": 5838,
      "ĠPentagon": 5839,
      "Ġimage": 5840,
      "Ġshortage": 5841,
      "helsea": 5842,
      "Ġacknowled": 5843,
      "lets": 5844,
      "urov": 5845,
      "ĠNetherlands": 5846,
      "Ġsleep": 5847,
      "urban": 5848,
      "zech": 5849,
      "Ġadministrations": 5850,
      "Ġmag": 5851,
      "ĠCatal": 5852,
      "scale": 5853,
      "Ġspiritual": 5854,
      "Ġflying": 5855,
      "ĠCitizens": 5856,
      "ĠStat": 5857,
      "Ġcombating": 5858,
      "arations": 5859,
      "ultan": 5860,
      "Ġsilver": 5861,
      "Ġlivestock": 5862,
      "Ġliterature": 5863,
      "Ġ42": 5864,
      "wan": 5865,
      "Ġgoalkeeper": 5866,
      "'ve": 5867,
      "Ġsimply": 5868,
      "ĠMilitary": 5869,
      "ĠBoard": 5870,
      "Ġsupporters": 5871,
      "Ġcharges": 5872,
      "ĠTayy": 5873,
      "ĠPa": 5874,
      "Ġalthough": 5875,
      "iverpool": 5876,
      "Ġgain": 5877,
      "Ġfelt": 5878,
      "Ġaccommod": 5879,
      "Ġ2008": 5880,
      "Ġupdated": 5881,
      "Ġinquir": 5882,
      "Ġkilogram": 5883,
      "merce": 5884,
      "othing": 5885,
      "Ġcru": 5886,
      "ĠSystem": 5887,
      "Ġvalued": 5888,
      "Ġgraduates": 5889,
      "Ġsuspic": 5890,
      "Ġcovering": 5891,
      "Ġ120": 5892,
      "Ġmatters": 5893,
      "Ġfruits": 5894,
      "ĠGal": 5895,
      "Ġsetting": 5896,
      "Ġsolar": 5897,
      "Ars": 5898,
      "vent": 5899,
      "Ġunderstanding": 5900,
      "ĠSecondary": 5901,
      "omet": 5902,
      "enger": 5903,
      "Ġpromising": 5904,
      "ishes": 5905,
      "ĠJe": 5906,
      "Ġ46": 5907,
      "Ġrecords": 5908,
      "Ġstands": 5909,
      "Ġbarri": 5910,
      "Ġfiled": 5911,
      "Ġrevenue": 5912,
      "ora": 5913,
      "ĠProf": 5914,
      "Ġminor": 5915,
      "Ġengineering": 5916,
      "HO": 5917,
      "ĠTues": 5918,
      "ĠRepresentatives": 5919,
      "Ġincidents": 5920,
      "Ġbought": 5921,
      "joy": 5922,
      "ression": 5923,
      "Ġidentify": 5924,
      "Ġvaccination": 5925,
      "Ġtalking": 5926,
      "Ġchance": 5927,
      "ĠInte": 5928,
      "ĠHar": 5929,
      "ĠTayyip": 5930,
      "Ġgrain": 5931,
      "Ġatmosp": 5932,
      "Ġattend": 5933,
      "Ġapplicant": 5934,
      "ĠIndones": 5935,
      "rans": 5936,
      "Ġincom": 5937,
      "Ġaccum": 5938,
      "Ġawa": 5939,
      "Ġescal": 5940,
      "Ġturning": 5941,
      "ĠScientific": 5942,
      "ĠAllah": 5943,
      "omot": 5944,
      "Ġnorthern": 5945,
      "Ġacquaint": 5946,
      "AN": 5947,
      "mark": 5948,
      "Ġeth": 5949,
      "Ġmechanism": 5950,
      "ĠAsh": 5951,
      "anges": 5952,
      "ĠImp": 5953,
      "ĠSard": 5954,
      "ĠCal": 5955,
      "Ġfalse": 5956,
      "Ġbronze": 5957,
      "edly": 5958,
      "Ġscope": 5959,
      "Ġ47": 5960,
      "Ġtransparency": 5961,
      "ĠEntrepreneur": 5962,
      "Ġfighter": 5963,
      "Ġdissatisfaction": 5964,
      "coh": 5965,
      "illance": 5966,
      "ĠQÅı": 5967,
      "ĠRecep": 5968,
      "Ġstab": 5969,
      "ift": 5970,
      "Ġlik": 5971,
      "Ġdrugs": 5972,
      "cohol": 5973,
      "agers": 5974,
      "Ġtransmission": 5975,
      "Ġreconstruction": 5976,
      "ĠIT": 5977,
      "ĠTerm": 5978,
      "atell": 5979,
      "itors": 5980,
      "Ġthinking": 5981,
      "ida": 5982,
      "Ġtalked": 5983,
      "Ġtickets": 5984,
      "Ġsense": 5985,
      "ĠCzech": 5986,
      "ĠGr": 5987,
      "Åıjayev": 5988,
      "Ġdetention": 5989,
      "Ġanimals": 5990,
      "Ġproceedings": 5991,
      "otten": 5992,
      "Arsenal": 5993,
      "kadarya": 5994,
      "bon": 5995,
      "Ġresiding": 5996,
      "Ġlegislative": 5997,
      "Ġincor": 5998,
      "ĠCEO": 5999,
      "Ġnarc": 6000,
      "Ġintroduction": 6001,
      "Ġtitle": 6002,
      "Ġpersonally": 6003,
      "Ġapartments": 6004,
      "ĠLG": 6005,
      "Ġprime": 6006,
      "Ġdoor": 6007,
      "itical": 6008,
      "ĠYemen": 6009,
      "agues": 6010,
      "Ġdoz": 6011,
      "ĠPet": 6012,
      "Ġdatab": 6013,
      "Ġships": 6014,
      "Ġwat": 6015,
      "ulating": 6016,
      "Ġintellect": 6017,
      "Ġstable": 6018,
      "rah": 6019,
      "ength": 6020,
      "ĠKashkadarya": 6021,
      "Ġleague": 6022,
      "ĠRegion": 6023,
      "illa": 6024,
      "ĠSm": 6025,
      "Ġstyle": 6026,
      "bekov": 6027,
      "Ġoperates": 6028,
      "Ġreferendum": 6029,
      "ĠPalestin": 6030,
      "ĠDubai": 6031,
      "urder": 6032,
      "Ġforest": 6033,
      "Ġirrig": 6034,
      "Ġmakes": 6035,
      "Ġturnover": 6036,
      "ĠHas": 6037,
      "Ġcharter": 6038,
      "Ġtariffs": 6039,
      "Ġpolitician": 6040,
      "uls": 6041,
      "odirov": 6042,
      "Ġexpanded": 6043,
      "Ġjudicial": 6044,
      "Ġfifth": 6045,
      "Ġforg": 6046,
      "PR": 6047,
      "Ġactivists": 6048,
      "ĠTuesday": 6049,
      "rown": 6050,
      "Ġdepend": 6051,
      "Ġfamiliar": 6052,
      "Ġ57": 6053,
      "Ġcomfort": 6054,
      "Ġbon": 6055,
      "Ġconsecut": 6056,
      "Ġdecline": 6057,
      "Ġeve": 6058,
      "azor": 6059,
      "ĠQur": 6060,
      "osen": 6061,
      "Ġ600": 6062,
      "Ġfalling": 6063,
      "unding": 6064,
      "Ġfigures": 6065,
      "ades": 6066,
      "ĠRustam": 6067,
      "estyle": 6068,
      "Ġmanager": 6069,
      "Ġrenov": 6070,
      "aces": 6071,
      "Ġadvisor": 6072,
      "ullayev": 6073,
      "PP": 6074,
      "ĠGod": 6075,
      "Ġsuitable": 6076,
      "inho": 6077,
      "inem": 6078,
      "ĠAirways": 6079,
      "Ġvent": 6080,
      "Ġcoast": 6081,
      "ĠTokyo": 6082,
      "Ġinvolvement": 6083,
      "Ġpackage": 6084,
      "Ġamaz": 6085,
      "ĠFormer": 6086,
      "Wh": 6087,
      "Ġclosely": 6088,
      "Ġrich": 6089,
      "Ġretail": 6090,
      "ĠAli": 6091,
      "Ġ49": 6092,
      "ĠNik": 6093,
      "Ġsun": 6094,
      "witzer": 6095,
      "Ġtraveling": 6096,
      "ini": 6097,
      "witzerland": 6098,
      "ĠShay": 6099,
      "Ġgifts": 6100,
      "Ġisland": 6101,
      "ĠBul": 6102,
      "gn": 6103,
      "Ġimports": 6104,
      "ih": 6105,
      "ĠEmb": 6106,
      "idden": 6107,
      "Ġzones": 6108,
      "uses": 6109,
      "ĠRespon": 6110,
      "alt": 6111,
      "Ġfees": 6112,
      "Ġste": 6113,
      "Ġbelieves": 6114,
      "Ġthoroughly": 6115,
      "water": 6116,
      "Ġviolated": 6117,
      "ĠFirstly": 6118,
      "ĠFollowing": 6119,
      "Ġinstance": 6120,
      "Ġessential": 6121,
      "bo": 6122,
      "Ġfish": 6123,
      "Ġbelow": 6124,
      "Ġdefender": 6125,
      "Ġcompete": 6126,
      "inov": 6127,
      "Ġguard": 6128,
      "Ġvalu": 6129,
      "opol": 6130,
      "pts": 6131,
      "Ġviolating": 6132,
      "ĠTaliban": 6133,
      "ira": 6134,
      "Ġacting": 6135,
      "Ġincreasingly": 6136,
      "uit": 6137,
      "ĠWomen": 6138,
      "ont": 6139,
      "ĠNe": 6140,
      "ĠWater": 6141,
      "Ġchain": 6142,
      "Ġassessment": 6143,
      "aying": 6144,
      "fficial": 6145,
      "Ġforming": 6146,
      "ĠCivil": 6147,
      "Ġaccounting": 6148,
      "aire": 6149,
      "lik": 6150,
      "vili": 6151,
      "ĠCrimea": 6152,
      "onia": 6153,
      "Ġmurder": 6154,
      "Ġwest": 6155,
      "Ġduration": 6156,
      "Ġacts": 6157,
      "spe": 6158,
      "vention": 6159,
      "Ġundergo": 6160,
      "oo": 6161,
      "ques": 6162,
      "Ġsurv": 6163,
      "Ġlength": 6164,
      "Ġenjoy": 6165,
      "ĠChief": 6166,
      "Ġsemin": 6167,
      "nis": 6168,
      "Ġrein": 6169,
      "Ġexplanation": 6170,
      "alla": 6171,
      "ezz": 6172,
      "ĠVice": 6173,
      "Ġurgent": 6174,
      "Ġcertificates": 6175,
      "Ġbeat": 6176,
      "ĠBak": 6177,
      "iring": 6178,
      "Ġdisclosed": 6179,
      "ĠThose": 6180,
      "ĠSar": 6181,
      "Ġseats": 6182,
      "Ġremember": 6183,
      "Ġalcohol": 6184,
      "Ġresignation": 6185,
      "Ġurban": 6186,
      "idering": 6187,
      "rank": 6188,
      "Ġcommander": 6189,
      "Ġstriker": 6190,
      "ĠNukus": 6191,
      "Ġqualifications": 6192,
      "Ġsolid": 6193,
      "Ġconsecutive": 6194,
      "Ġrecor": 6195,
      "Ġreality": 6196,
      "Ġclinic": 6197,
      "55": 6198,
      "yod": 6199,
      "aby": 6200,
      "Ġvisiting": 6201,
      "TE": 6202,
      "oice": 6203,
      "ĠWill": 6204,
      "Ġlosing": 6205,
      "onel": 6206,
      "Ġlikely": 6207,
      "Ġcrew": 6208,
      "Ġtechnological": 6209,
      "Ġsigning": 6210,
      "Ġrevenues": 6211,
      "mun": 6212,
      "usal": 6213,
      "Ġoccasion": 6214,
      "ĠAfrican": 6215,
      "anda": 6216,
      "ĠGovernment": 6217,
      "Ġexecutive": 6218,
      "Ġsatell": 6219,
      "Ġvolunt": 6220,
      "aturday": 6221,
      "Ġattended": 6222,
      "Ġrenew": 6223,
      "ĠBu": 6224,
      "Ġgarden": 6225,
      "Ġextent": 6226,
      "aysi": 6227,
      "Ġexceeding": 6228,
      "Ġ56": 6229,
      "Ġscen": 6230,
      "FC": 6231,
      "Ġterritorial": 6232,
      "Ġlineup": 6233,
      "Ġcalculations": 6234,
      "Ġsong": 6235,
      "Ġways": 6236,
      "active": 6237,
      "Ġwonderful": 6238,
      "Ġcharged": 6239,
      "aka": 6240,
      "Ġscale": 6241,
      "Ġ54": 6242,
      "ĠTai": 6243,
      "ĠUnder": 6244,
      "ĠWho": 6245,
      "ĠOther": 6246,
      "Ġbegins": 6247,
      "inery": 6248,
      "Ġswit": 6249,
      "Ġmind": 6250,
      "ĠAnti": 6251,
      "ĠBloom": 6252,
      "ednes": 6253,
      "ĠJal": 6254,
      "luÄŁ": 6255,
      "Le": 6256,
      "king": 6257,
      "var": 6258,
      "Ġalliance": 6259,
      "Ġforemost": 6260,
      "ĠDecree": 6261,
      "fra": 6262,
      "Ġrecall": 6263,
      "Chelsea": 6264,
      "Ġpressing": 6265,
      "Ġaltern": 6266,
      "romet": 6267,
      "Ġtherefore": 6268,
      "Ġhighlight": 6269,
      "Ġcrops": 6270,
      "Ġverdict": 6271,
      "Ġbriefing": 6272,
      "100": 6273,
      "ĠScientists": 6274,
      "just": 6275,
      "Ġstatistics": 6276,
      "Ġpick": 6277,
      "Ġvillages": 6278,
      "Ġyield": 6279,
      "Ġclause": 6280,
      "entus": 6281,
      "ĠSwitzerland": 6282,
      "Ġscoring": 6283,
      "Ġvisitors": 6284,
      "Ġrelatively": 6285,
      "29": 6286,
      "Ġresearc": 6287,
      "Ġfavorable": 6288,
      "uventus": 6289,
      "Ġgift": 6290,
      "Ġgrade": 6291,
      "Ġ250": 6292,
      "iary": 6293,
      "ĠDr": 6294,
      "ĠChildren": 6295,
      "ĠBloomberg": 6296,
      "Ġcoaches": 6297,
      "ids": 6298,
      "Ġdozens": 6299,
      "ouses": 6300,
      "Ġconcerns": 6301,
      "ĠFam": 6302,
      "ĠGDP": 6303,
      "Ġrace": 6304,
      "Ġfacilit": 6305,
      "iced": 6306,
      "Ġ2009": 6307,
      "Ġload": 6308,
      "Ġembezz": 6309,
      "Ġaro": 6310,
      "Ġforget": 6311,
      "ĠKhan": 6312,
      "gi": 6313,
      "ĠGovern": 6314,
      "Ġboxing": 6315,
      "rence": 6316,
      "ĠRoman": 6317,
      "ĠSaint": 6318,
      "ĠPy": 6319,
      "ON": 6320,
      "ĠWednes": 6321,
      "state": 6322,
      "Ġarm": 6323,
      "ferences": 6324,
      "Ġperspective": 6325,
      "Ġcontext": 6326,
      "ipitation": 6327,
      "neft": 6328,
      "Ġourselves": 6329,
      "andum": 6330,
      "Ġinitiatives": 6331,
      "ĠJoe": 6332,
      "asters": 6333,
      "osis": 6334,
      "Ġcancer": 6335,
      "Ġwr": 6336,
      "ĠBelarusian": 6337,
      "Ġjudges": 6338,
      "Ġdeprived": 6339,
      "ĠInspection": 6340,
      "Ġrecording": 6341,
      "rete": 6342,
      "aming": 6343,
      "Ġinsult": 6344,
      "Ġgained": 6345,
      "Ġherit": 6346,
      "ĠYak": 6347,
      "Ġfeatures": 6348,
      "iano": 6349,
      "city": 6350,
      "Ġdepos": 6351,
      "Ġsubsequ": 6352,
      "hess": 6353,
      "cell": 6354,
      "Ġtraged": 6355,
      "ĠMu": 6356,
      "Ġprinciple": 6357,
      "Ġinstallation": 6358,
      "Ġheritage": 6359,
      "Ġapprov": 6360,
      "Ġraising": 6361,
      "nic": 6362,
      "Ġaccountable": 6363,
      "Ġcustomer": 6364,
      "wa": 6365,
      "roximately": 6366,
      "Ġranging": 6367,
      "Ġep": 6368,
      "ĠNig": 6369,
      "ĠInterest": 6370,
      "Ġrunning": 6371,
      "oir": 6372,
      "Ġast": 6373,
      "Ġmanaging": 6374,
      "Ġticket": 6375,
      "ĠMalaysi": 6376,
      "Ġsoftware": 6377,
      "Ġcircumstances": 6378,
      "Ġmovie": 6379,
      "Ġallowing": 6380,
      "Ġvalid": 6381,
      "ĠNations": 6382,
      "Ġrounds": 6383,
      "Ġactor": 6384,
      "Ġbusinesses": 6385,
      "Ġprecipitation": 6386,
      "ĠMirzo": 6387,
      "Ġattempting": 6388,
      "irchiq": 6389,
      "ĠYes": 6390,
      "Ġregardless": 6391,
      "tical": 6392,
      "Ġensures": 6393,
      "ĠAbdulla": 6394,
      "Ġdropped": 6395,
      "ixed": 6396,
      "Ġwindow": 6397,
      "ĠGen": 6398,
      "As": 6399,
      "Ġfrequently": 6400,
      "ED": 6401,
      "bl": 6402,
      "Ġplot": 6403,
      "Ġring": 6404,
      "ĠEmbassy": 6405,
      "unction": 6406,
      "Ġhelps": 6407,
      "Ġguarantee": 6408,
      "ditional": 6409,
      "Ġarms": 6410,
      "Ġnamely": 6411,
      "Ġreplaced": 6412,
      "ĠFinland": 6413,
      "ĠThurs": 6414,
      "Ġmetal": 6415,
      "ĠAbdulaziz": 6416,
      "ĠVenezuela": 6417,
      "39": 6418,
      "Ġoperator": 6419,
      "Ġbright": 6420,
      "ĠConsidering": 6421,
      "Ġtransactions": 6422,
      "Ġnar": 6423,
      "Ġsurro": 6424,
      "Ġfort": 6425,
      "ĠSaturday": 6426,
      "EFA": 6427,
      "oper": 6428,
      "Ġprob": 6429,
      "ĠJose": 6430,
      "Ġoccurring": 6431,
      "Ġindicate": 6432,
      "Ġaccidents": 6433,
      "ĠYus": 6434,
      "point": 6435,
      "Inter": 6436,
      "ael": 6437,
      "ĠAngel": 6438,
      "Ġsupports": 6439,
      "Ġbehalf": 6440,
      "Ġspending": 6441,
      "Ġlib": 6442,
      "Ġslight": 6443,
      "Ġabsence": 6444,
      "ĠWednesday": 6445,
      "Ġwhole": 6446,
      "Ġspons": 6447,
      "hai": 6448,
      "ĠMun": 6449,
      "Ġcelebrated": 6450,
      "Ġ64": 6451,
      "Ġwrite": 6452,
      "Ġclothing": 6453,
      "Ġindependently": 6454,
      "ologist": 6455,
      "ĠAirport": 6456,
      "cks": 6457,
      "Ġauth": 6458,
      "iva": 6459,
      "Ġrecover": 6460,
      "Ġdescribed": 6461,
      "Ġsemi": 6462,
      "Ġsurrounding": 6463,
      "ipp": 6464,
      "ASS": 6465,
      "ĠPen": 6466,
      "Ġsew": 6467,
      "Ġpieces": 6468,
      "Ġimag": 6469,
      "Ġjour": 6470,
      "Ġrelig": 6471,
      "ĠFound": 6472,
      "ĠLand": 6473,
      "ĠExperts": 6474,
      "Ġproperties": 6475,
      "person": 6476,
      "Ġbrib": 6477,
      "Ġcrimin": 6478,
      "Ġadoption": 6479,
      "Liverpool": 6480,
      "Ġcell": 6481,
      "Ġmissing": 6482,
      "ĠBureau": 6483,
      "Ġsecure": 6484,
      "aired": 6485,
      "oto": 6486,
      "Ġearned": 6487,
      "lar": 6488,
      "Ġattitude": 6489,
      "issions": 6490,
      "Ġrescue": 6491,
      "Ġinvasion": 6492,
      "Ġeliminated": 6493,
      "Ġele": 6494,
      "Ġtopics": 6495,
      "Ġtextbook": 6496,
      "Ġchosen": 6497,
      "Ġbrain": 6498,
      "Ġtransfers": 6499,
      "Ġmagaz": 6500,
      "ĠXi": 6501,
      "ĠResources": 6502,
      "ĠKok": 6503,
      "Ġsym": 6504,
      "Ġsound": 6505,
      "Ġimages": 6506,
      "Ġstarts": 6507,
      "Ġexpressing": 6508,
      "Ġlisted": 6509,
      "stana": 6510,
      "Ġtree": 6511,
      "stock": 6512,
      "Ġperforming": 6513,
      "Ġconvenience": 6514,
      "Ġcanceled": 6515,
      "Ġrapidly": 6516,
      "ĠRash": 6517,
      "Ġ195": 6518,
      "Ġwouldn": 6519,
      "400": 6520,
      "Ġtanks": 6521,
      "Ġallocation": 6522,
      "Ġclarified": 6523,
      "Ġpoliticians": 6524,
      "Ġbur": 6525,
      "Ġcompetitive": 6526,
      "Ġsubstance": 6527,
      "Ġvaccinated": 6528,
      "Ġcirculation": 6529,
      "arqand": 6530,
      "Ġtruly": 6531,
      "Ġsubscri": 6532,
      "ifies": 6533,
      "Ġwhite": 6534,
      "Ġraise": 6535,
      "Ġsustained": 6536,
      "Ġclaimed": 6537,
      "ĠUEFA": 6538,
      "ĠCN": 6539,
      "anghai": 6540,
      "Ġfired": 6541,
      "Ġmillions": 6542,
      "rend": 6543,
      "Ġbodily": 6544,
      "Ġbattle": 6545,
      "urk": 6546,
      "Nav": 6547,
      "ilon": 6548,
      "cean": 6549,
      "Ġslow": 6550,
      "ĠEastern": 6551,
      "Ġhorse": 6552,
      "de": 6553,
      "Ġbin": 6554,
      "ĠUluÄŁ": 6555,
      "Ġmidfielder": 6556,
      "ĠArgentina": 6557,
      "ashes": 6558,
      "ja": 6559,
      "Ġdeterior": 6560,
      "Ġsubjected": 6561,
      "Ġcode": 6562,
      "ĠKab": 6563,
      "Ġaims": 6564,
      "ĠMacron": 6565,
      "ingly": 6566,
      "Ġfundamental": 6567,
      "imova": 6568,
      "ĠBoeing": 6569,
      "ucks": 6570,
      "Ġriver": 6571,
      "Ġhotels": 6572,
      "Ġmer": 6573,
      "Ġ41": 6574,
      "lan": 6575,
      "Ġfeature": 6576,
      "ĠBrazilian": 6577,
      "Ġsitting": 6578,
      "Ġsurveillance": 6579,
      "onom": 6580,
      "Ġparking": 6581,
      "ĠPay": 6582,
      "ĠBol": 6583,
      "ĠChrist": 6584,
      "Ġ52": 6585,
      "uhrat": 6586,
      "Ġsteps": 6587,
      "ĠThursday": 6588,
      "aks": 6589,
      "Ġexperiences": 6590,
      "Ġ1000": 6591,
      "Ġwitnesses": 6592,
      "wered": 6593,
      "Ġboxer": 6594,
      "Ġprin": 6595,
      "ĠExec": 6596,
      "Ġepidemic": 6597,
      "Ġveter": 6598,
      "Ġselect": 6599,
      "Ġairplanes": 6600,
      "Ġacknowledged": 6601,
      "ashvili": 6602,
      "Ġtalented": 6603,
      "ĠMart": 6604,
      "Ġresolving": 6605,
      "racy": 6606,
      "Ġvolunte": 6607,
      "Ġsurface": 6608,
      "Ġdivided": 6609,
      "Ġconsc": 6610,
      "Ġment": 6611,
      "ĠSirdaryo": 6612,
      "Juventus": 6613,
      "Ġencountered": 6614,
      "rely": 6615,
      "Ġeastern": 6616,
      "geli": 6617,
      "Ġsouthern": 6618,
      "Ġdatabase": 6619,
      "Ġdiagnosed": 6620,
      "Ġexpense": 6621,
      "Ġbag": 6622,
      "Ġrecognize": 6623,
      "Ġwrong": 6624,
      "Ġtragedy": 6625,
      "Ġatmosphere": 6626,
      "iev": 6627,
      "Ġexpend": 6628,
      "Ġaccur": 6629,
      "ĠEmployment": 6630,
      "Ġnotice": 6631,
      "kel": 6632,
      "Ġsymbol": 6633,
      "Ġsympt": 6634,
      "Is": 6635,
      "Ġorganizational": 6636,
      "Ġrestored": 6637,
      "oples": 6638,
      "ĠTaiwan": 6639,
      "roz": 6640,
      "ĠHol": 6641,
      "Ġadvice": 6642,
      "Ġ53": 6643,
      "ĠAdv": 6644,
      "manov": 6645,
      "Ġdrop": 6646,
      "Ġheight": 6647,
      "Ġdefinite": 6648,
      "Ġwearing": 6649,
      "ria": 6650,
      "Ġinvestigations": 6651,
      "oles": 6652,
      "Ġexported": 6653,
      "enly": 6654,
      "oli": 6655,
      "ansk": 6656,
      "Ġoffering": 6657,
      "Ġcomplexes": 6658,
      "ĠIndeed": 6659,
      "Ġly": 6660,
      "Ġemerg": 6661,
      "Ġplanet": 6662,
      "unyod": 6663,
      "Ġ78": 6664,
      "Ġcalculated": 6665,
      "wise": 6666,
      "umors": 6667,
      "ĠHigh": 6668,
      "llor": 6669,
      "enary": 6670,
      "Ġsett": 6671,
      "tor": 6672,
      "ĠPhys": 6673,
      "ĠTÅı": 6674,
      "ĠMam": 6675,
      "Ġunif": 6676,
      "Ġfined": 6677,
      "Ġfines": 6678,
      "Ġvaccines": 6679,
      "ĠSecondly": 6680,
      "Ġuser": 6681,
      "Ġrejected": 6682,
      "Ġassembly": 6683,
      "Ġ58": 6684,
      "Ġseconds": 6685,
      "Ġpounds": 6686,
      "Ġnormal": 6687,
      "Ġannounce": 6688,
      "Ġaer": 6689,
      "ĠGener": 6690,
      "Ġkindergarten": 6691,
      "ĠHong": 6692,
      "Ġintend": 6693,
      "ĠNaval": 6694,
      "Ġexpendit": 6695,
      "Ġpoverty": 6696,
      "rying": 6697,
      "Ġmarri": 6698,
      "Ġresort": 6699,
      "ĠActually": 6700,
      "ĠIr": 6701,
      "Ġinspections": 6702,
      "Ġarise": 6703,
      "Ġcompon": 6704,
      "ĠSpace": 6705,
      "Ġpilot": 6706,
      "Ġ194": 6707,
      "Ġsac": 6708,
      "Ġbread": 6709,
      "Ġmarried": 6710,
      "ĠSherzod": 6711,
      "ĠKur": 6712,
      "Ġchall": 6713,
      "Ġjoy": 6714,
      "Ġ800": 6715,
      "Ġbless": 6716,
      "ĠOta": 6717,
      "Measures": 6718,
      "Ġ85": 6719,
      "based": 6720,
      "oral": 6721,
      "Ġtown": 6722,
      "ĠScience": 6723,
      "ĠPed": 6724,
      "ussels": 6725,
      "Ġtransl": 6726,
      "Ġtalks": 6727,
      "Ġcopy": 6728,
      "Ġalternative": 6729,
      "Ġvegetable": 6730,
      "ĠElection": 6731,
      "Ġcolor": 6732,
      "ĠInvestigation": 6733,
      "Ġgross": 6734,
      "gench": 6735,
      "Ġvegetables": 6736,
      "odes": 6737,
      "Ġgovernments": 6738,
      "Ġabolished": 6739,
      "Ġmasks": 6740,
      "oyal": 6741,
      "Ġaccomp": 6742,
      "aker": 6743,
      "ranking": 6744,
      "umes": 6745,
      "ĠLav": 6746,
      "medov": 6747,
      "ĠKl": 6748,
      "2021": 6749,
      "Ġhumanity": 6750,
      "Ġharmful": 6751,
      "ĠMusk": 6752,
      "ĠTASS": 6753,
      "ĠJin": 6754,
      "Ġincent": 6755,
      "Ġfeat": 6756,
      "ĠBrussels": 6757,
      "Ġmanage": 6758,
      "300": 6759,
      "iated": 6760,
      "Ġ[": 6761,
      "Ġconcrete": 6762,
      "Ġarrival": 6763,
      "ressive": 6764,
      "ĠSergeli": 6765,
      "Ġdiscussing": 6766,
      "ĠNey": 6767,
      "abled": 6768,
      "shid": 6769,
      "othes": 6770,
      "Ġletters": 6771,
      "Ġassistant": 6772,
      "Ġcertification": 6773,
      "38": 6774,
      "adan": 6775,
      "ĠBab": 6776,
      "axt": 6777,
      "Un": 6778,
      "IB": 6779,
      "Ġanalyst": 6780,
      "Ġconfirm": 6781,
      "Ġrestaurant": 6782,
      "encing": 6783,
      "ĠCel": 6784,
      "Ġanswers": 6785,
      "Ġinspector": 6786,
      "Ġconstantly": 6787,
      "Ġsurgery": 6788,
      "ĠMat": 6789,
      "co": 6790,
      "Ġtasked": 6791,
      "Ġauthors": 6792,
      "Ġyesterday": 6793,
      "Ġking": 6794,
      "ertain": 6795,
      "Ġbra": 6796,
      "'ll": 6797,
      "ĠClub": 6798,
      "ĠBarack": 6799,
      "munition": 6800,
      "?\"": 6801,
      "sp": 6802,
      "ressed": 6803,
      "Ġpoly": 6804,
      "Ġhack": 6805,
      "Ġchoice": 6806,
      "Ġcomments": 6807,
      "ration": 6808,
      "ae": 6809,
      "Ġtact": 6810,
      "aliyev": 6811,
      "Ġjudge": 6812,
      "bed": 6813,
      "uds": 6814,
      "oph": 6815,
      "Ġpromoting": 6816,
      "ĠQodirov": 6817,
      "ĠMerkel": 6818,
      "Ġemphasizing": 6819,
      "what": 6820,
      "Ġfollowed": 6821,
      "umed": 6822,
      "ĠShuhrat": 6823,
      "Ġsatisfied": 6824,
      "Ġapplying": 6825,
      "ĠNeymar": 6826,
      "ĠKong": 6827,
      "75": 6828,
      "Ġsoil": 6829,
      "ĠBelgium": 6830,
      "odies": 6831,
      "ansion": 6832,
      "ĠUch": 6833,
      "ĠFoundation": 6834,
      "usted": 6835,
      "exia": 6836,
      "Ġsaved": 6837,
      "Ġsometimes": 6838,
      "gers": 6839,
      "Ġautumn": 6840,
      "Ġcollege": 6841,
      "ordination": 6842,
      "Ġcoup": 6843,
      "Ġextrem": 6844,
      "ĠPres": 6845,
      "Ġ700": 6846,
      "ĠKomilov": 6847,
      "ĠAstana": 6848,
      "...+": 6849,
      "free": 6850,
      "ĠVAT": 6851,
      "Ġessence": 6852,
      "ideo": 6853,
      "ĠIraqi": 6854,
      "Ġwitnessed": 6855,
      "ĠMotors": 6856,
      "ĠBBC": 6857,
      "shan": 6858,
      "Ġconsiders": 6859,
      "ioned": 6860,
      "Ġprovin": 6861,
      "Ġdust": 6862,
      "Ġammunition": 6863,
      "ĠDmitry": 6864,
      "Ġdisplay": 6865,
      "Ġseeing": 6866,
      "axy": 6867,
      "Ġevacuated": 6868,
      "Ġkick": 6869,
      "ĠSun": 6870,
      "unyodkor": 6871,
      "esla": 6872,
      "ĠRav": 6873,
      "erpr": 6874,
      "AMAS": 6875,
      "Ġconcert": 6876,
      "etsk": 6877,
      "aria": 6878,
      "ĠPR": 6879,
      "ĠIndonesia": 6880,
      "Ġpages": 6881,
      "ĠChar": 6882,
      "Ġguest": 6883,
      "related": 6884,
      "ĠUluÄŁbek": 6885,
      "Ġdamages": 6886,
      "Ġconstitutes": 6887,
      "Ġvaluable": 6888,
      "34": 6889,
      "Ġpreparations": 6890,
      "akov": 6891,
      "uras": 6892,
      "Ġrequirement": 6893,
      "da": 6894,
      "grad": 6895,
      "Ġappealed": 6896,
      "Ġtitled": 6897,
      "ĠBerlin": 6898,
      "ĠOp": 6899,
      "Ġinters": 6900,
      "36": 6901,
      "ounded": 6902,
      "Ġphones": 6903,
      "Ġware": 6904,
      "Ġsymptoms": 6905,
      "Ġconnections": 6906,
      "Ġallies": 6907,
      "ĠAtt": 6908,
      "ceum": 6909,
      "Ġunderway": 6910,
      "Ġreput": 6911,
      "Ġgrants": 6912,
      "Ġtaxp": 6913,
      "Ġstrictly": 6914,
      "uished": 6915,
      "Ġtrains": 6916,
      "Ġdrone": 6917,
      "ĠStatistics": 6918,
      "reece": 6919,
      "Ġmonu": 6920,
      "Ġfly": 6921,
      "enty": 6922,
      "ima": 6923,
      "riy": 6924,
      "Ġoption": 6925,
      "Ġprosperity": 6926,
      "legal": 6927,
      "Ġjoining": 6928,
      "opoly": 6929,
      "ĠEd": 6930,
      "Ġbehav": 6931,
      "Ġblocked": 6932,
      "Ġcolleagues": 6933,
      "Ġwheat": 6934,
      "Ġdemocratic": 6935,
      "ĠDavid": 6936,
      "month": 6937,
      "Ġensured": 6938,
      "Ġvisits": 6939,
      "Ġworthy": 6940,
      "EC": 6941,
      "etary": 6942,
      "sky": 6943,
      "Ġweapon": 6944,
      "Tube": 6945,
      "Ġ2006": 6946,
      "ĠEnv": 6947,
      "Ġstock": 6948,
      "uma": 6949,
      "pre": 6950,
      "hran": 6951,
      "Ġice": 6952,
      "Ġbuying": 6953,
      "ĠTesla": 6954,
      "Ġthereby": 6955,
      "ĠCy": 6956,
      "ĠCam": 6957,
      "ĠThree": 6958,
      "Ġrestore": 6959,
      "Ġsupplied": 6960,
      "Ġdog": 6961,
      "ĠRober": 6962,
      "ĠPost": 6963,
      "ĠHu": 6964,
      "Ġcalculation": 6965,
      "Ġemphasizes": 6966,
      "Ġqualification": 6967,
      "omin": 6968,
      "ĠKen": 6969,
      "Ġpal": 6970,
      "ĠMich": 6971,
      "Ġarose": 6972,
      "Ġsinger": 6973,
      "Ġguarantees": 6974,
      "Ġaffordable": 6975,
      "Ġkit": 6976,
      "Ġ77": 6977,
      "Ġ66": 6978,
      "Ġprescribed": 6979,
      "Ġoptim": 6980,
      "IM": 6981,
      "Ġreferred": 6982,
      "auc": 6983,
      "technical": 6984,
      "mud": 6985,
      "Ġapolog": 6986,
      "ĠJohnson": 6987,
      "Ġteen": 6988,
      "esperson": 6989,
      "ĠYouTube": 6990,
      "Ġcelebration": 6991,
      "ĠControl": 6992,
      "ES": 6993,
      "uris": 6994,
      "fl": 6995,
      "ĠGreece": 6996,
      "Ġdeclaration": 6997,
      "Ġbillionaire": 6998,
      "Ġclaims": 6999,
      "Ġovers": 7000,
      "ream": 7001,
      "ĠShanghai": 7002,
      "Ġ2007": 7003,
      "Ġ($": 7004,
      "Ġ59": 7005,
      "Ġlifestyle": 7006,
      "ps": 7007,
      "ĠUK": 7008,
      "Ġhelped": 7009,
      "Ġthanks": 7010,
      "ĠMicro": 7011,
      "ĠEmir": 7012,
      "ĠRev": 7013,
      "lined": 7014,
      "being": 7015,
      "Ġtouch": 7016,
      "Ġtools": 7017,
      "Ġgrown": 7018,
      "ER": 7019,
      "Ġfake": 7020,
      "Ġroof": 7021,
      "ĠLavrov": 7022,
      "Ġ51": 7023,
      "neftgaz": 7024,
      "unal": 7025,
      "Ġcontribute": 7026,
      "Ġlaid": 7027,
      "ĠTehran": 7028,
      "pet": 7029,
      "ĠAral": 7030,
      "Ġmountainous": 7031,
      "iga": 7032,
      "ĠDonb": 7033,
      "ĠMoon": 7034,
      "ilonzor": 7035,
      "Ġprotected": 7036,
      "Ġlearned": 7037,
      "xÅıjayev": 7038,
      "ĠChirchiq": 7039,
      "ĠMarket": 7040,
      "Ġprevention": 7041,
      "Ġtennis": 7042,
      "ĠBlack": 7043,
      "ĠForum": 7044,
      "ĠSim": 7045,
      "Russia": 7046,
      "Ġstar": 7047,
      "Ġ72": 7048,
      "ĠMold": 7049,
      "Ġobjections": 7050,
      "Ġdebates": 7051,
      "ĠMem": 7052,
      "Ġpipeline": 7053,
      "Ġque": 7054,
      "Ġprivat": 7055,
      "ady": 7056,
      "Ġdrawn": 7057,
      "roat": 7058,
      "ĠComb": 7059,
      "letico": 7060,
      "There": 7061,
      "ĠReport": 7062,
      "parent": 7063,
      "ĠRegulation": 7064,
      "ba": 7065,
      "ĠGalaxy": 7066,
      "orruption": 7067,
      "sius": 7068,
      "Ġdorm": 7069,
      "Ġmachinery": 7070,
      "dromet": 7071,
      "Ġpen": 7072,
      "Ġdecis": 7073,
      "Ġfocused": 7074,
      "Ġtank": 7075,
      "Ġpregn": 7076,
      "Ġmine": 7077,
      "Ġneither": 7078,
      "Ġseg": 7079,
      "Ġeye": 7080,
      "Ġconsistently": 7081,
      "ĠMel": 7082,
      "ĠDirectorate": 7083,
      "Ġabsolutely": 7084,
      "illery": 7085,
      "Ġopenly": 7086,
      "Ġsuspect": 7087,
      "Ġpilgrim": 7088,
      "Ġmemorandum": 7089,
      "Ġcinem": 7090,
      "Ġanalyzed": 7091,
      "vey": 7092,
      "Ġappointment": 7093,
      "Ġattracted": 7094,
      "Ġnormative": 7095,
      "Ġhaven": 7096,
      "ĠOq": 7097,
      "ĠBerd": 7098,
      "unication": 7099,
      "ĠHAMAS": 7100,
      "Ġspreading": 7101,
      "Ġsomewhat": 7102,
      "Ġmembership": 7103,
      "Ġreligion": 7104,
      "ĠUrgench": 7105,
      "Ġunderground": 7106,
      "Ġreflected": 7107,
      "ashar": 7108,
      "Ġpurchases": 7109,
      "Ġflu": 7110,
      "Ġconsent": 7111,
      "Ġpleased": 7112,
      "ĠJinping": 7113,
      "olen": 7114,
      "ruck": 7115,
      "linary": 7116,
      "US": 7117,
      "Ġrat": 7118,
      "Ġglass": 7119,
      "ĠTemur": 7120,
      "ĠPes": 7121,
      "ĠAtamb": 7122,
      "Ġpolitics": 7123,
      "ĠAbdullayev": 7124,
      "ĠSerb": 7125,
      "Ġsustain": 7126,
      "Ġdefinitely": 7127,
      "iforn": 7128,
      "Ġplays": 7129,
      "ĠRamadan": 7130,
      "Ġstory": 7131,
      "Ġpresidents": 7132,
      "ellow": 7133,
      "Ġtrucks": 7134,
      "Ġusual": 7135,
      "Ġswim": 7136,
      "He": 7137,
      "abakh": 7138,
      "overe": 7139,
      "Ġfarms": 7140,
      "ita": 7141,
      "iston": 7142,
      "ĠCelsius": 7143,
      "Ġplenary": 7144,
      "Ġusually": 7145,
      "ailand": 7146,
      "Ġintensified": 7147,
      "ius": 7148,
      "ĠAdd": 7149,
      "Ġdisappeared": 7150,
      "?Â»": 7151,
      "Ġnav": 7152,
      "ugbek": 7153,
      "Ġexaminations": 7154,
      "Ġtender": 7155,
      "Ġmachine": 7156,
      "Ġcontribution": 7157,
      "Ġfer": 7158,
      "mentioned": 7159,
      "Ġhearing": 7160,
      "Ġsolving": 7161,
      "isen": 7162,
      "Ġcivilian": 7163,
      "KA": 7164,
      "ĠMa": 7165,
      "For": 7166,
      "iad": 7167,
      "ĠFinancial": 7168,
      "ga": 7169,
      "Ġtaxi": 7170,
      "Ġfeeling": 7171,
      "Ġobstac": 7172,
      "Ġincorrect": 7173,
      "Ġtaught": 7174,
      "Ġretain": 7175,
      "Ġmedicines": 7176,
      "ĠHungary": 7177,
      "33": 7178,
      "amin": 7179,
      "Ġaged": 7180,
      "Ġcongratulated": 7181,
      "Ġmagazine": 7182,
      "Ġemphasize": 7183,
      "Ġspokesperson": 7184,
      "eva": 7185,
      "Ġowned": 7186,
      "Ġcool": 7187,
      "rovers": 7188,
      "ĠElectric": 7189,
      "osite": 7190,
      "iction": 7191,
      "angi": 7192,
      "Ġjuris": 7193,
      "ĠRahmon": 7194,
      "Ġaccompl": 7195,
      "icide": 7196,
      "ĠFran": 7197,
      "ĠViet": 7198,
      "ĠNavalny": 7199,
      "Ġign": 7200,
      "Ġindif": 7201,
      "Ġmaintained": 7202,
      "Lok": 7203,
      "Ġsick": 7204,
      "Ġnine": 7205,
      "ĠSever": 7206,
      "Ġknows": 7207,
      "Ġpostpon": 7208,
      "Ġplanted": 7209,
      "Ġfundamentally": 7210,
      "Ġairports": 7211,
      "Ġunus": 7212,
      "Ġexpansion": 7213,
      "Ġhighway": 7214,
      "ĠThailand": 7215,
      "Ġmeter": 7216,
      "ips": 7217,
      "Ġ74": 7218,
      "ĠJud": 7219,
      "omotiv": 7220,
      "ulsory": 7221,
      "Ġnote": 7222,
      "ĠHus": 7223,
      "ias": 7224,
      "Ġcheap": 7225,
      "Ġclarify": 7226,
      "Ġknock": 7227,
      "ĠCommerce": 7228,
      "ĠCrist": 7229,
      "Ġreputation": 7230,
      "ĠColonel": 7231,
      "Ġsuggestions": 7232,
      "Ġbattery": 7233,
      "Ġmode": 7234,
      "Ġcolleg": 7235,
      "Ġbarrel": 7236,
      "Ġlifted": 7237,
      "Ġrespectively": 7238,
      "Ġreservoir": 7239,
      "ifornia": 7240,
      "Ġsettle": 7241,
      "Ġextraordinary": 7242,
      "Ġprotesters": 7243,
      "Ġissuing": 7244,
      "ĠDam": 7245,
      "Ġagents": 7246,
      "Ġadditions": 7247,
      "ĠEnvironment": 7248,
      "ĠFrank": 7249,
      "habilit": 7250,
      "Ġassessed": 7251,
      "Ġcharacteristics": 7252,
      "Ġtransferring": 7253,
      "Ġexcessive": 7254,
      "Ġsudd": 7255,
      "ulates": 7256,
      "rafts": 7257,
      "with": 7258,
      "ĠDel": 7259,
      "ĠJah": 7260,
      "ĠUkrainians": 7261,
      "bar": 7262,
      "ĠSev": 7263,
      "Ġlanding": 7264,
      "Ġexting": 7265,
      "ĠShaykh": 7266,
      "overs": 7267,
      "artial": 7268,
      "ashev": 7269,
      "uten": 7270,
      "Ġdemol": 7271,
      "agner": 7272,
      "Ġdetermining": 7273,
      "ĠOlm": 7274,
      "Ġtextile": 7275,
      "ĠPeskov": 7276,
      "Ġreminded": 7277,
      "ĠPerhaps": 7278,
      "ĠKu": 7279,
      "ĠWHO": 7280,
      "Ġpeoples": 7281,
      "Ġkilograms": 7282,
      "Ġjourney": 7283,
      "Ġranked": 7284,
      "Ġenemy": 7285,
      "Ġ67": 7286,
      "well": 7287,
      "Ġur": 7288,
      "ĠLegal": 7289,
      "arat": 7290,
      "Ġfilms": 7291,
      "Ġbaby": 7292,
      "ĠCov": 7293,
      "mut": 7294,
      "Ġparticipant": 7295,
      "Ġdetect": 7296,
      "Ġfunctions": 7297,
      "ulty": 7298,
      "ĠBoth": 7299,
      "Ġinvestigated": 7300,
      "Ġ2005": 7301,
      "ĠÅİz": 7302,
      "utral": 7303,
      "Ġacquired": 7304,
      "Ġextraction": 7305,
      "Ġmort": 7306,
      "Ġexempt": 7307,
      "ĠRail": 7308,
      "Ġdisting": 7309,
      "Ġengaging": 7310,
      "Ġattempts": 7311,
      "Ġcontrolled": 7312,
      "Ġcontrovers": 7313,
      "Ġ71": 7314,
      "Ġartillery": 7315,
      "Ġguards": 7316,
      "ĠJord": 7317,
      "Ġseem": 7318,
      "Ġorigin": 7319,
      "Ġpedestrian": 7320,
      "fall": 7321,
      "Ġrelationships": 7322,
      "ĠCorpor": 7323,
      "Ġdouble": 7324,
      "ĠLatv": 7325,
      "Atletico": 7326,
      "ĠSk": 7327,
      "ĠSamarqand": 7328,
      "Ġcease": 7329,
      "Ġstipulated": 7330,
      "Ġpublishing": 7331,
      "ĠSurkh": 7332,
      "more": 7333,
      "phone": 7334,
      "bors": 7335,
      "Ġhear": 7336,
      "Ġimpose": 7337,
      "Nov": 7338,
      "Ġq": 7339,
      "ĠOfficial": 7340,
      "Ġextend": 7341,
      "ĠToshkent": 7342,
      "Ġfederal": 7343,
      "ĠDis": 7344,
      "Ġmanufacturer": 7345,
      "Ġrisks": 7346,
      "Ġdream": 7347,
      "Ġinflic": 7348,
      "Ġwalking": 7349,
      "Ġpeaceful": 7350,
      "ĠTermez": 7351,
      "power": 7352,
      "Ġ2030": 7353,
      "Ġcontinuous": 7354,
      "ĠGovernor": 7355,
      "Ġlandsc": 7356,
      "Ġsupplies": 7357,
      "Ġburned": 7358,
      "ĠIss": 7359,
      "ĠUlugbek": 7360,
      "Ġtemperatures": 7361,
      "ĠCalifornia": 7362,
      "fight": 7363,
      "Ġconstitution": 7364,
      "Ġinspectors": 7365,
      "gin": 7366,
      "ĠChance": 7367,
      "ushan": 7368,
      "Ġlogistics": 7369,
      "ĠDonbass": 7370,
      "ĠChilonzor": 7371,
      "ĠCap": 7372,
      "ocol": 7373,
      "Ġremov": 7374,
      "Ġorganizers": 7375,
      "wear": 7376,
      "Ġsovere": 7377,
      "Ġhelping": 7378,
      "Ġdoors": 7379,
      "Ġpotat": 7380,
      "ĠEach": 7381,
      "Ġtransit": 7382,
      "Ġoperators": 7383,
      "Ġpoisoning": 7384,
      "iat": 7385,
      "Ġwelcom": 7386,
      "apers": 7387,
      "lo": 7388,
      "za": 7389,
      "Ġadmit": 7390,
      "Ġmutually": 7391,
      "Ġmel": 7392,
      "Ġagent": 7393,
      "Ġencourage": 7394,
      "Ġmalf": 7395,
      "Ġcriteria": 7396,
      "Ġservic": 7397,
      "maty": 7398,
      "Ġafra": 7399,
      "Ġestimates": 7400,
      "Ġafraid": 7401,
      "char": 7402,
      "Ġapprec": 7403,
      "ĠYesterday": 7404,
      "Ġpassports": 7405,
      "Ġhun": 7406,
      "Ġstorm": 7407,
      "Ġrecovery": 7408,
      "ĠStaff": 7409,
      "Ġunderstood": 7410,
      "Ġdissatisfied": 7411,
      "Ġexamined": 7412,
      "ithuan": 7413,
      "Ġarises": 7414,
      "iqov": 7415,
      "ford": 7416,
      "Ġswe": 7417,
      "Ġvice": 7418,
      "set": 7419,
      "ĠCub": 7420,
      "Ġdemolished": 7421,
      "akashvili": 7422,
      "ĠAT": 7423,
      "Lokomotiv": 7424,
      "van": 7425,
      "ĠTim": 7426,
      "95": 7427,
      "ĠAy": 7428,
      "Ġever": 7429,
      "ĠTom": 7430,
      "aped": 7431,
      "Ġintegration": 7432,
      "ĠRio": 7433,
      "andarya": 7434,
      "Ġrecre": 7435,
      "Ġidentity": 7436,
      "Ġcondem": 7437,
      "matics": 7438,
      "Ġvacation": 7439,
      "ĠCertain": 7440,
      "ksand": 7441,
      "ajj": 7442,
      "ĠSeoul": 7443,
      "ĠKokand": 7444,
      "ĠPan": 7445,
      "Ġ76": 7446,
      "Ġdebts": 7447,
      "Ġacceler": 7448,
      "Ġruling": 7449,
      "Ġadvertise": 7450,
      "prof": 7451,
      "Ġpra": 7452,
      "ovo": 7453,
      "ĠBelow": 7454,
      "Ġwait": 7455,
      "ille": 7456,
      "Ġdeadline": 7457,
      "equ": 7458,
      "Ġsister": 7459,
      "ĠSaakashvili": 7460,
      "ĠAmir": 7461,
      "Ġinspected": 7462,
      "Ġlyceum": 7463,
      "Ġapproval": 7464,
      "Ġgovernance": 7465,
      "lings": 7466,
      "Ġwing": 7467,
      "ĠPolish": 7468,
      "Ġpossess": 7469,
      "Ġintellectual": 7470,
      "mir": 7471,
      "Ġslightly": 7472,
      "Ġdy": 7473,
      "Ġwindows": 7474,
      "Ġrestaurants": 7475,
      "Ġirrigation": 7476,
      "Bay": 7477,
      "Ġmental": 7478,
      "ĠRa": 7479,
      "yang": 7480,
      "Ġaggress": 7481,
      "Ġsn": 7482,
      "Ġmathe": 7483,
      "houses": 7484,
      "ĠAbu": 7485,
      "organ": 7486,
      "Ġemergence": 7487,
      "Ġvoice": 7488,
      "akhtakor": 7489,
      "Ġconfirming": 7490,
      "ieuten": 7491,
      "ĠLi": 7492,
      "Ġunemployed": 7493,
      "tar": 7494,
      "eless": 7495,
      "ĠChancellor": 7496,
      "ĠRad": 7497,
      "Ġproperly": 7498,
      "ĠSurkhandarya": 7499,
      "ĠCount": 7500,
      "Ġdisabled": 7501,
      "Ġtextbooks": 7502,
      "ĠTest": 7503,
      "ĠLithuan": 7504,
      "ĠErdogan": 7505,
      "ĠLatin": 7506,
      "Ġecological": 7507,
      "ĠCNN": 7508,
      "Ġgives": 7509,
      "Ġscientist": 7510,
      "Ġenvisages": 7511,
      "Ġcadast": 7512,
      "oub": 7513,
      "ĠMi": 7514,
      "Ġrumors": 7515,
      "Ġcompletion": 7516,
      "ieutenant": 7517,
      "Ġunion": 7518,
      "Ġvisas": 7519,
      "Ġdemonstrate": 7520,
      "Ġgranting": 7521,
      "hin": 7522,
      "ĠKurd": 7523,
      "Ġstruck": 7524,
      "Ġindicating": 7525,
      "ĠAndrey": 7526,
      "Ġmarriage": 7527,
      "mans": 7528,
      "ĠSlov": 7529,
      "Ġclashes": 7530,
      "Ġoutd": 7531,
      "Ġmessages": 7532,
      "ĠCorrect": 7533,
      "Ġdigest": 7534,
      "Ġsugar": 7535,
      "Ġhosted": 7536,
      "ĠKabul": 7537,
      "An": 7538,
      "ei": 7539,
      "istical": 7540,
      "Ġnoting": 7541,
      "Ġperfect": 7542,
      "aping": 7543,
      "Ġopponents": 7544,
      "Ġintroducing": 7545,
      "inct": 7546,
      "Ġder": 7547,
      "ĠNurs": 7548,
      "Ġkid": 7549,
      "Ġ68": 7550,
      "Ġfeed": 7551,
      "EL": 7552,
      "IN": 7553,
      "ata": 7554,
      "Ġfat": 7555,
      "inks": 7556,
      "Ġdispute": 7557,
      "pol": 7558,
      "Ġcluster": 7559,
      "Ã¼": 7560,
      "Ġregret": 7561,
      "ĠProced": 7562,
      "Ġdefined": 7563,
      "De": 7564,
      "ĠKos": 7565,
      "Ġpostponed": 7566,
      "va": 7567,
      "ĠPower": 7568,
      "Ġrestricted": 7569,
      "Ġcontinuously": 7570,
      "Ġappears": 7571,
      "ĠResponsibility": 7572,
      "Ġdies": 7573,
      "Ġexceeds": 7574,
      "Ġdecisive": 7575,
      "uto": 7576,
      "Ġhelicopter": 7577,
      "Ġresearchers": 7578,
      "ĠCristiano": 7579,
      "Ġfires": 7580,
      "Ġbom": 7581,
      "Ġexecuted": 7582,
      "gg": 7583,
      "ster": 7584,
      "Ġunlike": 7585,
      "iest": 7586,
      "roid": 7587,
      "Ġidentifying": 7588,
      "Ġrecognition": 7589,
      "Ġentity": 7590,
      "Ġsky": 7591,
      "hol": 7592,
      "ocracy": 7593,
      "Ġexposed": 7594,
      "Ġlawyers": 7595,
      "Ġtun": 7596,
      "ales": 7597,
      "ector": 7598,
      "iances": 7599,
      "Ġpasses": 7600,
      "oma": 7601,
      "using": 7602,
      "Ġdoubt": 7603,
      "kiy": 7604,
      "Ġlasted": 7605,
      "Ġautomatically": 7606,
      "Ġpilgrimage": 7607,
      "ĠSum": 7608,
      "ĠQarshi": 7609,
      "ĠJordan": 7610,
      "Taliban": 7611,
      "ĠKer": 7612,
      "Ġneighbors": 7613,
      "Ġcas": 7614,
      "ĠOt": 7615,
      "Ġcorrid": 7616,
      "Ġflour": 7617,
      "2020": 7618,
      "utch": 7619,
      "Ġcolleges": 7620,
      "Ġentertain": 7621,
      "Ġdefenders": 7622,
      "Ġexplosions": 7623,
      "44": 7624,
      "Bunyodkor": 7625,
      "ĠBot": 7626,
      "Ġclothes": 7627,
      "azon": 7628,
      "Ġstolen": 7629,
      "mo": 7630,
      "ĠOlmazor": 7631,
      "Turk": 7632,
      "ĠGenerally": 7633,
      "Ġvoted": 7634,
      ".'": 7635,
      "down": 7636,
      "table": 7637,
      "Ġet": 7638,
      "inging": 7639,
      "ĠDaily": 7640,
      "ĠEngine": 7641,
      "Ġlawsuit": 7642,
      "ishk": 7643,
      "Ġpoet": 7644,
      "ĠInvestment": 7645,
      "ĠInnovative": 7646,
      "Ġlaunching": 7647,
      "ĠMalaysia": 7648,
      "ongir": 7649,
      "final": 7650,
      "Ġpolic": 7651,
      "uese": 7652,
      "soft": 7653,
      "ĠAbdurah": 7654,
      "Ġautomated": 7655,
      "ĠCovid": 7656,
      "ĠInternet": 7657,
      "ĠMour": 7658,
      "ĠBoy": 7659,
      "Ġneutral": 7660,
      "Ġforeigners": 7661,
      "ĠPortugal": 7662,
      "Ġdeparture": 7663,
      "ĠPop": 7664,
      "Ġsystematic": 7665,
      "Ġ95": 7666,
      "ĠPortuguese": 7667,
      "struct": 7668,
      "Ġgun": 7669,
      "Ġaudience": 7670,
      "Ġquant": 7671,
      "ĠBang": 7672,
      "Ġmedium": 7673,
      "Ġtrials": 7674,
      "Ġbelongs": 7675,
      "bes": 7676,
      "Ġsam": 7677,
      "myr": 7678,
      "ĠIssues": 7679,
      "ĠColomb": 7680,
      "eline": 7681,
      "Ġcorrectly": 7682,
      "odymyr": 7683,
      "Ġgrams": 7684,
      "ĠVolodymyr": 7685,
      "bah": 7686,
      "Ġaudio": 7687,
      "ĠSch": 7688,
      "Ġinstances": 7689,
      "agraph": 7690,
      "arently": 7691,
      "iling": 7692,
      "olov": 7693,
      "ĠPerson": 7694,
      "Ġwebsites": 7695,
      "Ġcrash": 7696,
      "Ġfavorite": 7697,
      "Ġformalized": 7698,
      "Ġunch": 7699,
      "Ġundergoing": 7700,
      "PSG": 7701,
      "ushanbe": 7702,
      "akers": 7703,
      "Ġlessons": 7704,
      "eorological": 7705,
      "ĠLibya": 7706,
      "Ġagg": 7707,
      "Ġsubscribers": 7708,
      "Ġkitchen": 7709,
      "ĠMinsk": 7710,
      "ishkek": 7711,
      "otive": 7712,
      "rog": 7713,
      "ĠTechnology": 7714,
      "Ġvacant": 7715,
      "Ġtheft": 7716,
      "itively": 7717,
      "ĠPalace": 7718,
      "right": 7719,
      "invest": 7720,
      "asury": 7721,
      "ĠRec": 7722,
      "Ġdivisions": 7723,
      "Ġboys": 7724,
      "Ġinterfe": 7725,
      "Ġlegally": 7726,
      "Ġautomotive": 7727,
      "Ġnarrow": 7728,
      "ĠJahongir": 7729,
      "aments": 7730,
      "Ġwithdrawal": 7731,
      "Ġassemb": 7732,
      "SCO": 7733,
      "ĠEcology": 7734,
      "Ġmood": 7735,
      "Ġtrack": 7736,
      "Ġpedagogical": 7737,
      "uge": 7738,
      "Ġmultip": 7739,
      "Ġcontaining": 7740,
      "manship": 7741,
      "Ġarisen": 7742,
      "Ġdeeply": 7743,
      "Ġvirtual": 7744,
      "ĠVik": 7745,
      "Ġ86": 7746,
      "Ġconsideration": 7747,
      "Ġexit": 7748,
      "Ġcouncils": 7749,
      "Ġdirectors": 7750,
      "lav": 7751,
      "Ġincur": 7752,
      "Ġsuicide": 7753,
      "Ġcollap": 7754,
      "Ġcollecting": 7755,
      "ception": 7756,
      "ĠFamily": 7757,
      "ĠCorporation": 7758,
      "Ġpetition": 7759,
      "Ġcarbon": 7760,
      "Ġvictories": 7761,
      "ĠProject": 7762,
      "boy": 7763,
      "otics": 7764,
      "ĠMigration": 7765,
      "speed": 7766,
      "Ġdepends": 7767,
      "anded": 7768,
      "ancy": 7769,
      "Ġinfectious": 7770,
      "asp": 7771,
      "Ġqualifying": 7772,
      "ĠAssad": 7773,
      "Ġdestruction": 7774,
      "Ġmachines": 7775,
      "ading": 7776,
      "Ġru": 7777,
      "Ġedition": 7778,
      "Ġdiplomats": 7779,
      "bre": 7780,
      "Ġlies": 7781,
      "ĠUp": 7782,
      "Ġ2001": 7783,
      "Ġrestoration": 7784,
      "Ġbattles": 7785,
      "Sp": 7786,
      "Ġ63": 7787,
      "ulla": 7788,
      "ĠBakhmut": 7789,
      "ĠSardor": 7790,
      "ĠAre": 7791,
      "Ġadapt": 7792,
      "arked": 7793,
      "ĠNovosti": 7794,
      "ĠPalestinian": 7795,
      "Pakhtakor": 7796,
      "ocks": 7797,
      "Ġfriendship": 7798,
      "ĠRiver": 7799,
      "Ġcanal": 7800,
      "Ġjurisdict": 7801,
      "Ġtraditions": 7802,
      "Ġwelcomed": 7803,
      "Ġdesert": 7804,
      "Ġsurpass": 7805,
      "New": 7806,
      "ĠFour": 7807,
      "Ġremove": 7808,
      "Ġinnovations": 7809,
      "Ġhidden": 7810,
      "Ġkilling": 7811,
      "oking": 7812,
      "Ġcontrolling": 7813,
      "yond": 7814,
      "ĠNag": 7815,
      "ala": 7816,
      "skiy": 7817,
      "ĠAustria": 7818,
      "ulf": 7819,
      "pelled": 7820,
      "ĠAustralian": 7821,
      "ĠPhysical": 7822,
      "Ġharmon": 7823,
      "Ġbeyond": 7824,
      "ĠBre": 7825,
      "Ġaccusations": 7826,
      "unk": 7827,
      "Ġreloc": 7828,
      "ua": 7829,
      "ĠTer": 7830,
      "Ġkill": 7831,
      "Ġfilling": 7832,
      "Ġbehavior": 7833,
      "Ġwheel": 7834,
      "Ġaccepting": 7835,
      "Ġapproaching": 7836,
      "ĠToy": 7837,
      "Ġextract": 7838,
      "ĠGh": 7839,
      "ĠProp": 7840,
      "emb": 7841,
      "ĠTursun": 7842,
      "Ġbarriers": 7843,
      "Ġnarcotic": 7844,
      "ijon": 7845,
      "Ġcultivation": 7846,
      "Ġcriminals": 7847,
      "Ġstrengthened": 7848,
      "Ġfalls": 7849,
      "cription": 7850,
      "Ġmodernization": 7851,
      "semin": 7852,
      "Ġrecru": 7853,
      "ĠJizzax": 7854,
      "ĠNorm": 7855,
      "Ġassign": 7856,
      "Ġnegatively": 7857,
      "Ġbreed": 7858,
      "abz": 7859,
      "insula": 7860,
      "Ġdisciples": 7861,
      "Ġunchanged": 7862,
      "back": 7863,
      "ĠMourinho": 7864,
      "occ": 7865,
      "ĠParticip": 7866,
      "Kar": 7867,
      "Ġburd": 7868,
      "idays": 7869,
      "Ġpartially": 7870,
      "Ġexchanged": 7871,
      "essors": 7872,
      "lling": 7873,
      "actory": 7874,
      "Ġkindergartens": 7875,
      "MS": 7876,
      "ĠIslom": 7877,
      "Ġattacking": 7878,
      "ĠProfessor": 7879,
      "aith": 7880,
      "ori": 7881,
      "Ġcivilians": 7882,
      "Ġhighlighted": 7883,
      "ĠNursultan": 7884,
      "iate": 7885,
      "aroy": 7886,
      "Ġskilled": 7887,
      "Ġseed": 7888,
      "Ġcompar": 7889,
      "ĠIndependence": 7890,
      "bery": 7891,
      "ien": 7892,
      "Ġluck": 7893,
      "Ġjurisdiction": 7894,
      "Ġassisting": 7895,
      "bringing": 7896,
      "Ġeast": 7897,
      "grade": 7898,
      "igrants": 7899,
      "ĠSwiss": 7900,
      "orthy": 7901,
      "Ġexamples": 7902,
      "TS": 7903,
      "ĠHajj": 7904,
      "ĠTurkic": 7905,
      "ĠAlmaty": 7906,
      "Ġhair": 7907,
      "Ġtransparent": 7908,
      "App": 7909,
      "Ġrepeatedly": 7910,
      "Ġchess": 7911,
      "ĠSub": 7912,
      "Ġposts": 7913,
      "Ġpromote": 7914,
      "Ġseminar": 7915,
      "Ġopposite": 7916,
      "Ġconstitutional": 7917,
      "ĠYakk": 7918,
      "phabet": 7919,
      "Ġ69": 7920,
      "Ġconcerned": 7921,
      "ĠPhilipp": 7922,
      "Åırayev": 7923,
      "Ġcriticism": 7924,
      "Ġchampions": 7925,
      "Ġfled": 7926,
      "west": 7927,
      "Ġwrest": 7928,
      "ocal": 7929,
      "Ġ2004": 7930,
      "ĠMeasures": 7931,
      "Ġcomponents": 7932,
      "Ġtear": 7933,
      "Ġanswered": 7934,
      "ĠSeveral": 7935,
      "tedly": 7936,
      "Ġ99": 7937,
      "Ġtrafficking": 7938,
      "Ġ1990": 7939,
      "Ġsubsidies": 7940,
      "Ġunsu": 7941,
      "Ġbanknot": 7942,
      "Ġmoral": 7943,
      "Ġsupervision": 7944,
      "Ab": 7945,
      "ĠStrategy": 7946,
      "qon": 7947,
      "Ġassociations": 7948,
      "Ġpunished": 7949,
      "Ġsubstant": 7950,
      "Ġoptions": 7951,
      "77": 7952,
      "Auto": 7953,
      "Ġbrands": 7954,
      "ĠDenmark": 7955,
      "ĠMichael": 7956,
      "rdarya": 7957,
      "Ġsupplying": 7958,
      "ski": 7959,
      "Ġcleaning": 7960,
      "Ġhonest": 7961,
      "Ġtargets": 7962,
      "Ġexperiment": 7963,
      "Ġpose": 7964,
      "Ġearning": 7965,
      "Ġrelationship": 7966,
      "aires": 7967,
      "ĠDushanbe": 7968,
      "Ġparam": 7969,
      "Ġadhere": 7970,
      "Ġlocations": 7971,
      "Ġcat": 7972,
      "ĠBishkek": 7973,
      "Ġappliances": 7974,
      "oubtedly": 7975,
      "ĠMoldova": 7976,
      "Ġcomfortable": 7977,
      "According": 7978,
      "Ġrefrig": 7979,
      "Ġrehabilit": 7980,
      "ĠSoci": 7981,
      "ĠSyrdarya": 7982,
      "Ġsamples": 7983,
      "Ġpensions": 7984,
      "Ġcreates": 7985,
      "Ġlibrary": 7986,
      "Ġfinally": 7987,
      "Ġprofessors": 7988,
      "ĠPat": 7989,
      "ĠAleksand": 7990,
      "ĠBulg": 7991,
      "TI": 7992,
      "sen": 7993,
      "Ġwave": 7994,
      "stand": 7995,
      "oked": 7996,
      "Ġcondol": 7997,
      "Ġdivor": 7998,
      "ĠLu": 7999,
      "Ġshape": 8000,
      "Ġetc": 8001,
      "Ġtouc": 8002,
      "Ġdry": 8003,
      "ĠDPR": 8004,
      "They": 8005,
      "Ġbuyers": 8006,
      "ĠJoint": 8007,
      "unicip": 8008,
      "Ġintense": 8009,
      "icting": 8010,
      "ĠStrip": 8011,
      "Ġinvent": 8012,
      "rick": 8013,
      "Ġfreely": 8014,
      "Ġguaranteed": 8015,
      "OS": 8016,
      "ĠBook": 8017,
      "Ġsubsequent": 8018,
      "rich": 8019,
      "ĠTaking": 8020,
      "Ġworksh": 8021,
      "ivals": 8022,
      "qulov": 8023,
      "aling": 8024,
      "Ġgrades": 8025,
      "Ġdanger": 8026,
      "Ġmosques": 8027,
      "ĠZar": 8028,
      "Ġpilots": 8029,
      "Ġbiggest": 8030,
      "achel": 8031,
      "Ġswitch": 8032,
      "ĠMax": 8033,
      "Uzbekneftgaz": 8034,
      "ĠQual": 8035,
      "AL": 8036,
      "ĠHill": 8037,
      "Ġresponsibilities": 8038,
      "Ġcollapse": 8039,
      "prom": 8040,
      "tenance": 8041,
      "pleasant": 8042,
      "ĠNorway": 8043,
      "ĠExecutive": 8044,
      "unch": 8045,
      "ago": 8046,
      "48": 8047,
      "ĠTan": 8048,
      "Ġdebate": 8049,
      "Ġlect": 8050,
      "Ġdriven": 8051,
      "Ġoriginal": 8052,
      "Ġsatellite": 8053,
      "ica": 8054,
      "Ġrector": 8055,
      "ĠSil": 8056,
      "Ġhalted": 8057,
      "Ġshowcased": 8058,
      "Ġupbringing": 8059,
      "Ġdelayed": 8060,
      "Ġescape": 8061,
      "plant": 8062,
      "Ġrelie": 8063,
      "Ġupper": 8064,
      "Ġconvicted": 8065,
      "Ġflew": 8066,
      "ĠProcedure": 8067,
      "Ġ&": 8068,
      "reement": 8069,
      "Ġcloser": 8070,
      "ĠVietnam": 8071,
      "ĠNar": 8072,
      "liber": 8073,
      "brid": 8074,
      "ĠHa": 8075,
      "Ġ2003": 8076,
      "attle": 8077,
      "Ġpenalties": 8078,
      "from": 8079,
      "ewel": 8080,
      "65": 8081,
      "Ġcup": 8082,
      "quid": 8083,
      "ractical": 8084,
      "ĠAmazon": 8085,
      "Ġgre": 8086,
      "akimov": 8087,
      "Ġannex": 8088,
      "Ġ62": 8089,
      "ĠEnvironmental": 8090,
      "Ġjointly": 8091,
      "Ġsenators": 8092,
      "Ġbloggers": 8093,
      "human": 8094,
      "Ġincon": 8095,
      "32": 8096,
      "ĠId": 8097,
      "Ġthreatened": 8098,
      "ĠBahodir": 8099,
      "ĠJames": 8100,
      "ĠPlant": 8101,
      "Ġastron": 8102,
      "Kh": 8103,
      "Ġallocating": 8104,
      "Ġtheater": 8105,
      "Ġstars": 8106,
      "tem": 8107,
      "Ġmining": 8108,
      "Ġther": 8109,
      "Ġeat": 8110,
      "Ġassists": 8111,
      "ĠJamshid": 8112,
      "Ġdisin": 8113,
      "Ġpositively": 8114,
      "Ġarrive": 8115,
      "Ġhearts": 8116,
      "amov": 8117,
      "ĠRos": 8118,
      "ĠMeaning": 8119,
      "riddin": 8120,
      "Ġemot": 8121,
      "Ġfinish": 8122,
      "ĠValley": 8123,
      "ĠAtambayev": 8124,
      "Ġfounded": 8125,
      "Ġskill": 8126,
      "herson": 8127,
      "Ġintensive": 8128,
      "ĠMicrosoft": 8129,
      "ĠEuras": 8130,
      "Ġdealers": 8131,
      "ĠDutch": 8132,
      "ĠDonetsk": 8133,
      "ĠSwedish": 8134,
      "Ġgathering": 8135,
      "Ġassass": 8136,
      "Ġsecuring": 8137,
      "Ġrealized": 8138,
      "onomous": 8139,
      "inch": 8140,
      "Ġcollided": 8141,
      "add": 8142,
      "Ġownership": 8143,
      "Ġultimately": 8144,
      "uers": 8145,
      "ĠAripov": 8146,
      "Ġbreat": 8147,
      "Ġsmugg": 8148,
      "ĠGlobal": 8149,
      "ipes": 8150,
      "Ġunc": 8151,
      "ĠNob": 8152,
      "cling": 8153,
      "ĠEld": 8154,
      "ĠKal": 8155,
      "Ġunpleasant": 8156,
      "ĠCanad": 8157,
      "Ġconnecting": 8158,
      "Ġutilizing": 8159,
      "wait": 8160,
      "TV": 8161,
      "loq": 8162,
      "Ġindex": 8163,
      "Ġinstructed": 8164,
      "Ġspect": 8165,
      "anning": 8166,
      "Ġtreating": 8167,
      "Ġsenior": 8168,
      "Ġbott": 8169,
      "ĠIC": 8170,
      "ĠLangu": 8171,
      "ĠMunich": 8172,
      "Ġinvitation": 8173,
      "Ġchalleng": 8174,
      "abric": 8175,
      "Ġrival": 8176,
      "Ġlicenses": 8177,
      "Ġexistence": 8178,
      "ĠBoris": 8179,
      "Ġsolely": 8180,
      "Ġlisten": 8181,
      "Ġconsultations": 8182,
      "Ġgreenhouse": 8183,
      "Ġorph": 8184,
      "ĠViktor": 8185,
      "imony": 8186,
      "Ġcontacted": 8187,
      "nsic": 8188,
      "ĠKherson": 8189,
      "ĠGas": 8190,
      "Ġprefer": 8191,
      "Ġquarterfinals": 8192,
      "Ġcounterpart": 8193,
      "Ġabandoned": 8194,
      "och": 8195,
      "Ġwages": 8196,
      "conn": 8197,
      "Ġethnic": 8198,
      "ĠAcc": 8199,
      "wood": 8200,
      "Ġpermitted": 8201,
      "Ġarising": 8202,
      "Ġinnovation": 8203,
      "Ġflo": 8204,
      "Ġgraduated": 8205,
      "hour": 8206,
      "rant": 8207,
      "Ġhonored": 8208,
      "Ġvoluntarily": 8209,
      "Ġexpenditures": 8210,
      "Ġproven": 8211,
      "axtakor": 8212,
      "Ġfing": 8213,
      "Ġartists": 8214,
      "oshev": 8215,
      "ĠOut": 8216,
      "ailed": 8217,
      "ĠMahmud": 8218,
      "Ġstabil": 8219,
      "Ġaddressing": 8220,
      "Ġlights": 8221,
      "Ġmagnitude": 8222,
      "Ġadult": 8223,
      "Ġdissemin": 8224,
      "Ġdepending": 8225,
      "ĠArmenian": 8226,
      "Bayern": 8227,
      "ĠTesting": 8228,
      "Ġisol": 8229,
      "ĠPF": 8230,
      "risabz": 8231,
      "ogy": 8232,
      "Ġcorner": 8233,
      "Ġlowest": 8234,
      "ĠLieutenant": 8235,
      "ĠSte": 8236,
      "76": 8237,
      "'re": 8238,
      "Ġcontracted": 8239,
      "Ġaccumulated": 8240,
      "ĠExt": 8241,
      "Ġholds": 8242,
      "Ġsuddenly": 8243,
      "hus": 8244,
      "xy": 8245,
      "ĠGrand": 8246,
      "ĠForce": 8247,
      "Ġelectoral": 8248,
      "Ġrental": 8249,
      "ĠOtabek": 8250,
      "AC": 8251,
      "ermark": 8252,
      "Ġconstructing": 8253,
      "acific": 8254,
      "Ġquotes": 8255,
      "ensing": 8256,
      "Ġcoverage": 8257,
      "Ġconfisc": 8258,
      "ĠTechnical": 8259,
      "Ġaggression": 8260,
      "enter": 8261,
      "qual": 8262,
      "Ġadap": 8263,
      "Ġshut": 8264,
      "Ġspare": 8265,
      "Ġtwenty": 8266,
      "ĠDeputies": 8267,
      "Ġputting": 8268,
      "Ġsport": 8269,
      "awei": 8270,
      "Ġinconven": 8271,
      "Ġanalysts": 8272,
      "ĠPQ": 8273,
      "Ġprofessor": 8274,
      "Ġconvin": 8275,
      "Ġfought": 8276,
      "Ġweigh": 8277,
      "ĠLeban": 8278,
      "Ġvolumes": 8279,
      "alle": 8280,
      "Ġhappiness": 8281,
      "Ġmaintenance": 8282,
      "Ġpiece": 8283,
      "urally": 8284,
      "Ġves": 8285,
      "Ġcement": 8286,
      "ĠAuthor": 8287,
      "Ġrefriger": 8288,
      "Our": 8289,
      "Ġautomobile": 8290,
      "Ġballistic": 8291,
      "Ġliberal": 8292,
      "Ġsponsors": 8293,
      "ario": 8294,
      "bus": 8295,
      "ĠMoh": 8296,
      "Ġprove": 8297,
      "Ġdeliber": 8298,
      "ĠKir": 8299,
      "Ġexporting": 8300,
      "ĠInvestig": 8301,
      "ĠForbes": 8302,
      "Ġthus": 8303,
      "Ġcyber": 8304,
      "Ġmilk": 8305,
      "Ġresistance": 8306,
      "Ġrestriction": 8307,
      "Ġobligation": 8308,
      "Ġexpertise": 8309,
      "urch": 8310,
      "ĠAirlines": 8311,
      "Ġreviewing": 8312,
      "Ġcondolences": 8313,
      "Ġfault": 8314,
      "Ġprayer": 8315,
      "ils": 8316,
      "Ġconveniences": 8317,
      "ilish": 8318,
      "ĠKatt": 8319,
      "Åİzbek": 8320,
      "ĠPyong": 8321,
      "ĠQuran": 8322,
      "han": 8323,
      "Ġrelation": 8324,
      "shon": 8325,
      "Ġassessing": 8326,
      "Ġskin": 8327,
      "Ġfeaturing": 8328,
      "Ġbicy": 8329,
      "!\"": 8330,
      "Ġtort": 8331,
      "ĠAndroid": 8332,
      "Ġcheaper": 8333,
      "ferential": 8334,
      "Ġbribe": 8335,
      "private": 8336,
      "ograp": 8337,
      "Ġempt": 8338,
      "ĠImam": 8339,
      "bahor": 8340,
      "place": 8341,
      "Ġfinanced": 8342,
      "Ġprovinces": 8343,
      "ĠKarshi": 8344,
      "ĠYunusabad": 8345,
      "ĠAng": 8346,
      "Ġpromise": 8347,
      "Ġine": 8348,
      "Ġstored": 8349,
      "Ġjewel": 8350,
      "utor": 8351,
      "ĠCroat": 8352,
      "Ġintent": 8353,
      "Ġegg": 8354,
      "Ġoperated": 8355,
      "Ġcommunications": 8356,
      "Ġstartup": 8357,
      "Ġ(+": 8358,
      "Ġspaces": 8359,
      "Ġconserv": 8360,
      "ĠQor": 8361,
      "Ġtelecomm": 8362,
      "Ġfurn": 8363,
      "ĠPrig": 8364,
      "ĠPrince": 8365,
      "Ġartist": 8366,
      "Ġstruggle": 8367,
      "ottenham": 8368,
      "71": 8369,
      "ĠYash": 8370,
      "Ġcollaborate": 8371,
      "ĠPyongyang": 8372,
      "31": 8373,
      "Ġstatistical": 8374,
      "Ġdoses": 8375,
      "ĠWall": 8376,
      "Ġknew": 8377,
      "ĠPalestine": 8378,
      "sm": 8379,
      "izh": 8380,
      "Ġ130": 8381,
      "Ġsuffer": 8382,
      "Ġwatching": 8383,
      "lon": 8384,
      "angar": 8385,
      "Ġunusual": 8386,
      "Ġbrothers": 8387,
      "ĠDi": 8388,
      "Ġemployed": 8389,
      "ĠPaul": 8390,
      "hi": 8391,
      "Ġ84": 8392,
      "ĠOlympiad": 8393,
      "Ġeasier": 8394,
      "ĠSqu": 8395,
      "olden": 8396,
      "Ġholidays": 8397,
      "Ġdeemed": 8398,
      "Ġactual": 8399,
      "Ġairlines": 8400,
      "Ġruble": 8401,
      "ĠPrize": 8402,
      "Ġinvolves": 8403,
      "Ġfulfilling": 8404,
      "Ġcasual": 8405,
      "Wagner": 8406,
      "iola": 8407,
      "Ġengines": 8408,
      "drop": 8409,
      "Ġworker": 8410,
      "Ġ110": 8411,
      "Ġbuyer": 8412,
      "Ġimmunity": 8413,
      "Ġresigned": 8414,
      "Ġ88": 8415,
      "Ġtouched": 8416,
      "isa": 8417,
      "itory": 8418,
      "olid": 8419,
      "ĠRus": 8420,
      "ĠSanitary": 8421,
      "ĠKuwait": 8422,
      "Tosh": 8423,
      "Ġmunicip": 8424,
      "Ġclusters": 8425,
      "lege": 8426,
      "Ġshel": 8427,
      "Ġfellow": 8428,
      "Ġpanel": 8429,
      "ĠOdil": 8430,
      "heast": 8431,
      "Ġeffects": 8432,
      "Ġolder": 8433,
      "Ġventure": 8434,
      "Ġrising": 8435,
      "Ġpromises": 8436,
      "Ġentirely": 8437,
      "achelor": 8438,
      "ĠCultural": 8439,
      "Ġpolling": 8440,
      "Ġcorporation": 8441,
      "Ġentertainment": 8442,
      "Ġhinder": 8443,
      "Ġ(Â«": 8444,
      "ĠEveryone": 8445,
      "Ġquotas": 8446,
      "ĠHuawei": 8447,
      "Ġconversations": 8448,
      "Ġhopes": 8449,
      "Ġfreedoms": 8450,
      "ĠYÅı": 8451,
      "meter": 8452,
      "Ġ1992": 8453,
      "ĠDemocr": 8454,
      "ĠPRC": 8455,
      "tes": 8456,
      "2019": 8457,
      "etic": 8458,
      "agen": 8459,
      "ruz": 8460,
      "lessly": 8461,
      "Ġidentification": 8462,
      "ĠAhmedov": 8463,
      "uay": 8464,
      "unt": 8465,
      "ĠJer": 8466,
      "Ġcast": 8467,
      "ĠKon": 8468,
      "Ġenthus": 8469,
      "Ġmedicinal": 8470,
      "ĠLatvia": 8471,
      "Ġcaptain": 8472,
      "ilding": 8473,
      "Ġundoubtedly": 8474,
      "ĠNobel": 8475,
      "Ġdeployed": 8476,
      "Ġshops": 8477,
      "Ġpeak": 8478,
      "Ġpreferential": 8479,
      "ĠKhiva": 8480,
      "ĠOrt": 8481,
      "Ġapart": 8482,
      "Ġdestination": 8483,
      "ĠUsmanov": 8484,
      "Ġstronger": 8485,
      "ĠEgyptian": 8486,
      "Ġsurgical": 8487,
      "order": 8488,
      "ĠEuropa": 8489,
      "atories": 8490,
      "Ġcandidacy": 8491,
      "Ġcorporate": 8492,
      "Ġplacement": 8493,
      "Ġcollision": 8494,
      "Ġimagine": 8495,
      "ĠRailways": 8496,
      "800": 8497,
      "Ġtast": 8498,
      "verages": 8499,
      "Ġcompiled": 8500,
      "Ġliquid": 8501,
      "ographic": 8502,
      "Ġexcell": 8503,
      "Ġ2002": 8504,
      "ĠLithuania": 8505,
      "elect": 8506,
      "Ġloved": 8507,
      "ĠLiber": 8508,
      "ĠAliyev": 8509,
      "Ġprotective": 8510,
      "97": 8511,
      "Ġdishes": 8512,
      "Ġexercise": 8513,
      "Ġnut": 8514,
      "Ġchildhood": 8515,
      "Ġplayoff": 8516,
      "Ġdemocracy": 8517,
      "ĠPetro": 8518,
      "Ġwishes": 8519,
      "ĠSob": 8520,
      "ĠLy": 8521,
      "OR": 8522,
      "ivities": 8523,
      "umin": 8524,
      "Ġwriter": 8525,
      "dep": 8526,
      "enko": 8527,
      "ĠDar": 8528,
      "Ġplacing": 8529,
      "Ġfabric": 8530,
      "Ġinstru": 8531,
      "Ġoccurs": 8532,
      "Ġ61": 8533,
      "ĠBox": 8534,
      "ĠCollege": 8535,
      "ĠBudget": 8536,
      "Ġimportantly": 8537,
      "Ġrespir": 8538,
      "ript": 8539,
      "ules": 8540,
      "Ġcutting": 8541,
      "66": 8542,
      "Ġoutlets": 8543,
      "Ġaffects": 8544,
      "ĠRepresentative": 8545,
      "Ġinvestigate": 8546,
      "Ġknife": 8547,
      "Novosti": 8548,
      "ĠShom": 8549,
      "attack": 8550,
      "Ġnaturally": 8551,
      "ĠMuseum": 8552,
      "Ġbroken": 8553,
      "Ġintegrity": 8554,
      "map": 8555,
      "olf": 8556,
      "ESCO": 8557,
      "iencies": 8558,
      "long": 8559,
      "Ġmountains": 8560,
      "ĠMurod": 8561,
      "Ġwear": 8562,
      "Ġpractices": 8563,
      "Ġpermits": 8564,
      "ĠGre": 8565,
      "Ġopposed": 8566,
      "ĠCanadian": 8567,
      "aution": 8568,
      "Ġwells": 8569,
      "Ġ1994": 8570,
      "Ġcardi": 8571,
      "Ġcomplicated": 8572,
      "AD": 8573,
      "cles": 8574,
      "gic": 8575,
      "Ġ97": 8576,
      "Ġdivers": 8577,
      "Ġcylin": 8578,
      "no": 8579,
      "cies": 8580,
      "diyev": 8581,
      "ĠNAS": 8582,
      "tered": 8583,
      "Ġnations": 8584,
      "Ġsections": 8585,
      "Ġcasualties": 8586,
      "eth": 8587,
      "Ġstrain": 8588,
      "Ġadvantages": 8589,
      "ĠArgentine": 8590,
      "Ġblogger": 8591,
      "eli": 8592,
      "ĠPhoto": 8593,
      "Ġhelicopters": 8594,
      "boyeva": 8595,
      "ĠIgor": 8596,
      "Ġuns": 8597,
      "ronics": 8598,
      "ĠEston": 8599,
      "Ġmask": 8600,
      "Ġelements": 8601,
      "Nas": 8602,
      "Ġfaith": 8603,
      "ĠManchester": 8604,
      "ĠInf": 8605,
      "Ġannul": 8606,
      "ĠFood": 8607,
      "born": 8608,
      "Ġmessenger": 8609,
      "Ġpalace": 8610,
      "ayn": 8611,
      "Ġcalm": 8612,
      "Ġobstacles": 8613,
      "Ġdefect": 8614,
      "Ġvolunteers": 8615,
      "ĠEmirates": 8616,
      "mbuds": 8617,
      "ench": 8618,
      "itage": 8619,
      "Ġphr": 8620,
      "Ġalleg": 8621,
      "ĠFore": 8622,
      "ĠMayor": 8623,
      "And": 8624,
      "Ġpatrol": 8625,
      "ĠShahrisabz": 8626,
      "yard": 8627,
      "ĠAlong": 8628,
      "Ġissuance": 8629,
      "bayev": 8630,
      "ĠYul": 8631,
      "Ġopposing": 8632,
      "war": 8633,
      "Ġnoble": 8634,
      "ĠZeal": 8635,
      "Ġstrongest": 8636,
      "Ġgar": 8637,
      "ĠNodir": 8638,
      "Ġadhe": 8639,
      "enders": 8640,
      "ĠShoh": 8641,
      "Ġyounger": 8642,
      "ozhin": 8643,
      "Ġregistering": 8644,
      "Ġmobilization": 8645,
      "rounded": 8646,
      "Ġdiam": 8647,
      "Ġcopies": 8648,
      "Ġinterior": 8649,
      "Ġ140": 8650,
      "amedov": 8651,
      "Ġinfections": 8652,
      "Ġuniform": 8653,
      "Ġcrow": 8654,
      "Ġapprove": 8655,
      "Ġcontains": 8656,
      "Ġaccelerate": 8657,
      "ĠSociety": 8658,
      "Ġpropag": 8659,
      "Ġ180": 8660,
      "Ġzero": 8661,
      "Ġcolors": 8662,
      "shod": 8663,
      "Ġleaves": 8664,
      "ĠOcean": 8665,
      "Ġadopt": 8666,
      "Ġconsumed": 8667,
      "irobod": 8668,
      "Ġswimming": 8669,
      "Ġsand": 8670,
      "identified": 8671,
      "arks": 8672,
      "ĠErkin": 8673,
      "omali": 8674,
      "Ġobjectives": 8675,
      "Ġdistan": 8676,
      "isi": 8677,
      "Ġreward": 8678,
      "Ġcarrier": 8679,
      "Ġhorsepower": 8680,
      "Ġmathematics": 8681,
      "Ġempty": 8682,
      "gut": 8683,
      "ĠFil": 8684,
      "Ġindifferent": 8685,
      "oliddin": 8686,
      "ĠHeritage": 8687,
      "emor": 8688,
      "Ġcoff": 8689,
      "chenko": 8690,
      "Ġcry": 8691,
      "ĠMikh": 8692,
      "izations": 8693,
      "Ġintersection": 8694,
      "ĠID": 8695,
      "Ġwalls": 8696,
      "Ġsustainable": 8697,
      "AZ": 8698,
      "Ġsemif": 8699,
      "mistry": 8700,
      "owned": 8701,
      "Ġbelieved": 8702,
      "Ġfan": 8703,
      "board": 8704,
      "Ġdemonstrations": 8705,
      "Ġdisputes": 8706,
      "Ġaudit": 8707,
      "Ġpromptly": 8708,
      "isor": 8709,
      "Ġcomputers": 8710,
      "astro": 8711,
      "ĠAnton": 8712,
      "ometimes": 8713,
      "Ġtransporting": 8714,
      "Ġencounter": 8715,
      "ĠStudents": 8716,
      "cedes": 8717,
      "Ġovercome": 8718,
      "ĠAzerbaijani": 8719,
      "mbudsman": 8720,
      "oping": 8721,
      "ĠPrigozhin": 8722,
      "allurg": 8723,
      "Ġclients": 8724,
      "Ġpotatoes": 8725,
      "Ġalphabet": 8726,
      "Ġcooper": 8727,
      "Ġstopping": 8728,
      "fire": 8729,
      "Ġbed": 8730,
      "ĠDes": 8731,
      "ĠNikol": 8732,
      "Ġparameters": 8733,
      "Ġnur": 8734,
      "omed": 8735,
      "Ġinvestor": 8736,
      "ĠPreschool": 8737,
      "Ġreaches": 8738,
      "ĠMas": 8739,
      "Ġ2025": 8740,
      "Ġsheep": 8741,
      "agh": 8742,
      "Ġunidentified": 8743,
      "ĠKhark": 8744,
      "ĠNurm": 8745,
      "Ġcapture": 8746,
      "erse": 8747,
      "ĠBund": 8748,
      "Ġdeficiencies": 8749,
      "Ġburden": 8750,
      "ĠZealand": 8751,
      "lim": 8752,
      "arity": 8753,
      "Ġlease": 8754,
      "Ġattached": 8755,
      "Ġplease": 8756,
      "85": 8757,
      "Zen": 8758,
      "Ġhuge": 8759,
      "Ġ1991": 8760,
      "Ġstole": 8761,
      "Ġparks": 8762,
      "Ġmineral": 8763,
      "green": 8764,
      "Ġvs": 8765,
      "ika": 8766,
      "trans": 8767,
      "oves": 8768,
      "ĠJav": 8769,
      "Ġ1999": 8770,
      "amo": 8771,
      "Ġjewelry": 8772,
      "fied": 8773,
      "tos": 8774,
      "Ġseeking": 8775,
      "ican": 8776,
      "ĠMother": 8777,
      "Ġdevelopments": 8778,
      "ĠArch": 8779,
      "orney": 8780,
      "Ġtelephone": 8781,
      "ĠRobert": 8782,
      "ayz": 8783,
      "Ġprofessionals": 8784,
      "Ġinquiries": 8785,
      "Ġmm": 8786,
      "Ġbackdrop": 8787,
      "ena": 8788,
      "Ġclimb": 8789,
      "Ġcollaps": 8790,
      "Ġsixth": 8791,
      "Ġintensify": 8792,
      "Ġfill": 8793,
      "Ġpotentially": 8794,
      "Ġimmigrants": 8795,
      "ĠSquare": 8796,
      "Ġgrounds": 8797,
      "Ġsuc": 8798,
      "Paxtakor": 8799,
      "asure": 8800,
      "ĠMur": 8801,
      "ipped": 8802,
      "Ġfactories": 8803,
      "Ġsignal": 8804,
      "Ġcenturies": 8805,
      "Ġinflicted": 8806,
      "nobod": 8807,
      "Ġsets": 8808,
      "ifiers": 8809,
      "Ġresource": 8810,
      "ĠUnified": 8811,
      "Ġconced": 8812,
      "ĠMedved": 8813,
      "ĠDoctor": 8814,
      "ĠAlm": 8815,
      "Ġfulfilled": 8816,
      "rians": 8817,
      "Ġreceip": 8818,
      "ahu": 8819,
      "Ġtroub": 8820,
      "Ġmir": 8821,
      "Ġconvey": 8822,
      "ernity": 8823,
      "Ġcells": 8824,
      "cure": 8825,
      "ĠTar": 8826,
      "aba": 8827,
      "Ġinsu": 8828,
      "Ġanimal": 8829,
      "?!": 8830,
      "ieties": 8831,
      "antic": 8832,
      "Ġ73": 8833,
      "ean": 8834,
      "Ġobserve": 8835,
      "ĠDPRK": 8836,
      "Ġdark": 8837,
      "2018": 8838,
      "Ġaerial": 8839,
      "Ġobservation": 8840,
      "Ġsucceed": 8841,
      "Ġworst": 8842,
      "Ġinquiry": 8843,
      "Ġcongress": 8844,
      "ĠRas": 8845,
      "Ġenroll": 8846,
      "soy": 8847,
      "ĠStock": 8848,
      "eworthy": 8849,
      "ulner": 8850,
      "ĠUNESCO": 8851,
      "ĠFarhod": 8852,
      "Tottenham": 8853,
      "ere": 8854,
      "ostov": 8855,
      "ĠMaduro": 8856,
      "angiota": 8857,
      "Milan": 8858,
      "ĠEnterpr": 8859,
      "Ġrelieved": 8860,
      "Reg": 8861,
      "missions": 8862,
      "Ġfertil": 8863,
      "Ġdiesel": 8864,
      "Ġseemed": 8865,
      "ooth": 8866,
      "ruptions": 8867,
      "ĠBas": 8868,
      "ĠJas": 8869,
      "ĠOnce": 8870,
      "Ġ350": 8871,
      "Ġends": 8872,
      "ÅıÄŁ": 8873,
      "ĠPolicy": 8874,
      "ĠMikhail": 8875,
      "NA": 8876,
      "ĠSaf": 8877,
      "Ġseat": 8878,
      "Ġseeds": 8879,
      "aratus": 8880,
      "600": 8881,
      "Ġthrow": 8882,
      "ĠMFA": 8883,
      "Ġ1996": 8884,
      "ĠGulf": 8885,
      "Ġunsuccess": 8886,
      "II": 8887,
      "Ġpipes": 8888,
      "ĠHon": 8889,
      "Ġacceptance": 8890,
      "election": 8891,
      "rencies": 8892,
      "ullo": 8893,
      "Ġrisen": 8894,
      "ĠAleksandr": 8895,
      "BI": 8896,
      "ni": 8897,
      "ĠLion": 8898,
      "Ġlique": 8899,
      "ĠGuardiola": 8900,
      "Ġdelic": 8901,
      "ket": 8902,
      "Ġwood": 8903,
      "esty": 8904,
      "Ġcommissions": 8905,
      "Ġunemployment": 8906,
      "Ġfaster": 8907,
      "ĠSay": 8908,
      "ĠAbram": 8909,
      "ĠExp": 8910,
      "Pro": 8911,
      "Ġdreams": 8912,
      "ĠSod": 8913,
      "Ġheaded": 8914,
      "Ġblame": 8915,
      "Ġwarehouse": 8916,
      "46": 8917,
      "Ġhide": 8918,
      "resh": 8919,
      "Ġanalyze": 8920,
      "Ġdisappear": 8921,
      "ĠEmploy": 8922,
      "ĠSirdarya": 8923,
      "itored": 8924,
      "igital": 8925,
      "Ġdisqual": 8926,
      "Ġprecious": 8927,
      "Ġdispos": 8928,
      "Ġentrusted": 8929,
      "MU": 8930,
      "rets": 8931,
      "Ġcovers": 8932,
      "udoy": 8933,
      "ername": 8934,
      "Ġlux": 8935,
      "ushed": 8936,
      "elf": 8937,
      "Ġapproaches": 8938,
      "Ġexplosive": 8939,
      "Ġcart": 8940,
      "Ġbases": 8941,
      "Ġlesson": 8942,
      "sey": 8943,
      "ĠDid": 8944,
      "ĠReportedly": 8945,
      "Ġliquefied": 8946,
      "Ġawards": 8947,
      "Ġbachelor": 8948,
      "oded": 8949,
      "ĠGM": 8950,
      "Ġemerge": 8951,
      "Ġdisturb": 8952,
      "pat": 8953,
      "zoda": 8954,
      "izer": 8955,
      "Ġlaboratories": 8956,
      "49": 8957,
      "uy": 8958,
      "Ġattrib": 8959,
      "Ġdrive": 8960,
      "cher": 8961,
      "Ġmile": 8962,
      "pel": 8963,
      "Ġregistry": 8964,
      "Ġscre": 8965,
      "Ġbusy": 8966,
      "Ġemerging": 8967,
      "Ġclinics": 8968,
      "ĠRavshan": 8969,
      "Ġwashing": 8970,
      "neum": 8971,
      "ĠWorkers": 8972,
      "di": 8973,
      "Ġvit": 8974,
      "Ġmonitored": 8975,
      "Ġrankings": 8976,
      "ĠEurasian": 8977,
      "Ġdistributing": 8978,
      "Ġreconstruct": 8979,
      "Ġnone": 8980,
      "Ġpursu": 8981,
      "Ġfacilitate": 8982,
      "ĠFarm": 8983,
      "ĠOh": 8984,
      "ĠZangiota": 8985,
      "Ġpregnant": 8986,
      "ĠFac": 8987,
      "ĠAbduh": 8988,
      "Ġsettlements": 8989,
      "You": 8990,
      "Ġlinked": 8991,
      "rasn": 8992,
      "Ġacquaintances": 8993,
      "Ġincurred": 8994,
      "Ġties": 8995,
      "iture": 8996,
      "Ġ900": 8997,
      "ĠMirzayev": 8998,
      "Ġhumans": 8999,
      "ĠCertainly": 9000,
      "ĠTs": 9001,
      "Ġbeverages": 9002,
      "ĠIk": 9003,
      "ĠCS": 9004,
      "Ġrare": 9005,
      "Ġherself": 9006,
      "Ġfit": 9007,
      "ĠCombating": 9008,
      "anmar": 9009,
      "ĠSud": 9010,
      "ĠDocu": 9011,
      "Ġcommemor": 9012,
      "liq": 9013,
      "Ġ83": 9014,
      "ĠSometimes": 9015,
      "Ġminim": 9016,
      "weight": 9017,
      "Ġbrings": 9018,
      "Ġstaying": 9019,
      "Ġlapt": 9020,
      "ĠAtl": 9021,
      "Ġboxers": 9022,
      "78": 9023,
      "ĠEid": 9024,
      "ĠModern": 9025,
      "Ġamazing": 9026,
      "adays": 9027,
      "ĠZid": 9028,
      "Ġancest": 9029,
      "urilish": 9030,
      "username": 9031,
      "ĠOy": 9032,
      "ĠElon": 9033,
      "Ġvulner": 9034,
      "Ġcontainers": 9035,
      "Ġsimplified": 9036,
      "Ġisn": 9037,
      "ĠYashnobod": 9038,
      "Ġcatch": 9039,
      "ariq": 9040,
      "Ġbul": 9041,
      "ami": 9042,
      "change": 9043,
      "Ġemployer": 9044,
      "ĠUpon": 9045,
      "oss": 9046,
      "Ġunity": 9047,
      "Ġheading": 9048,
      "Ġspecially": 9049,
      "Ġrequests": 9050,
      "ldoshev": 9051,
      "ĠEverything": 9052,
      "Ġcongest": 9053,
      "anyahu": 9054,
      "Ġovert": 9055,
      "Ġpreserved": 9056,
      "Ġmalfunction": 9057,
      "Ġjets": 9058,
      "Ġforensic": 9059,
      "Ġarriving": 9060,
      "auty": 9061,
      "Ġfirefight": 9062,
      "Ġsupermark": 9063,
      "Ġpsychological": 9064,
      "Ġric": 9065,
      "ĠCenters": 9066,
      "2022": 9067,
      "SCE": 9068,
      "Ġfailing": 9069,
      "ĠFlor": 9070,
      "riends": 9071,
      "Ġnearby": 9072,
      "Ġrehabilitation": 9073,
      "Sam": 9074,
      "omic": 9075,
      "idel": 9076,
      "amol": 9077,
      "Ġcloud": 9078,
      "Ġplatforms": 9079,
      "Ġpanels": 9080,
[...]
