{
  "version": "1.0",
  "truncation": null,
  "padding": null,
  "added_tokens": [
    {
      "id": 0,
      "content": "[PAD]",
      "single_word": false,
      "lstrip": false,
      "rstrip": false,
      "normalized": false,
      "special": true
    },
    {
      "id": 1,
      "content": "[UNK]",
      "single_word": false,
      "lstrip": false,
      "rstrip": false,
      "normalized": false,
      "special": true
    }
  ],
  "normalizer": null,
  "pre_tokenizer": {
    "type": "ByteLevel",
    "add_prefix_space": true,
    "trim_offsets": true,
    "use_regex": true
  },
  "post_processor": null,
  "decoder": null,
  "model": {
    "type": "BPE",
    "dropout": null,
    "unk_token": null,
    "continuing_subword_prefix": null,
    "end_of_word_suffix": null,
    "fuse_unk": false,
    "byte_fallback": false,
    "vocab": {
      "[PAD]": 0,
      "[UNK]": 1,
      "!": 2,
      "\"": 3,
      "#": 4,
      "$": 5,
      "%": 6,
      "&": 7,
      "'": 8,
      "(": 9,
      ")": 10,
      "*": 11,
      "+": 12,
      ",": 13,
      "-": 14,
      ".": 15,
      "/": 16,
      "0": 17,
      "1": 18,
      "2": 19,
      "3": 20,
      "4": 21,
      "5": 22,
      "6": 23,
      "7": 24,
      "8": 25,
      "9": 26,
      ":": 27,
      ";": 28,
      "<": 29,
      "=": 30,
      ">": 31,
      "?": 32,
      "@": 33,
      "A": 34,
      "B": 35,
      "C": 36,
      "D": 37,
      "E": 38,
      "F": 39,
      "G": 40,
      "H": 41,
      "I": 42,
      "J": 43,
      "K": 44,
      "L": 45,
      "M": 46,
      "N": 47,
      "O": 48,
      "P": 49,
      "Q": 50,
      "R": 51,
      "S": 52,
      "T": 53,
      "U": 54,
      "V": 55,
      "W": 56,
      "X": 57,
      "Y": 58,
      "Z": 59,
      "[": 60,
      "]": 61,
      "^": 62,
      "_": 63,
      "a": 64,
      "b": 65,
      "c": 66,
      "d": 67,
      "e": 68,
      "f": 69,
      "g": 70,
      "h": 71,
      "i": 72,
      "j": 73,
      "k": 74,
      "l": 75,
      "m": 76,
      "n": 77,
      "o": 78,
      "p": 79,
      "q": 80,
      "r": 81,
      "s": 82,
      "t": 83,
      "u": 84,
      "v": 85,
      "w": 86,
      "x": 87,
      "y": 88,
      "z": 89,
      "|": 90,
      "~": 91,
      "¢": 92,
      "£": 93,
      "¦": 94,
      "§": 95,
      "«": 96,
      "¬": 97,
      "°": 98,
      "±": 99,
      "´": 100,
      "µ": 101,
      "»": 102,
      "¼": 103,
      "½": 104,
      "Â": 105,
      "Ã": 106,
      "Ç": 107,
      "Ö": 108,
      "â": 109,
      "Ċ": 110,
      "Ġ": 111,
      "Ĥ": 112,
      "Ħ": 113,
      "ı": 114,
      "ķ": 115,
      "ĸ": 116,
      "Ġt": 117,
      "he": 118,
      "in": 119,
      "Ġa": 120,
      "Ġthe": 121,
      "on": 122,
      "re": 123,
      "Ġo": 124,
      "er": 125,
      "at": 126,
      "en": 127,
      "an": 128,
      "Ġs": 129,
      "is": 130,
      "or": 131,
      "Ġw": 132,
      "Ġc": 133,
      "ed": 134,
      "Ġof": 135,
      "it": 136,
      "Ġin": 137,
      "Ġp": 138,
      "ion": 139,
      "es": 140,
      "ing": 141,
      "ar": 142,
      "Ġf": 143,
      "al": 144,
      "Ġb": 145,
      "Ġto": 146,
      "Ġan": 147,
      "as": 148,
      "Ġd": 149,
      "ro": 150,
      "ic": 151,
      "Ġm": 152,
      "ent": 153,
      "Ġand": 154,
      "ou": 155,
      "il": 156,
      "Ġh": 157,
      "Ġre": 158,
      "Ġth": 159,
      "ĠT": 160,
      "le": 161,
      "ation": 162,
      "ĠA": 163,
      "ct": 164,
      "Ġn": 165,
      "Ġbe": 166,
      "Ġe": 167,
      "st": 168,
      "om": 169,
      "id": 170,
      "ve": 171,
      "ur": 172,
      "ĠI": 173,
      "ist": 174,
      "ly": 175,
      "Ġfor": 176,
      "Ġis": 177,
      "us": 178,
      "im": 179,
      "ra": 180,
      "Ġon": 181,
      "ot": 182,
      "ol": 183,
      "ut": 184,
      "ĠU": 185,
      "Ġl": 186,
      "ĠS": 187,
      "ĠThe": 188,
      "Ġg": 189,
      "ce": 190,
      "ad": 191,
      "un": 192,
      "ig": 193,
      "ir": 194,
      "Ġst": 195,
      "Ġde": 196,
      "ill": 197,
      "ay": 198,
      "Ġthat": 199,
      "ment": 200,
      "ers": 201,
      "Ġcon": 202,
      "et": 203,
      "ĠM": 204,
      "am": 205,
      "ith": 206,
      "ch": 207,
      "Ġpro": 208,
      "Ġwith": 209,
      "ĠC": 210,
      "ĠR": 211,
      "el": 212,
      "Ġ\"": 213,
      "ort": 214,
      "Ġwas": 215,
      "ul": 216,
      "iv": 217,
      "ter": 218,
      "oun": 219,
      "Ġ2": 220,
      "ow": 221,
      "si": 222,
      "Ġit": 223,
      "Ġare": 224,
      "os": 225,
      "Ġwe": 226,
      "Ġ1": 227,
      "ding": 228,
      "rom": 229,
      "'s": 230,
      "ies": 231,
      "res": 232,
      "ate": 233,
      "ver": 234,
      "Ġal": 235,
      "cc": 236,
      "Ġat": 237,
      "ĠP": 238,
      "ĠIn": 239,
      "op": 240,
      "Ġhe": 241,
      "ĠB": 242,
      "Ġex": 243,
      "Ġas": 244,
      "Ġfrom": 245,
      "ity": 246,
      "art": 247,
      "pe": 248,
      "Ġcom": 249,
      "port": 250,
      "her": 251,
      "Ġthis": 252,
      "Ġwh": 253,
      "Ġnot": 254,
      "and": 255,
      "ain": 256,
      "est": 257,
      "Ġwill": 258,
      "ial": 259,
      "iz": 260,
      "ak": 261,
      "Ġne": 262,
      "Ġby": 263,
      "ĠD": 264,
      "ek": 265,
      "Ġy": 266,
      "ĠF": 267,
      "em": 268,
      "if": 269,
      "ore": 270,
      "Ġha": 271,
      "ions": 272,
      "ary": 273,
      "ld": 274,
      "od": 275,
      "up": 276,
      "ag": 277,
      "se": 278,
      "ĠK": 279,
      "Ġhas": 280,
      "ĠE": 281,
      "ussi": 282,
      "Ġv": 283,
      "ac": 284,
      "bek": 285,
      "ov": 286,
      "istan": 287,
      "Ġse": 288,
      "ĠRussi": 289,
      "um": 290,
      "Ġhave": 291,
      "ab": 292,
      "red": 293,
      "igh": 294,
      "Ġle": 295,
      "ip": 296,
      "ess": 297,
      "oc": 298,
      "zbek": 299,
      "Ġ20": 300,
      "ren": 301,
      "ĠN": 302,
      "ccor": 303,
      "rain": 304,
      "Ġreg": 305,
      "ated": 306,
      "th": 307,
      "qu": 308,
      "ount": 309,
      "Ġun": 310,
      "Ġpl": 311,
      "ant": 312,
      "ccording": 313,
      "du": 314,
      "ĠUzbek": 315,
      "ĠW": 316,
      "Ġbeen": 317,
      "ub": 318,
      "ĠO": 319,
      "ĠH": 320,
      "Ġag": 321,
      "Ġ-": 322,
      "istr": 323,
      "ive": 324,
      "Ġch": 325,
      "Ġwere": 326,
      "Ġres": 327,
      "ĠG": 328,
      "ber": 329,
      "ear": 330,
      "Ġcomp": 331,
      "Ġor": 332,
      "ĠAccording": 333,
      "Ġwor": 334,
      "ans": 335,
      "ĠJ": 336,
      "ous": 337,
      "Ġ(": 338,
      "krain": 339,
      "our": 340,
      "ĠUzbekistan": 341,
      "ud": 342,
      "ident": 343,
      "ep": 344,
      "ĠUkrain": 345,
      "Ġint": 346,
      "ations": 347,
      "so": 348,
      "der": 349,
      "fic": 350,
      "Ġen": 351,
      "ition": 352,
      "Ġr": 353,
      "ect": 354,
      "Ġim": 355,
      "ight": 356,
      "Ġinc": 357,
      "Ġalso": 358,
      "Ġgo": 359,
      "ict": 360,
      "per": 361,
      "ri": 362,
      "00": 363,
      "Ġab": 364,
      "out": 365,
      "orm": 366,
      "ign": 367,
      "Ġad": 368,
      "ure": 369,
      "pp": 370,
      "gh": 371,
      "ical": 372,
      "Ġsh": 373,
      "ĠL": 374,
      "ue": 375,
      "ult": 376,
      "Ġcount": 377,
      "Ġyear": 378,
      "all": 379,
      "Ġcountr": 380,
      "ust": 381,
      "ime": 382,
      "Ġme": 383,
      "Ġpart": 384,
      "ced": 385,
      "Ġper": 386,
      "ast": 387,
      "ang": 388,
      "ould": 389,
      "Â«": 390,
      "Ġtheir": 391,
      "ap": 392,
      "ĠÂ«": 393,
      "Â»": 394,
      "ide": 395,
      "Ġsa": 396,
      "Ġwho": 397,
      "erv": 398,
      "ian": 399,
      "Ġ202": 400,
      "ice": 401,
      "ard": 402,
      "lic": 403,
      "Ġhis": 404,
      "form": 405,
      "ction": 406,
      "ong": 407,
      "Ġcont": 408,
      "ru": 409,
      "ia": 410,
      "ĠTh": 411,
      "og": 412,
      "ĠRussia": 413,
      "Ġall": 414,
      "age": 415,
      "ash": 416,
      "Ġk": 417,
      "Ġhad": 418,
      "tern": 419,
      "uring": 420,
      "ome": 421,
      "illion": 422,
      "Ġdis": 423,
      "ire": 424,
      "Ġpe": 425,
      "ational": 426,
      "Ġ3": 427,
      "Ġreport": 428,
      "ĠUkraine": 429,
      "any": 430,
      "ell": 431,
      "ther": 432,
      "ĠMin": 433,
      "end": 434,
      "ost": 435,
      "ev": 436,
      "Ġte": 437,
      "Ġcan": 438,
      "con": 439,
      "Ġar": 440,
      "Ġwork": 441,
      "Ġtr": 442,
      "ces": 443,
      "ff": 444,
      "gan": 445,
      "Ġthere": 446,
      "pl": 447,
      "ame": 448,
      "ople": 449,
      "vel": 450,
      "ally": 451,
      "Ġsaid": 452,
      "Ġbeing": 453,
      "ich": 454,
      "ree": 455,
      "ĠRussian": 456,
      "ase": 457,
      "resident": 458,
      "ace": 459,
      "Ġits": 460,
      "Ġstate": 461,
      "Ġregion": 462,
      "fter": 463,
      "ens": 464,
      "und": 465,
      "Ġpre": 466,
      "Ġdec": 467,
      "Ġj": 468,
      "Ġcl": 469,
      "Ġthey": 470,
      "Ġsu": 471,
      "Ġabout": 472,
      "hed": 473,
      "av": 474,
      "ublic": 475,
      "ĠSt": 476,
      "Ġam": 477,
      "oll": 478,
      "Ġpeople": 479,
      "Ġem": 480,
      "Ġpr": 481,
      "Ġus": 482,
      "Ġspe": 483,
      "ities": 484,
      "Ġev": 485,
      "one": 486,
      "ugh": 487,
      "ress": 488,
      "Ġtime": 489,
      "Ġapp": 490,
      "ays": 491,
      "oy": 492,
      "ass": 493,
      "uro": 494,
      "dition": 495,
      "Ġimp": 496,
      "Ġact": 497,
      "Ġone": 498,
      "ĠCh": 499,
      "ĠThis": 500,
      "cent": 501,
      "cted": 502,
      "hen": 503,
      "ments": 504,
      "Ġcons": 505,
      "Ġann": 506,
      "Ġinv": 507,
      "Ġbut": 508,
      "ance": 509,
      "ased": 510,
      "ke": 511,
      "Ġout": 512,
      "ks": 513,
      "ine": 514,
      "old": 515,
      "very": 516,
      "Ġcar": 517,
      "rit": 518,
      "Ġoffic": 519,
      "Ġnew": 520,
      "Ġdo": 521,
      "ew": 522,
      "ied": 523,
      "Ġagain": 524,
      "Ġent": 525,
      "Ġthem": 526,
      "ble": 527,
      "ors": 528,
      "rent": 529,
      "ose": 530,
      "ized": 531,
      "ish": 532,
      "ark": 533,
      "ory": 534,
      "Ġatt": 535,
      "ence": 536,
      "ating": 537,
      "iy": 538,
      "ious": 539,
      "formation": 540,
      "Ġdistr": 541,
      "Ġsup": 542,
      "Ġ5": 543,
      "ater": 544,
      "Ġcity": 545,
      "ted": 546,
      "Ġour": 547,
      "Ġop": 548,
      "Ġunder": 549,
      "Ġwhich": 550,
      "Ġother": 551,
      "irst": 552,
      "ĠIt": 553,
      "Ġro": 554,
      "ĠUn": 555,
      "Ġsit": 556,
      "cial": 557,
      "ashk": 558,
      "Ġlead": 559,
      "te": 560,
      "Ġbec": 561,
      "Ġpos": 562,
      "az": 563,
      ",\"": 564,
      "rough": 565,
      "ilit": 566,
      "Ġserv": 567,
      "Ġqu": 568,
      "Ġla": 569,
      "urn": 570,
      "Ġ4": 571,
      "ject": 572,
      "Ġrel": 573,
      "Ġincre": 574,
      "mit": 575,
      "ashkent": 576,
      "Ġsc": 577,
      "Ġprov": 578,
      "act": 579,
      "Ġwar": 580,
      "oin": 581,
      "Ġannoun": 582,
      "cess": 583,
      "ile": 584,
      "ates": 585,
      "Ġmore": 586,
      "Ġinformation": 587,
      "Ġcountries": 588,
      "ĠOn": 589,
      "vern": 590,
      "ack": 591,
      "Ġtak": 592,
      "iss": 593,
      "ob": 594,
      "ge": 595,
      "ok": 596,
      "Ġprodu": 597,
      "Ġyears": 598,
      "Ġup": 599,
      "ĠV": 600,
      "uc": 601,
      "ĠUS": 602,
      "istry": 603,
      "ative": 604,
      "ĠTashkent": 605,
      "Ġdistrict": 606,
      "air": 607,
      "yst": 608,
      "ific": 609,
      "min": 610,
      "ilitary": 611,
      "Ġfirst": 612,
      "aus": 613,
      "Ġinto": 614,
      "Ġduring": 615,
      "als": 616,
      "Ġagainst": 617,
      "Ġpercent": 618,
      "Ġno": 619,
      "ms": 620,
      "Ġcountry": 621,
      "ove": 622,
      "Ġyou": 623,
      "Ġind": 624,
      "Ġdep": 625,
      "cy": 626,
      "ĠY": 627,
      "Ġsp": 628,
      "Ġmillion": 629,
      "able": 630,
      "Ġsitu": 631,
      "Ġtrans": 632,
      "Ġ7": 633,
      "ild": 634,
      "Ġmilitary": 635,
      "velop": 636,
      "mer": 637,
      "Ġannounced": 638,
      "lect": 639,
      ".\"": 640,
      "Ġgovern": 641,
      "Ġter": 642,
      "ystem": 643,
      "ĠAd": 644,
      "ĠEuro": 645,
      "ĠPresident": 646,
      "),": 647,
      "ach": 648,
      "Ġrep": 649,
      "ons": 650,
      "ts": 651,
      "Ġresult": 652,
      "ef": 653,
      "Ġpartic": 654,
      "stan": 655,
      "Ġsystem": 656,
      "Ġiss": 657,
      "Ġtw": 658,
      "Ġass": 659,
      "ĠEurope": 660,
      "Ġsome": 661,
      "Ġco": 662,
      "Ġtra": 663,
      "Ġorgan": 664,
      "ents": 665,
      "Ġthan": 666,
      "Ġhim": 667,
      "ĠAn": 668,
      "fe": 669,
      "ĠFor": 670,
      "Ġacc": 671,
      "ec": 672,
      "ann": 673,
      "Ġthrough": 674,
      "Ġfin": 675,
      "Ġhead": 676,
      "ĠMinistry": 677,
      "Ġsuch": 678,
      "Ġsign": 679,
      "Ġpers": 680,
      "Ġnum": 681,
      "Ġsituation": 682,
      "Ġday": 683,
      "Ġinst": 684,
      "Ġgro": 685,
      "ph": 686,
      "itut": 687,
      "Ġafter": 688,
      "Ġexp": 689,
      "Ġ6": 690,
      "Ġob": 691,
      "ĠAs": 692,
      "Ġthese": 693,
      "ices": 694,
      "tain": 695,
      "Ġstud": 696,
      "Ġair": 697,
      "Ġmed": 698,
      "ank": 699,
      "Ġpol": 700,
      "urrent": 701,
      "Ġdevelop": 702,
      "Ġmin": 703,
      "ĠAt": 704,
      "gy": 705,
      "Ġ19": 706,
      "ister": 707,
      "Ġtwo": 708,
      "Ġmon": 709,
      "..": 710,
      "med": 711,
      "Ġoper": 712,
      "oreign": 713,
      "Ġchild": 714,
      "ric": 715,
      "we": 716,
      "Ġcr": 717,
      "are": 718,
      "Ġofficial": 719,
      "Ġintern": 720,
      "Ġmy": 721,
      "Ġbu": 722,
      "Ġonly": 723,
      "ĠSh": 724,
      "Ġcit": 725,
      "Ġwould": 726,
      "ĠHe": 727,
      "ft": 728,
      "Ġwell": 729,
      "ars": 730,
      "Ġrec": 731,
      "resent": 732,
      "olog": 733,
      "ron": 734,
      "Ġdire": 735,
      "ood": 736,
      "akh": 737,
      "Ġdisc": 738,
      "rees": 739,
      "pon": 740,
      "conom": 741,
      "Ġmeet": 742,
      "hip": 743,
      "les": 744,
      "ense": 745,
      "Ġstart": 746,
      "here": 747,
      "ĠAr": 748,
      "ited": 749,
      "Ġed": 750,
      "ram": 751,
      "ĠUkrainian": 752,
      "Ġparticip": 753,
      "ures": 754,
      "now": 755,
      "man": 756,
      "other": 757,
      "Ġplace": 758,
      "Ġbet": 759,
      "ditionally": 760,
      "Ġli": 761,
      "Ġnumber": 762,
      "artment": 763,
      "ency": 764,
      "amp": 765,
      "Ġperson": 766,
      "Ġman": 767,
      "li": 768,
      "Ġchang": 769,
      "ĠWe": 770,
      "Ġinvest": 771,
      "ract": 772,
      "ite": 773,
      "ily": 774,
      "ĠIs": 775,
      "ision": 776,
      "imin": 777,
      "ĠAdditionally": 778,
      "Ġest": 779,
      "Ġbl": 780,
      "Ġ2022": 781,
      "Ġlaw": 782,
      "ax": 783,
      "ĠZ": 784,
      "ives": 785,
      "reat": 786,
      "ool": 787,
      "Ġcitiz": 788,
      "ues": 789,
      "ade": 790,
      "ention": 791,
      "Ġover": 792,
      "Ġmain": 793,
      "ished": 794,
      "Ġac": 795,
      "ener": 796,
      "Ġimport": 797,
      "Ġcomm": 798,
      "Ġloc": 799,
      "ning": 800,
      "Ġcap": 801,
      "ause": 802,
      "Ġorganiz": 803,
      "'t": 804,
      "Ġcompany": 805,
      "ry": 806,
      "rest": 807,
      "Ġdeg": 808,
      "ctor": 809,
      "ets": 810,
      "ists": 811,
      "Ġprovid": 812,
      "iel": 813,
      "Ġneed": 814,
      "Ġgas": 815,
      "Ġincl": 816,
      "Ġteam": 817,
      "ĠEuropean": 818,
      "Ġproject": 819,
      "Ġocc": 820,
      "ousand": 821,
      "day": 822,
      "ffic": 823,
      "ween": 824,
      "Ġ8": 825,
      "Ġeduc": 826,
      "ulation": 827,
      "Ġelect": 828,
      "ility": 829,
      "Ġmeeting": 830,
      "Ġconst": 831,
      "ĠCom": 832,
      "ds": 833,
      "Ġthousand": 834,
      "Ġwin": 835,
      "Ġbetween": 836,
      "Ġra": 837,
      "ĠQ": 838,
      "Ġif": 839,
      "pt": 840,
      "Ġbillion": 841,
      "ather": 842,
      "Ġeven": 843,
      "Ġrem": 844,
      "wn": 845,
      "Ġgovernment": 846,
      "Ġmet": 847,
      "Ġdid": 848,
      "abl": 849,
      "Ġcour": 850,
      "Ġsub": 851,
      "Ġdegrees": 852,
      "ib": 853,
      "Ġcould": 854,
      "Ġreported": 855,
      "Ġconf": 856,
      "Ġfl": 857,
      "ah": 858,
      "lement": 859,
      "ĠBut": 860,
      "sible": 861,
      "ĠAfter": 862,
      "mber": 863,
      "ĠDep": 864,
      "ĠTur": 865,
      "Ġcent": 866,
      "Ġdef": 867,
      "ina": 868,
      "Ġ10": 869,
      "Ġcontin": 870,
      "Ġworld": 871,
      "ants": 872,
      "pr": 873,
      "ral": 874,
      "chool": 875,
      "ĠAl": 876,
      "ever": 877,
      "Ġsoc": 878,
      "Ġcall": 879,
      "ward": 880,
      "ctions": 881,
      "Ġpop": 882,
      "Ġany": 883,
      "itions": 884,
      "ĠRep": 885,
      "de": 886,
      "Ġmonth": 887,
      "aj": 888,
      "ital": 889,
      "Ġestabl": 890,
      "cts": 891,
      "eration": 892,
      "riv": 893,
      "rov": 894,
      "cond": 895,
      "Ġactiv": 896,
      "Ġevery": 897,
      "imes": 898,
      "Ġsupport": 899,
      "Ġspecial": 900,
      "Ġpublic": 901,
      "ĠMinister": 902,
      "Ġrespon": 903,
      "ince": 904,
      "ient": 905,
      "000": 906,
      "Ġrece": 907,
      "Ġ201": 908,
      "ik": 909,
      "Ġhigh": 910,
      "ound": 911,
      "ared": 912,
      "xt": 913,
      "Ġpass": 914,
      "Ġcurrent": 915,
      "ord": 916,
      "Ġheld": 917,
      "Ġdue": 918,
      "uss": 919,
      "Ġright": 920,
      "ried": 921,
      "Ġend": 922,
      ").": 923,
      "Ġshould": 924,
      "ail": 925,
      "airs": 926,
      "Ġlast": 927,
      "Ġpresident": 928,
      "eg": 929,
      "Ġcondu": 930,
      "Ġaut": 931,
      "arch": 932,
      "Ġbr": 933,
      "ty": 934,
      "Ġbuil": 935,
      "Ġdes": 936,
      "get": 937,
      "fore": 938,
      "Ġmany": 939,
      "ouse": 940,
      "pected": 941,
      "Ġexper": 942,
      "ember": 943,
      "uz": 944,
      "Ġmade": 945,
      "Ġimplement": 946,
      "leg": 947,
      "ĠCent": 948,
      "Ġcomple": 949,
      "ases": 950,
      "owing": 951,
      "Ġservice": 952,
      "Ġwhere": 953,
      "ower": 954,
      "ough": 955,
      "Ãµ": 956,
      "Ġinter": 957,
      "Ġwhen": 958,
      "ĠHow": 959,
      "ĠIf": 960,
      "Ġeconom": 961,
      "chn": 962,
      "Ġvery": 963,
      "Ġplay": 964,
      "phas": 965,
      "Ġthose": 966,
      "Ġinternational": 967,
      "Ġ9": 968,
      "Ġemphas": 969,
      "ploy": 970,
      "Ġcre": 971,
      "ting": 972,
      "Ġdem": 973,
      "Ġdoll": 974,
      "Ġmost": 975,
      "ason": 976,
      "ffairs": 977,
      "Ġsec": 978,
      "Ġamount": 979,
      "Ġwhile": 980,
      "ven": 981,
      "Ġvis": 982,
      "ĠGer": 983,
      "ministr": 984,
      "Ġnecess": 985,
      "rem": 986,
      "Ġph": 987,
      "ake": 988,
      "Ġinit": 989,
      "ocu": 990,
      "tic": 991,
      "ĠDe": 992,
      "ise": 993,
      "Ġprev": 994,
      "cl": 995,
      "Ġchildren": 996,
      "ĠRepublic": 997,
      "Ġso": 998,
      "iminal": 999,
      "Ġmay": 1000,
      "ural": 1001,
      "Ġwithin": 1002,
      "Ġ15": 1003,
      "Ġfiel": 1004,
      "Ġnow": 1005,
      "Ġknow": 1006,
      "Ġcor": 1007,
      "iew": 1008,
      "Ġpopulation": 1009,
      "Ġterrit": 1010,
      "Ġplac": 1011,
      "Ġdocu": 1012,
      "Ġstr": 1013,
      "Ġtem": 1014,
      "Ġcitizens": 1015,
      "arly": 1016,
      "osed": 1017,
      "oot": 1018,
      "ĠIntern": 1019,
      "Ġreports": 1020,
      "Ġap": 1021,
      "Ġprocess": 1022,
      "arding": 1023,
      "Ġleg": 1024,
      "eneral": 1025,
      "Ġsays": 1026,
      "Ġarea": 1027,
      "ual": 1028,
      "Ġregions": 1029,
      "rol": 1030,
      "ĠWh": 1031,
      "Ġpur": 1032,
      "Ġdif": 1033,
      "ature": 1034,
      "urity": 1035,
      "str": 1036,
      "fer": 1037,
      "Ġret": 1038,
      "Ġschool": 1039,
      "Ġdecision": 1040,
      "Ġdiscuss": 1041,
      "idered": 1042,
      "Ġgroup": 1043,
      "Ġpress": 1044,
      "Ġmark": 1045,
      "Ġwithout": 1046,
      "Ġagree": 1047,
      "Ġsecond": 1048,
      "ĠKy": 1049,
      "Ġinf": 1050,
      "Ġforeign": 1051,
      "Ġown": 1052,
      "Ġforces": 1053,
      "anu": 1054,
      "Ġconsidered": 1055,
      "Ġopen": 1056,
      "round": 1057,
      "Ġlar": 1058,
      "elf": 1059,
      "uty": 1060,
      "Ġhow": 1061,
      "ĠThere": 1062,
      "Ġprot": 1063,
      "Ġrequ": 1064,
      "ork": 1065,
      "Ġoccur": 1066,
      "Ġturn": 1067,
      "Ġdollars": 1068,
      "Ġdays": 1069,
      "Ġfam": 1070,
      "ission": 1071,
      "Ġdoes": 1072,
      "Ġbeg": 1073,
      "Ġ2023": 1074,
      "ruction": 1075,
      "ivers": 1076,
      "ug": 1077,
      "led": 1078,
      "Ġlike": 1079,
      "ĠState": 1080,
      "Ġpay": 1081,
      "Ġeducation": 1082,
      "Ġbased": 1083,
      "anuary": 1084,
      "uk": 1085,
      "Ġequ": 1086,
      "ĠJanuary": 1087,
      "Ġbus": 1088,
      "ĠDuring": 1089,
      "Ġnecessary": 1090,
      "hes": 1091,
      "Ġareas": 1092,
      "Ġsame": 1093,
      "Ġincrease": 1094,
      "ics": 1095,
      "Ġsent": 1096,
      "20": 1097,
      "atives": 1098,
      "ij": 1099,
      "uding": 1100,
      "Ġsever": 1101,
      "Ġbor": 1102,
      "Ġexpl": 1103,
      "oint": 1104,
      "ful": 1105,
      "ergy": 1106,
      "Ġproble": 1107,
      "ern": 1108,
      "ĠAffairs": 1109,
      "iven": 1110,
      "Ġprovided": 1111,
      "Ġinvestig": 1112,
      "ink": 1113,
      "Ġseveral": 1114,
      "Ġfoll": 1115,
      "chi": 1116,
      "emb": 1117,
      "abor": 1118,
      "Ġwater": 1119,
      "ism": 1120,
      "rael": 1121,
      "utin": 1122,
      "Ġwom": 1123,
      "Ġinstitut": 1124,
      "Ġmat": 1125,
      "Ġbuilding": 1126,
      "Ġ'": 1127,
      "ĠChina": 1128,
      "Ġdel": 1129,
      "Ġmust": 1130,
      "ply": 1131,
      "iness": 1132,
      "Ġaccording": 1133,
      "ows": 1134,
      "read": 1135,
      "Ġexpected": 1136,
      "lear": 1137,
      "way": 1138,
      "orth": 1139,
      "ages": 1140,
      "Ġamong": 1141,
      "Ġrepresent": 1142,
      "ying": 1143,
      "Ġadministr": 1144,
      "Ġanother": 1145,
      "Ġleaders": 1146,
      "Ġmod": 1147,
      "Ġissue": 1148,
      "ĠIsrael": 1149,
      "ĠAb": 1150,
      "ĠUnion": 1151,
      "Ġext": 1152,
      "Ġemphasized": 1153,
      "own": 1154,
      "ivid": 1155,
      "alth": 1156,
      "Ġcer": 1157,
      "Ġins": 1158,
      "Ġmeas": 1159,
      "Ġremain": 1160,
      "ĠPro": 1161,
      "Ġproducts": 1162,
      "Ġsay": 1163,
      "ath": 1164,
      "ĠHowever": 1165,
      "ĠPutin": 1166,
      "ified": 1167,
      "Ġfound": 1168,
      "Ġadv": 1169,
      "Ġcase": 1170,
      "Ġher": 1171,
      "Ġsocial": 1172,
      "Ġnight": 1173,
      "Ġthree": 1174,
      "Ġenter": 1175,
      "Â».": 1176,
      "Ġpolit": 1177,
      "hor": 1178,
      "Ġtake": 1179,
      "Ġser": 1180,
      "Ġnational": 1181,
      "Ġtechn": 1182,
      "Ġuse": 1183,
      "Ġworking": 1184,
      "Ġcarried": 1185,
      "oney": 1186,
      "my": 1187,
      "ines": 1188,
      "Ġemploy": 1189,
      "sive": 1190,
      "Ġwhat": 1191,
      "iod": 1192,
      "ĠSam": 1193,
      "...": 1194,
      "Ġgu": 1195,
      "Ġfield": 1196,
      "Ġvar": 1197,
      "its": 1198,
      "Ġsom": 1199,
      "ĠEn": 1200,
      "Ġrelated": 1201,
      "Ġform": 1202,
      "til": 1203,
      "The": 1204,
      "Ġprog": 1205,
      "ĠKaz": 1206,
      "Ġregarding": 1207,
      "Ġeff": 1208,
      "Ġplaces": 1209,
      "tal": 1210,
      "ution": 1211,
      "Ġmoney": 1212,
      "rep": 1213,
      "ept": 1214,
      "ĠThey": 1215,
      "Ġneg": 1216,
      "sec": 1217,
      "Ġful": 1218,
      "Ġperiod": 1219,
      "Ġgoal": 1220,
      "iet": 1221,
      "iol": 1222,
      "Ġjust": 1223,
      "ĠKh": 1224,
      "uman": 1225,
      "Ġprep": 1226,
      "Ġsignific": 1227,
      "iver": 1228,
      "Ġtaken": 1229,
      "ately": 1230,
      "ked": 1231,
      "Ġattack": 1232,
      "eb": 1233,
      "Ġcol": 1234,
      "olv": 1235,
      "ret": 1236,
      "Ġve": 1237,
      "ison": 1238,
      "ived": 1239,
      "ĠPr": 1240,
      "Ġcourt": 1241,
      "operation": 1242,
      "Ġpower": 1243,
      "Ġyour": 1244,
      "Ġinte": 1245,
      "Ġcontrol": 1246,
      "Ġcalled": 1247,
      "ĠKazakh": 1248,
      "gency": 1249,
      "Ġbegin": 1250,
      "ings": 1251,
      "ĠDepartment": 1252,
      "unity": 1253,
      "iving": 1254,
      "Ġinterest": 1255,
      "ran": 1256,
      "urs": 1257,
      "ĠMir": 1258,
      "arm": 1259,
      "ss": 1260,
      "Ġfund": 1261,
      "ize": 1262,
      "asing": 1263,
      "ands": 1264,
      "Ġactivities": 1265,
      "Ġprop": 1266,
      "ered": 1267,
      "Ġaround": 1268,
      "view": 1269,
      "ization": 1270,
      "Ġlong": 1271,
      "Ġgiven": 1272,
      "Ġmiss": 1273,
      "ife": 1274,
      "Ġimportant": 1275,
      "oyev": 1276,
      "ured": 1277,
      "Ġlevel": 1278,
      "Ġsold": 1279,
      "Ġreturn": 1280,
      "Ġ12": 1281,
      "ruct": 1282,
      "Ġsur": 1283,
      "Ġhel": 1284,
      "ayev": 1285,
      "oth": 1286,
      "\".": 1287,
      "Ġsince": 1288,
      "Ġactions": 1289,
      "ĠAnd": 1290,
      "Ġgood": 1291,
      "Ġmarket": 1292,
      "secut": 1293,
      "ick": 1294,
      "cil": 1295,
      "bor": 1296,
      "Ġadd": 1297,
      "Ġpa": 1298,
      "Ġaddition": 1299,
      "Ġtemper": 1300,
      "Ġlaun": 1301,
      "\",": 1302,
      "Ġservices": 1303,
      "ĠKazakhstan": 1304,
      "Ġcond": 1305,
      "Ġwant": 1306,
      "Ġposition": 1307,
      "Ġrele": 1308,
      "Ġiniti": 1309,
      "Ġsan": 1310,
      "Ġtook": 1311,
      "Ġ11": 1312,
      "Ġnext": 1313,
      "ĠSec": 1314,
      "Ġroad": 1315,
      "Ġhig": 1316,
      "Â»,": 1317,
      "uch": 1318,
      "Ġregional": 1319,
      "Ġestablished": 1320,
      "Ġvarious": 1321,
      "rene": 1322,
      "Ġsum": 1323,
      "Ġappe": 1324,
      "Ġopport": 1325,
      "Ġincreased": 1326,
      "reprene": 1327,
      "Ġindivid": 1328,
      "Ġweather": 1329,
      "Ġtimes": 1330,
      "ĠCentral": 1331,
      "Ġbecome": 1332,
      "ically": 1333,
      "Ġsignificant": 1334,
      "ĠAsi": 1335,
      "Ġbegan": 1336,
      "ober": 1337,
      "Ġleft": 1338,
      "Ġbefore": 1339,
      "Ġincluding": 1340,
      "Ġconducted": 1341,
      "ange": 1342,
      "Ġhelp": 1343,
      "Ġgame": 1344,
      "istance": 1345,
      "ĠSa": 1346,
      "Ġens": 1347,
      "Ġenergy": 1348,
      "Ġleader": 1349,
      "ton": 1350,
      "Ġauthor": 1351,
      "Ġmeasures": 1352,
      "ator": 1353,
      "Ġmonths": 1354,
      "Ġfoot": 1355,
      "mitte": 1356,
      "Ġoff": 1357,
      "ouncil": 1358,
      "ĠUnited": 1359,
      "ĠCr": 1360,
      "Ġindic": 1361,
      "anned": 1362,
      "ĠMay": 1363,
      "Ġpossible": 1364,
      "cing": 1365,
      "Ġtax": 1366,
      "Ġhouse": 1367,
      "pect": 1368,
      "Ġlarge": 1369,
      "eptember": 1370,
      "Ġbod": 1371,
      "ute": 1372,
      "ĠMirz": 1373,
      "ection": 1374,
      "Ġweek": 1375,
      "ky": 1376,
      "ova": 1377,
      "Ġquest": 1378,
      "Ġviol": 1379,
      "Ġset": 1380,
      "Ġelectric": 1381,
      "mittee": 1382,
      "Ġthen": 1383,
      "Ġfact": 1384,
      "Ġtemperature": 1385,
      "ians": 1386,
      "ave": 1387,
      "arkand": 1388,
      "Ġfac": 1389,
      "key": 1390,
      "ticle": 1391,
      "Ġspeed": 1392,
      "ees": 1393,
      "Ġbecause": 1394,
      "ĠSeptember": 1395,
      "Ġcooperation": 1396,
      "Ġissues": 1397,
      "feren": 1398,
      "Ġread": 1399,
      "Ġ18": 1400,
      "Ġvict": 1401,
      "Ġwind": 1402,
      "Ġconstruction": 1403,
      "Ġappro": 1404,
      "ĠBel": 1405,
      "Ġcriminal": 1406,
      "aged": 1407,
      "raft": 1408,
      "Ġshe": 1409,
      "ook": 1410,
      "Ġvide": 1411,
      "ĠMarch": 1412,
      "ality": 1413,
      "Ġofficials": 1414,
      "ijan": 1415,
      "outh": 1416,
      "ĠSamarkand": 1417,
      "TO": 1418,
      "ises": 1419,
      "Ġorder": 1420,
      "reed": 1421,
      "Ġsal": 1422,
      "Ġprom": 1423,
      "ĠLe": 1424,
      "Ġoccurred": 1425,
      "Ġ30": 1426,
      "ck": 1427,
      "ner": 1428,
      "Ġfollowing": 1429,
      "cip": 1430,
      "Ġcases": 1431,
      "Ġterritory": 1432,
      "Ġsm": 1433,
      "els": 1434,
      "Ġcontract": 1435,
      "Ġstudents": 1436,
      "Ġentreprene": 1437,
      "ross": 1438,
      "Ġneigh": 1439,
      "Ġmedia": 1440,
      "ience": 1441,
      "ĠTe": 1442,
      "Ġagreement": 1443,
      "Ġrelations": 1444,
      "ctober": 1445,
      "Ġref": 1446,
      "Ġtotal": 1447,
      "Ġtransport": 1448,
      "ĠGerm": 1449,
      "year": 1450,
      "ources": 1451,
      "Ġequip": 1452,
      "Ġstop": 1453,
      "ĠMos": 1454,
      "Ġdevelopment": 1455,
      "ball": 1456,
      "ovember": 1457,
      "wards": 1458,
      "Ġused": 1459,
      "ajor": 1460,
      "ĠJu": 1461,
      "go": 1462,
      "Ġredu": 1463,
      "alf": 1464,
      "ourn": 1465,
      "ten": 1466,
      "ĠKun": 1467,
      "meric": 1468,
      "hic": 1469,
      "rat": 1470,
      "Ġ+": 1471,
      "Ġlocal": 1472,
      "anies": 1473,
      "Ġweap": 1474,
      "Ġ2021": 1475,
      "ĠOctober": 1476,
      "Ġcoll": 1477,
      "une": 1478,
      "cember": 1479,
      "Ġexpress": 1480,
      "Ġuntil": 1481,
      "ĠKar": 1482,
      "Ġ16": 1483,
      "Ġsupply": 1484,
      "Ġtrain": 1485,
      "Ġsanctions": 1486,
      "Ġachi": 1487,
      "ended": 1488,
      "Ġcaus": 1489,
      "Ġcompet": 1490,
      "Ġvehic": 1491,
      "Ġinclud": 1492,
      "ĠNovember": 1493,
      "uals": 1494,
      "cow": 1495,
      "ĠForeign": 1496,
      "Ġdocuments": 1497,
      "Ġaim": 1498,
      "ĠAmeric": 1499,
      "ĠAf": 1500,
      "ports": 1501,
      "Ġtas": 1502,
      "sib": 1503,
      "Ġ14": 1504,
      "Ġcompanies": 1505,
      "Ġ200": 1506,
      "ĠRe": 1507,
      "oti": 1508,
      "Ġdriv": 1509,
      "ĠDecember": 1510,
      "rodu": 1511,
      "Ġvisit": 1512,
      "Ġinj": 1513,
      "ruary": 1514,
      "ebruary": 1515,
      "secutor": 1516,
      "ĠPol": 1517,
      "ached": 1518,
      "Ġmajor": 1519,
      "ames": 1520,
      "Ġstarted": 1521,
      "Ġhuman": 1522,
      "mission": 1523,
      "Ġcenter": 1524,
      "ĠMoscow": 1525,
      "Ġfire": 1526,
      "ĠTurkey": 1527,
      "ional": 1528,
      "Ġstri": 1529,
      "idd": 1530,
      "Ġdepartment": 1531,
      "Ġalloc": 1532,
      "ample": 1533,
      "ĠDef": 1534,
      "ĠJuly": 1535,
      "iversity": 1536,
      "ĠFebruary": 1537,
      "land": 1538,
      "Ġeach": 1539,
      "reng": 1540,
      "ĠGermany": 1541,
      "embers": 1542,
      "not": 1543,
      "Ġneighbor": 1544,
      "hers": 1545,
      "Ġlocated": 1546,
      "anks": 1547,
      "aking": 1548,
      "ĠCon": 1549,
      "Ġobs": 1550,
      "Ġeconomic": 1551,
      "Ġdam": 1552,
      "ger": 1553,
      "lin": 1554,
      "Ġconditions": 1555,
      "Ġinstitutions": 1556,
      "Ġ13": 1557,
      "ilities": 1558,
      "Ġbecame": 1559,
      "Ġland": 1560,
      "ex": 1561,
      "Ġexample": 1562,
      "Ġscore": 1563,
      "mitted": 1564,
      "iously": 1565,
      "Ġfinan": 1566,
      "etw": 1567,
      "ara": 1568,
      "stitut": 1569,
      "illed": 1570,
      "Ġplan": 1571,
      "Ġsector": 1572,
      "Ġstreng": 1573,
      "Ġ$": 1574,
      "over": 1575,
      "ired": 1576,
      "ular": 1577,
      "Ġaccount": 1578,
      "12": 1579,
      "tion": 1580,
      "Ġstatement": 1581,
      "Ġfight": 1582,
      "Ġtal": 1583,
      "aly": 1584,
      "ird": 1585,
      "Ġbusiness": 1586,
      "ode": 1587,
      "Ġstates": 1588,
      "osp": 1589,
      "ĠGeneral": 1590,
      "Ġlist": 1591,
      "Ġval": 1592,
      "ll": 1593,
      "Ġproduction": 1594,
      "Ġconv": 1595,
      "eve": 1596,
      "Ġpresent": 1597,
      "Ġboth": 1598,
      "att": 1599,
      "Ġgra": 1600,
      "ĠNA": 1601,
      "Ġwrit": 1602,
      "orld": 1603,
      "rib": 1604,
      "Ġpriv": 1605,
      "Ġhist": 1606,
      "Ġdeter": 1607,
      "Ġarmy": 1608,
      "Ġcontinue": 1609,
      "Ġmembers": 1610,
      "Ġintrodu": 1611,
      "ournal": 1612,
      "ĠJune": 1613,
      "Ġtransfer": 1614,
      "Ġclub": 1615,
      "men": 1616,
      "line": 1617,
      "Ġhapp": 1618,
      "ability": 1619,
      "Ġformer": 1620,
      "ĠAm": 1621,
      "pril": 1622,
      "Ġincident": 1623,
      "Ġnegoti": 1624,
      "ront": 1625,
      "Ġevent": 1626,
      "lict": 1627,
      "Ġcome": 1628,
      "ness": 1629,
      "Ġindividuals": 1630,
      "Ġ25": 1631,
      "Ġreceived": 1632,
      "ugust": 1633,
      "Ġprice": 1634,
      "Ġadministration": 1635,
      "ĠFrom": 1636,
      "Ġdefense": 1637,
      "ĠDefense": 1638,
      "...+": 1639,
      "ued": 1640,
      "Ġmedical": 1641,
      "ched": 1642,
      "Ġexch": 1643,
      "Ġfamily": 1644,
      "Ġ17": 1645,
      "ĠWorld": 1646,
      "Ġdown": 1647,
      "Ġget": 1648,
      "Ġfootball": 1649,
      "ology": 1650,
      "Ġexam": 1651,
      "ock": 1652,
      "Ġlegal": 1653,
      "Ġborder": 1654,
      "io": 1655,
      "Ġfe": 1656,
      "ficult": 1657,
      "Ġweapons": 1658,
      "erb": 1659,
      "ĠKyiv": 1660,
      "Ġvol": 1661,
      "ĠX": 1662,
      "Ġcapital": 1663,
      "Ġsecurity": 1664,
      "hood": 1665,
      "Ġshort": 1666,
      "sh": 1667,
      "Ġcertain": 1668,
      "Ġstill": 1669,
      "Ġpolitical": 1670,
      "ĠAugust": 1671,
      "ĠApril": 1672,
      "Ġcurrently": 1673,
      "ories": 1674,
      "Ġspec": 1675,
      "Ġdifficult": 1676,
      "Ġapplic": 1677,
      "Ġeng": 1678,
      "Ġchar": 1679,
      "Ġsigned": 1680,
      "iyoyev": 1681,
      "Ġopp": 1682,
      "Ġresults": 1683,
      "Ġchann": 1684,
      "Ġobserv": 1685,
      "Ġnetw": 1686,
      "ĠIran": 1687,
      "ĠInternal": 1688,
      "rup": 1689,
      "Ġmeters": 1690,
      "Ġmention": 1691,
      "ators": 1692,
      "arl": 1693,
      "Ġreason": 1694,
      "ually": 1695,
      "Ġvideo": 1696,
      "Ġche": 1697,
      "Ġoil": 1698,
      "ĠCouncil": 1699,
      "ĠMirziyoyev": 1700,
      "Ġorganization": 1701,
      "ences": 1702,
      "ĠUN": 1703,
      "rab": 1704,
      "self": 1705,
      "Ġce": 1706,
      "Ġconcl": 1707,
      "Ġrights": 1708,
      "Ġwon": 1709,
      "Ġprojects": 1710,
      "ĠTurk": 1711,
      "Ġlife": 1712,
      "Ġbeginning": 1713,
      "Ġsol": 1714,
      "iers": 1715,
      "ĠSe": 1716,
      "ference": 1717,
      "Ġtowards": 1718,
      "ners": 1719,
      "ĠFr": 1720,
      "Ġoperation": 1721,
      "Ġwomen": 1722,
      "udget": 1723,
      "ind": 1724,
      "Ġident": 1725,
      "Ġbro": 1726,
      "gest": 1727,
      "Ġchanges": 1728,
      "Ġhigher": 1729,
      "Ġplanned": 1730,
      "Ġpurch": 1731,
      "itation": 1732,
      "Ġevents": 1733,
      "Ġprogram": 1734,
      "ĠNATO": 1735,
      "Ġincreasing": 1736,
      "Ġback": 1737,
      "ix": 1738,
      "ped": 1739,
      "Ġfut": 1740,
      "aryo": 1741,
      "Ġoffice": 1742,
      "Ġrepublic": 1743,
      "Ġproblems": 1744,
      "Ġtrade": 1745,
      "Ġprof": 1746,
      "ĠCommittee": 1747,
      "cept": 1748,
      "ateg": 1749,
      "Ġmeans": 1750,
      "Ġmove": 1751,
      "Ġprices": 1752,
      "Ġadditional": 1753,
      "oz": 1754,
      "Ġrepresentatives": 1755,
      "Ġwords": 1756,
      "Ġchange": 1757,
      "ĠOr": 1758,
      "Ġway": 1759,
      "then": 1760,
      "Ġseason": 1761,
      "Ġcannot": 1762,
      "ustom": 1763,
      "kat": 1764,
      "ĠAz": 1765,
      "urrently": 1766,
      "enal": 1767,
      "aw": 1768,
      "Ġstated": 1769,
      "ised": 1770,
      "augh": 1771,
      "arli": 1772,
      "ĠZel": 1773,
      "Ġyoun": 1774,
      "ĠWhen": 1775,
      "Ġ24": 1776,
      "ways": 1777,
      "Ġbank": 1778,
      "ĠShav": 1779,
      "arlier": 1780,
      "Ġsou": 1781,
      "Ġfunds": 1782,
      "Ġorganizations": 1783,
      "ĠTr": 1784,
      "ĠZelens": 1785,
      "Ġgr": 1786,
      "ĠShavkat": 1787,
      "Ġfuture": 1788,
      "Ġtest": 1789,
      "ey": 1790,
      "sk": 1791,
      "Ġsim": 1792,
      "Ġreached": 1793,
      "Ġrest": 1794,
      "com": 1795,
      "Ġdiscussed": 1796,
      "bass": 1797,
      "Ġstrengthen": 1798,
      "We": 1799,
      "ological": 1800,
      "Ġfront": 1801,
      "Ġtop": 1802,
      "tained": 1803,
      "Ġbas": 1804,
      "used": 1805,
      "ham": 1806,
      "Ġele": 1807,
      "ĠKore": 1808,
      "ivil": 1809,
      "ecause": 1810,
      "Ġhalf": 1811,
      "ĠServ": 1812,
      "sibility": 1813,
      "Ġestablish": 1814,
      "Ġfour": 1815,
      "Ġrecent": 1816,
      "Ġstre": 1817,
      "ering": 1818,
      "Ġmov": 1819,
      "Ġtaking": 1820,
      "Ġbo": 1821,
      "Ġeffect": 1822,
      "Ġdecre": 1823,
      "Ġconflict": 1824,
      "Ġdest": 1825,
      "obal": 1826,
      "ĠReg": 1827,
      "Ġes": 1828,
      "Ġty": 1829,
      "unic": 1830,
      "Ġdeath": 1831,
      "ged": 1832,
      "thing": 1833,
      "ĠUZ": 1834,
      "Ġnegotiations": 1835,
      "Ġgl": 1836,
      "ĠWhat": 1837,
      "pecial": 1838,
      "Ġmater": 1839,
      "ague": 1840,
      "Ġdied": 1841,
      "ond": 1842,
      "Ġmake": 1843,
      "Ġopportunity": 1844,
      "Ġdev": 1845,
      "ull": 1846,
      "ccess": 1847,
      "angu": 1848,
      "uclear": 1849,
      "ĠInternational": 1850,
      "tific": 1851,
      "Ġeuro": 1852,
      "ĠFin": 1853,
      "Ġprovide": 1854,
      "ĠCode": 1855,
      "Ġindu": 1856,
      "Ġresident": 1857,
      "Ġdr": 1858,
      "Ġnews": 1859,
      "por": 1860,
      "Ġtraffic": 1861,
      "Ġnoted": 1862,
      "Ġjournal": 1863,
      "Ġside": 1864,
      "Ġnearly": 1865,
      "Ġcomplete": 1866,
      "ĠBecause": 1867,
      "Ġav": 1868,
      "Ġopin": 1869,
      "ti": 1870,
      "Ġconsid": 1871,
      "Ġcame": 1872,
      "Ġteac": 1873,
      "icy": 1874,
      "ves": 1875,
      "Ġinvestigation": 1876,
      "Ġvehicles": 1877,
      "Ġ100": 1878,
      "ampions": 1879,
      "ĠCurrently": 1880,
      "Ġarrest": 1881,
      "Ġdirect": 1882,
      "Ġdeliver": 1883,
      "Ġadop": 1884,
      "Ġaway": 1885,
      "Ġequipment": 1886,
      "Ġconsum": 1887,
      "Ġattention": 1888,
      "ĠInd": 1889,
      "ultural": 1890,
      "Ġemer": 1891,
      "nel": 1892,
      "Ġtoday": 1893,
      "Ġinvolv": 1894,
      "Ġassistance": 1895,
      "Ġ0": 1896,
      "ards": 1897,
      "retary": 1898,
      "Ġpract": 1899,
      "Ġhealth": 1900,
      "roved": 1901,
      "ĠNav": 1902,
      "Ġenv": 1903,
      "SC": 1904,
      "Ġdet": 1905,
      "Ġmentioned": 1906,
      "Ġ21": 1907,
      "ising": 1908,
      "Ç§": 1909,
      "ĠUZS": 1910,
      "oh": 1911,
      "ium": 1912,
      "iation": 1913,
      "ensive": 1914,
      "lad": 1915,
      "Ġpoin": 1916,
      "Ġmob": 1917,
      "epend": 1918,
      "Ġmight": 1919,
      "arlia": 1920,
      "Ġfree": 1921,
      "Ġsus": 1922,
      "Ġdeputy": 1923,
      "aring": 1924,
      "ots": 1925,
      "Ġdat": 1926,
      "ĠStates": 1927,
      "Ġinterview": 1928,
      "Ġprevent": 1929,
      "ĠArticle": 1930,
      "isters": 1931,
      "Ġagency": 1932,
      "izing": 1933,
      "Ġemployees": 1934,
      "uf": 1935,
      "Ġcrit": 1936,
      "arily": 1937,
      "urther": 1938,
      "Ġallow": 1939,
      "Ġconfir": 1940,
      "Ġpeace": 1941,
      "ends": 1942,
      "Ġ50": 1943,
      "Ġyoung": 1944,
      "aster": 1945,
      "rop": 1946,
      "Ġflight": 1947,
      "Ġdirection": 1948,
      "Ġconn": 1949,
      "Ġsee": 1950,
      "Ġpolice": 1951,
      "ukh": 1952,
      "Ġenterpr": 1953,
      "ĠArab": 1954,
      "Ġhere": 1955,
      "most": 1956,
      "Ġbudget": 1957,
      "rgy": 1958,
      "rgyz": 1959,
      "Ġtour": 1960,
      "Ġtar": 1961,
      "Ġfood": 1962,
      "hest": 1963,
      "Ġrecord": 1964,
      "arus": 1965,
      "Ġhosp": 1966,
      "Ġexchange": 1967,
      "In": 1968,
      "Ġsoldiers": 1969,
      "Ġben": 1970,
      "Ġfinancial": 1971,
      "Ġcars": 1972,
      "Ġpres": 1973,
      "ĠFed": 1974,
      "Ġworks": 1975,
      "ĠNew": 1976,
      "Ġoperations": 1977,
      "ĠBank": 1978,
      "Ġexpressed": 1979,
      "ĠBrit": 1980,
      "Ġnuclear": 1981,
      "Ġbel": 1982,
      "arliament": 1983,
      "Ġhour": 1984,
      "Ġquestion": 1985,
      "reen": 1986,
      "ĠUSA": 1987,
      "rd": 1988,
      "ceed": 1989,
      "Ġconduct": 1990,
      "Ġthreat": 1991,
      "ims": 1992,
      "Ġ22": 1993,
      "Ġobserved": 1994,
      "Ġmodern": 1995,
      "ĠPrime": 1996,
      "Ġsoums": 1997,
      "Ġeuros": 1998,
      "ie": 1999,
      "Ġcitizen": 2000,
      "Ġmuch": 2001,
      "ĠNational": 2002,
      "ulture": 2003,
      "iyev": 2004,
      "Ġleast": 2005,
      "Ġnat": 2006,
      "Ġlaunched": 2007,
      "ĠDon": 2008,
      "Ġmaterial": 2009,
      "Ġdocument": 2010,
      "Ġprison": 2011,
      "lom": 2012,
      "ale": 2013,
      "ending": 2014,
      "utes": 2015,
      "ony": 2016,
      "sel": 2017,
      "ĠFer": 2018,
      "Ġfall": 2019,
      "Ġlangu": 2020,
      "vant": 2021,
      "Ġbeli": 2022,
      "Ġliving": 2023,
      "Ġsystems": 2024,
      "ai": 2025,
      "Ġsuccess": 2026,
      "Ġcivil": 2027,
      "ĠDeputy": 2028,
      "Ġhand": 2029,
      "Ġpersonnel": 2030,
      "10": 2031,
      "ĠKyrgyz": 2032,
      "ructure": 2033,
      "ĠGaz": 2034,
      "Ġvot": 2035,
      "anc": 2036,
      "ĠBelarus": 2037,
      "ĠSecurity": 2038,
      "ghan": 2039,
      "ges": 2040,
      "Ġentrepreneurs": 2041,
      "Ġcustom": 2042,
      "Ġstrong": 2043,
      "Ġinfl": 2044,
      "ĠAbd": 2045,
      "ĠZelensky": 2046,
      "Ġpost": 2047,
      "ially": 2048,
      "Ġpurp": 2049,
      "ained": 2050,
      "Ġdemand": 2051,
      "iron": 2052,
      "Ġarmed": 2053,
      "Ġold": 2054,
      "ĠAgency": 2055,
      "Ġmother": 2056,
      "Ġel": 2057,
      "Ġfore": 2058,
      "Ġcomplex": 2059,
      "mon": 2060,
      "ctors": 2061,
      "Ġcollabor": 2062,
      "irl": 2063,
      "Ġusing": 2064,
      "ĠSp": 2065,
      "Ġname": 2066,
      "ĠGerman": 2067,
      "ession": 2068,
      "cipitation": 2069,
      "selves": 2070,
      "Ġprecipitation": 2071,
      "Ġgrow": 2072,
      "Ġelectricity": 2073,
      "Ġdesign": 2074,
      "Ġstand": 2075,
      "Ġaff": 2076,
      "Ġ23": 2077,
      "Ġcal": 2078,
      "esp": 2079,
      "Ġresponse": 2080,
      "Ġneighborhood": 2081,
      "isl": 2082,
      "Ġproblem": 2083,
      "illeg": 2084,
      "Ġconc": 2085,
      "ĠEarlier": 2086,
      "Ġfram": 2087,
      "Ġallocated": 2088,
      "eters": 2089,
      "Ġchannel": 2090,
      "idence": 2091,
      "Ġpropos": 2092,
      "Ġorganized": 2093,
      "Ġtons": 2094,
      "Ġregul": 2095,
      "strict": 2096,
      "Ġpat": 2097,
      "Ġrelevant": 2098,
      "ogn": 2099,
      "Ġgovernor": 2100,
      "reme": 2101,
      "vest": 2102,
      "ĠOffic": 2103,
      "aff": 2104,
      "Ġgreat": 2105,
      "ubl": 2106,
      "Ġclose": 2107,
      "ĠVlad": 2108,
      "king": 2109,
      "Ġrestrict": 2110,
      "stry": 2111,
      "Ġstat": 2112,
      "Ġlos": 2113,
      "Ġwhy": 2114,
      "Ġput": 2115,
      "cies": 2116,
      "Ġ199": 2117,
      "ĠMar": 2118,
      "Ġkilled": 2119,
      "Ġinstall": 2120,
      "Ġpoints": 2121,
      "igr": 2122,
      "Ġjoint": 2123,
      "Ġthough": 2124,
      "estern": 2125,
      "Ġhappen": 2126,
      "iety": 2127,
      "Ġworth": 2128,
      "Ġproper": 2129,
      "Ġyet": 2130,
      "Ġbecom": 2131,
      "iles": 2132,
      "Ġdon": 2133,
      "Ġimplemented": 2134,
      "Ġmatter": 2135,
      "ĠCriminal": 2136,
      "Ġhome": 2137,
      "Ġschools": 2138,
      "Ġeas": 2139,
      "Ġfurther": 2140,
      "Ġwhe": 2141,
      "Ġalong": 2142,
      "ĠAfghan": 2143,
      "hib": 2144,
      "isting": 2145,
      "ĠJap": 2146,
      "Ġfive": 2147,
      "Ġlabor": 2148,
      "ier": 2149,
      "Ġround": 2150,
      "Ġnear": 2151,
      "Ġilleg": 2152,
      "ring": 2153,
      "Ġindepend": 2154,
      "Ġdetermin": 2155,
      "Ġdeb": 2156,
      "Ġexport": 2157,
      "Ġeast": 2158,
      "rought": 2159,
      "ĠService": 2160,
      "ively": 2161,
      "Ġris": 2162,
      "ukhara": 2163,
      "ination": 2164,
      "irc": 2165,
      "Ġlet": 2166,
      "gana": 2167,
      "Ġled": 2168,
      "Ġscient": 2169,
      "Ġpassen": 2170,
      "Ġconvers": 2171,
      "Ġfully": 2172,
      "Ġsl": 2173,
      "Ġserious": 2174,
      "Ġnatural": 2175,
      "ving": 2176,
      "ned": 2177,
      "Ġsell": 2178,
      "30": 2179,
      "Ġdata": 2180,
      "ferent": 2181,
      "Ġleading": 2182,
      "airman": 2183,
      "Ġplant": 2184,
      "Ġwent": 2185,
      "Uzbek": 2186,
      "ĠUniversity": 2187,
      "ko": 2188,
      "Ġvill": 2189,
      "ĠCenter": 2190,
      "uties": 2191,
      "Ġobject": 2192,
      "Ġeconomy": 2193,
      "Ġrul": 2194,
      "cast": 2195,
      "ework": 2196,
      "Ġjoin": 2197,
      "agement": 2198,
      "orts": 2199,
      "Ġpaid": 2200,
      "imir": 2201,
      "Ġreal": 2202,
      "Ġrequire": 2203,
      "Ġbuildings": 2204,
      "imov": 2205,
      "Ġdeveloping": 2206,
      "ume": 2207,
      "Ġdecree": 2208,
      "Ġprotect": 2209,
      "Ġapproved": 2210,
      "que": 2211,
      "iden": 2212,
      "acks": 2213,
      "Ġframework": 2214,
      "Ġpubl": 2215,
      "ĠAmerican": 2216,
      "Ġblows": 2217,
      "ĠSup": 2218,
      "Ġwoman": 2219,
      "urg": 2220,
      "ided": 2221,
      "ka": 2222,
      "craft": 2223,
      "oday": 2224,
      "ĠEven": 2225,
      "Ġrate": 2226,
      "Ġthink": 2227,
      "Ġhistory": 2228,
      "ys": 2229,
      "Ġpenal": 2230,
      "ufact": 2231,
      "iplom": 2232,
      "Ġmember": 2233,
      "hing": 2234,
      "cel": 2235,
      "ĠFergana": 2236,
      "ĠBukhara": 2237,
      "pa": 2238,
      "arian": 2239,
      "Ġfar": 2240,
      "Ġpo": 2241,
      "ĠSer": 2242,
      "Ġcities": 2243,
      "ĠVladimir": 2244,
      "arth": 2245,
      "ready": 2246,
      "row": 2247,
      "Ġhol": 2248,
      "alp": 2249,
      "for": 2250,
      "Ġpot": 2251,
      "ĠEx": 2252,
      "Ġappoin": 2253,
      "enced": 2254,
      "ude": 2255,
      "Ġneeds": 2256,
      "Ġline": 2257,
      "ĠOne": 2258,
      "Ġmanufact": 2259,
      "ĠTra": 2260,
      "ror": 2261,
      "ĠBl": 2262,
      "Ġparticipate": 2263,
      "Ġexperts": 2264,
      "af": 2265,
      "emic": 2266,
      "Ġreach": 2267,
      "bs": 2268,
      "igence": 2269,
      "Ġkil": 2270,
      "atory": 2271,
      "Ġrecogn": 2272,
      "iting": 2273,
      "Ġlo": 2274,
      "ĠAsian": 2275,
      "Ġcoming": 2276,
      "par": 2277,
      "ane": 2278,
      "itor": 2279,
      "Ġparticipated": 2280,
      "rote": 2281,
      "ety": 2282,
      "Ġresponsible": 2283,
      "eor": 2284,
      "Ġclear": 2285,
      "ĠKarak": 2286,
      "Ġproviding": 2287,
      "Ġcaused": 2288,
      "Ġdeveloped": 2289,
      "ament": 2290,
      "Ġlater": 2291,
      "ĠKorea": 2292,
      "Ġshow": 2293,
      "ech": 2294,
      "Ġglobal": 2295,
      "Ġquality": 2296,
      "Ġbeh": 2297,
      "Ġensure": 2298,
      "omm": 2299,
      "Ġasked": 2300,
      "Ġalready": 2301,
      "Ġcondition": 2302,
      "alpak": 2303,
      "Ġpolicy": 2304,
      "Ġinitiated": 2305,
      "ĠAss": 2306,
      "road": 2307,
      "ĠJSC": 2308,
      "Ġarriv": 2309,
      "Ġbrought": 2310,
      "ĠKarakalpak": 2311,
      "ĠNow": 2312,
      "Ġren": 2313,
      "Ġstarting": 2314,
      "ĠLeague": 2315,
      "Ġhospital": 2316,
      "Ġgames": 2317,
      "ĠKyrgyzstan": 2318,
      "Ġremin": 2319,
      "Ġfinal": 2320,
      "Ġlost": 2321,
      "Ġattem": 2322,
      "ĠAsia": 2323,
      "ior": 2324,
      "Ġ27": 2325,
      "Ġopinion": 2326,
      "ounter": 2327,
      "fety": 2328,
      "Ġplans": 2329,
      "Ġjob": 2330,
      "ironment": 2331,
      "ĠEng": 2332,
      "Ġcomb": 2333,
      "Ġthird": 2334,
      "Ġago": 2335,
      "ĠBiden": 2336,
      "Ġgeneral": 2337,
      "Ġcost": 2338,
      "arya": 2339,
      "Ġaimed": 2340,
      "Ġappointed": 2341,
      "encies": 2342,
      "mat": 2343,
      "ĠJapan": 2344,
      "Ġcirc": 2345,
      "the": 2346,
      "ĠDue": 2347,
      "ĠYou": 2348,
      "Ġleave": 2349,
      "sequ": 2350,
      "Ġterms": 2351,
      "Ġborn": 2352,
      "Ġintroduced": 2353,
      "ĠSw": 2354,
      "ests": 2355,
      "Ġprivate": 2356,
      "anding": 2357,
      "Ġonce": 2358,
      "less": 2359,
      "rip": 2360,
      "ĠPe": 2361,
      "ential": 2362,
      "Ġwrote": 2363,
      "Ġleadership": 2364,
      "Ġpartners": 2365,
      "rast": 2366,
      "ery": 2367,
      "Ġsmall": 2368,
      "Ġadopted": 2369,
      "AS": 2370,
      "Ġgirl": 2371,
      "istics": 2372,
      "Ġsummit": 2373,
      "Ġlim": 2374,
      "Ġreform": 2375,
      "orks": 2376,
      "Ġproced": 2377,
      "cement": 2378,
      "ung": 2379,
      "Ġcare": 2380,
      "50": 2381,
      "ĠMed": 2382,
      "Ġmult": 2383,
      "Ġtro": 2384,
      "ĠWith": 2385,
      "Ġaddress": 2386,
      "Ġunderst": 2387,
      "Ġdiplom": 2388,
      "ĠMy": 2389,
      "verage": 2390,
      "Ġdecl": 2391,
      "Ġmass": 2392,
      "Ġhaving": 2393,
      "kh": 2394,
      "ĠToday": 2395,
      "Ġgoals": 2396,
      "ĠGo": 2397,
      "ifically": 2398,
      "erba": 2399,
      "erbaijan": 2400,
      "asion": 2401,
      "Ġrepresentative": 2402,
      "Ġvolume": 2403,
      "na": 2404,
      "ĠEconom": 2405,
      "Ġ2020": 2406,
      "Ġmor": 2407,
      "Ġcompletely": 2408,
      "Ġoccup": 2409,
      "mp": 2410,
      "Ġthemselves": 2411,
      "ury": 2412,
      "elligence": 2413,
      "SR": 2414,
      "ĠAndijan": 2415,
      "Ġarrested": 2416,
      "Ġ28": 2417,
      "Ġlanguage": 2418,
      "ĠGaza": 2419,
      "Ġsources": 2420,
      "osition": 2421,
      "Ġalmost": 2422,
      "ĠThen": 2423,
      "Ġcolle": 2424,
      "raw": 2425,
      "ĠPart": 2426,
      "Ġspread": 2427,
      "Ġknown": 2428,
      "jon": 2429,
      "ĠBe": 2430,
      "Ġsing": 2431,
      "andid": 2432,
      "ĠCup": 2433,
      "atic": 2434,
      "Ġperform": 2435,
      "Ġsubject": 2436,
      "ĠKarakalpakstan": 2437,
      "ently": 2438,
      "Ġready": 2439,
      "Ġcompared": 2440,
      "legram": 2441,
      "Ġ2024": 2442,
      "Ġpoint": 2443,
      "eved": 2444,
      "orms": 2445,
      "ĠMore": 2446,
      "Ġconversation": 2447,
      "ĠNo": 2448,
      "overed": 2449,
      "ĠSc": 2450,
      "Ġconfirmed": 2451,
      "ored": 2452,
      "ologies": 2453,
      "Ġ40": 2454,
      "Ġsociety": 2455,
      "Ġaid": 2456,
      "Ġhours": 2457,
      "cation": 2458,
      "Ġbasis": 2459,
      "Ġtraining": 2460,
      "Ġcommand": 2461,
      "ĠAfghanistan": 2462,
      "ĠAll": 2463,
      "Ġdirector": 2464,
      "ĠEdu": 2465,
      "Ġpresidential": 2466,
      "Ġconference": 2467,
      "Ġacross": 2468,
      "Ġcommunic": 2469,
      "Ġalways": 2470,
      "ĠFederation": 2471,
      "ĠPal": 2472,
      "Ġbodies": 2473,
      "ĠAzerbaijan": 2474,
      "udi": 2475,
      "sc": 2476,
      "Ġeducational": 2477,
      "Ġinjured": 2478,
      "ling": 2479,
      "Ġten": 2480,
      "ĠSouth": 2481,
      "rastructure": 2482,
      "pes": 2483,
      "Ġstation": 2484,
      "Ġhimself": 2485,
      "Ġacqu": 2486,
      "Ġwarm": 2487,
      "ĠMus": 2488,
      "ping": 2489,
      "Ġmissile": 2490,
      "Ġrain": 2491,
      "Ġans": 2492,
      "ĠRussians": 2493,
      "Ġpublication": 2494,
      "Ġfew": 2495,
      "Ġart": 2496,
      "Ġexperience": 2497,
      "ĠDevelop": 2498,
      "Ġaccident": 2499,
      "angan": 2500,
      "ops": 2501,
      "ez": 2502,
      "ĠNam": 2503,
      "Ġhot": 2504,
      "Ġparticipation": 2505,
      "ares": 2506,
      "imately": 2507,
      "Ġabove": 2508,
      "Ġagreed": 2509,
      "ĠOl": 2510,
      "Ġsepar": 2511,
      "ĠAir": 2512,
      "Ġappl": 2513,
      "ruption": 2514,
      "isf": 2515,
      "Ġcur": 2516,
      "uel": 2517,
      "ĠInstitut": 2518,
      "Ġdistrib": 2519,
      "Ġachieve": 2520,
      "Ġothers": 2521,
      "gers": 2522,
      "Ġcollaboration": 2523,
      "Ġprosecutor": 2524,
      "Ġenterprises": 2525,
      "Ġ26": 2526,
      "Ġparties": 2527,
      "AM": 2528,
      "Ġcandid": 2529,
      "ĠRes": 2530,
      "LC": 2531,
      "ĠForces": 2532,
      "Ġdetermined": 2533,
      "Ġstudy": 2534,
      "Ġprim": 2535,
      "Ġpositions": 2536,
      "Ġgive": 2537,
      "rid": 2538,
      "ses": 2539,
      "Ġable": 2540,
      "ĠProsecutor": 2541,
      "Ġopened": 2542,
      "Ġtasks": 2543,
      "Ġadded": 2544,
      "ĠAle": 2545,
      "Ġfind": 2546,
      "Ġentire": 2547,
      "isions": 2548,
      "Ġeverything": 2549,
      "hold": 2550,
      "ĠBy": 2551,
      "ĠLLC": 2552,
      "Ġstrik": 2553,
      "to": 2554,
      "ĠNamangan": 2555,
      "Ġpublished": 2556,
      "sif": 2557,
      "Ġofficers": 2558,
      "Ġreceive": 2559,
      "pid": 2560,
      "atisf": 2561,
      "rove": 2562,
      "Ġdefe": 2563,
      "Ġabroad": 2564,
      "Ġpreviously": 2565,
      "Ġmar": 2566,
      "Ġeveryone": 2567,
      "ĠOffice": 2568,
      "rones": 2569,
      "Ġide": 2570,
      "ĠTo": 2571,
      "Ġitself": 2572,
      "Ġmissiles": 2573,
      "ify": 2574,
      "Ġinfrastructure": 2575,
      "Ġcreated": 2576,
      "Ġsaying": 2577,
      "ĠWestern": 2578,
      "Ġfather": 2579,
      "Ġimplementation": 2580,
      "Ġball": 2581,
      "Ġport": 2582,
      "Ġlive": 2583,
      "Ġdifferent": 2584,
      "Ãķ": 2585,
      "Ġagric": 2586,
      "Ġcold": 2587,
      "hel": 2588,
      "ĠCommission": 2589,
      "oke": 2590,
      "Ġregard": 2591,
      "Ġsuff": 2592,
      "Ġattacks": 2593,
      "Ġcle": 2594,
      "Ġmaking": 2595,
      "Ġpurpose": 2596,
      "ĠSince": 2597,
      "Ġvictory": 2598,
      "Ġconstitut": 2599,
      "inese": 2600,
      "ĠSaudi": 2601,
      "ee": 2602,
      "Ġworked": 2603,
      "ĠTelegram": 2604,
      "ĠDevelopment": 2605,
      "ĠWest": 2606,
      "ronic": 2607,
      "Ġforced": 2608,
      "ĠTherefore": 2609,
      "Ġreview": 2610,
      "ĠSecretary": 2611,
      "Ġremind": 2612,
      "Ġfil": 2613,
      "amed": 2614,
      "ected": 2615,
      "pects": 2616,
      "Ġidentified": 2617,
      "aught": 2618,
      "Ġdriver": 2619,
      "yd": 2620,
      "Ġage": 2621,
      "ones": 2622,
      "erous": 2623,
      "Ġaccused": 2624,
      "Ġcourse": 2625,
      "Ġtempor": 2626,
      "Ġgoods": 2627,
      "Ġbelong": 2628,
      "Ġconclus": 2629,
      "ither": 2630,
      "Ġbody": 2631,
      "Ġless": 2632,
      "abin": 2633,
      "ĠSen": 2634,
      "rams": 2635,
      "Ġenvironment": 2636,
      "ĠEm": 2637,
      "rect": 2638,
      "reedom": 2639,
      "ĠSur": 2640,
      "ĠFrance": 2641,
      "ĠTaj": 2642,
      "Ġdrones": 2643,
      "Ġcompetition": 2644,
      "Ġtreat": 2645,
      "Ġwebs": 2646,
      "Ġanaly": 2647,
      "pecially": 2648,
      "Ġcertific": 2649,
      "Ġauthorities": 2650,
      "Ġtechnical": 2651,
      "osh": 2652,
      "Ġmanagement": 2653,
      "iddin": 2654,
      "Ġparliament": 2655,
      "Ġexceed": 2656,
      "Ġparent": 2657,
      "Ġteachers": 2658,
      "hod": 2659,
      "iance": 2660,
      "Ġpassed": 2661,
      "emy": 2662,
      "itarian": 2663,
      "Ġhost": 2664,
      "Ġcounter": 2665,
      "Ġfarm": 2666,
      "Ġfacilities": 2667,
      "Ġdestro": 2668,
      "onstr": 2669,
      "Ġgoing": 2670,
      "Ġfri": 2671,
      "Ġhous": 2672,
      "ĠWar": 2673,
      "Ġefforts": 2674,
      "Ġaverage": 2675,
      "Ġagencies": 2676,
      "Ġprin": 2677,
      "Ġinternal": 2678,
      "aving": 2679,
      "ump": 2680,
      "Ġproduct": 2681,
      "Ġprepared": 2682,
      "Ġpenalty": 2683,
      "Ġprofess": 2684,
      "ĠEducation": 2685,
      "rency": 2686,
      "Ġkilom": 2687,
      "ulated": 2688,
      "izz": 2689,
      "Ġfail": 2690,
      "ĠChinese": 2691,
      "Ġphot": 2692,
      "lig": 2693,
      "202": 2694,
      "ĠCour": 2695,
      "unities": 2696,
      "Ġsingle": 2697,
      "Ġdamage": 2698,
      "Ġdemonstr": 2699,
      "know": 2700,
      "Ġturned": 2701,
      "ĠNavo": 2702,
      "Ġaircraft": 2703,
      "lying": 2704,
      "Ġz": 2705,
      "ĠCity": 2706,
      "Ġcalc": 2707,
      "Ġunits": 2708,
      "Ġbring": 2709,
      "Ġtypes": 2710,
      "rug": 2711,
      "ĠVol": 2712,
      "Ġcreate": 2713,
      "Ġmigr": 2714,
      "Ġgradu": 2715,
      "ĠSov": 2716,
      "Ġrequest": 2717,
      "Ġdraft": 2718,
      "Th": 2719,
      "Ġcarry": 2720,
      "Ġdom": 2721,
      "uted": 2722,
      "ĠUSSR": 2723,
      "Ġparty": 2724,
      "Ġexplos": 2725,
      "Ġcompl": 2726,
      "erc": 2727,
      "ĠInstitute": 2728,
      "enses": 2729,
      "Ġenc": 2730,
      "ountain": 2731,
      "hern": 2732,
      "arant": 2733,
      "ta": 2734,
      "ĠThese": 2735,
      "ope": 2736,
      "Ġresources": 2737,
      "Ġcritic": 2738,
      "ĠMon": 2739,
      "Ġvillage": 2740,
      "arov": 2741,
      "Ġhom": 2742,
      "Ġstage": 2743,
      "ification": 2744,
      "ush": 2745,
      "Ġterritories": 2746,
      "kov": 2747,
      "ĠTw": 2748,
      "Ġlit": 2749,
      "Ġcross": 2750,
      "Ġlaunch": 2751,
      "Ġlook": 2752,
      "Ġfull": 2753,
      "Ġsk": 2754,
      "itude": 2755,
      "ides": 2756,
      "Ġcontinu": 2757,
      "Ġlow": 2758,
      "Ġdise": 2759,
      "Ġsignificantly": 2760,
      "Ġvalue": 2761,
      "Ġintelligence": 2762,
      "ats": 2763,
      "Ġdesc": 2764,
      "ĠSea": 2765,
      "Ġnon": 2766,
      "medi": 2767,
      "Ġcapac": 2768,
      "iday": 2769,
      "Ġnetworks": 2770,
      "ins": 2771,
      "Ġrisk": 2772,
      "Ġstations": 2773,
      "ĠNorth": 2774,
      "Ġresol": 2775,
      "Ġassoc": 2776,
      "ny": 2777,
      "ĠMinisters": 2778,
      "Ġansw": 2779,
      "Ġimprove": 2780,
      "Ġnetwork": 2781,
      "ĠBakh": 2782,
      "fficient": 2783,
      "Ġyouth": 2784,
      "pted": 2785,
      "Ġreturned": 2786,
      "Ġdecided": 2787,
      "Ġstopped": 2788,
      "Ġstrike": 2789,
      "oud": 2790,
      "aut": 2791,
      "ĠMu": 2792,
      "ĠTajik": 2793,
      "Ġpun": 2794,
      "Ġtask": 2795,
      "Ġview": 2796,
      "ampionship": 2797,
      "ource": 2798,
      "Ġbre": 2799,
      "ĠStre": 2800,
      "era": 2801,
      ".,": 2802,
      "Ġrese": 2803,
      "Ġpresented": 2804,
      "ĠCourt": 2805,
      "Ġinvestment": 2806,
      "Ġstep": 2807,
      "Ġquick": 2808,
      "Ġship": 2809,
      "Ġparents": 2810,
      "Ġpast": 2811,
      "Ġthing": 2812,
      "Ġkm": 2813,
      "avor": 2814,
      "gen": 2815,
      "itive": 2816,
      "Ġrub": 2817,
      "Ġissued": 2818,
      "Ġonline": 2819,
      "Ġcommunity": 2820,
      "strial": 2821,
      "atform": 2822,
      "ody": 2823,
      "Ġlear": 2824,
      "Ġadministrative": 2825,
      "Ġlegisl": 2826,
      "Ġsix": 2827,
      "ches": 2828,
      "fully": 2829,
      "Ġminister": 2830,
      "Ġpotential": 2831,
      "Ġsoon": 2832,
      "Ġmovement": 2833,
      "Ġsituations": 2834,
      "imate": 2835,
      "ĠIsraeli": 2836,
      "ĠBer": 2837,
      "Ġtoget": 2838,
      "akes": 2839,
      "Ġ2019": 2840,
      "Ġtogether": 2841,
      "ximately": 2842,
      "aled": 2843,
      "Ġconsequ": 2844,
      "ĠJizz": 2845,
      "Ġbuy": 2846,
      "Ġlargest": 2847,
      "ĠArmen": 2848,
      "Ġquestions": 2849,
      "Ġthings": 2850,
      "Ġinvasion": 2851,
      "mad": 2852,
      "Ġstaff": 2853,
      "Ġaward": 2854,
      "Ġimposed": 2855,
      "ccord": 2856,
      "Ġindustry": 2857,
      "Ġdig": 2858,
      "Ġrecorded": 2859,
      "Ġcomment": 2860,
      "Ġ60": 2861,
      "Ġimplementing": 2862,
      "Ġdistricts": 2863,
      "rev": 2864,
      "ĠKrem": 2865,
      "Ġtourn": 2866,
      "Ġpayment": 2867,
      "15": 2868,
      "ĠOrgan": 2869,
      "ĠJust": 2870,
      "Ġbuilt": 2871,
      "eep": 2872,
      "Ġchanging": 2873,
      "ĠPeople": 2874,
      "Ġobtain": 2875,
      "ĠGro": 2876,
      "ĠThat": 2877,
      "Ġhousehold": 2878,
      "illing": 2879,
      "Ġrules": 2880,
      "Ġexec": 2881,
      "zh": 2882,
      "ule": 2883,
      "Ġreserv": 2884,
      "Ġgener": 2885,
      "asons": 2886,
      "Ġlight": 2887,
      "Ġhold": 2888,
      "Ġmorning": 2889,
      "Ġproperty": 2890,
      "hev": 2891,
      "Ġopportunities": 2892,
      "iq": 2893,
      "Ġfreedom": 2894,
      "ĠHealth": 2895,
      "Ġaccord": 2896,
      "Ġremains": 2897,
      "ivered": 2898,
      "Ġinspe": 2899,
      "ogan": 2900,
      "Ġscen": 2901,
      "ĠArmed": 2902,
      "AMAS": 2903,
      "Ġson": 2904,
      "Ġministry": 2905,
      "Ġplatform": 2906,
      "ategic": 2907,
      "side": 2908,
      "Ġimpos": 2909,
      "Ġemb": 2910,
      "Ġincludes": 2911,
      "ledge": 2912,
      "Ġcenters": 2913,
      "Ġcreating": 2914,
      "Ġshot": 2915,
      "Ġdelivered": 2916,
      "Ġstrikes": 2917,
      "Ġentrepreneur": 2918,
      "19": 2919,
      "Ġ29": 2920,
      "ĠAmong": 2921,
      "ĠPalest": 2922,
      "Ġwhether": 2923,
      "Ġmean": 2924,
      "Ġrapid": 2925,
      "Ġoperating": 2926,
      "Ġprotection": 2927,
      "Ġpossibility": 2928,
      "Ġbatt": 2929,
      "Ġwebsite": 2930,
      "agner": 2931,
      "Ġesc": 2932,
      "Ġjournalists": 2933,
      "Ġinterests": 2934,
      "Ġsqu": 2935,
      "Ġqual": 2936,
      "Ġdirections": 2937,
      "ĠGeor": 2938,
      "Ġarrived": 2939,
      "Ġaccordance": 2940,
      "Ġearth": 2941,
      "though": 2942,
      "Ġprocedure": 2943,
      "ĠGu": 2944,
      "Ġtechnologies": 2945,
      "ĠKremlin": 2946,
      "nd": 2947,
      "Ġprec": 2948,
      "Ġjud": 2949,
      "Ġdestroy": 2950,
      "ĠHAMAS": 2951,
      "Ġelections": 2952,
      "ĠPoland": 2953,
      "Ġcamp": 2954,
      "Ġforward": 2955,
      "Ġclass": 2956,
      "Ġpack": 2957,
      "ĠSy": 2958,
      "Ġinten": 2959,
      "Ġparticipants": 2960,
      "Ġgroups": 2961,
      "Ġformed": 2962,
      "Ġkilometers": 2963,
      "Ġactivity": 2964,
      "atch": 2965,
      "Ġcapt": 2966,
      "Ġprevious": 2967,
      "Ġallowed": 2968,
      "abinet": 2969,
      "Ġconsequences": 2970,
      "Ġentered": 2971,
      "Ġproposed": 2972,
      "Ġlaws": 2973,
      "ĠArabia": 2974,
      "ression": 2975,
      "Ġproduced": 2976,
      "Ġfell": 2977,
      "let": 2978,
      "Ġpressure": 2979,
      "Ġelectronic": 2980,
      "Ġrequirements": 2981,
      "ĠOur": 2982,
      "Ġmajority": 2983,
      "Ġrecomm": 2984,
      "Ġseem": 2985,
      "rig": 2986,
      "Ġforce": 2987,
      "Ġbehind": 2988,
      "Ġteams": 2989,
      "Ġensuring": 2990,
      "ĠAg": 2991,
      "ĠFirst": 2992,
      "ĠTajikistan": 2993,
      "Ġplayers": 2994,
      "Ġshare": 2995,
      "ym": 2996,
      "Ġfamil": 2997,
      "Ġcla": 2998,
      "Ġrepl": 2999,
      "Ġstreets": 3000,
      "Ġinvolved": 3001,
      "Ġflights": 3002,
      "Ġunderstand": 3003,
      "Ġsusp": 3004,
      "Ġstudent": 3005,
      "Ġsummer": 3006,
      "Ġminutes": 3007,
      "zm": 3008,
      "ief": 3009,
      "Ġcrimes": 3010,
      "Ġnever": 3011,
      "Ġvictims": 3012,
      "ĠSoviet": 3013,
      "Ġattract": 3014,
      "Ġterror": 3015,
      "Ġmatch": 3016,
      "Ġillegal": 3017,
      "Ġconducting": 3018,
      "aint": 3019,
      "Ġbelieve": 3020,
      "Ġmaterials": 3021,
      "ogra": 3022,
      "Ġbig": 3023,
      "ĠIndia": 3024,
      "uries": 3025,
      "aries": 3026,
      "Ġshar": 3027,
      "ĠCan": 3028,
      "lam": 3029,
      "Ġcateg": 3030,
      "ĠNavoiy": 3031,
      "ĠEU": 3032,
      "qad": 3033,
      "Ġfavor": 3034,
      "Ġfields": 3035,
      "Ġmountain": 3036,
      "Ġincluded": 3037,
      "ĠSo": 3038,
      "Ġgold": 3039,
      "Ġmanaged": 3040,
      "Ġbecoming": 3041,
      "forcement": 3042,
      "Ġmobil": 3043,
      "ters": 3044,
      "Ġtroops": 3045,
      "Ġbest": 3046,
      "ashing": 3047,
      "Ġinternet": 3048,
      "erve": 3049,
      "going": 3050,
      "eral": 3051,
      "urb": 3052,
      "Ġdefend": 3053,
      "Ġinflu": 3054,
      "Ġmist": 3055,
      "Ġgrant": 3056,
      "Ġdisp": 3057,
      "Ġlives": 3058,
      "Ġcho": 3059,
      "Ġairpl": 3060,
      "Ġscored": 3061,
      "nov": 3062,
      "Ġdetained": 3063,
      "Ġ31": 3064,
      "Ġbenef": 3065,
      "Ġagg": 3066,
      "Ġsentenced": 3067,
      "ne": 3068,
      "rench": 3069,
      "rs": 3070,
      "Ġlot": 3071,
      "Ġpar": 3072,
      "ival": 3073,
      "bers": 3074,
      "Ġcapacity": 3075,
      "ĠInvest": 3076,
      "Ġkeep": 3077,
      "Ġearly": 3078,
      "Ġchanged": 3079,
      "Ġdidn": 3080,
      "br": 3081,
      "ique": 3082,
      "Ġprincip": 3083,
      "fort": 3084,
      "Ġparticular": 3085,
      "Ġgrowth": 3086,
      "mut": 3087,
      "mun": 3088,
      "Ġapplication": 3089,
      "Ġplayer": 3090,
      "ption": 3091,
      "Ġtru": 3092,
      "Ġimmedi": 3093,
      "Ġabs": 3094,
      "Ġprograms": 3095,
      "efore": 3096,
      "ĠSenate": 3097,
      "Ġearthqu": 3098,
      "ashqad": 3099,
      "Ġexplained": 3100,
      "Ġpromot": 3101,
      "Ġachieved": 3102,
      "Ġresidential": 3103,
      "Ġquickly": 3104,
      "Ġhit": 3105,
      "Ġcommission": 3106,
      "Ġcommunication": 3107,
      "ashqadaryo": 3108,
      "Ġtravel": 3109,
      "Ġparticipating": 3110,
      "Ġbanks": 3111,
      "vert": 3112,
      "Ġcloud": 3113,
      "Ġimpact": 3114,
      "tle": 3115,
      "ishing": 3116,
      "ĠSpe": 3117,
      "Ġdetail": 3118,
      "ĠCrime": 3119,
      "ilater": 3120,
      "Ġpractice": 3121,
      "ĠMoreover": 3122,
      "Ġpil": 3123,
      "Ġguarant": 3124,
      "Ġrole": 3125,
      "Ġdecisions": 3126,
      "ĠBor": 3127,
      "Ġdiss": 3128,
      "Ġassess": 3129,
      "agn": 3130,
      "Ġupon": 3131,
      "Ġmedic": 3132,
      "Ġpreparing": 3133,
      "ead": 3134,
      "Ġ198": 3135,
      "Ġrestrictions": 3136,
      "ĠQashqadaryo": 3137,
      "iddle": 3138,
      "Ġconsider": 3139,
      "Ġsafety": 3140,
      "Ġpurchase": 3141,
      "Ġdevices": 3142,
      "Ġelection": 3143,
      "Ġspecialists": 3144,
      "Ġexpert": 3145,
      "oks": 3146,
      "erm": 3147,
      "Ġextra": 3148,
      "Ġcontinues": 3149,
      "Ġarticle": 3150,
      "Ġground": 3151,
      "ĠPl": 3152,
      "Ġinform": 3153,
      "Ġreasons": 3154,
      "25": 3155,
      "Ġreduce": 3156,
      "ĠBritish": 3157,
      "Ġpersonal": 3158,
      "ĠGroup": 3159,
      "Ġtrees": 3160,
      "Ġstatus": 3161,
      "Ġ70": 3162,
      "Ġtournament": 3163,
      "oe": 3164,
      "ients": 3165,
      "ona": 3166,
      "Ġbase": 3167,
      "anov": 3168,
      "Ġemergency": 3169,
      "Ġcut": 3170,
      "ray": 3171,
      "Ġautom": 3172,
      "Ġsw": 3173,
      "Ġsession": 3174,
      "ĠFrench": 3175,
      "Ġaction": 3176,
      "ĠCabinet": 3177,
      "ĠErd": 3178,
      "ĠConstitut": 3179,
      "Ġmut": 3180,
      "Ġsource": 3181,
      "ires": 3182,
      "Ġexpand": 3183,
      "Ġairport": 3184,
      "Ġdang": 3185,
      "ĠBakhmut": 3186,
      "Ġdeleg": 3187,
      "Ġprohib": 3188,
      "estic": 3189,
      "atar": 3190,
      "ĠBefore": 3191,
      "Ġplayed": 3192,
      "Ġcommitted": 3193,
      "Ġinteg": 3194,
      "igious": 3195,
      "Ġroads": 3196,
      "ĠGeorg": 3197,
      "Ġinitiative": 3198,
      "ĠOrganization": 3199,
      "Ġintensif": 3200,
      "Ġsports": 3201,
      "ocrat": 3202,
      "Ġsomet": 3203,
      "arc": 3204,
      "Ġtanks": 3205,
      "ĠHouse": 3206,
      "Ġinitial": 3207,
      "Ġsuppl": 3208,
      "Ġofficially": 3209,
      "This": 3210,
      "Ġcloudy": 3211,
      "Ġdeputies": 3212,
      "Ġagreements": 3213,
      "Ġcentral": 3214,
      "hin": 3215,
      "oad": 3216,
      "ple": 3217,
      "erson": 3218,
      "Ġconcern": 3219,
      "Ġreforms": 3220,
      "undred": 3221,
      "Ġwa": 3222,
      "Ġacad": 3223,
      "Ġenforcement": 3224,
      "ald": 3225,
      "orezm": 3226,
      "Ġexact": 3227,
      "imum": 3228,
      "gaz": 3229,
      "ador": 3230,
      "acy": 3231,
      "ordin": 3232,
      "Ġpassengers": 3233,
      "ilateral": 3234,
      "Ġcard": 3235,
      "Ġlack": 3236,
      "Ġconven": 3237,
      "Ġinstalled": 3238,
      "Ġreve": 3239,
      "Ġpolitic": 3240,
      "Ġrespond": 3241,
      "22": 3242,
      "ĠErdogan": 3243,
      "irus": 3244,
      "otton": 3245,
      "18": 3246,
      "by": 3247,
      "Ġhighest": 3248,
      "action": 3249,
      "Ġphone": 3250,
      "Ġconclusion": 3251,
      "ĠBased": 3252,
      "Ġknowledge": 3253,
      "Ġstreet": 3254,
      "Ġaffect": 3255,
      "iated": 3256,
      "Ġincome": 3257,
      "Ġcerem": 3258,
      "Ġcustoms": 3259,
      "Ġlic": 3260,
      "Ġspeech": 3261,
      "ĠTurkish": 3262,
      "ances": 3263,
      "Ġseen": 3264,
      "Ġnamed": 3265,
      "Ġparts": 3266,
      "Ġcover": 3267,
      "ĠSwed": 3268,
      "sid": 3269,
      "Ġspace": 3270,
      "Ġgreen": 3271,
      "Ġtext": 3272,
      "ĠKhorezm": 3273,
      "Ġdepart": 3274,
      "ĠAdministr": 3275,
      "Ġdecreased": 3276,
      "ashington": 3277,
      "Ġ90": 3278,
      "espite": 3279,
      "Ġenough": 3280,
      "Ġchairman": 3281,
      "Ġmethod": 3282,
      "Ġmayor": 3283,
      "Ġmoving": 3284,
      "roving": 3285,
      "respon": 3286,
      "Ġrail": 3287,
      "Ġentities": 3288,
      "Ġsomeone": 3289,
      "Ġcoal": 3290,
      "Ġwinter": 3291,
      "Ġdirectly": 3292,
      "rison": 3293,
      "Ġanswer": 3294,
      "Ġpath": 3295,
      "Ġbrother": 3296,
      "Ġcombat": 3297,
      "berg": 3298,
      "anner": 3299,
      "Ġwritten": 3300,
      "ns": 3301,
      "Ġseve": 3302,
      "Ġintegr": 3303,
      "Ġdone": 3304,
      "istered": 3305,
      "Ġuniversity": 3306,
      "ĠWashington": 3307,
      "Ġden": 3308,
      "Ġprocesses": 3309,
      "Ġresearch": 3310,
      "Ġtoo": 3311,
      "henko": 3312,
      "ĠDo": 3313,
      "Ġimportance": 3314,
      "Ġharm": 3315,
      "ĠBritain": 3316,
      "Ġrecon": 3317,
      "Ġscientific": 3318,
      "ĠCo": 3319,
      "Ġrad": 3320,
      "Ġoblig": 3321,
      "fiel": 3322,
      "ĠTrump": 3323,
      "Ġevening": 3324,
      "Ġver": 3325,
      "Ġpayments": 3326,
      "Ġapproximately": 3327,
      "uh": 3328,
      "Ġfuel": 3329,
      "Ġmid": 3330,
      "ĠPublic": 3331,
      "Ġunique": 3332,
      "Ġespecially": 3333,
      "ging": 3334,
      "isis": 3335,
      "abilities": 3336,
      "ansk": 3337,
      "ening": 3338,
      "Ġhistor": 3339,
      "Ġped": 3340,
      "amber": 3341,
      "Ġworkers": 3342,
      "Ġtold": 3343,
      "Ç¦": 3344,
      "ined": 3345,
      "aration": 3346,
      "ilar": 3347,
      "Ġ2018": 3348,
      "lymp": 3349,
      "Ġsale": 3350,
      "Ġdomestic": 3351,
      "term": 3352,
      "aughter": 3353,
      "use": 3354,
      "Ġmaintain": 3355,
      "ĠPrig": 3356,
      "ert": 3357,
      "Ġspoke": 3358,
      "Ġremaining": 3359,
      "ĠAfric": 3360,
      "miss": 3361,
      "Ġge": 3362,
      "irov": 3363,
      "Ġapplied": 3364,
      "Ġcompleted": 3365,
      "Ġtele": 3366,
      "Ġreceiving": 3367,
      "Ġdeclared": 3368,
      "Ġhundred": 3369,
      "Ġdou": 3370,
      "Ġmobile": 3371,
      "ĠSupreme": 3372,
      "Ġtrillion": 3373,
      "oq": 3374,
      "Ġcollect": 3375,
      "Ġhumanitarian": 3376,
      "Ġavail": 3377,
      "Ġtourism": 3378,
      "ĠUz": 3379,
      "gey": 3380,
      "struction": 3381,
      "oring": 3382,
      "lish": 3383,
      "rior": 3384,
      "Ġreleased": 3385,
      "of": 3386,
      "ructed": 3387,
      "Ġcrime": 3388,
      "Ġrequired": 3389,
      "Ġoccupied": 3390,
      "izes": 3391,
      "Ġclosed": 3392,
      "dict": 3393,
      "Ġactive": 3394,
      "Ġhowever": 3395,
      "Ġimmediately": 3396,
      "Ġcausing": 3397,
      "ĠEvery": 3398,
      "Ġtransferred": 3399,
      "ĠDire": 3400,
      "Ġord": 3401,
      "etsk": 3402,
      "Ġdebt": 3403,
      "arter": 3404,
      "Ġcorruption": 3405,
      "Ġaffairs": 3406,
      "Ġdecrease": 3407,
      "ria": 3408,
      "Ġroute": 3409,
      "Ġsevere": 3410,
      "IS": 3411,
      "Ġpromised": 3412,
      "uded": 3413,
      "urod": 3414,
      "Ġsupported": 3415,
      "ĠEnergy": 3416,
      "ĠDespite": 3417,
      "anning": 3418,
      "Ġeither": 3419,
      "Ġdeal": 3420,
      "Ġcrisis": 3421,
      "ĠIslam": 3422,
      "herson": 3423,
      "Ġregime": 3424,
      "stances": 3425,
      "Ġfun": 3426,
      "Ġsupporting": 3427,
      "Ġoffer": 3428,
      "Ġquot": 3429,
      "appe": 3430,
      "Ġspent": 3431,
      "Ġtransportation": 3432,
      "17": 3433,
      "Ġwithd": 3434,
      "hester": 3435,
      "Ġpict": 3436,
      "Ġindustrial": 3437,
      "Ġcurrency": 3438,
      "Ġongoing": 3439,
      "chol": 3440,
      "ĠKherson": 3441,
      "Wagner": 3442,
      "iences": 3443,
      "Ġsend": 3444,
      "Ġresidents": 3445,
      "ĠMe": 3446,
      "oved": 3447,
      "Ġleaving": 3448,
      "Ġhect": 3449,
      "Ġrepair": 3450,
      "obod": 3451,
      "Ġmodel": 3452,
      "ĠJizzakh": 3453,
      "If": 3454,
      "ĠEnglish": 3455,
      "anchester": 3456,
      "Ġstrategic": 3457,
      "Ġfoc": 3458,
      "Ġelimin": 3459,
      "Ġheav": 3460,
      "Ġtarget": 3461,
      "Ġnegative": 3462,
      "Ġstrengthening": 3463,
      "Ġmess": 3464,
      "Ġbar": 3465,
      "ĠAust": 3466,
      "ternal": 3467,
      "Ġengine": 3468,
      "Ġinjuries": 3469,
      "Ġexplosion": 3470,
      "ĠUm": 3471,
      "Ġattempt": 3472,
      "gor": 3473,
      "Ġhon": 3474,
      "ĠNor": 3475,
      "Ġdiv": 3476,
      "ened": 3477,
      "Ġwanted": 3478,
      "eline": 3479,
      "Ġchampionship": 3480,
      "ension": 3481,
      "Ġjournalist": 3482,
      "ĠSergey": 3483,
      "inder": 3484,
      "Ġbreak": 3485,
      "Ġhouses": 3486,
      "Ġearthquake": 3487,
      "ĠWhy": 3488,
      "Ġimprison": 3489,
      "Ġcultural": 3490,
      "Ġcaught": 3491,
      "acu": 3492,
      "Ġstandards": 3493,
      "ĠTrans": 3494,
      "Ġmanner": 3495,
      "Ġimpossible": 3496,
      "off": 3497,
      "Ġpros": 3498,
      "Ġdestroyed": 3499,
      "Ġmaster": 3500,
      "Ġlif": 3501,
      "Ġcash": 3502,
      "Ġmen": 3503,
      "ĠVolody": 3504,
      "Ġinstitution": 3505,
      "Ġregistered": 3506,
      "Ġtalk": 3507,
      "Ġprior": 3508,
      "Ġvisited": 3509,
      "anch": 3510,
      "aging": 3511,
      "Ġsug": 3512,
      "ills": 3513,
      "myr": 3514,
      "olved": 3515,
      "Ġdamaged": 3516,
      "ties": 3517,
      "Ġadvance": 3518,
      "ĠVolodymyr": 3519,
      "Ġplaced": 3520,
      "Ġauthority": 3521,
      "Ġcotton": 3522,
      "Ġrank": 3523,
      "Ġlawy": 3524,
      "Ġdi": 3525,
      "eter": 3526,
      "Ġrock": 3527,
      "Ġwants": 3528,
      "Ġrun": 3529,
      "Ġcoach": 3530,
      "Ġaccept": 3531,
      "Ġdiscussion": 3532,
      "Ġopening": 3533,
      "Ġmom": 3534,
      "Ġlegislation": 3535,
      "Ġintended": 3536,
      "Ġmonitor": 3537,
      "ozhin": 3538,
      "Ġdaughter": 3539,
      "Ġsectors": 3540,
      "ĠUkrainians": 3541,
      "Ġear": 3542,
      "Ġended": 3543,
      "ĠPar": 3544,
      "ĠQatar": 3545,
      "Ġbrid": 3546,
      "ĠSome": 3547,
      "hammad": 3548,
      "ĠCor": 3549,
      "iff": 3550,
      "Ġobtained": 3551,
      "ĠOlymp": 3552,
      "Ġviolations": 3553,
      "Ġproposals": 3554,
      "ĠTV": 3555,
      "Ġavailable": 3556,
      "chan": 3557,
      "Ġexerc": 3558,
      "Ġseries": 3559,
      "ĠÇ¦": 3560,
      "known": 3561,
      "Ġhard": 3562,
      "Ġphys": 3563,
      "BC": 3564,
      "Ġgot": 3565,
      "Ġda": 3566,
      "anes": 3567,
      "aps": 3568,
      "Ġdeep": 3569,
      "Ġholding": 3570,
      "ought": 3571,
      "Ġ35": 3572,
      "ĠAnother": 3573,
      "Ġguil": 3574,
      "xond": 3575,
      "Ġgave": 3576,
      "Ġeffective": 3577,
      "ĠPrigozhin": 3578,
      "Ġmem": 3579,
      "ĠPh": 3580,
      "Ġconnect": 3581,
      "ovich": 3582,
      "40": 3583,
      "nes": 3584,
      "ĠHis": 3585,
      "Ġ500": 3586,
      "ĠRom": 3587,
      "Ġpunish": 3588,
      "Ġcorrespon": 3589,
      "Uzbekistan": 3590,
      "ĠSurxond": 3591,
      "ĠJustice": 3592,
      "Ġadvant": 3593,
      "ifying": 3594,
      "Ġ80": 3595,
      "ĠInformation": 3596,
      "cluding": 3597,
      "Ġforecast": 3598,
      "On": 3599,
      "ĠTurkmen": 3600,
      "Ġsimilar": 3601,
      "Ġ300": 3602,
      "ĠEconomic": 3603,
      "ĠStreet": 3604,
      "itness": 3605,
      "Ġappeal": 3606,
      "Ġprisoners": 3607,
      "ender": 3608,
      "Ġroom": 3609,
      "Ġlosses": 3610,
      "Ġdelivery": 3611,
      "Ġprimarily": 3612,
      "Ġpip": 3613,
      "ĠSurxondaryo": 3614,
      "Ġrespect": 3615,
      "Ġtrying": 3616,
      "Ġdesp": 3617,
      "eal": 3618,
      "Ġaw": 3619,
      "omb": 3620,
      "ĠAmerica": 3621,
      "Ġfeel": 3622,
      "Ġsubmitted": 3623,
      "Ġ197": 3624,
      "Ġindicator": 3625,
      "16": 3626,
      "Ġsupp": 3627,
      "Ġrecognized": 3628,
      "Ġstay": 3629,
      "ĠLater": 3630,
      "Ġacademic": 3631,
      "Ġlog": 3632,
      "Ġinvolving": 3633,
      "Ġconnection": 3634,
      "igned": 3635,
      "Ġoppon": 3636,
      "bassy": 3637,
      "Russi": 3638,
      "ze": 3639,
      "Ġorganizing": 3640,
      "Ġbegun": 3641,
      "Ġneeded": 3642,
      "PR": 3643,
      "iro": 3644,
      "oura": 3645,
      "ĠApp": 3646,
      "ĠDirector": 3647,
      "Ġhectares": 3648,
      "Ġremained": 3649,
      "Ġtechnology": 3650,
      "Ġquite": 3651,
      "Ġexpenses": 3652,
      "Ġcomes": 3653,
      "Ġappear": 3654,
      "ĠAlex": 3655,
      "Ġdelegation": 3656,
      "Ġadvan": 3657,
      "zil": 3658,
      "Ġded": 3659,
      "Ġshoot": 3660,
      "Ġinvestigative": 3661,
      "Ġexports": 3662,
      "ĠHung": 3663,
      "Ġrelatives": 3664,
      "dom": 3665,
      "ali": 3666,
      "Ġlands": 3667,
      "Ġamounted": 3668,
      "ĠUs": 3669,
      "Ġfighting": 3670,
      "bassador": 3671,
      "Ġpackage": 3672,
      "Ġcouncil": 3673,
      "Ġthroughout": 3674,
      "Ġcommit": 3675,
      "Ġpassenger": 3676,
      "oj": 3677,
      "Ġunable": 3678,
      "Ġut": 3679,
      "ĠConstitution": 3680,
      "Ġburn": 3681,
      "ĠChairman": 3682,
      "Ġliber": 3683,
      "pri": 3684,
      "Ġunivers": 3685,
      "Ġresponsibility": 3686,
      "ĠPalestin": 3687,
      "head": 3688,
      "Ġmoved": 3689,
      "Ġletter": 3690,
      "Ġindependent": 3691,
      "Ġreserves": 3692,
      "illery": 3693,
      "ĠCons": 3694,
      "Ġseparate": 3695,
      "Ġtreatment": 3696,
      "Ġtrust": 3697,
      "Ġprofessional": 3698,
      "Sh": 3699,
      "Ġopposition": 3700,
      "Ġceremony": 3701,
      "Ġmechan": 3702,
      "Ġreduced": 3703,
      "It": 3704,
      "Ġreli": 3705,
      "Ġconcluded": 3706,
      "Ġagricultural": 3707,
      "Ġsalary": 3708,
      "Ġfamous": 3709,
      "Ġfamilies": 3710,
      "Ġproposal": 3711,
      "Ġstudying": 3712,
      "Ġraised": 3713,
      "uge": 3714,
      "Ġanti": 3715,
      "Ġec": 3716,
      "Ġexpanding": 3717,
      "Ġstudies": 3718,
      "Ġresolution": 3719,
      "Ġill": 3720,
      "Ġevacu": 3721,
      "arsh": 3722,
      "Ġspecifically": 3723,
      "Ġrevealed": 3724,
      "Ġcompens": 3725,
      "Ġtemporarily": 3726,
      "wh": 3727,
      "Ġ2017": 3728,
      "Ġvers": 3729,
      "ĠBr": 3730,
      "Ġmulti": 3731,
      "13": 3732,
      "ĠCrimea": 3733,
      "Ġmeetings": 3734,
      "Ġprotest": 3735,
      "ĠMad": 3736,
      "Ġcommittee": 3737,
      "Ġteacher": 3738,
      "Ġawarded": 3739,
      "CO": 3740,
      "istic": 3741,
      "ĠChamber": 3742,
      "Ġbranch": 3743,
      "ograph": 3744,
      "Ġmigrants": 3745,
      "Ġface": 3746,
      "ya": 3747,
      "atri": 3748,
      "opol": 3749,
      "Ġcy": 3750,
      "ĠPM": 3751,
      "Ġcorrect": 3752,
      "ĠEl": 3753,
      "nef": 3754,
      "Ġcontrib": 3755,
      "Ġcontracts": 3756,
      "Ġpark": 3757,
      "Ġartillery": 3758,
      "Ġvehicle": 3759,
      "atur": 3760,
      "ĠStrip": 3761,
      "Ġdece": 3762,
      "Ġweeks": 3763,
      "Ġcam": 3764,
      "Ġnorth": 3765,
      "Ġtype": 3766,
      "Ġwitness": 3767,
      "Ġhope": 3768,
      "Ġbelonging": 3769,
      "23": 3770,
      "ĠTurkmenistan": 3771,
      "ores": 3772,
      "zod": 3773,
      "Ġheart": 3774,
      "Ġcontinued": 3775,
      "ĠPrev": 3776,
      "Ġentering": 3777,
      "Ġapproach": 3778,
      "Ġfre": 3779,
      "Ġwal": 3780,
      "Ġrubles": 3781,
      "Ġreporter": 3782,
      "Ġrepe": 3783,
      "Ġfarmers": 3784,
      "ĠArmenia": 3785,
      "Ġwide": 3786,
      "ĠAbdu": 3787,
      "ĠParty": 3788,
      "lebr": 3789,
      "Ġcouldn": 3790,
      "munition": 3791,
      "Ġsecret": 3792,
      "orn": 3793,
      "Ġfig": 3794,
      "uters": 3795,
      "ander": 3796,
      "Ġstudied": 3797,
      "ĠComp": 3798,
      "Ġdespite": 3799,
      "Ġfle": 3800,
      "ĠEmer": 3801,
      "ira": 3802,
      "vent": 3803,
      "ana": 3804,
      "Ġstatements": 3805,
      "Ġimproving": 3806,
      "Ġserve": 3807,
      "Ġpractical": 3808,
      "Ġdangerous": 3809,
      "alib": 3810,
      "inal": 3811,
      "Ġdust": 3812,
      "ites": 3813,
      "ĠFinance": 3814,
      "icated": 3815,
      "Ġoutside": 3816,
      "ĠMonday": 3817,
      "Ġextreme": 3818,
      "aches": 3819,
      "ĠNet": 3820,
      "orders": 3821,
      "Ġinfluence": 3822,
      "ĠEast": 3823,
      "ĠInter": 3824,
      "time": 3825,
      "Ġresc": 3826,
      "Ġammunition": 3827,
      "Ġsecretary": 3828,
      "Ġclaim": 3829,
      "Ġpain": 3830,
      "Ġcontain": 3831,
      "Ġtrip": 3832,
      "Ġbroad": 3833,
      "itter": 3834,
      "iding": 3835,
      "Ġexpensive": 3836,
      "Ġevidence": 3837,
      "Ġviolence": 3838,
      "Ġcandidate": 3839,
      "ĠItaly": 3840,
      "onov": 3841,
      "yn": 3842,
      "Ġwhose": 3843,
      "Ġterm": 3844,
      "Ġclean": 3845,
      "Ġcub": 3846,
      "ategy": 3847,
      "ero": 3848,
      "Ġstating": 3849,
      "Ġgetting": 3850,
      "ĠFriday": 3851,
      "ĠSweden": 3852,
      "endments": 3853,
      "Ġsufficient": 3854,
      "Ġwrites": 3855,
      "Ġspecific": 3856,
      "gart": 3857,
      "ĠFinland": 3858,
      "lov": 3859,
      "Ġequipped": 3860,
      "Al": 3861,
      "Ġfulf": 3862,
      "Ġcheck": 3863,
      "Ġheavy": 3864,
      "eed": 3865,
      "Ġindependence": 3866,
      "ocratic": 3867,
      "Ġwife": 3868,
      "ston": 3869,
      "Ġinflation": 3870,
      "Ġbecomes": 3871,
      "Ġcause": 3872,
      "ĠSuch": 3873,
      "ĠDen": 3874,
      "Ġappeared": 3875,
      "Ġask": 3876,
      "Ġsearch": 3877,
      "Ġcelebr": 3878,
      "bul": 3879,
      "Ġey": 3880,
      "romet": 3881,
      "ĠCl": 3882,
      "Ġrailway": 3883,
      "yo": 3884,
      "Ġassets": 3885,
      "Ġdaily": 3886,
      "onav": 3887,
      "ĠShe": 3888,
      "Ġquarter": 3889,
      "be": 3890,
      "Ġfootballer": 3891,
      "cifically": 3892,
      "Ġdistance": 3893,
      "Ġadmitted": 3894,
      "Ġscene": 3895,
      "Ġmutual": 3896,
      "ada": 3897,
      "ullayev": 3898,
      "Ġsche": 3899,
      "Ġinterested": 3900,
      "sy": 3901,
      "Ġdraw": 3902,
      "Ġtre": 3903,
      "orial": 3904,
      "ĠDav": 3905,
      "Ġsnow": 3906,
      "ĠKing": 3907,
      "ĠSund": 3908,
      "ĠVal": 3909,
      "ĠLeg": 3910,
      "Ġdoctors": 3911,
      "60": 3912,
      "cepted": 3913,
      "Ġappropri": 3914,
      "AE": 3915,
      "ania": 3916,
      "Ġpaying": 3917,
      "ams": 3918,
      "Ġpartnership": 3919,
      "Ch": 3920,
      "ditional": 3921,
      "Ġcertificate": 3922,
      "Ġbene": 3923,
      "oses": 3924,
      "Ġactively": 3925,
      "Ġsomething": 3926,
      "Ġexactly": 3927,
      "Ġclimate": 3928,
      "Ãµr": 3929,
      "ano": 3930,
      "aign": 3931,
      "eli": 3932,
      "ĠDonetsk": 3933,
      "Ġreviewed": 3934,
      "onavirus": 3935,
      "ĠBra": 3936,
      "ĠKam": 3937,
      "keep": 3938,
      "Ġsite": 3939,
      "Ġmarkets": 3940,
      "den": 3941,
      "mercial": 3942,
      "embly": 3943,
      "ĠRed": 3944,
      "idov": 3945,
      "Ġselling": 3946,
      "ĠTrade": 3947,
      "Ġemployee": 3948,
      "ructions": 3949,
      "ilov": 3950,
      "raud": 3951,
      "ĠGul": 3952,
      "oly": 3953,
      "Ġexisting": 3954,
      "Ãķz": 3955,
      "ĠAk": 3956,
      "Ġforum": 3957,
      "Ġsubsid": 3958,
      "Ġindividual": 3959,
      "ĠSird": 3960,
      "Ġclar": 3961,
      "Ġflo": 3962,
      "Ġprecise": 3963,
      "ĠMuhammad": 3964,
      "ĠTues": 3965,
      "Ġinstead": 3966,
      "Ġconsumers": 3967,
      "ĠSpecifically": 3968,
      "ĠEmergency": 3969,
      "Ġtried": 3970,
      "rehen": 3971,
      "arb": 3972,
      "ĠAc": 3973,
      "ights": 3974,
      "Ġmainly": 3975,
      "Ġsil": 3976,
      "Ġshowing": 3977,
      "ĠChampions": 3978,
      "paper": 3979,
      "Ġdigital": 3980,
      "Ġbill": 3981,
      "Ġteach": 3982,
      "acc": 3983,
      "under": 3984,
      "Ġdisaster": 3985,
      "Ġlat": 3986,
      "Ġstrict": 3987,
      "Ġadvis": 3988,
      "Ġinclude": 3989,
      "Ġcollected": 3990,
      "Ġmot": 3991,
      "Ġmoment": 3992,
      "lands": 3993,
      "ĠUl": 3994,
      "Ġindicated": 3995,
      "Ġcubic": 3996,
      "ĠRegarding": 3997,
      "Ġkn": 3998,
      "ĠRepresent": 3999,
      "ĠIndu": 4000,
      "Ġwarned": 4001,
      "Ġcoronavirus": 4002,
      "Ġmatches": 4003,
      "ednes": 4004,
      "Ġexhib": 4005,
      "ĠTai": 4006,
      "Ġcong": 4007,
      "Ġprohibited": 4008,
      "Ġhappened": 4009,
      "Ġbetter": 4010,
      "Ġnewspaper": 4011,
      "Ġpatients": 4012,
      "ley": 4013,
      "Ġsouth": 4014,
      "Ġdismiss": 4015,
      "Ġdead": 4016,
      "Ġexamination": 4017,
      "Ġalliance": 4018,
      "ĠGeorgia": 4019,
      "Ġbenefic": 4020,
      "Ġbilateral": 4021,
      "Ġlower": 4022,
      "Ġpositive": 4023,
      "Ġdiplomatic": 4024,
      "Ġguilty": 4025,
      "au": 4026,
      "Ġsmart": 4027,
      "Ġinnov": 4028,
      "Ġstruct": 4029,
      "ĠTuesday": 4030,
      "burg": 4031,
      "ved": 4032,
      "lected": 4033,
      "Ġtopic": 4034,
      "Ġplanning": 4035,
      "Ġdrivers": 4036,
      "Ġengaged": 4037,
      "500": 4038,
      "Ġcovered": 4039,
      "Ġexercises": 4040,
      "Ġclos": 4041,
      "Ġneighboring": 4042,
      "Ġnorm": 4043,
      "Ġrating": 4044,
      "band": 4045,
      "Ġthousands": 4046,
      "atov": 4047,
      "ĠFar": 4048,
      "ĠMedical": 4049,
      "Ġcriticized": 4050,
      "oriz": 4051,
      "35": 4052,
      "ĠIslamic": 4053,
      "ĠSunday": 4054,
      "ĠWednes": 4055,
      "Ġresulting": 4056,
      "Ġbloc": 4057,
      "Ġtariff": 4058,
      "Ġdefeat": 4059,
      "Ġsatisf": 4060,
      "isc": 4061,
      "Ġvolun": 4062,
      "ĠInit": 4063,
      "ĠGuard": 4064,
      "ground": 4065,
      "rel": 4066,
      "Ġblock": 4067,
      "Ġcommander": 4068,
      "Ġdoub": 4069,
      "Ġones": 4070,
      "Ġchannels": 4071,
      "Ġillegally": 4072,
      "ĠMac": 4073,
      "ĠLat": 4074,
      "fered": 4075,
      "Ġcivilian": 4076,
      "Ġlimited": 4077,
      "Ġbridge": 4078,
      "Ġaccepted": 4079,
      "Ġestablishing": 4080,
      "Ġera": 4081,
      "Ġchief": 4082,
      "Ġdoctor": 4083,
      "ĠNur": 4084,
      "Ġdiseases": 4085,
      "ĠKhark": 4086,
      "ondon": 4087,
      "Ġconsumption": 4088,
      "Ġfriends": 4089,
      "ĠPreviously": 4090,
      "urance": 4091,
      "Ġunknown": 4092,
      "mal": 4093,
      "ulations": 4094,
      "ĠOf": 4095,
      "Ġrev": 4096,
      "Ġwest": 4097,
      "ĠLast": 4098,
      "Ġamounting": 4099,
      "Ġplane": 4100,
      "Ġexams": 4101,
      "Ġcarrying": 4102,
      "Ġrecently": 4103,
      "Ġbuses": 4104,
      "Ġfriend": 4105,
      "Ġrule": 4106,
      "ikh": 4107,
      "Ġidea": 4108,
      "Ġdedicated": 4109,
      "Ġfir": 4110,
      "cks": 4111,
      "gr": 4112,
      "Ġmobilization": 4113,
      "ote": 4114,
      "Ġpan": 4115,
      "Ġmanufacture": 4116,
      "Ġgrain": 4117,
      "Ġreven": 4118,
      "ĠNaz": 4119,
      "ĠLondon": 4120,
      "Ġannual": 4121,
      "neft": 4122,
      "?\"": 4123,
      "Ġfine": 4124,
      "Ġapply": 4125,
      "gypt": 4126,
      "ari": 4127,
      "Ġamounts": 4128,
      "ĠSoc": 4129,
      "Ġimported": 4130,
      "Ãµl": 4131,
      "Ġowners": 4132,
      "Ġlicense": 4133,
      "anged": 4134,
      "anging": 4135,
      "iency": 4136,
      "rew": 4137,
      "ĠJoe": 4138,
      "Ġ46": 4139,
      "vernment": 4140,
      "FA": 4141,
      "ĠII": 4142,
      "oon": 4143,
      "rec": 4144,
      "Ġcampaign": 4145,
      "ĠWednesday": 4146,
      "Ġblog": 4147,
      "ĠBo": 4148,
      "Ġcategory": 4149,
      "Ġuniversities": 4150,
      "ĠTechn": 4151,
      "Ġcharact": 4152,
      "me": 4153,
      "sea": 4154,
      "Ġdesignated": 4155,
      "Ġbook": 4156,
      "aya": 4157,
      "ĠMusl": 4158,
      "ĠTwitter": 4159,
      "Ġwid": 4160,
      "Ġcommercial": 4161,
      "Ġblood": 4162,
      "pped": 4163,
      "Ġfactory": 4164,
      "Ġnothing": 4165,
      "Ġpartly": 4166,
      "bo": 4167,
      "Ġdriving": 4168,
      "Ġinside": 4169,
      "Ġusers": 4170,
      "utions": 4171,
      "Ġprivile": 4172,
      "Ġboy": 4173,
      "andemic": 4174,
      "ĠSecond": 4175,
      "Ġbal": 4176,
      "ĠSpecial": 4177,
      "Ġescal": 4178,
      "Ġpunishment": 4179,
      "ible": 4180,
      "Ġreb": 4181,
      "Ãµj": 4182,
      "Ġprotests": 4183,
      "Ġclubs": 4184,
      "Ġhands": 4185,
      "Ġred": 4186,
      "Ġplants": 4187,
      "Ġmetro": 4188,
      "indergart": 4189,
      "helsea": 4190,
      "Ġsurve": 4191,
      "rary": 4192,
      "Ġsides": 4193,
      "Ġcred": 4194,
      "ĠDem": 4195,
      "Ġthought": 4196,
      "90": 4197,
      "ĠCong": 4198,
      "ously": 4199,
      "Ġartific": 4200,
      "ĠEgypt": 4201,
      "ĠSyria": 4202,
      "Ġprovides": 4203,
      "Ġbrand": 4204,
      "house": 4205,
      "Ġfans": 4206,
      "Ġbir": 4207,
      "Ġconsult": 4208,
      "han": 4209,
      "Ġtick": 4210,
      "itical": 4211,
      "Ġupd": 4212,
      "Ġtransition": 4213,
      "Ġminute": 4214,
      "Ġfighters": 4215,
      "Ġadvantage": 4216,
      "Ġexpect": 4217,
      "Ġassist": 4218,
      "Ġcorrespond": 4219,
      "ula": 4220,
      "ĠHam": 4221,
      "ĠRepublican": 4222,
      "Ġwithdraw": 4223,
      "Wh": 4224,
      "Ġphase": 4225,
      "Ġowner": 4226,
      "tions": 4227,
      "Ġmax": 4228,
      "ticles": 4229,
      "Ġinspection": 4230,
      "ĠTaiw": 4231,
      "Ġmach": 4232,
      "Ġadvert": 4233,
      "rag": 4234,
      "ĠPak": 4235,
      "andon": 4236,
      "Ġsection": 4237,
      "rian": 4238,
      "14": 4239,
      "ĠMah": 4240,
      "Ġath": 4241,
      "Ġequal": 4242,
      "ĠProt": 4243,
      "Ġdevice": 4244,
      "iya": 4245,
      "Ġlived": 4246,
      "ĠThurs": 4247,
      "Ġfilm": 4248,
      "ID": 4249,
      "odir": 4250,
      "Ġkindergart": 4251,
      "AR": 4252,
      "Ġgrand": 4253,
      "ĠFund": 4254,
      "Ġfollows": 4255,
      "ols": 4256,
      "Ġshell": 4257,
      "Ġapplicants": 4258,
      "dered": 4259,
      "rad": 4260,
      "Ġborders": 4261,
      "istries": 4262,
      "Ġintention": 4263,
      "Ġdrink": 4264,
      "Ġdrug": 4265,
      "Ġweak": 4266,
      "ĠComm": 4267,
      "Ġcontact": 4268,
      "Ġspeak": 4269,
      "Ġvideos": 4270,
      "Ġelse": 4271,
      "Ġserved": 4272,
      "Ġairplane": 4273,
      "Ġextremely": 4274,
      "Ġhomel": 4275,
      "Ġdissatisf": 4276,
      "spe": 4277,
      "Ġmission": 4278,
      "Ġunit": 4279,
      "Ġtrial": 4280,
      "Ġrelative": 4281,
      "scale": 4282,
      "ift": 4283,
      "Ġrecor": 4284,
      "Ġoften": 4285,
      "Ġfocus": 4286,
      "Ġwaste": 4287,
      "Ġexist": 4288,
      "Ġpandemic": 4289,
      "ĠGreat": 4290,
      "Ġenemy": 4291,
      "Ġlatest": 4292,
      "Ġbeneficial": 4293,
      "Ġkey": 4294,
      "Ġnumbers": 4295,
      "Ġministers": 4296,
      "app": 4297,
      "Ġoffered": 4298,
      "Ġkind": 4299,
      "PP": 4300,
      "alu": 4301,
      "conomic": 4302,
      "Ġreject": 4303,
      "ese": 4304,
      "Ġ2014": 4305,
      "Ġindicators": 4306,
      "Ġobjects": 4307,
      "ĠMold": 4308,
      "Ġarm": 4309,
      "ĠThursday": 4310,
      "ĠWithin": 4311,
      "Ġir": 4312,
      "ĠBBC": 4313,
      "80": 4314,
      "sis": 4315,
      "Ġconsc": 4316,
      "Ġspok": 4317,
      "Ġcustomers": 4318,
      "Ġaccel": 4319,
      "ĠKharkiv": 4320,
      "Ġenvis": 4321,
      "Ġgirls": 4322,
      "arting": 4323,
      "ĠEr": 4324,
      "Ġculture": 4325,
      "ĠDmit": 4326,
      "Ġadvanced": 4327,
      "ĠStat": 4328,
      "Ġcalling": 4329,
      "Ġexperi": 4330,
      "ĠChe": 4331,
      "Ġrise": 4332,
      "ĠYork": 4333,
      "Ġdiscovered": 4334,
      "Ġrecommend": 4335,
      "Ġaud": 4336,
      "Ġsquare": 4337,
      "Ġurg": 4338,
      "Ġabandon": 4339,
      "Ġban": 4340,
      "Ġtable": 4341,
      "law": 4342,
      "Ġserving": 4343,
      "Ġinitially": 4344,
      "Ġenterprise": 4345,
      "Ġvac": 4346,
      "ĠAlthough": 4347,
      "Ġguests": 4348,
      "Ġappropriate": 4349,
      "ighter": 4350,
      "Ġofficer": 4351,
      "Ġpartner": 4352,
      "ahmon": 4353,
      "Ġreaching": 4354,
      "Ġlimit": 4355,
      "ĠParis": 4356,
      "ĠSal": 4357,
      "Ġoperate": 4358,
      "Ġdirected": 4359,
      "owers": 4360,
      "ĠPort": 4361,
      "Ġconstant": 4362,
      "Ġstrategy": 4363,
      "Ġcontinuing": 4364,
      "Ġple": 4365,
      "Ġpoll": 4366,
      "kiy": 4367,
      "Ġtaxes": 4368,
      "Ġslight": 4369,
      "Ġestim": 4370,
      "Ġaggression": 4371,
      "olve": 4372,
      "Ġcentury": 4373,
      "ĠTax": 4374,
      "Ġnor": 4375,
      "Ġmand": 4376,
      "Ġexternal": 4377,
      "Ġreadiness": 4378,
      "ĠReuters": 4379,
      "ribed": 4380,
      "ĠSpain": 4381,
      "Ġjobs": 4382,
      "ĠLuk": 4383,
      "ĠHere": 4384,
      "Ġexplain": 4385,
      "Ġ32": 4386,
      "ĠZap": 4387,
      "Ġspecialized": 4388,
      "Ġsales": 4389,
      "Ġdrone": 4390,
      "fortun": 4391,
      "Ġdist": 4392,
      "Ġbuild": 4393,
      "orizh": 4394,
      "aq": 4395,
      "ounder": 4396,
      "Ġclust": 4397,
      "Ġ45": 4398,
      "Ġdisease": 4399,
      "orizhzh": 4400,
      "Ġhus": 4401,
      "ĠWhite": 4402,
      "ĠHungary": 4403,
      "Ġfactors": 4404,
      "ĠPakistan": 4405,
      "umn": 4406,
      "Ġaccus": 4407,
      "Ġbri": 4408,
      "ĠUr": 4409,
      "Ġheads": 4410,
      "Ġopponent": 4411,
      "Ġnation": 4412,
      "Ġapart": 4413,
      "Ġpurchased": 4414,
      "Ġregulations": 4415,
      "elt": 4416,
      "Ġagriculture": 4417,
      "Ġwaiting": 4418,
      "ext": 4419,
      "istant": 4420,
      "Ġorganize": 4421,
      "ĠZaporizhzh": 4422,
      "Ġperman": 4423,
      "Ġdiscl": 4424,
      "Ġbattle": 4425,
      "Ġphysical": 4426,
      "isher": 4427,
      "ager": 4428,
      "Ġfee": 4429,
      "Ġsuccessfully": 4430,
      "11": 4431,
      "Ġlonger": 4432,
      "ĠCongress": 4433,
      "Ġtell": 4434,
      "Ġremoved": 4435,
      "Ġdate": 4436,
      "ialog": 4437,
      "istration": 4438,
      "ĠRegional": 4439,
      "irit": 4440,
      "Ġconsist": 4441,
      "27": 4442,
      "Ġduties": 4443,
      "Ġheating": 4444,
      "Ġallows": 4445,
      "Ġdemanded": 4446,
      "Ġeld": 4447,
      "lection": 4448,
      "itz": 4449,
      "story": 4450,
      "Ġimports": 4451,
      "Ġdiscussions": 4452,
      "Ġmeaning": 4453,
      "arcel": 4454,
      "Ġbur": 4455,
      "ĠCol": 4456,
      "ĠThus": 4457,
      "Ġdemands": 4458,
      "Ġelev": 4459,
      "Ġconsidering": 4460,
      "ester": 4461,
      "athe": 4462,
      "Ġsym": 4463,
      "ĠIT": 4464,
      "ĠIm": 4465,
      "Ġconstructed": 4466,
      "Ġships": 4467,
      "arcelona": 4468,
      "omen": 4469,
      "mar": 4470,
      "pts": 4471,
      "Ġsubmit": 4472,
      "Ġchem": 4473,
      "Ġsust": 4474,
      "Ġpopular": 4475,
      "Ġmountainous": 4476,
      "bank": 4477,
      "Ġseems": 4478,
      "Ġhighly": 4479,
      "ĠRam": 4480,
      "Ġleads": 4481,
      "inary": 4482,
      "itable": 4483,
      "Ġmaximum": 4484,
      "ĠAct": 4485,
      "Ġnature": 4486,
      "Ġability": 4487,
      "apt": 4488,
      "Ġsoms": 4489,
      "Ġpictures": 4490,
      "Ġseven": 4491,
      "Ġtermin": 4492,
      "ĠSafety": 4493,
      "neftgaz": 4494,
      "Ġgiving": 4495,
      "like": 4496,
      "economic": 4497,
      "Ġresolved": 4498,
      "Ġhyd": 4499,
      "Ġdepriv": 4500,
      "pass": 4501,
      "Ġpriority": 4502,
      "ĠKorean": 4503,
      "ĠZaporizhzhia": 4504,
      "ĠAh": 4505,
      "ault": 4506,
      "fers": 4507,
      "erate": 4508,
      "ijing": 4509,
      "anches": 4510,
      "Ġmonthly": 4511,
      "Ġversion": 4512,
      "45": 4513,
      "Ġliability": 4514,
      "ĠBrazil": 4515,
      "gu": 4516,
      "Ġ36": 4517,
      "Ġpoor": 4518,
      "ĠEc": 4519,
      "Ġallies": 4520,
      "ĠTok": 4521,
      "ĠDay": 4522,
      "Ġrates": 4523,
      "Ġcompetitions": 4524,
      "Ġeasy": 4525,
      "olute": 4526,
      "orthern": 4527,
      "Ġheard": 4528,
      "Ġ2016": 4529,
      "Ġsending": 4530,
      "Ġroutes": 4531,
      "Ġassigned": 4532,
      "Ġtemporary": 4533,
      "gets": 4534,
      "ĠAnton": 4535,
      "Ġhistorical": 4536,
      "uter": 4537,
      "Ġsafe": 4538,
      "Ġentr": 4539,
      "Ġcharacter": 4540,
      "rey": 4541,
      "Ġsen": 4542,
      "Ġgovernors": 4543,
      "ĠDonbass": 4544,
      "Ġhomes": 4545,
      "ih": 4546,
      "yle": 4547,
      "ola": 4548,
      "igation": 4549,
      "Ġcommon": 4550,
      "ĠGoals": 4551,
      "Ġstructures": 4552,
      "ĠTaiwan": 4553,
      "ĠBal": 4554,
      "Ġshown": 4555,
      "ĠBeijing": 4556,
      "Ġencoura": 4557,
      "ape": 4558,
      "Ġreturning": 4559,
      "ĠTwo": 4560,
      "ental": 4561,
      "hedul": 4562,
      "Ġschedul": 4563,
      "Ġsuggest": 4564,
      "Ġhusband": 4565,
      "ĠStarting": 4566,
      "Ġself": 4567,
      "eves": 4568,
      "ĠStud": 4569,
      "Ġhappening": 4570,
      "Ġsuffered": 4571,
      "Ġreserve": 4572,
      "Ġsem": 4573,
      "Ġdollar": 4574,
      "Ġnecessity": 4575,
      "Ġinformed": 4576,
      "Ġasking": 4577,
      "Ġcargo": 4578,
      "Ġboard": 4579,
      "rehensive": 4580,
      "ĠBen": 4581,
      "atures": 4582,
      "Ġincreases": 4583,
      "Ġciting": 4584,
      "ĠAv": 4585,
      "ĠSchool": 4586,
      "Ġbat": 4587,
      "37": 4588,
      "Ġclas": 4589,
      "Ġcosts": 4590,
      "ĠBak": 4591,
      "standing": 4592,
      "Ġrelease": 4593,
      "Ġmanufacturing": 4594,
      "Ġinvestments": 4595,
      "Ġconvenient": 4596,
      "kin": 4597,
      "ĠYang": 4598,
      "ĠAcad": 4599,
      "Ġtourists": 4600,
      "ĠAssoc": 4601,
      "Ġtwice": 4602,
      "Ġestablishment": 4603,
      "ilan": 4604,
      "24": 4605,
      "ĠMot": 4606,
      "alyst": 4607,
      "Ġ196": 4608,
      "ented": 4609,
      "Ġshel": 4610,
      "Ġmonitoring": 4611,
      "ĠKingdom": 4612,
      "Ġeastern": 4613,
      "aliban": 4614,
      "Ġfounder": 4615,
      "ivity": 4616,
      "Ġaviation": 4617,
      "Ġlawyer": 4618,
      "Ġartificial": 4619,
      "Ġbenefit": 4620,
      "su": 4621,
      "orrow": 4622,
      "Ġbad": 4623,
      "epa": 4624,
      "Ġformal": 4625,
      "boyev": 4626,
      "reg": 4627,
      "ĠMan": 4628,
      "Ġconflicts": 4629,
      "Ġdelivering": 4630,
      "Ġcircum": 4631,
      "Ġdefeated": 4632,
      "vision": 4633,
      "uth": 4634,
      "olving": 4635,
      "Ġmistake": 4636,
      "raq": 4637,
      "Ġsharp": 4638,
      "Ġkg": 4639,
      "Ġgradually": 4640,
      "Ġhonor": 4641,
      "Ġdeploy": 4642,
      "Ġtransform": 4643,
      "Ġnumerous": 4644,
      "Ġviolation": 4645,
      "ĠUntil": 4646,
      "Ġopinions": 4647,
      "Ġanim": 4648,
      "Ġelectr": 4649,
      "Ġdelay": 4650,
      "Ġreducing": 4651,
      "Ġutil": 4652,
      "Ġstability": 4653,
      "ĠInitially": 4654,
      "ialogue": 4655,
      "pool": 4656,
      "Ġwealth": 4657,
      "Ġaspects": 4658,
      "Ġanything": 4659,
      "Ġshortage": 4660,
      "Ġprimary": 4661,
      "Ġdetails": 4662,
      "istrict": 4663,
      "ades": 4664,
      "Ġsea": 4665,
      "ĠSCO": 4666,
      "Ġdisappe": 4667,
      "Ġinteresting": 4668,
      "ĠAdministration": 4669,
      "ĠTem": 4670,
      "adium": 4671,
      ".'": 4672,
      "Ġdoesn": 4673,
      "Ġsubst": 4674,
      "where": 4675,
      "come": 4676,
      "Real": 4677,
      "Ġplaying": 4678,
      "Ġhal": 4679,
      "ĠMal": 4680,
      "iyor": 4681,
      "oline": 4682,
      "ĠSher": 4683,
      "Ġreligious": 4684,
      "ĠParliament": 4685,
      "Ġinvolve": 4686,
      "Ġpatient": 4687,
      "uting": 4688,
      "Ġregister": 4689,
      "Ġimm": 4690,
      "Ġpersons": 4691,
      "Ġcomposition": 4692,
      "AT": 4693,
      "Ġtit": 4694,
      "Ġgather": 4695,
      "Ġvotes": 4696,
      "cle": 4697,
      "arters": 4698,
      "ĠJoh": 4699,
      "Ġpassing": 4700,
      "Ġdistributed": 4701,
      "Ġsupposed": 4702,
      "uction": 4703,
      "Ġhar": 4704,
      "ĠRoad": 4705,
      "Ġfrequ": 4706,
      "'m": 4707,
      "ĠAfrica": 4708,
      "Ġbomb": 4709,
      "Ġdepend": 4710,
      "Ġcapable": 4711,
      "itu": 4712,
      "Ġentry": 4713,
      "Ġdre": 4714,
      "Ġmur": 4715,
      "Ġalone": 4716,
      "ĠLet": 4717,
      "Ġbirth": 4718,
      "Ġconsisting": 4719,
      "Ġimprisonment": 4720,
      "Ġviews": 4721,
      "Ġpage": 4722,
      "Ġarch": 4723,
      "Ġtrue": 4724,
      "Ġturns": 4725,
      "Ġmeasure": 4726,
      "St": 4727,
      "wide": 4728,
      "Ġreporting": 4729,
      "Ġsharply": 4730,
      "ĠLi": 4731,
      "Ġannex": 4732,
      "ashkad": 4733,
      "Ġpolitician": 4734,
      "Ġaccess": 4735,
      "Ġterritorial": 4736,
      "Ġsolution": 4737,
      "Ġhomeland": 4738,
      "ashkadarya": 4739,
      "Ġcontrary": 4740,
      "Ġspring": 4741,
      "Ġ150": 4742,
      "Ġemployment": 4743,
      "Ġabsolute": 4744,
      "Ġstorms": 4745,
      "Ġlikely": 4746,
      "ĠKashkadarya": 4747,
      "Ġtalking": 4748,
      "manding": 4749,
      "Ġdesigned": 4750,
      "pro": 4751,
      "ably": 4752,
      "Ġdiscip": 4753,
      "Ġblack": 4754,
      "Ġdepartments": 4755,
      "Ġsentence": 4756,
      "Ġcandidates": 4757,
      "ulov": 4758,
      "ĠHuman": 4759,
      "Ġresidence": 4760,
      "Ġ37": 4761,
      "Ġpedest": 4762,
      "cer": 4763,
      "Ġconcept": 4764,
      "Ġregular": 4765,
      "Ġtry": 4766,
      "Ġcarri": 4767,
      "mine": 4768,
      "Ġprepare": 4769,
      "ĠMiddle": 4770,
      "overty": 4771,
      "Ġpurposes": 4772,
      "ularly": 4773,
      "Ġsolve": 4774,
      "Ġfraud": 4775,
      "Ġlittle": 4776,
      "uto": 4777,
      "Ġamendments": 4778,
      "Ġrocket": 4779,
      "Ġtact": 4780,
      "Ġvia": 4781,
      "ĠOnly": 4782,
      "Ġsolar": 4783,
      "ĠSerb": 4784,
      "Ġdifference": 4785,
      "Ġjoining": 4786,
      "ĠIndustry": 4787,
      "yl": 4788,
      "Ġfal": 4789,
      "Ġdemanding": 4790,
      "Ġ34": 4791,
      "ĠOd": 4792,
      "iverpool": 4793,
      "ius": 4794,
      "light": 4795,
      "ems": 4796,
      "Ġgasoline": 4797,
      "Ġfinancing": 4798,
      "Ġtalked": 4799,
      "Ġsuccessful": 4800,
      "field": 4801,
      "Ġclin": 4802,
      "ĠHead": 4803,
      "Ġpharm": 4804,
      "Ġformat": 4805,
      "ĠJapanese": 4806,
      "gent": 4807,
      "Ġbattles": 4808,
      "Ġslightly": 4809,
      "Ġbrief": 4810,
      "Ġvisa": 4811,
      "Ġsout": 4812,
      "abakh": 4813,
      "Ġelectrical": 4814,
      "Ġannually": 4815,
      "Ġloan": 4816,
      "ox": 4817,
      "Ġcaptured": 4818,
      "bit": 4819,
      "ĠPer": 4820,
      "Ġexem": 4821,
      "Ġranks": 4822,
      "Ġdoing": 4823,
      "anda": 4824,
      "eving": 4825,
      "Ġextended": 4826,
      "Ġrefer": 4827,
      "ĠIncluding": 4828,
      "Ġministries": 4829,
      "Ġnames": 4830,
      "Ġspeaking": 4831,
      "Ġholiday": 4832,
      "fortunately": 4833,
      "Ġwarning": 4834,
      "ĠManchester": 4835,
      "Ġattacked": 4836,
      "Ġfate": 4837,
      "ĠFog": 4838,
      "Ġpreparation": 4839,
      "athered": 4840,
      "Ġgathered": 4841,
      "Ġ33": 4842,
      "Ġlate": 4843,
      "Ġcomprehensive": 4844,
      "Ġprize": 4845,
      "Ġflag": 4846,
      "Ġphotos": 4847,
      "part": 4848,
      "icro": 4849,
      "Ġbroadcast": 4850,
      "arent": 4851,
      "Ġgard": 4852,
      "Ġassociated": 4853,
      "ĠMoldova": 4854,
      "dum": 4855,
      "Ġembassy": 4856,
      "Ġcomplain": 4857,
      "Ġdenied": 4858,
      "gra": 4859,
      "ainted": 4860,
      "Ġcontent": 4861,
      "Ġdefin": 4862,
      "Ġstandard": 4863,
      "Ġskills": 4864,
      "ĠNik": 4865,
      "Ġcalls": 4866,
      "28": 4867,
      "Ġcru": 4868,
      "Ġgrat": 4869,
      "Ġsuffering": 4870,
      "Ġrepeated": 4871,
      "agon": 4872,
      "Ç§on": 4873,
      "Ġregistration": 4874,
      "Ġ75": 4875,
      "Ġdetention": 4876,
      "ĠNot": 4877,
      "Ġhouseholds": 4878,
      "Ġsuper": 4879,
      "ĠBlack": 4880,
      "Ġterrorist": 4881,
      "'.": 4882,
      "ĠCooperation": 4883,
      "tor": 4884,
      "ĠLegisl": 4885,
      "Ġdoz": 4886,
      "ĠTraffic": 4887,
      "ĠTimes": 4888,
      "Ġdescend": 4889,
      "Ġscheduled": 4890,
      "Ġrather": 4891,
      "ĠSitu": 4892,
      "ipov": 4893,
      "iveness": 4894,
      "Ġsimply": 4895,
      "Ġmessage": 4896,
      "ulate": 4897,
      "ĠAssembly": 4898,
      "Ġexhibition": 4899,
      "Ġactivists": 4900,
      "ĠPolish": 4901,
      "Ġclearly": 4902,
      "There": 4903,
      "Ġpie": 4904,
      "Uzbekneftgaz": 4905,
      "Ġenvironmental": 4906,
      "Ġregulation": 4907,
      "icted": 4908,
      "Ġproduce": 4909,
      "ON": 4910,
      "Ġmos": 4911,
      "ĠSol": 4912,
      "ĠInst": 4913,
      "Ġindicates": 4914,
      "iar": 4915,
      "tak": 4916,
      "ĠIl": 4917,
      "Ġtranspa": 4918,
      "ĠWhile": 4919,
      "Ġobligations": 4920,
      "Ġess": 4921,
      "ellect": 4922,
      "ovo": 4923,
      "Ġactually": 4924,
      "Ġoperational": 4925,
      "ĠQu": 4926,
      "SG": 4927,
      "anish": 4928,
      "Ġsmartph": 4929,
      "Ġrange": 4930,
      "Ġrefused": 4931,
      "ĠNaval": 4932,
      "Uz": 4933,
      "Ġsaw": 4934,
      "Ġfear": 4935,
      "fin": 4936,
      "Ġsave": 4937,
      "Ġanyone": 4938,
      "Ġneighborhoods": 4939,
      "ĠAcademy": 4940,
      "Ġgranted": 4941,
      "Ġprinciples": 4942,
      "Ġshop": 4943,
      "ĠAbdur": 4944,
      "inov": 4945,
      "Ġahead": 4946,
      "Ġinsurance": 4947,
      "Ġfoundation": 4948,
      "ydromet": 4949,
      "tepa": 4950,
      "ĠShah": 4951,
      "rist": 4952,
      "Ġbit": 4953,
      "Ġarms": 4954,
      "Ġbanned": 4955,
      "Ġmyself": 4956,
      "Ġexplan": 4957,
      "ĠIranian": 4958,
      "coming": 4959,
      "Ġacquainted": 4960,
      "Ġpsy": 4961,
      "Ġmiddle": 4962,
      "ĠYev": 4963,
      "Ġcapabilities": 4964,
      "care": 4965,
      "yan": 4966,
      "ĠBek": 4967,
      "ĠThrough": 4968,
      "Ġinstructions": 4969,
      "Ġcorrid": 4970,
      "Ġdialogue": 4971,
      "Ġapplications": 4972,
      "Ġscientists": 4973,
      "Ġcoordin": 4974,
      "Ġpermanent": 4975,
      "osing": 4976,
      "Ġcrossing": 4977,
      "urodov": 4978,
      "ĠSan": 4979,
      "ĠSatur": 4980,
      "espread": 4981,
      "isms": 4982,
      "Ġdated": 4983,
      "Ġarticles": 4984,
      "ulla": 4985,
      "Ġliter": 4986,
      "Ġorders": 4987,
      "Ġpred": 4988,
      "Ġfru": 4989,
      "Ġheat": 4990,
      "Ġtherefore": 4991,
      "Ġavo": 4992,
      "Ġdrinking": 4993,
      "Ġwatch": 4994,
      "Ġtelevision": 4995,
      "Ġfed": 4996,
      "astern": 4997,
      "Ġreduction": 4998,
      "Ġrequested": 4999,
      "face": 5000,
      "zor": 5001,
      "Ġtakes": 5002,
      "Ġconstruct": 5003,
      "Ġsubjects": 5004,
      "Ġobtaining": 5005,
      "IC": 5006,
      "Ġambassador": 5007,
      "quarters": 5008,
      "Ġgoes": 5009,
      "enda": 5010,
      "Ġthreats": 5011,
      "Ġhy": 5012,
      "astic": 5013,
      "Ġbooks": 5014,
      "Ġrefuge": 5015,
      "Ġshowed": 5016,
      "Ġfair": 5017,
      "Ġdefic": 5018,
      "stanbul": 5019,
      "Ġsuspended": 5020,
      "Ġwidespread": 5021,
      "Ġfighter": 5022,
      "ĠMany": 5023,
      "ildren": 5024,
      "ĠHer": 5025,
      "Ġconfident": 5026,
      "Ġflood": 5027,
      "ĠKhan": 5028,
      "Ġfired": 5029,
      "rah": 5030,
      "Ġhero": 5031,
      "ĠXi": 5032,
      "keeper": 5033,
      "Ġdismissed": 5034,
      "rank": 5035,
      "ida": 5036,
      "Ġstadium": 5037,
      "ĠUzbeks": 5038,
      "Ġissu": 5039,
      "fficiency": 5040,
      "ĠStatistics": 5041,
      "Ġhop": 5042,
      "Ġpurchasing": 5043,
      "Ġfourth": 5044,
      "olished": 5045,
      "Ġproceed": 5046,
      "ĠOver": 5047,
      "Ġzone": 5048,
      "hess": 5049,
      "oration": 5050,
      "Ġcards": 5051,
      "Ġairline": 5052,
      "Ġparticularly": 5053,
      "hips": 5054,
      "ĠArgent": 5055,
      "erly": 5056,
      "ancell": 5057,
      "Ġallocate": 5058,
      "esterday": 5059,
      "ris": 5060,
      "Ġexc": 5061,
      "Ġhundreds": 5062,
      "Ġpermission": 5063,
      "lectric": 5064,
      "Ġcredit": 5065,
      "Ġloans": 5066,
      "ĠFoll": 5067,
      "Ġtests": 5068,
      "Ġsuspected": 5069,
      "Ġfailed": 5070,
      "Ġsecondary": 5071,
      "arshi": 5072,
      "Ġeyes": 5073,
      "Ġbalance": 5074,
      "Ġaccom": 5075,
      "ezz": 5076,
      "Ġresponded": 5077,
      "eds": 5078,
      "ashenko": 5079,
      "Ġdro": 5080,
      "Ġaspect": 5081,
      "ĠDn": 5082,
      "ferendum": 5083,
      "ĠAlexander": 5084,
      "Auto": 5085,
      "ux": 5086,
      "Ġbasic": 5087,
      "igher": 5088,
      "Ġspirit": 5089,
      "ani": 5090,
      "General": 5091,
      "ĠSil": 5092,
      "Ġmembership": 5093,
      "ĠLegislative": 5094,
      "Ġlines": 5095,
      "Ġcompatri": 5096,
      "Ġmeat": 5097,
      "ukus": 5098,
      "Ġcivilians": 5099,
      "Ġdozens": 5100,
      "ico": 5101,
      "Ġearlier": 5102,
      "Ġadmission": 5103,
      "Ġfundament": 5104,
      "underst": 5105,
      "ĠAssociation": 5106,
      "book": 5107,
      "omin": 5108,
      "ĠRepresentatives": 5109,
      "dule": 5110,
      "ĠEngland": 5111,
      "Ġcareer": 5112,
      "Ġsurv": 5113,
      "ha": 5114,
      "Ġcance": 5115,
      "ĠSituations": 5116,
      "Ġlocation": 5117,
      "drop": 5118,
      "Ġschol": 5119,
      "Ġeight": 5120,
      "ĠCanada": 5121,
      "Ġflow": 5122,
      "bl": 5123,
      "ĠIraq": 5124,
      "otten": 5125,
      "Ġemerged": 5126,
      "Ġcommented": 5127,
      "Ġwinning": 5128,
      "Ġdeceased": 5129,
      "Ġrecommended": 5130,
      "esh": 5131,
      "ĠRights": 5132,
      "Ġalthough": 5133,
      "Ġexceeded": 5134,
      "ÃµrÇ§on": 5135,
      "Ġsat": 5136,
      "eta": 5137,
      "Ġgrowing": 5138,
      "Ġcompensation": 5139,
      "ĠHigher": 5140,
      "bod": 5141,
      "Ġconfirm": 5142,
      "Ġexecution": 5143,
      "Ġschedule": 5144,
      "ĠIstanbul": 5145,
      "ĠBah": 5146,
      "Ġarr": 5147,
      "Ġscience": 5148,
      "Ġpowerful": 5149,
      "Ġverdict": 5150,
      "Ġprecisely": 5151,
      "Ġanalyst": 5152,
      "herlands": 5153,
      "ĠShar": 5154,
      "ĠBerlin": 5155,
      "Ġbeat": 5156,
      "expected": 5157,
      "Ġrenew": 5158,
      "itary": 5159,
      "ota": 5160,
      "Ġkept": 5161,
      "Ġbranches": 5162,
      "Ġspecified": 5163,
      "uma": 5164,
      "Ġbackdrop": 5165,
      "letes": 5166,
      "Ġgratitude": 5167,
      "Ġdesire": 5168,
      "',": 5169,
      "ounded": 5170,
      "ĠLukashenko": 5171,
      "Ġfelt": 5172,
      "Ġlay": 5173,
      "Ġcondem": 5174,
      "Ġloss": 5175,
      "rugg": 5176,
      "Ġgone": 5177,
      "ras": 5178,
      "Tashkent": 5179,
      "ĠTour": 5180,
      "urov": 5181,
      "Ġinvited": 5182,
      "Ġ400": 5183,
      "ĠAlisher": 5184,
      "Ġpoison": 5185,
      "ĠCO": 5186,
      "ĠPresidential": 5187,
      "ĠTransport": 5188,
      "ancellor": 5189,
      "Ġstore": 5190,
      "Ġsigns": 5191,
      "Ġspecialist": 5192,
      "ussels": 5193,
      "ott": 5194,
      "ĠPrem": 5195,
      "ĠJam": 5196,
      "reign": 5197,
      "Ġprovision": 5198,
      "Ġwinners": 5199,
      "prom": 5200,
      "Ġbought": 5201,
      "Ġturning": 5202,
      "Ġeditor": 5203,
      "Ġapartment": 5204,
      "Ġsurpr": 5205,
      "Ġvacc": 5206,
      "room": 5207,
      "Ġsalaries": 5208,
      "ĠFollowing": 5209,
      "ĠMor": 5210,
      "Ġfaced": 5211,
      "Ġassociation": 5212,
      "Ġbeaut": 5213,
      "ĠEs": 5214,
      "Ġheadquarters": 5215,
      "ĠNavalny": 5216,
      "Ġprivileges": 5217,
      "ĠAut": 5218,
      "earch": 5219,
      "Ġaer": 5220,
      "Ġwing": 5221,
      "Ġpension": 5222,
      "ĠExper": 5223,
      "Ġdivid": 5224,
      "Ġreally": 5225,
      "iminary": 5226,
      "Ġairplanes": 5227,
      "ĠBrussels": 5228,
      "Ġdetermine": 5229,
      "ĠSaturday": 5230,
      "IM": 5231,
      "ithu": 5232,
      "ĠEarth": 5233,
      "Ġeasily": 5234,
      "Ġstrugg": 5235,
      "Ġappeals": 5236,
      "Ġ[": 5237,
      "Ġcongrat": 5238,
      "Ġcop": 5239,
      "Ġdispl": 5240,
      "ĠQÃµ": 5241,
      "Ġannouncement": 5242,
      "ĠPalestinian": 5243,
      "Ġanc": 5244,
      "Ġaltern": 5245,
      "Ġagenda": 5246,
      "Ġcharges": 5247,
      "ĠProtection": 5248,
      "emen": 5249,
      "abb": 5250,
      "overeign": 5251,
      "Ġfallen": 5252,
      "Ġportal": 5253,
      "Ukrain": 5254,
      "Ġblowing": 5255,
      "Ġsquad": 5256,
      "Ġchoose": 5257,
      "Ġdegree": 5258,
      "pective": 5259,
      "Ġmill": 5260,
      "Ġanalyz": 5261,
      "Ġhousing": 5262,
      "Ġlooking": 5263,
      "Ġgen": 5264,
      "cont": 5265,
      "Ġtransfers": 5266,
      "ĠFederal": 5267,
      "ino": 5268,
      "itals": 5269,
      "Ġbi": 5270,
      "abet": 5271,
      "Ġobst": 5272,
      "Ġthunderst": 5273,
      "Ġprotecting": 5274,
      "aur": 5275,
      "Ġspend": 5276,
      "Ġfollow": 5277,
      "ĠBelarusian": 5278,
      "Ġillness": 5279,
      "ĠBul": 5280,
      "Ġreflect": 5281,
      "oom": 5282,
      "Ġefficiency": 5283,
      "Ġautumn": 5284,
      "Ġgoalkeeper": 5285,
      "Ġbox": 5286,
      "ĠAgric": 5287,
      "alls": 5288,
      "Ġanalysis": 5289,
      "Ġordered": 5290,
      "Ġsolutions": 5291,
      "ĠAustral": 5292,
      "ĠMotors": 5293,
      "rong": 5294,
      "ĠBob": 5295,
      "Ġpropag": 5296,
      "Ġadvisor": 5297,
      "ĠLithu": 5298,
      "aves": 5299,
      "Ġload": 5300,
      "ĠNetherlands": 5301,
      "itch": 5302,
      "Ġtom": 5303,
      "ĠBlink": 5304,
      "Ġhealthcare": 5305,
      "urt": 5306,
      "Ġstructure": 5307,
      "oph": 5308,
      "ĠServices": 5309,
      "Ġi": 5310,
      "Ġult": 5311,
      "Ġstores": 5312,
      "aka": 5313,
      "ampion": 5314,
      "Ġtargets": 5315,
      "Ġrelatively": 5316,
      "roz": 5317,
      "Ġlink": 5318,
      "Ġremote": 5319,
      "ĠPortug": 5320,
      "Ġduty": 5321,
      "Ġlearning": 5322,
      "eng": 5323,
      "olution": 5324,
      "Ġintellect": 5325,
      "aceut": 5326,
      "Ġprest": 5327,
      "Ġsovereign": 5328,
      "Ġjoined": 5329,
      "aceutical": 5330,
      "Ġathletes": 5331,
      "Ġminor": 5332,
      "ĠTurkic": 5333,
      "Ġbelieves": 5334,
      "ĠInde": 5335,
      "rans": 5336,
      "ĠJin": 5337,
      "Ġvote": 5338,
      "Ġphoto": 5339,
      "Ãµjayev": 5340,
      "utral": 5341,
      "ĠMost": 5342,
      "Ġdifficulties": 5343,
      "Ġgeneration": 5344,
      "Ġmethods": 5345,
      "Ġdefender": 5346,
      "Ġcomplic": 5347,
      "ĠArt": 5348,
      "Ġregularly": 5349,
      "ĠBlinken": 5350,
      "ĠTÃµ": 5351,
      "Ġunf": 5352,
      "Ġacknow": 5353,
      "Ġsubsc": 5354,
      "Ġpublications": 5355,
      "Russia": 5356,
      "ĠÃķ": 5357,
      "ĠNukus": 5358,
      "Ġconfidence": 5359,
      "Ġfirm": 5360,
      "haps": 5361,
      "pre": 5362,
      "uration": 5363,
      "Ġintroduce": 5364,
      "skiy": 5365,
      "Ġwel": 5366,
      "ĠPress": 5367,
      "Ġexcept": 5368,
      "Ġpermit": 5369,
      "Ġfinding": 5370,
      "Ġcourts": 5371,
      "ĠMari": 5372,
      "nik": 5373,
      "Ġbegins": 5374,
      "Ġprofession": 5375,
      "va": 5376,
      "ĠRel": 5377,
      "Ġ55": 5378,
      "Ġliqu": 5379,
      "ĠWork": 5380,
      "ĠLaw": 5381,
      "Ġ38": 5382,
      "Ġspot": 5383,
      "xon": 5384,
      "Ġintends": 5385,
      "Ġstrength": 5386,
      "inter": 5387,
      "Ġunexpected": 5388,
      "government": 5389,
      "Ġpipeline": 5390,
      "leep": 5391,
      "Ġlosing": 5392,
      "ĠOlympic": 5393,
      "ĠMacron": 5394,
      "Ġfacing": 5395,
      "Ġtruck": 5396,
      "Ġpoliticians": 5397,
      "Ġcommitting": 5398,
      "Ġfloor": 5399,
      "Ġexperienced": 5400,
      "ba": 5401,
      "Ġlose": 5402,
      "Ġlove": 5403,
      "Ġbringing": 5404,
      "bol": 5405,
      "Ġseriously": 5406,
      "Ġelected": 5407,
      "Ġsubjected": 5408,
      "Ġembezz": 5409,
      "Ġbenefits": 5410,
      "Ġlogistics": 5411,
      "vers": 5412,
      "Ġaddressed": 5413,
      "ĠMark": 5414,
      "Ġpilgr": 5415,
      "atal": 5416,
      "ĠMi": 5417,
      "Ġseized": 5418,
      "2023": 5419,
      "Ġpresence": 5420,
      "Ġlanguages": 5421,
      "Ġtariffs": 5422,
      "orov": 5423,
      "Ġorig": 5424,
      "Ġ65": 5425,
      "Ġinvestors": 5426,
      "Ġhydro": 5427,
      "illa": 5428,
      "Ġmandatory": 5429,
      "Ġfinance": 5430,
      "Ġestate": 5431,
      "ranking": 5432,
      "Ġdistribution": 5433,
      "Ġfalse": 5434,
      "Ġaf": 5435,
      "Ġhanded": 5436,
      "Un": 5437,
      "ĠCont": 5438,
      "ĠConstruction": 5439,
      "Ġwheat": 5440,
      "Ġentrance": 5441,
      "ĠYevgen": 5442,
      "arq": 5443,
      "Ġmanufactured": 5444,
      "ĠMadrid": 5445,
      "Ġtruth": 5446,
      "racy": 5447,
      "ĠLatv": 5448,
      "ili": 5449,
      "ĠThose": 5450,
      "ensions": 5451,
      "Ġopenly": 5452,
      "Ġguarantees": 5453,
      "rawn": 5454,
      "Ġnewly": 5455,
      "Ġdiagn": 5456,
      "licop": 5457,
      "ĠPremier": 5458,
      "invest": 5459,
      "ressive": 5460,
      "oper": 5461,
      "ĠJournal": 5462,
      "Ġreplac": 5463,
      "ĠSchol": 5464,
      "ĠBay": 5465,
      "asures": 5466,
      "ĠPark": 5467,
      "Ġhelicop": 5468,
      "iversary": 5469,
      "Ġdivision": 5470,
      "Ġblocked": 5471,
      "ĠLabor": 5472,
      "Ġpsych": 5473,
      "oul": 5474,
      "Ġonto": 5475,
      "upol": 5476,
      "ĠGl": 5477,
      "ĠAziz": 5478,
      "mark": 5479,
      "Ġaccountable": 5480,
      "ĠTaliban": 5481,
      "iment": 5482,
      "chen": 5483,
      "ĠCIS": 5484,
      "Ġstarts": 5485,
      "Ġoffers": 5486,
      "Ġcalculations": 5487,
      "ield": 5488,
      "Ġvictim": 5489,
      "ĠSim": 5490,
      "Ġwhom": 5491,
      "Ġlevels": 5492,
      "Ġvalues": 5493,
      "ries": 5494,
      "zech": 5495,
      "ario": 5496,
      "Ġriver": 5497,
      "ĠItal": 5498,
      "Ġforest": 5499,
      "Ġreliable": 5500,
      "Ġshows": 5501,
      "ĠSerg": 5502,
      "Ġitems": 5503,
      "Ġprocessing": 5504,
      "Ġhotel": 5505,
      "Ġrejected": 5506,
      "99": 5507,
      "ĠPa": 5508,
      "Ġprel": 5509,
      "ksand": 5510,
      "Ġordinary": 5511,
      "Ġprospects": 5512,
      "21": 5513,
      "ĠRon": 5514,
      "Ġconsists": 5515,
      "Ġfactor": 5516,
      "Ġteaching": 5517,
      "che": 5518,
      "osen": 5519,
      "Ġ78": 5520,
      "Ġrecognize": 5521,
      "Ġshooting": 5522,
      "Ġword": 5523,
      "Ġengage": 5524,
      "kent": 5525,
      "Ġstanding": 5526,
      "Ġmedal": 5527,
      "hab": 5528,
      "Ġfest": 5529,
      "ĠTheir": 5530,
      "ĠPeters": 5531,
      "Ġthunderstorms": 5532,
      "Ġfif": 5533,
      "Ġ(\"": 5534,
      "Ġ195": 5535,
      "Ġincreasingly": 5536,
      "itzer": 5537,
      "Ġsupports": 5538,
      "Ġextensive": 5539,
      "ĠSocial": 5540,
      "Ġdiscount": 5541,
      "ĠPent": 5542,
      "Ġsupplied": 5543,
      "39": 5544,
      "ĠUzAuto": 5545,
      "Ġreferendum": 5546,
      "ĠTosh": 5547,
      "ĠDi": 5548,
      "Ġ2015": 5549,
      "Ġcompatriots": 5550,
      "TE": 5551,
      "Ġneutral": 5552,
      "Ġachieving": 5553,
      "Ġeffectively": 5554,
      "ĠAdministrative": 5555,
      "la": 5556,
      "ĠNations": 5557,
      "oes": 5558,
      "Ġsimple": 5559,
      "ĠPentagon": 5560,
      "uran": 5561,
      "ĠMaj": 5562,
      "Ġappoint": 5563,
      "Ġchemical": 5564,
      "Ġflying": 5565,
      "Ġmigration": 5566,
      "Ġpreliminary": 5567,
      "Ġ2000": 5568,
      "Ġsupporters": 5569,
      ");": 5570,
      "Ġfem": 5571,
      "quality": 5572,
      "Ġshares": 5573,
      "Ġfailure": 5574,
      "GB": 5575,
      "fl": 5576,
      "Ġalternative": 5577,
      "agog": 5578,
      "Ġthinking": 5579,
      "Ġacquaint": 5580,
      "Ġfigure": 5581,
      "Ġmicro": 5582,
      "ĠSev": 5583,
      "riy": 5584,
      "Ġraw": 5585,
      "Ġlearn": 5586,
      "ĠPMC": 5587,
      "ĠDil": 5588,
      "Ġwinner": 5589,
      "Ġformation": 5590,
      "jonov": 5591,
      "ĠJinping": 5592,
      "ki": 5593,
      "Ġnorms": 5594,
      "Ġstable": 5595,
      "ĠMart": 5596,
      "ĠInt": 5597,
      "Ġresign": 5598,
      "Ġrequires": 5599,
      "Ġvoting": 5600,
      "Ġupdated": 5601,
      "ĠCzech": 5602,
      "Ġchampion": 5603,
      "ĠYun": 5604,
      "chiq": 5605,
      "Ġjustice": 5606,
      "ĠMariupol": 5607,
      "Ġfilled": 5608,
      "oles": 5609,
      "Ġbodily": 5610,
      "Ġentrepreneurship": 5611,
      "Ġslow": 5612,
      "Ġappearance": 5613,
      "ĠSever": 5614,
      "iring": 5615,
      "Ġweight": 5616,
      "gery": 5617,
      "ilon": 5618,
      "Ġbelow": 5619,
      "ining": 5620,
      "Ġseek": 5621,
      "ouses": 5622,
      "ĠStaff": 5623,
      "Ġtomorrow": 5624,
      "ps": 5625,
      "essi": 5626,
      "Ġweapon": 5627,
      "Ġeve": 5628,
      "utive": 5629,
      "odirov": 5630,
      "Ġanniversary": 5631,
      "icial": 5632,
      "ĠWell": 5633,
      "Ġhappy": 5634,
      "ĠPetersburg": 5635,
      "met": 5636,
      "Ġwrong": 5637,
      "Ġeth": 5638,
      "Ġconnected": 5639,
      "Ġtargeted": 5640,
      "Ġbarri": 5641,
      "mb": 5642,
      "ĠIS": 5643,
      "cessive": 5644,
      "Ġprofit": 5645,
      "ĠZelenskiy": 5646,
      "Ġdescribed": 5647,
      "ĠSlov": 5648,
      "Ġindeed": 5649,
      "Ġhealthy": 5650,
      "Ġoption": 5651,
      "Ġpromising": 5652,
      "Ġcharge": 5653,
      "Ġconsiders": 5654,
      "lav": 5655,
      "Ġeliminate": 5656,
      "ole": 5657,
      "oir": 5658,
      "Ġfast": 5659,
      "iful": 5660,
      "Ġaccidents": 5661,
      "Ġmarried": 5662,
      "Ġportion": 5663,
      "Ġattracting": 5664,
      "Ġmedicine": 5665,
      "Ġprivat": 5666,
      "Ġdestruction": 5667,
      "26": 5668,
      "ids": 5669,
      "ĠKir": 5670,
      "ĠGener": 5671,
      "Ġinitiatives": 5672,
      "oice": 5673,
      "Ġsens": 5674,
      "ĠRF": 5675,
      "Ġagents": 5676,
      "Ġattempts": 5677,
      "Ġer": 5678,
      "ĠBus": 5679,
      "Ġwhole": 5680,
      "Ġdeaths": 5681,
      "Ġpowers": 5682,
      "ashed": 5683,
      "Ġworldwide": 5684,
      "Ġlisted": 5685,
      "Ġranking": 5686,
      "Az": 5687,
      "mosp": 5688,
      "ĠMilitary": 5689,
      "Ġgeopol": 5690,
      "Ġgain": 5691,
      "Ġemphasizes": 5692,
      "Ġsupplying": 5693,
      "Ġpresentation": 5694,
      "ĠEconomy": 5695,
      "Ġmis": 5696,
      "Ġreality": 5697,
      "idency": 5698,
      "Ġproducing": 5699,
      "Ġresolve": 5700,
      "Ġprob": 5701,
      "Ġdisabilities": 5702,
      "ler": 5703,
      "Ġmas": 5704,
      "Ġconsecut": 5705,
      "ĠDistrict": 5706,
      "Ġdefenders": 5707,
      "ĠTourism": 5708,
      "ĠAndrey": 5709,
      "Ġpreserv": 5710,
      "Ġcollection": 5711,
      "what": 5712,
      "33": 5713,
      "DP": 5714,
      "Ġresulted": 5715,
      "Ġsun": 5716,
      "atically": 5717,
      "ĠWill": 5718,
      "Ġsolid": 5719,
      "cently": 5720,
      "Ġwonder": 5721,
      "urban": 5722,
      "Ġbab": 5723,
      "ĠWho": 5724,
      "Ġscholars": 5725,
      "Ġspouse": 5726,
      "Ġmodels": 5727,
      "Ġfalling": 5728,
      "Ġmakes": 5729,
      "Ġsubsidies": 5730,
      "ĠSirdaryo": 5731,
      "employ": 5732,
      "ĠKom": 5733,
      "ĠAtt": 5734,
      "Ġcritical": 5735,
      "governmental": 5736,
      "Ġtree": 5737,
      "ĠTerm": 5738,
      "ĠAli": 5739,
      "Ġfrequently": 5740,
      "38": 5741,
      "Ġstor": 5742,
      "Ġdemonstrated": 5743,
      "ivka": 5744,
      "Ġreading": 5745,
      "IA": 5746,
      "ĠMun": 5747,
      "Ġdisrup": 5748,
      "Ġtank": 5749,
      "ĠChancellor": 5750,
      "Ġbroke": 5751,
      "Ġmemor": 5752,
      "Ġadvertising": 5753,
      "more": 5754,
      "ayy": 5755,
      "Ġchain": 5756,
      "Ġoperator": 5757,
      "Ġavoid": 5758,
      "Ġauction": 5759,
      "uds": 5760,
      "Ġperformed": 5761,
      "ĠResearch": 5762,
      "Ġdeprived": 5763,
      "ĠTokayev": 5764,
      "Manchester": 5765,
      "Ġsupplies": 5766,
      "70": 5767,
      "Ġmistakes": 5768,
      "gorod": 5769,
      "Ġfemale": 5770,
      "ĠKGB": 5771,
      "Ġraising": 5772,
      "Ġcategories": 5773,
      "Ġelderly": 5774,
      "var": 5775,
      "ĠChelsea": 5776,
      "Ġfulfill": 5777,
      "Ġurgent": 5778,
      "ĠKos": 5779,
      "Ġrestored": 5780,
      "200": 5781,
      "Ġpoverty": 5782,
      "ĠYak": 5783,
      "Ġpersonally": 5784,
      "Ġexpanded": 5785,
      "ĠPes": 5786,
      "Ġoccurring": 5787,
      "Ġnorthern": 5788,
      "Ġdemocratic": 5789,
      "Ġforming": 5790,
      "Ġwriting": 5791,
      "Ġconclusions": 5792,
      "Ġtren": 5793,
      "Ġ44": 5794,
      "oomberg": 5795,
      "Ġconsecutive": 5796,
      "ĠCar": 5797,
      "Ġfinished": 5798,
      "Ġveget": 5799,
      "ĠMuslim": 5800,
      "Ġatmosp": 5801,
      "ifications": 5802,
      "Ġreplace": 5803,
      "Ad": 5804,
      "oliddin": 5805,
      "ĠFl": 5806,
      "Ġviolating": 5807,
      "Ġaffected": 5808,
      "Ġsignificance": 5809,
      "ĠRonald": 5810,
      "ken": 5811,
      "Ġsense": 5812,
      "Ġder": 5813,
      "ĠFace": 5814,
      "Ġevalu": 5815,
      "ĠBloomberg": 5816,
      "sp": 5817,
      "ĠEastern": 5818,
      "Ġposs": 5819,
      "Ġcauses": 5820,
      "elled": 5821,
      "Ġminimum": 5822,
      "ription": 5823,
      "Ġrecords": 5824,
      "itiz": 5825,
      "racted": 5826,
      "Ġpreventing": 5827,
      "Ġhospitals": 5828,
      "Ġconcerns": 5829,
      "Ġmanufacturers": 5830,
      "ĠScholz": 5831,
      "Ġincidents": 5832,
      "Ġcamera": 5833,
      "Ġsouthern": 5834,
      "Ġjets": 5835,
      "ĠScient": 5836,
      "Ġways": 5837,
      "Ġgre": 5838,
      "Ġtraditional": 5839,
      "Ġ194": 5840,
      "Ġcrew": 5841,
      "Ġtalks": 5842,
      "eria": 5843,
      "Ġreminded": 5844,
      "Ġkindergarten": 5845,
      "Ġexcessive": 5846,
      "Ġsigning": 5847,
      "Ġcovering": 5848,
      "ĠEnt": 5849,
      "gar": 5850,
      "Ġ48": 5851,
      "Ġinjury": 5852,
      "fielder": 5853,
      "ĠIb": 5854,
      "ĠBoard": 5855,
      "itzerland": 5856,
      "29": 5857,
      "ĠOfficial": 5858,
      "Ġconstitutional": 5859,
      "Ġhosts": 5860,
      "Ġstory": 5861,
      "ounds": 5862,
      "Ġincor": 5863,
      "Ġinstance": 5864,
      "Ġmidfielder": 5865,
      "ĠPeskov": 5866,
      "sun": 5867,
      "raid": 5868,
      "uck": 5869,
      "Ġviolated": 5870,
      "Ġsatell": 5871,
      "right": 5872,
      "Ġaccounts": 5873,
      "Ġcorrespondent": 5874,
      "Ġarmored": 5875,
      "Ġshopping": 5876,
      "ora": 5877,
      "Ġsole": 5878,
      "They": 5879,
      "ivalent": 5880,
      "vention": 5881,
      "ĠKok": 5882,
      "Ġsubstances": 5883,
      "just": 5884,
      "ĠNe": 5885,
      "ĠVik": 5886,
      "Ġattacking": 5887,
      "Ġconstitution": 5888,
      "Ġstorage": 5889,
      "Ġcanal": 5890,
      "Ġgrade": 5891,
      "esperson": 5892,
      "ĠEspecially": 5893,
      "Ġtort": 5894,
      "level": 5895,
      "Ġsecured": 5896,
      "Ġsurface": 5897,
      "ĠRecently": 5898,
      "ĠMusk": 5899,
      "Ġclaims": 5900,
      "Ġfunction": 5901,
      "ĠItalian": 5902,
      "itect": 5903,
      "Ġscale": 5904,
      "ĠSpanish": 5905,
      "Ġrescue": 5906,
      "Ġestimated": 5907,
      "lis": 5908,
      "Ġisland": 5909,
      "ĠJÃµ": 5910,
      "Ġru": 5911,
      "ĠChampionship": 5912,
      "Ġinstitute": 5913,
      "Ġsteps": 5914,
      "Russian": 5915,
      "bon": 5916,
      "rown": 5917,
      "oli": 5918,
      "ĠSm": 5919,
      "Ġdissatisfaction": 5920,
      "ĠSard": 5921,
      "ologist": 5922,
      "Inter": 5923,
      "Ġposted": 5924,
      "Ġburned": 5925,
      "van": 5926,
      "arations": 5927,
      "Ġmine": 5928,
      "ĠAlong": 5929,
      "Ġcalculation": 5930,
      "Ġintegrity": 5931,
      "Ġvolunte": 5932,
      "inations": 5933,
      "amb": 5934,
      "Ġstatistics": 5935,
      "nic": 5936,
      "ĠBelg": 5937,
      "unications": 5938,
      "Ġlaunching": 5939,
      "Ġsuspic": 5940,
      "sky": 5941,
      "Ġware": 5942,
      "Ġacting": 5943,
      "ĠYes": 5944,
      "Ġspending": 5945,
      "Ġtrading": 5946,
      "Ġemphasizing": 5947,
      "Ġ2025": 5948,
      "Ġsomewhat": 5949,
      "ĠAmericans": 5950,
      "Ġideas": 5951,
      "Ġafraid": 5952,
      "des": 5953,
      "ĠMessi": 5954,
      "ĠJah": 5955,
      "Ġcolony": 5956,
      "ĠPalestine": 5957,
      "Ġdrugs": 5958,
      "Ġmus": 5959,
      "Ġefficient": 5960,
      "aker": 5961,
      "Ġsites": 5962,
      "Ġattempting": 5963,
      "Ġurban": 5964,
      "ancial": 5965,
      "Ġneither": 5966,
      "Ġplots": 5967,
      "Ġprinciple": 5968,
      "mud": 5969,
      "Ġherit": 5970,
      "ables": 5971,
      "Ġsaved": 5972,
      "elling": 5973,
      "Ġassistant": 5974,
      "Ġirrig": 5975,
      "Ġheritage": 5976,
      "VID": 5977,
      "Ġcoin": 5978,
      "Ġintend": 5979,
      "Ġcoalition": 5980,
      "ĠYunus": 5981,
      "ĠHa": 5982,
      "ĠSwitzerland": 5983,
      "ala": 5984,
      "eless": 5985,
      "ĠStr": 5986,
      "Ġimproved": 5987,
      "idden": 5988,
      "Ġvillages": 5989,
      "Ġcertificates": 5990,
      "He": 5991,
      "ĠUAE": 5992,
      "Ġhospitalized": 5993,
      "asc": 5994,
      "Ġhum": 5995,
      "ema": 5996,
      "second": 5997,
      "ĠEcology": 5998,
      "Ġbeautiful": 5999,
      "Ġprestigious": 6000,
      "An": 6001,
      "point": 6002,
      "ĠGames": 6003,
      "Ġincom": 6004,
      "Ġunderstanding": 6005,
      "Ġturnover": 6006,
      "Ġextent": 6007,
      "ayd": 6008,
      "ĠPay": 6009,
      "Ġoverall": 6010,
      "Ġtransferring": 6011,
      "Ġinvolvement": 6012,
      "Ġabsolutely": 6013,
      "rete": 6014,
      "ocracy": 6015,
      "ĠUnder": 6016,
      "Ġguard": 6017,
      "Ġattempted": 6018,
      "Ġmurder": 6019,
      "Ġ1000": 6020,
      "Ġ77": 6021,
      "Ġrecru": 6022,
      "Ġexplosions": 6023,
      "Ġguarantee": 6024,
      "Ġinqu": 6025,
      "ĠSu": 6026,
      "ĠOta": 6027,
      "Ġallowing": 6028,
      "tenberg": 6029,
      "ĠPolice": 6030,
      "Ġcluster": 6031,
      "iant": 6032,
      "Ġcrop": 6033,
      "imb": 6034,
      "unding": 6035,
      "Ġtransit": 6036,
      "Ġgeopolitical": 6037,
      "Is": 6038,
      "Ġ2030": 6039,
      "Ġinters": 6040,
      "ĠAfrican": 6041,
      "Dun": 6042,
      "For": 6043,
      "Ġep": 6044,
      "ĠEston": 6045,
      "Ġscope": 6046,
      "Ġtrains": 6047,
      "ĠAbdul": 6048,
      "Ġspokesperson": 6049,
      "As": 6050,
      "Ġ120": 6051,
      "ĠNov": 6052,
      "ube": 6053,
      "ĠCE": 6054,
      "Ġequivalent": 6055,
      "ĠAirways": 6056,
      "Ġcou": 6057,
      "abil": 6058,
      "Ġ39": 6059,
      "Ġprovince": 6060,
      "Ġpassport": 6061,
      "usal": 6062,
      "ĠSing": 6063,
      "ĠKim": 6064,
      "Ġcomply": 6065,
      "Ġserves": 6066,
      "actions": 6067,
      "Ġperspective": 6068,
      "Ġcorpor": 6069,
      "ĠPalestinians": 6070,
      "Ġwidely": 6071,
      "Ġmillions": 6072,
      "tery": 6073,
      "Ġdeterior": 6074,
      "Ġcease": 6075,
      "ĠManagement": 6076,
      "enary": 6077,
      "ĠStol": 6078,
      "Ġannounce": 6079,
      "Ġ600": 6080,
      "Ġexported": 6081,
      "Ġmaintaining": 6082,
      "Ġrecommendations": 6083,
      "wise": 6084,
      "Ġchair": 6085,
      "allen": 6086,
      "Ġattitude": 6087,
      "Ġpreventive": 6088,
      "useum": 6089,
      "Ġcorridor": 6090,
      "ksandr": 6091,
      "ĠCustom": 6092,
      "ĠGenerally": 6093,
      "Ġthor": 6094,
      "Ġconsumer": 6095,
      "Ġnormal": 6096,
      "34": 6097,
      "Ar": 6098,
      "ĠAF": 6099,
      "ĠOther": 6100,
      "Ġgross": 6101,
      "Ġparliamentary": 6102,
      "iev": 6103,
      "Ġapartments": 6104,
      "lines": 6105,
      "ilonzor": 6106,
      "ĠStoltenberg": 6107,
      "aming": 6108,
      "Ġscreen": 6109,
      "sibilities": 6110,
      "Ġcertainly": 6111,
      "Ġclasses": 6112,
      "ĠDmitry": 6113,
      "bar": 6114,
      "ĠWomen": 6115,
      "Ġrich": 6116,
      "Ġupcoming": 6117,
      "attack": 6118,
      "Ġseeing": 6119,
      "Ġdefinite": 6120,
      "ĠMam": 6121,
      "Ġcomfort": 6122,
      "Ġowned": 6123,
      "ĠBeeline": 6124,
      "Ġaware": 6125,
      "Ġpharmaceutical": 6126,
      "Ġste": 6127,
      "Ġcompon": 6128,
      "ansion": 6129,
      "Ġ47": 6130,
      "Ġ64": 6131,
      "Ġrisks": 6132,
      "Ġacknowled": 6133,
      "ĠLithuania": 6134,
      "ĠMajlis": 6135,
      "Ġaro": 6136,
      "ĠCulture": 6137,
      "Ġsoft": 6138,
      "Ġpolitics": 6139,
      "Ġaerial": 6140,
      "At": 6141,
      "xÃµjayev": 6142,
      "Ġmagn": 6143,
      "unction": 6144,
      "Ġimag": 6145,
      "ressed": 6146,
      "Ġgovernments": 6147,
      "Ġunlike": 6148,
      "ĠHigh": 6149,
      "ĠLav": 6150,
      "Ġque": 6151,
      "Ġchoice": 6152,
      "Ġdivided": 6153,
      "ĠFacebook": 6154,
      "Ġ56": 6155,
      "ĠAng": 6156,
      "uhansk": 6157,
      "Ġfly": 6158,
      "ĠMikh": 6159,
      "Ġinspect": 6160,
      "ĠOliy": 6161,
      "Ġcomplaints": 6162,
      "uses": 6163,
      "ĠMb": 6164,
      "Ġsett": 6165,
      "Ġmechanisms": 6166,
      "Ġfriendly": 6167,
      "Dunyo": 6168,
      "inery": 6169,
      "Ġmer": 6170,
      "ifts": 6171,
      "Ġkilling": 6172,
      "Ġdecis": 6173,
      "Ġpaper": 6174,
      "Ġprosper": 6175,
      "arently": 6176,
      "Ġbon": 6177,
      "siy": 6178,
      "Ġtechnological": 6179,
      "Ġthoughts": 6180,
      "ĠEmploy": 6181,
      "Ġmosque": 6182,
      "AN": 6183,
      "houses": 6184,
      "ĠKur": 6185,
      "Ġcreative": 6186,
      "Ġterrorism": 6187,
      "ĠInte": 6188,
      "Ġcourses": 6189,
      "Ġfacility": 6190,
      "Ġzero": 6191,
      "Ġjudge": 6192,
      "Ġsustain": 6193,
      "ĠViktor": 6194,
      ",Â«": 6195,
      "uit": 6196,
      "Ġnine": 6197,
      "Ġremember": 6198,
      "Ġauth": 6199,
      "Ġnamely": 6200,
      "Ġmechanism": 6201,
      "itizens": 6202,
      "Ġmuseum": 6203,
      "ĠPower": 6204,
      "Ġrestore": 6205,
      "Ġqualified": 6206,
      "takor": 6207,
      "ĠPed": 6208,
      "Ġplastic": 6209,
      "alla": 6210,
      "Ġcreation": 6211,
      "igration": 6212,
      "Ġconstantly": 6213,
      "gn": 6214,
      "anges": 6215,
      "ongir": 6216,
      "ĠYus": 6217,
      "Ġrefugees": 6218,
      "int": 6219,
      "Ġcool": 6220,
      "Ġcanceled": 6221,
      "32": 6222,
      "ivest": 6223,
      "Ġreconstruction": 6224,
      "Ġtickets": 6225,
      "uÇ§": 6226,
      "Ġoffices": 6227,
      "ĠRespon": 6228,
      "Ġengineering": 6229,
      "ivestock": 6230,
      "Ġsky": 6231,
      "Ġhor": 6232,
      "Ġstages": 6233,
      "ĠMain": 6234,
      "ureau": 6235,
      "ĠUnfortunately": 6236,
      "Ġrevenues": 6237,
      "auc": 6238,
      "hny": 6239,
      "Ġsleep": 6240,
      "edly": 6241,
      "Ġcitizenship": 6242,
      "Ġindicate": 6243,
      "Ġcamer": 6244,
      "Ġanimals": 6245,
      "enko": 6246,
      "Ġhun": 6247,
      "ĠMax": 6248,
      "Ġsimpl": 6249,
      "Ġpresidency": 6250,
      "Ġcra": 6251,
      "ita": 6252,
      "Ġfake": 6253,
      "Ġmalf": 6254,
      "merce": 6255,
      "ommod": 6256,
      "Ġcircumstances": 6257,
      "Barcelona": 6258,
      "Ġforg": 6259,
      "ĠSun": 6260,
      "iva": 6261,
      "Ġchess": 6262,
      "Ġourselves": 6263,
      "exia": 6264,
      "Ġenvisaged": 6265,
      "Ġgarden": 6266,
      "Ġdisplay": 6267,
      "ĠRonaldo": 6268,
      "Ġthorough": 6269,
      "asant": 6270,
      "Ġsitting": 6271,
      "ĠMikhail": 6272,
      "Ġbuying": 6273,
      "Ġjudicial": 6274,
      "Ġsize": 6275,
      "ishes": 6276,
      "Ġrefe": 6277,
      "ĠDub": 6278,
      "udden": 6279,
      "ormit": 6280,
      "ĠIts": 6281,
      "Ġfined": 6282,
      "Ġmultip": 6283,
      "Ġdropped": 6284,
      "Ġwish": 6285,
      "akov": 6286,
      "ĠYear": 6287,
      "Ġfarming": 6288,
      "Ġcapture": 6289,
      "ĠCOVID": 6290,
      "Ġrat": 6291,
      "ĠLuhansk": 6292,
      "Ġsymbol": 6293,
      "load": 6294,
      "ĠDuma": 6295,
      "lik": 6296,
      "ĠSurkh": 6297,
      "Ġmotor": 6298,
      "Ġdoor": 6299,
      "ĠSpace": 6300,
      "Ġintensified": 6301,
      "Ġecological": 6302,
      "loc": 6303,
      "Ġarise": 6304,
      "Ġunderground": 6305,
      "ĠAnti": 6306,
      "ĠSuper": 6307,
      "Ġfarmer": 6308,
      "inated": 6309,
      "andarya": 6310,
      "Ġ57": 6311,
      "Ġ74": 6312,
      "Ġcrashed": 6313,
      "Ġinsult": 6314,
      "Ġhelped": 6315,
      "Ġdetailed": 6316,
      "ĠJahongir": 6317,
      "New": 6318,
      "eorological": 6319,
      "Ġlegislative": 6320,
      "rounding": 6321,
      "Ġexpense": 6322,
      "Ġreservoir": 6323,
      "rozen": 6324,
      "ĠLatvia": 6325,
      "ingly": 6326,
      "Ġcharged": 6327,
      "Ġclosely": 6328,
      "ma": 6329,
      "andum": 6330,
      "ples": 6331,
      "Ġapproached": 6332,
      "ĠBerd": 6333,
      "Ġassessment": 6334,
      "ordinary": 6335,
      "Ġtraged": 6336,
      "Ġwouldn": 6337,
      "Ġsurrounding": 6338,
      "Ġidentify": 6339,
      "Ġrequirement": 6340,
      "ĠSirdarya": 6341,
      "Ġdormit": 6342,
      "ĠMel": 6343,
      "orruption": 6344,
      "Ġdry": 6345,
      "ĠMet": 6346,
      "agues": 6347,
      "Ġruling": 6348,
      "Ġdisclosed": 6349,
      "Ġancient": 6350,
      "acted": 6351,
      "Ġwat": 6352,
      "Ġabolished": 6353,
      "ĠLiverpool": 6354,
      "ĠChrist": 6355,
      "Ġarrival": 6356,
      "Ġfavorable": 6357,
      "Ġintensify": 6358,
      "Ġintegration": 6359,
      "ĠSherzod": 6360,
      "Ġhall": 6361,
      "ene": 6362,
      "Ġforms": 6363,
      "obile": 6364,
      "Ġaccommod": 6365,
      "Ġexpansion": 6366,
      "matov": 6367,
      "Ġjudges": 6368,
      "ĠFirstly": 6369,
      "ĠAgriculture": 6370,
      "ĠAustralia": 6371,
      "agogical": 6372,
      "Ph": 6373,
      "ĠAM": 6374,
      "Ġunch": 6375,
      "ĠGod": 6376,
      "Ġprem": 6377,
      "ĠVAT": 6378,
      "ologists": 6379,
      "Ġauthorized": 6380,
      "Ġtourist": 6381,
      "Ġauthors": 6382,
      "ga": 6383,
      "Ġrob": 6384,
      "Ġfamiliar": 6385,
      "Ġpedestrian": 6386,
      "za": 6387,
      "lets": 6388,
      "ĠCN": 6389,
      "nings": 6390,
      "Ġlearned": 6391,
      "anoat": 6392,
      "ĠOtabek": 6393,
      "ĠLa": 6394,
      "ĠChir": 6395,
      "ĠChildren": 6396,
      "Ġfines": 6397,
      "wing": 6398,
      "Ġund": 6399,
      "ĠYouth": 6400,
      "Ġwrite": 6401,
      "offensive": 6402,
      "ĠSurkhandarya": 6403,
      "Ġinvad": 6404,
      "Ġ85": 6405,
      "ĠAmbassador": 6406,
      "Ġexplanation": 6407,
      "ĠExperts": 6408,
      "encing": 6409,
      "Ġusual": 6410,
      "ĠChilonzor": 6411,
      "Ġearn": 6412,
      "aired": 6413,
      "sa": 6414,
      "aning": 6415,
      "ĠKon": 6416,
      "comings": 6417,
      "Ġperformance": 6418,
      "Ġshells": 6419,
      "Ġhelping": 6420,
      "obalt": 6421,
      "Ġunderstood": 6422,
      "Ġachievements": 6423,
      "Ġpicture": 6424,
      "iad": 6425,
      "ulating": 6426,
      "oples": 6427,
      "ĠHas": 6428,
      "ĠChar": 6429,
      "Ġacceler": 6430,
      "Ġfederal": 6431,
      "aces": 6432,
      "Ġscoring": 6433,
      "Ġinvestigations": 6434,
      "Ġshortcomings": 6435,
      "Ġlineup": 6436,
      "Ġruble": 6437,
      "Ġawa": 6438,
      "books": 6439,
      "Gaz": 6440,
      "pay": 6441,
      "Ġfrozen": 6442,
      "Ġstorm": 6443,
      "Ġchosen": 6444,
      "ĠInvestments": 6445,
      "Ġvolunt": 6446,
      "Ġpieces": 6447,
      "tical": 6448,
      "Ġfer": 6449,
      "ĠRust": 6450,
      "Ġdatab": 6451,
      "ĠRahmon": 6452,
      "shid": 6453,
      "Ġpropaganda": 6454,
      "ĠMbappe": 6455,
      "Ġmedals": 6456,
      "Ġcheap": 6457,
      "Ġagent": 6458,
      "Ġcontext": 6459,
      "wered": 6460,
      "Ġ2010": 6461,
      "Ġfigures": 6462,
      "Ġescalation": 6463,
      "Ġcameras": 6464,
      "300": 6465,
      "Ġpen": 6466,
      "ĠID": 6467,
      "Ġunion": 6468,
      "Ġrural": 6469,
      "Ġtrucks": 6470,
      "Ġbread": 6471,
      "Ġstands": 6472,
      "Ġdiscussing": 6473,
      "Ġrestaur": 6474,
      "ĠBoris": 6475,
      "ĠSergeli": 6476,
      "SA": 6477,
      "Ġgun": 6478,
      "ĠDam": 6479,
      "Ġraise": 6480,
      "Ġemphasize": 6481,
      "Ġcontrolled": 6482,
      "Ġapplicant": 6483,
      "arqand": 6484,
      "Ġexting": 6485,
      "Ġextingu": 6486,
      "Ars": 6487,
      "Our": 6488,
      "hr": 6489,
      "Ġdies": 6490,
      "Ġoptions": 6491,
      "Ġtransmission": 6492,
      "Ġfootballers": 6493,
      "ĠAirport": 6494,
      "Ġmobilized": 6495,
      "Ġment": 6496,
      "ded": 6497,
      "fect": 6498,
      "alin": 6499,
      "Ġ86": 6500,
      "Ġcult": 6501,
      "ĠMoon": 6502,
      "Ġseats": 6503,
      "Ġ49": 6504,
      "Ġaccur": 6505,
      "ribe": 6506,
      "ĠKokand": 6507,
      "fess": 6508,
      "son": 6509,
      "tim": 6510,
      "Ġsetting": 6511,
      "ĠBelgorod": 6512,
      "ĠKarimov": 6513,
      "Ġtender": 6514,
      "Ġevacuated": 6515,
      "ders": 6516,
      "othing": 6517,
      "Ġfiled": 6518,
      "Ġcompliance": 6519,
      "Ġsurvey": 6520,
      "ottenham": 6521,
      "tiyor": 6522,
      "uls": 6523,
      "ĠGr": 6524,
      "Ġkill": 6525,
      "Ġmind": 6526,
      "Ġpurchases": 6527,
      "ĠSupport": 6528,
      "Ġcalculated": 6529,
      "Ġinnovative": 6530,
      "idering": 6531,
      "ĠIndeed": 6532,
      "ĠPet": 6533,
      "umb": 6534,
      "Ġscientist": 6535,
      "ĠEmbassy": 6536,
      "Ġradio": 6537,
      "Ġvacation": 6538,
      "Ġwounded": 6539,
      "ĠUch": 6540,
      "opard": 6541,
      "Ġaccum": 6542,
      "Ġintroduction": 6543,
      "ĠSciences": 6544,
      "Ġrunning": 6545,
      "SB": 6546,
      "ady": 6547,
      "ĠMod": 6548,
      "Ġissuing": 6549,
      "Ġdefinitely": 6550,
      "osite": 6551,
      "ĠPen": 6552,
      "Ġdecline": 6553,
      "kor": 6554,
      "overy": 6555,
      "ĠSaint": 6556,
      "Ġlawyers": 6557,
      "ĠArgentina": 6558,
      "Ġfundamental": 6559,
      "Nav": 6560,
      "ming": 6561,
      "omet": 6562,
      "othes": 6563,
      "Ġconcrete": 6564,
      "Ġabsence": 6565,
      "Ġtreated": 6566,
      "Ġenh": 6567,
      "Ġ58": 6568,
      "Ġtextbooks": 6569,
      "Ġunchanged": 6570,
      "edding": 6571,
      "ĠRiver": 6572,
      "ĠRober": 6573,
      "Ġvalu": 6574,
      "Ġticket": 6575,
      "My": 6576,
      "ĠQodirov": 6577,
      "Ġexplo": 6578,
      "ĠDemocratic": 6579,
      "Ġsick": 6580,
      "Ġsudden": 6581,
      "iter": 6582,
      "irt": 6583,
      "Ġchance": 6584,
      "ĠGal": 6585,
      "Ġtraveling": 6586,
      "36": 6587,
      "green": 6588,
      "ini": 6589,
      "Ġduration": 6590,
      "Ġgained": 6591,
      "Ġintense": 6592,
      "Ġmanaging": 6593,
      "Ġtruly": 6594,
      "ography": 6595,
      "lan": 6596,
      "anded": 6597,
      "ĠNews": 6598,
      "Ġanalysts": 6599,
      "Ġcas": 6600,
      "ĠEd": 6601,
      "Ġpartially": 6602,
      "ĠJizzax": 6603,
      "!\"": 6604,
      "ĠBoth": 6605,
      "Ġprime": 6606,
      "sified": 6607,
      "Ġsometimes": 6608,
      "Ġimprisoned": 6609,
      "ĠSardor": 6610,
      "roat": 6611,
      "ruck": 6612,
      "issance": 6613,
      "Ġencount": 6614,
      "Ġpromotion": 6615,
      "ditions": 6616,
      "ĠBudget": 6617,
      "ĠOb": 6618,
      "Ġfees": 6619,
      "Ġtown": 6620,
      "ĠJew": 6621,
      "Ġ72": 6622,
      "Ġconcer": 6623,
      "Ġinspector": 6624,
      "cean": 6625,
      "endit": 6626,
      "Ġ71": 6627,
      "Ġ76": 6628,
      "Ġ250": 6629,
      "Ġrestricted": 6630,
      "Ġwalk": 6631,
      "ĠYevgeniy": 6632,
      "ĠCEO": 6633,
      "ĠLavrov": 6634,
      "cap": 6635,
      "occ": 6636,
      "ros": 6637,
      "ĠIgor": 6638,
      "Ġnotice": 6639,
      "ĠHaj": 6640,
      "Ġoccasion": 6641,
      "Ġretail": 6642,
      "Ġpreschool": 6643,
      "tar": 6644,
      "Ġ67": 6645,
      "Ġdesert": 6646,
      "Ġprogress": 6647,
      "Ġtested": 6648,
      "Ġsuspect": 6649,
      "Ġparking": 6650,
      "ĠUluÇ§": 6651,
      "Ġtactical": 6652,
      "Ġfifth": 6653,
      "Ġdrop": 6654,
      "ĠJamshid": 6655,
      "Ukraine": 6656,
      "ware": 6657,
      "Ġenhan": 6658,
      "ĠAbdullayev": 6659,
      "ĠSecondly": 6660,
      "Ġsovereignty": 6661,
      "Ġrein": 6662,
      "otic": 6663,
      "Ġexcl": 6664,
      "ĠElectric": 6665,
      "Ġcancel": 6666,
      "Ġrockets": 6667,
      "iled": 6668,
      "ĠRah": 6669,
      "Ġcomputer": 6670,
      "Ġ68": 6671,
      "ĠComb": 6672,
      "Ġembar": 6673,
      "di": 6674,
      "Ġfilling": 6675,
      "ĠRece": 6676,
      "Ġdeclaration": 6677,
      "Ġassoci": 6678,
      "ĠNikol": 6679,
      "Ġarose": 6680,
      "Arsenal": 6681,
      "rely": 6682,
      "agers": 6683,
      "Ġmerc": 6684,
      "ĠBar": 6685,
      "ĠDonald": 6686,
      "Ġsister": 6687,
      "Ġcooper": 6688,
      "comm": 6689,
      "Ġrapidly": 6690,
      "ĠCompany": 6691,
      "Ġarchitect": 6692,
      "'ve": 6693,
      "Ġbag": 6694,
      "Ġlaboratory": 6695,
      "Ġintensifying": 6696,
      "rence": 6697,
      "Ġsoil": 6698,
      "Ġ2008": 6699,
      "Ġregardless": 6700,
      "ĠCorrect": 6701,
      "Ġblogger": 6702,
      "lings": 6703,
      "ĠAT": 6704,
      "Ġcoast": 6705,
      "Ġexpendit": 6706,
      "Ġplanted": 6707,
      "Ġbloggers": 6708,
      "But": 6709,
      "ĠBu": 6710,
      "umed": 6711,
      "ĠIndian": 6712,
      "Ġgraduates": 6713,
      "Ġdelayed": 6714,
      "Ġwestern": 6715,
      "ĠKl": 6716,
      "ĠNag": 6717,
      "Ġclause": 6718,
      "Ġusually": 6719,
      "Ġ42": 6720,
      "Ġforget": 6721,
      "Ġlivestock": 6722,
      "ootball": 6723,
      "Ġinstallation": 6724,
      "ĠDnip": 6725,
      "aliyev": 6726,
      "ĠZal": 6727,
      "Ġatmosphere": 6728,
      "ĠEntreprene": 6729,
      "EC": 6730,
      "rell": 6731,
      "Ġnar": 6732,
      "antic": 6733,
      "Ġranging": 6734,
      "active": 6735,
      "Ġ700": 6736,
      "Ġfinally": 6737,
      "Ġmanager": 6738,
      "ĠKarabakh": 6739,
      "ĠArmenian": 6740,
      "Ġentrepreneurial": 6741,
      "ĠNig": 6742,
      "Ġimages": 6743,
      "Ġgreenhouse": 6744,
      "Ġpet": 6745,
      "ĠHus": 6746,
      "conn": 6747,
      "Ġthereby": 6748,
      "Ġservic": 6749,
      "manov": 6750,
      "uzhny": 6751,
      "Ġeconomist": 6752,
      "Ġknows": 6753,
      "Ġcloser": 6754,
      "Ġundergo": 6755,
      "Ġreput": 6756,
      "Ġobjections": 6757,
      "ĠEmir": 6758,
      "Ġconnections": 6759,
      "Ġdecisive": 6760,
      "Ġast": 6761,
      "Ġnav": 6762,
      "abad": 6763,
      "Ġresistance": 6764,
      "Ġbrig": 6765,
      "Ġdream": 6766,
      "Ġtragedy": 6767,
      "manned": 6768,
      "Ġports": 6769,
      "Ãµz": 6770,
      "Ġaims": 6771,
      "Ġmarri": 6772,
      "Ġappointment": 6773,
      "ĠInterest": 6774,
      "\":": 6775,
      "ho": 6776,
      "pher": 6777,
      "state": 6778,
      "ĠSar": 6779,
      "ĠMex": 6780,
      "ĠRash": 6781,
      "Ġoperates": 6782,
      "ĠConsidering": 6783,
      "ĠCel": 6784,
      "ĠGen": 6785,
      "ĠCultural": 6786,
      "Ġyourself": 6787,
      "Ġwindows": 6788,
      "Ġpilots": 6789,
      "ĠAbdurahmon": 6790,
      "Ġpilgrim": 6791,
      "mbuds": 6792,
      "Bay": 6793,
      "ration": 6794,
      "ĠJal": 6795,
      "Ġ62": 6796,
      "ĠBelow": 6797,
      "Ġspreading": 6798,
      "chenko": 6799,
      "senal": 6800,
      "ont": 6801,
      "ena": 6802,
      "Ġdog": 6803,
      "usion": 6804,
      "Ġhaven": 6805,
      "sey": 6806,
      "Ġ59": 6807,
      "Ġcollap": 6808,
      "itage": 6809,
      "ĠCitizens": 6810,
      "Ġconsent": 6811,
      "Ġstopping": 6812,
      "ĠGovern": 6813,
      "ifies": 6814,
      "Ġdemocracy": 6815,
      "Ġprocedures": 6816,
      "Ġescape": 6817,
      "ĠAral": 6818,
      "Ġcorner": 6819,
      "ĠFinancial": 6820,
      "ford": 6821,
      "lo": 6822,
      "Ġbra": 6823,
      "ĠInnov": 6824,
      "Ġmines": 6825,
      "Ġmonu": 6826,
      "Ġmanage": 6827,
      "Ġconstitutes": 6828,
      "Ġtransparency": 6829,
      "Ġwedding": 6830,
      "Ġpray": 6831,
      "Ġhighway": 6832,
      "Ġvalid": 6833,
      "Ġpeaceful": 6834,
      "Ġreplaced": 6835,
      "HO": 6836,
      "vili": 6837,
      "water": 6838,
      "aks": 6839,
      "ĠFam": 6840,
      "ĠHol": 6841,
      "Ġsignal": 6842,
      "rovers": 6843,
      "Ġensured": 6844,
      "gench": 6845,
      "ĠDenmark": 6846,
      "Ġclinic": 6847,
      "Ġreferred": 6848,
      "55": 6849,
      "mans": 6850,
      "person": 6851,
      "elines": 6852,
      "Ġwors": 6853,
      "Ġinvestigated": 6854,
      "Ġbehalf": 6855,
      "ĠStream": 6856,
      "ĠChirchiq": 6857,
      "fall": 6858,
      "Ġselected": 6859,
      "Ġsuitable": 6860,
      "oyal": 6861,
      "ima": 6862,
      "Ġunmanned": 6863,
      "liber": 6864,
      "Ġmatters": 6865,
      "ĠMirzo": 6866,
      "Ġexpressing": 6867,
      "Ġrepeatedly": 6868,
      "Ġsurgery": 6869,
      "Ġprotected": 6870,
      "ĠHeritage": 6871,
      "ĠDan": 6872,
      "asters": 6873,
      "ĠChief": 6874,
      "Ġenhance": 6875,
      "Ġforemost": 6876,
      "Ġextraction": 6877,
      "Ġsugar": 6878,
      "mbudsman": 6879,
      "Ġworry": 6880,
      "Ġspons": 6881,
      "Ġmining": 6882,
      "Ġ2012": 6883,
      "Ġprompt": 6884,
      "ĠReport": 6885,
      "Ġintellectual": 6886,
      "ao": 6887,
      "ĠCy": 6888,
      "ugg": 6889,
      "Ġvoted": 6890,
      "Ġexecuted": 6891,
      "Ġaccusations": 6892,
      "100": 6893,
      "aire": 6894,
      "kara": 6895,
      "yond": 6896,
      "ĠMc": 6897,
      "essa": 6898,
      "Ġeffectiveness": 6899,
      "ĠSerbia": 6900,
      "heast": 6901,
      "Ġbeyond": 6902,
      "ĠUK": 6903,
      "Ġunus": 6904,
      "Ġexceeds": 6905,
      "ĠSports": 6906,
      "Ġkid": 6907,
      "Ġpeoples": 6908,
      "Ġ54": 6909,
      "Ġsmartphone": 6910,
      "ĠSch": 6911,
      "Ġgives": 6912,
      "ĠCivil": 6913,
      "agram": 6914,
      "uhrat": 6915,
      "ĠBusiness": 6916,
      "Ġsatellite": 6917,
      "bors": 6918,
      "Ġcode": 6919,
      "ĠMat": 6920,
      "Ġmissing": 6921,
      "Ġvalued": 6922,
      "Ġabandoned": 6923,
      "ĠCNN": 6924,
      "Ġcasual": 6925,
      "ĠTayy": 6926,
      "Ġfort": 6927,
      "ovka": 6928,
      "ĠHouth": 6929,
      "ĠSamarqand": 6930,
      "ĠPolicy": 6931,
      "Ġswitch": 6932,
      "ĠTayyip": 6933,
      "range": 6934,
      "using": 6935,
      "eva": 6936,
      "Ġevacuation": 6937,
      "Ġdisappeared": 6938,
      "Ġproceedings": 6939,
      "ĠMunich": 6940,
      "ĠRecep": 6941,
      "Ġsound": 6942,
      "ĠBas": 6943,
      "Ġadmit": 6944,
      "Ġtransl": 6945,
      "Ġmedicines": 6946,
      "Ġprotesters": 6947,
      "rant": 6948,
      "ĠSystem": 6949,
      "essions": 6950,
      "Ġconserv": 6951,
      "Ġtopics": 6952,
      "Ġfalls": 6953,
      "Ġrounds": 6954,
      "Tube": 6955,
      "lar": 6956,
      "Ġ*": 6957,
      "Ġunified": 6958,
      "Ġclothes": 6959,
      "Ġbusinesses": 6960,
      "Ġindependently": 6961,
      "ĠKamoliddin": 6962,
      "ength": 6963,
      "ĠZaluzhny": 6964,
      "ban": 6965,
      "Ġtimely": 6966,
      "Ġmode": 6967,
      "Ġfacilit": 6968,
      "ĠAbdulla": 6969,
      "ĠWarnings": 6970,
      "Ġcomplaint": 6971,
      "Ġcutting": 6972,
      "Ġanalyzed": 6973,
      "ĠOfficials": 6974,
      "ĠHajj": 6975,
      "pol": 6976,
      "onom": 6977,
      "ĠTom": 6978,
      "Ġvoc": 6979,
      "azor": 6980,
      "ĠShay": 6981,
      "Ġsubsequ": 6982,
      "ĠJohns": 6983,
      "After": 6984,
      "Ġstip": 6985,
      "ĠRos": 6986,
      "Ġimpose": 6987,
      "Ġdepends": 6988,
      "Ġrecover": 6989,
      "Ġperforming": 6990,
      "Ġinquir": 6991,
      "Ġsy": 6992,
      "Ġhumanity": 6993,
      "Ġopposite": 6994,
      "Ġbanking": 6995,
      "ĠRoman": 6996,
      "ĠTechnologies": 6997,
      "Ġpollution": 6998,
      "fire": 6999,
      "otive": 7000,
      "Ġhear": 7001,
      "ĠAnkara": 7002,
      "Ġflour": 7003,
      "Ġcompetitive": 7004,
      "Ġstrictly": 7005,
      "Ġbriefing": 7006,
      "Ġencountered": 7007,
      "Kar": 7008,
      "OR": 7009,
      "isi": 7010,
      "itors": 7011,
      "Ġstruck": 7012,
      "ĠHydromet": 7013,
      "Ġcontrovers": 7014,
      "issions": 7015,
      "Ġairports": 7016,
      "ĠYouTube": 7017,
      "ael": 7018,
      "Ġrelying": 7019,
      "ĠBa": 7020,
      "Ġimage": 7021,
      "ahu": 7022,
      "ĠMedia": 7023,
      "Ġpromoting": 7024,
      "Ġdatabase": 7025,
      "ĠForum": 7026,
      "Ġ63": 7027,
      "Ġ66": 7028,
      "ĠQarshi": 7029,
      "Ġhelps": 7030,
      "Ġsettle": 7031,
      "tiq": 7032,
      "Ġharvest": 7033,
      "ĠEstonia": 7034,
      "Ġacknowledged": 7035,
      "Ġreputation": 7036,
      "'ll": 7037,
      "ivation": 7038,
      "Ġacts": 7039,
      "Ġremov": 7040,
      "ĠProfess": 7041,
      "Ġexceeding": 7042,
      "Ġconcerning": 7043,
      "Tur": 7044,
      "free": 7045,
      "istical": 7046,
      "ĠBund": 7047,
      "ĠGe": 7048,
      "Ġvisas": 7049,
      "Ġcustomer": 7050,
      "ĠAzerbaijani": 7051,
      "Ġmemory": 7052,
      "grade": 7053,
      "ĠCustoms": 7054,
      "Ġcasualties": 7055,
      "Chelsea": 7056,
      "yen": 7057,
      "ĠIz": 7058,
      "Ġmemorandum": 7059,
      "arity": 7060,
      "ĠJos": 7061,
      "Ġapplying": 7062,
      "Ġreloc": 7063,
      "Ġwindow": 7064,
      "Ġcollapse": 7065,
      "Ġencourage": 7066,
      "Ġfestival": 7067,
      "human": 7068,
      "uers": 7069,
      "ĠBoy": 7070,
      "Ġunemploy": 7071,
      "Ġmedium": 7072,
      "Ġregulatory": 7073,
      "Ġkeeps": 7074,
      "Ġannexed": 7075,
      "gin": 7076,
      "joy": 7077,
      "ayot": 7078,
      "Ġyesterday": 7079,
      "Ġcrimin": 7080,
      "Ġapolog": 7081,
      "ĠAmir": 7082,
      "Ġcounterattack": 7083,
      "Ġdrawn": 7084,
      "Ġlanding": 7085,
      "Ġstyle": 7086,
      "osis": 7087,
      "Ġappealed": 7088,
      "Ġbiggest": 7089,
      "vironment": 7090,
      "Ġunif": 7091,
      "efied": 7092,
      "ernand": 7093,
      "Ġlength": 7094,
      "ĠNexia": 7095,
      "2022": 7096,
      "Ġoffering": 7097,
      "ĠPhot": 7098,
      "Ġknew": 7099,
      "Ġsatisfied": 7100,
      "Ġkindergartens": 7101,
      "Ġwonderful": 7102,
      "Med": 7103,
      "Ġmood": 7104,
      "igital": 7105,
      "ĠOp": 7106,
      "Ġmaintained": 7107,
      "Ġcommun": 7108,
      "Ġinflict": 7109,
      "Ġdissatisfied": 7110,
      "Ġobstac": 7111,
      "hran": 7112,
      "rich": 7113,
      "ĠPres": 7114,
      "Ġ69": 7115,
      "Ġpasses": 7116,
      "Ġ2006": 7117,
      "Ġadoption": 7118,
      "Ġcertification": 7119,
      "Ġresearc": 7120,
      "Ġseemed": 7121,
      "Ġresignation": 7122,
      "ĠFound": 7123,
      "Ġwells": 7124,
      "Ġzones": 7125,
      "ĠNorway": 7126,
      "Ġsuperior": 7127,
      "Ġpra": 7128,
      "apore": 7129,
      "Ġdamages": 7130,
      "Ġplenary": 7131,
      "ĠHar": 7132,
      "anyahu": 7133,
      "Ġrental": 7134,
      "ĠUrgench": 7135,
      "Ġshelled": 7136,
      "Ġmilit": 7137,
      "Ġdeport": 7138,
      "Ġleague": 7139,
      "ĠYÃµ": 7140,
      "Ġfocused": 7141,
      "ĠMuslims": 7142,
      "Ġbaby": 7143,
      "Me": 7144,
      "Ġcreat": 7145,
      "sia": 7146,
      "linary": 7147,
      "rupt": 7148,
      "ĠOrtiq": 7149,
      "Ġjointly": 7150,
      "Ġwithdrawal": 7151,
      "Ġcomponents": 7152,
      "qulov": 7153,
      "ĠGDP": 7154,
      "rik": 7155,
      "Ġproperties": 7156,
      "arbayev": 7157,
      "Ġign": 7158,
      "ĠThree": 7159,
      "Ġattended": 7160,
      "ĠVice": 7161,
      "Ġneighbors": 7162,
      "ĠTermez": 7163,
      "Ġvaluable": 7164,
      "amin": 7165,
      "ĠRa": 7166,
      "Ġsex": 7167,
      "Ġamaz": 7168,
      "Ġ84": 7169,
      "ĠProdu": 7170,
      "ĠRegion": 7171,
      "Ġwitnesses": 7172,
      "ĠOdessa": 7173,
      "war": 7174,
      "Ġmort": 7175,
      "raph": 7176,
      "Ġvoice": 7177,
      "Ġroof": 7178,
      "Ġvoters": 7179,
      "Ġ1990": 7180,
      "Ġanswers": 7181,
      "ventus": 7182,
      "ĠNetanyahu": 7183,
      "imova": 7184,
      "akia": 7185,
      "Ġshared": 7186,
      "ĠUluÇ§bek": 7187,
      "Ġfog": 7188,
      "asp": 7189,
      "iced": 7190,
      "Ġgift": 7191,
      "rible": 7192,
      "Ġlasted": 7193,
      "Ġindicating": 7194,
      "ĠFrank": 7195,
      "Ġextraordinary": 7196,
      "Ġwait": 7197,
      "Ġrooms": 7198,
      "ĠBarcelona": 7199,
      "avi": 7200,
      "ĠDirectorate": 7201,
      "Ġboys": 7202,
      "ĠResponsibility": 7203,
      "ĠJohnson": 7204,
      "iological": 7205,
      "no": 7206,
      "Ġtouch": 7207,
      "ĠIr": 7208,
      "Ġwhite": 7209,
      "Ġopposed": 7210,
      "Ġdeparture": 7211,
      "Ġliquefied": 7212,
      "Ġincorrect": 7213,
      "zoq": 7214,
      "unk": 7215,
      "Ġcongest": 7216,
      "opoly": 7217,
      "ĠTehran": 7218,
      "locut": 7219,
      "based": 7220,
      "rog": 7221,
      "chuk": 7222,
      "ĠCommerce": 7223,
      "Ġbright": 7224,
      "Ġpressing": 7225,
      "Ġreferee": 7226,
      "ES": 7227,
      "ĠPost": 7228,
      "ĠDec": 7229,
      "Ġ61": 7230,
      "Ġaggressive": 7231,
      "Ġpanels": 7232,
      "investigation": 7233,
      "ĠCobalt": 7234,
      "ĠInspe": 7235,
      "Ġseg": 7236,
      "Ġunc": 7237,
      "Ġ41": 7238,
      "hamed": 7239,
      "Ġranked": 7240,
      "ĠDubai": 7241,
      "hol": 7242,
      "tt": 7243,
      "yod": 7244,
      "ancy": 7245,
      "ĠCap": 7246,
      "Ġinterlocut": 7247,
      "ĠRepublicans": 7248,
      "Ġboil": 7249,
      "Ġexporting": 7250,
      "Ġcirculation": 7251,
      "Ġdiplomats": 7252,
      "ĠSoon": 7253,
      "Ġdoubt": 7254,
      "aper": 7255,
      "ĠShuhrat": 7256,
      "Ġsecure": 7257,
      "Ġstrengthened": 7258,
      "Ġguaranteed": 7259,
      "adast": 7260,
      "ĠCS": 7261,
      "Ġspare": 7262,
      "Ġexperiences": 7263,
      "inka": 7264,
      "Ġrepublics": 7265,
      "Ġnarc": 7266,
      "Ġcomments": 7267,
      "Ġteen": 7268,
      "Ġexchanged": 7269,
      "Ġmountains": 7270,
      "work": 7271,
      "Ġtaught": 7272,
      "roval": 7273,
      "Ġimprovement": 7274,
      "Ġcollecting": 7275,
      "ĠTemur": 7276,
      "ĠTim": 7277,
      "ĠPR": 7278,
      "ĠJong": 7279,
      "ĠYemen": 7280,
      "Ġdouble": 7281,
      "Ġpages": 7282,
      "roximately": 7283,
      "ilk": 7284,
      "ĠAI": 7285,
      "Ġyield": 7286,
      "Ġselection": 7287,
      "ashin": 7288,
      "techn": 7289,
      "cling": 7290,
      "Ġstriker": 7291,
      "ĠInvestig": 7292,
      "Ġcorrectly": 7293,
      "Ġwitnessed": 7294,
      "Ġenhancing": 7295,
      "nity": 7296,
      "pir": 7297,
      "Ġsac": 7298,
      "Ġpal": 7299,
      "Ġmag": 7300,
      "Ġprovin": 7301,
      "Ġletters": 7302,
      "Ġlawsuit": 7303,
      "Ġprivatization": 7304,
      "Ġirrigation": 7305,
      "EL": 7306,
      "ĠRail": 7307,
      "ĠFootball": 7308,
      "Ġdoors": 7309,
      "Ġattend": 7310,
      "Ġoccupation": 7311,
      "Ġcarriers": 7312,
      "ĠPerhaps": 7313,
      "Ġsustainable": 7314,
      "Ġsuddenly": 7315,
      "city": 7316,
      "ata": 7317,
      "Ġdie": 7318,
      "icip": 7319,
      "ĠOq": 7320,
      "Ġsuperv": 7321,
      "Ġdiplomacy": 7322,
      "Ġclarified": 7323,
      "77": 7324,
      "lantic": 7325,
      "with": 7326,
      "Ġther": 7327,
      "Ġfires": 7328,
      "Ġdepos": 7329,
      "Ġ800": 7330,
      "ĠLeopard": 7331,
      "ĠReal": 7332,
      "och": 7333,
      "tti": 7334,
      "Ġvent": 7335,
      "ĠAleksandr": 7336,
      "ĠOlympiad": 7337,
      "Ġrebell": 7338,
      "Ġclusters": 7339,
      "ER": 7340,
      "aution": 7341,
      "iary": 7342,
      "Ġdeliber": 7343,
      "umors": 7344,
      "Ġtemperatures": 7345,
      "Ġbelongs": 7346,
      "Ġscenario": 7347,
      "Ġeliminated": 7348,
      "manship": 7349,
      "Ġsessions": 7350,
      "Ġbom": 7351,
      "lete": 7352,
      "Ġresolving": 7353,
      "ĠYe": 7354,
      "Ġlik": 7355,
      "ĠSeveral": 7356,
      "Ġvocational": 7357,
      "Ġwave": 7358,
      "Ġenjoy": 7359,
      "Ġ2026": 7360,
      "Ġforeigners": 7361,
      "ĠEnvironment": 7362,
      "Ġrestoration": 7363,
      "Ġposts": 7364,
      "Ġafford": 7365,
      "naissance": 7366,
      "Ġhalted": 7367,
      "ĠSingapore": 7368,
      "inks": 7369,
      "ĠPop": 7370,
      "Ġ2013": 7371,
      "Ġtaxi": 7372,
      "Ġconvin": 7373,
      "Ġquoted": 7374,
      "Ġclaimed": 7375,
      "Ġfruits": 7376,
      "etary": 7377,
      "ĠDel": 7378,
      "Ġvirus": 7379,
      "Ġlegally": 7380,
      "Ġpreparations": 7381,
      "Ġsoldier": 7382,
      "Ġpunished": 7383,
      "Ġassessed": 7384,
      "Ġrenewable": 7385,
      "Ġacquaintances": 7386,
      "Ġplot": 7387,
      "abled": 7388,
      "Ġrains": 7389,
      "Ġtextile": 7390,
      "Ġtitle": 7391,
      "ĠScientific": 7392,
      "Ġpilgrimage": 7393,
      "Nord": 7394,
      "pet": 7395,
      "cell": 7396,
      "Ġleak": 7397,
      "Ġ87": 7398,
      "Ġextend": 7399,
      "Ġhelicopters": 7400,
      "ori": 7401,
      "bery": 7402,
      "Ġjur": 7403,
      "Ġjourn": 7404,
      "Ġ2011": 7405,
      "finals": 7406,
      "ĠSaid": 7407,
      "Ġcombating": 7408,
      "Ġdistributing": 7409,
      "Ġaccelerate": 7410,
      "cked": 7411,
      "Ġhidden": 7412,
      "Ġhearing": 7413,
      "Ġthanks": 7414,
      "Ġeffort": 7415,
      "ĠAlek": 7416,
      "Ġmutually": 7417,
      "Ġdeficit": 7418,
      "ĠYÃµld": 7419,
      "idays": 7420,
      "Ġvon": 7421,
      "Ġresiding": 7422,
      "Ġblow": 7423,
      "Ġcontinuous": 7424,
      "Ġqualifications": 7425,
      "Ġwalking": 7426,
      "Ġflew": 7427,
      "ĠInstagram": 7428,
      "ĠTan": 7429,
      "ĠIC": 7430,
      "ĠPSG": 7431,
      "iano": 7432,
      "Ġ1991": 7433,
      "Ġearned": 7434,
      "Ġformalized": 7435,
      "DPR": 7436,
      "ĠKal": 7437,
      "ĠJord": 7438,
      "Ġadministrations": 7439,
      "Ġproperly": 7440,
      "ĠScience": 7441,
      "2024": 7442,
      "Ġharmful": 7443,
      "Ġclassified": 7444,
      "Ġarrive": 7445,
      "Ġorigin": 7446,
      "ĠVen": 7447,
      "Ġhighlight": 7448,
      "Ġwelcom": 7449,
      "ĠIntelligence": 7450,
      "ĠRustam": 7451,
      "co": 7452,
      "ĠIndones": 7453,
      "Ġdebts": 7454,
      "ĠControl": 7455,
      "You": 7456,
      "ĠCroat": 7457,
      "ĠBureau": 7458,
      "Ġ52": 7459,
      "Ġreflected": 7460,
      "Ġcolleagues": 7461,
      "Ġrecording": 7462,
      "Ġaccompl": 7463,
      "ĠiPh": 7464,
      "ĠGlobal": 7465,
      "Gazprom": 7466,
      "Ġpick": 7467,
      "ĠMass": 7468,
      "ĠBud": 7469,
      "ĠForm": 7470,
      "cedented": 7471,
      "precedented": 7472,
      "Azov": 7473,
      "raining": 7474,
      "ĠWater": 7475,
      "rians": 7476,
      "Ġ73": 7477,
      "Ġintroducing": 7478,
      "ixed": 7479,
      "Ġthreatened": 7480,
      "ĠUsmon": 7481,
      "down": 7482,
      "Ġsolving": 7483,
      "ĠRabb": 7484,
      "ĠNat": 7485,
      "ĠLeb": 7486,
      "Ġ83": 7487,
      "Ġcharter": 7488,
      "ropri": 7489,
      "Ġconvenience": 7490,
      "Ġmachine": 7491,
      "Ġexempt": 7492,
      "ĠDa": 7493,
      "Ġarises": 7494,
      "Ġinstructed": 7495,
      "Ġfled": 7496,
      "Ġtasked": 7497,
      "Ġemerg": 7498,
      "ĠActually": 7499,
      "ĠJosep": 7500,
      "ĠFoundation": 7501,
      "usive": 7502,
      "Ġinfect": 7503,
      "ugbek": 7504,
      "ohol": 7505,
      "ĠOlaf": 7506,
      "Ġburning": 7507,
      "Ġpredict": 7508,
      "Ġcondemned": 7509,
      "ED": 7510,
      "IFA": 7511,
      "cohol": 7512,
      "order": 7513,
      "Ġgifts": 7514,
      "iga": 7515,
      "ĠMer": 7516,
      "sius": 7517,
      "Ġallocation": 7518,
      "ĠIndepend": 7519,
      "Ġballistic": 7520,
      "ĠDavid": 7521,
      "Ġthoroughly": 7522,
      "iber": 7523,
      "set": 7524,
      "Ġwall": 7525,
      "Ġunity": 7526,
      "Ġcontra": 7527,
      "Ġoperated": 7528,
      "ĠBorrell": 7529,
      "Ġdealers": 7530,
      "boyeva": 7531,
      "usted": 7532,
      "Ġ43": 7533,
      "iqov": 7534,
      "Ġrespectively": 7535,
      "Ġcelebrated": 7536,
      "ĠDmitriy": 7537,
      "da": 7538,
      "yev": 7539,
      "yansk": 7540,
      "Ġlies": 7541,
      "Ġguards": 7542,
      "Ġidentity": 7543,
      "ĠRelations": 7544,
      "Ġethnic": 7545,
      "ĠCam": 7546,
      "ĠHPP": 7547,
      "oked": 7548,
      "ĠAntony": 7549,
      "Ġbarriers": 7550,
      "Ġmultiple": 7551,
      "Ġjuris": 7552,
      "ĠGra": 7553,
      "ĠVin": 7554,
      "Ġlocations": 7555,
      "Ġmetal": 7556,
      "Ġvisits": 7557,
      "Ġcolon": 7558,
      "castle": 7559,
      "Ġshelling": 7560,
      "Ġstruggle": 7561,
      "isen": 7562,
      "overs": 7563,
      "Ġoptim": 7564,
      "Ġterrible": 7565,
      "ribers": 7566,
      "Ġpresc": 7567,
      "istingu": 7568,
      "ĠRabbimov": 7569,
      "ellow": 7570,
      "Ġattracted": 7571,
      "Ġcompete": 7572,
      "orno": 7573,
      "ĠWall": 7574,
      "Ġchallen": 7575,
      "Ġtransactions": 7576,
      "tico": 7577,
      "unicip": 7578,
      "oo": 7579,
      "ĠEur": 7580,
      "Ġregistry": 7581,
      "udoy": 7582,
      "ĠCommun": 7583,
      "ski": 7584,
      "diction": 7585,
      "Ġclarify": 7586,
      "ĠPortugal": 7587,
      "wear": 7588,
      "Ġpregn": 7589,
      "Ġgrants": 7590,
      "Ġtesting": 7591,
      "Ġdeeply": 7592,
      "ĠAhmad": 7593,
      "Ġtools": 7594,
      "oub": 7595,
      "Ġshut": 7596,
      "Ġmeter": 7597,
      "Ġcheaper": 7598,
      "maty": 7599,
      "Ġsenior": 7600,
      "ĠCelsius": 7601,
      "omart": 7602,
      "agree": 7603,
      "Ġregret": 7604,
      "Ġaged": 7605,
      "Ġ($": 7606,
      "Ġcarbon": 7607,
      "ĠNazarbayev": 7608,
      "Ġenvisages": 7609,
      "Ġaccomp": 7610,
      "wa": 7611,
      "Ġpose": 7612,
      "ĠSpeaker": 7613,
      "nikov": 7614,
      "Ġsexual": 7615,
      "Ġoffensive": 7616,
      "Ġcollaps": 7617,
      "ĠPolit": 7618,
      "ĠMedved": 7619,
      "Ġbrothers": 7620,
      "ĠSpecialized": 7621,
      "Ġpoisoning": 7622,
      "do": 7623,
      "Ġbron": 7624,
      "odes": 7625,
      "Ġclothing": 7626,
      "ĠAsh": 7627,
      "Ġ81": 7628,
      "Ġadditions": 7629,
      "Ġcriticism": 7630,
      "ĠBaku": 7631,
      "ĠDnipro": 7632,
      "mann": 7633,
      "Ġcat": 7634,
      "rap": 7635,
      "ĠSud": 7636,
      "Ġrising": 7637,
      "Ġgrown": 7638,
      "ĠAgain": 7639,
      "ĠUlugbek": 7640,
      "Ġfertil": 7641,
      "abot": 7642,
      "Ġaccession": 7643,
      "Ġbuyers": 7644,
      "ĠMeaning": 7645,
      "Ġdeployed": 7646,
      "ĠBelgium": 7647,
      "ĠSad": 7648,
      "Ġgovernance": 7649,
      "Ġpolic": 7650,
      "Ġcomplexes": 7651,
      "Ġautomatically": 7652,
      "ĠAleksey": 7653,
      "diyev": 7654,
      "equ": 7655,
      "fight": 7656,
      "ĠGas": 7657,
      "Ġindif": 7658,
      "Ġ79": 7659,
      "Ġremove": 7660,
      "onym": 7661,
      "Ġvolunteers": 7662,
      "Ġcrops": 7663,
      "murodov": 7664,
      "alle": 7665,
      "asury": 7666,
      "ĠCer": 7667,
      "ĠBot": 7668,
      "ĠEld": 7669,
      "Ġsurren": 7670,
      "ĠPlant": 7671,
      "ĠFarhod": 7672,
      "Ġbattlefield": 7673,
      "ĠBulgar": 7674,
      "Ġintersection": 7675,
      "31": 7676,
      "ĠShom": 7677,
      "Ġcriteria": 7678,
      "Ġqualification": 7679,
      "Ġsilver": 7680,
      "ĠBaltic": 7681,
      "ĠCal": 7682,
      "ĠOle": 7683,
      "ĠLu": 7684,
      "Ġassault": 7685,
      "Ġdefined": 7686,
      "Ġplayoff": 7687,
      "Ġexecutive": 7688,
      "Ġfavorite": 7689,
      "Ġliterature": 7690,
      "Ġfruit": 7691,
      "Ġsubscribers": 7692,
      "ĠJordan": 7693,
      "bah": 7694,
      "Ġtear": 7695,
      "ĠCher": 7696,
      "ĠDPR": 7697,
      "Ġsheep": 7698,
      "76": 7699,
      "long": 7700,
      "olov": 7701,
      "ĠBur": 7702,
      "estyle": 7703,
      "ĠNar": 7704,
      "Ġrace": 7705,
      "month": 7706,
      "Karabakh": 7707,
      "MS": 7708,
      "mo": 7709,
      "ĠSob": 7710,
      "Ġstock": 7711,
      "ĠMinsk": 7712,
      "tered": 7713,
      "Ġrealized": 7714,
      "Ġcontribution": 7715,
      "Ġcomplicated": 7716,
      "Ġruins": 7717,
      "ias": 7718,
      "Ġtun": 7719,
      "uza": 7720,
      "Ġadvice": 7721,
      "ĠLeyen": 7722,
      "map": 7723,
      "angi": 7724,
      "Ġvisiting": 7725,
      "Ġcharity": 7726,
      "Ġdecreasing": 7727,
      "Ġconnecting": 7728,
      "Ġestimates": 7729,
      "Ġsemi": 7730,
      "Corruption": 7731,
      "gg": 7732,
      "ĠNetw": 7733,
      "ĠShan": 7734,
      "Ġpoly": 7735,
      "Ġcontinuously": 7736,
      "insula": 7737,
      "zhydromet": 7738,
      "Ġwarehouse": 7739,
      "Ġprosperity": 7740,
      "Cent": 7741,
      "gas": 7742,
      "onven": 7743,
      "Ġbes": 7744,
      "Ġdyn": 7745,
      "illance": 7746,
      "ĠRaf": 7747,
      "Ġends": 7748,
      "Ġpresidents": 7749,
      "ferences": 7750,
      "Ġputting": 7751,
      "Ġinspections": 7752,
      "ĠMexico": 7753,
      "hour": 7754,
      "Ġmental": 7755,
      "Ġheight": 7756,
      "iances": 7757,
      "Ġ51": 7758,
      "Ġprovoc": 7759,
      "Ġ82": 7760,
      "Ġcontribute": 7761,
      "iti": 7762,
      "plant": 7763,
      "Ġrent": 7764,
      "Ġplatforms": 7765,
      "Ġsmartphones": 7766,
      "Ġcongestion": 7767,
      "US": 7768,
      "well": 7769,
      "Ġeat": 7770,
      "ĠRod": 7771,
      "ogle": 7772,
      "enders": 7773,
      "acetti": 7774,
      "Ġbillionaire": 7775,
      "ĠAbout": 7776,
      "ĠGermans": 7777,
      "Ġmovie": 7778,
      "Ġrestriction": 7779,
      "enty": 7780,
      "olid": 7781,
      "ayz": 7782,
      "ÃµÇ§": 7783,
      "Ġdemonstrations": 7784,
      "ĠHydrometeorological": 7785,
      "Ġrebellion": 7786,
      "tem": 7787,
      "Ġisol": 7788,
      "igu": 7789,
      "ĠNob": 7790,
      "ĠUzbekistanis": 7791,
      "Ġappears": 7792,
      "Ġrelationships": 7793,
      "SCO": 7794,
      "Ġobjectives": 7795,
      "Ġsubstance": 7796,
      "Ġwelcomed": 7797,
      "Ġstabil": 7798,
      "umes": 7799,
      "ĠJud": 7800,
      "Ġindex": 7801,
      "Ġdefending": 7802,
      "Ġcollided": 7803,
      "Ġfriendship": 7804,
      "Ġmusic": 7805,
      "ĠCharles": 7806,
      "Ġgets": 7807,
      "Ġupper": 7808,
      "Ġcalm": 7809,
      "Ġsustained": 7810,
      "ĠYakk": 7811,
      "Ġexpenditures": 7812,
      "Ġfish": 7813,
      "Ġdisabled": 7814,
      "Ġraid": 7815,
      "Ġprotoc": 7816,
      "Ġvisitors": 7817,
      "ARS": 7818,
      "Ġgathering": 7819,
      "Ġfollowed": 7820,
      "ĠNagorno": 7821,
      "Ġunsu": 7822,
      "aziz": 7823,
      "riving": 7824,
      "ĠConstitutional": 7825,
      "Ġcylin": 7826,
      "habilit": 7827,
      "ĠKosovo": 7828,
      "ĠBulgaria": 7829,
      "Ġmaternity": 7830,
      "Ġreconnaissance": 7831,
      "ĠEntrepreneurs": 7832,
      "foreign": 7833,
      "Ġalcohol": 7834,
      "Ġresort": 7835,
      "ghai": 7836,
      "Ġpipelines": 7837,
      "Ġtransitioning": 7838,
      "Ġfertiliz": 7839,
      "back": 7840,
      "bayev": 7841,
      "Ġfought": 7842,
      "Ġhat": 7843,
      "Ġrelig": 7844,
      "Ġoccurs": 7845,
      "ĠExec": 7846,
      "Ġrenov": 7847,
      "Ġsurveillance": 7848,
      "nam": 7849,
      "Ġmunicip": 7850,
      "ĠRev": 7851,
      "ĠFurther": 7852,
      "ips": 7853,
      "Ġcontacted": 7854,
      "Ġhotels": 7855,
      "ĠNavoi": 7856,
      "ĠInvestigation": 7857,
      "Ġconcerned": 7858,
      "Ġaffects": 7859,
      "Ġmanufacturer": 7860,
      "Ġmachinery": 7861,
      "Ġtransparent": 7862,
      "orb": 7863,
      "Ġprosecut": 7864,
      "Ġdisagree": 7865,
      "Ġlaid": 7866,
      "Ġdepending": 7867,
      "Ġadvertise": 7868,
      "ĠiPhone": 7869,
      "PSG": 7870,
      "bus": 7871,
      "hi": 7872,
      "Ġever": 7873,
      "Ġconvicted": 7874,
      "Ġbroken": 7875,
      "Ġsuffer": 7876,
      "Ġlowest": 7877,
      "Ġdefendant": 7878,
      "Ġlifted": 7879,
      "Ġinnovations": 7880,
      "Ġtorture": 7881,
      "zoqov": 7882,
      "Ġpensions": 7883,
      "Ġbear": 7884,
      "Ġlapt": 7885,
      "Ġdrilling": 7886,
      "ĠRomania": 7887,
      "Ġsenators": 7888,
      "eing": 7889,
      "Ġhuge": 7890,
      "Ġinconven": 7891,
      "aughters": 7892,
      "Ġhide": 7893,
      "ĠWagner": 7894,
      "Ġking": 7895,
      "Ġlibr": 7896,
      "ĠAlmaty": 7897,
      "shod": 7898,
      "ullo": 7899,
      "Ġutilizing": 7900,
      "lu": 7901,
      "vey": 7902,
      "ĠDis": 7903,
      "oded": 7904,
      "ailed": 7905,
      "Ġpromises": 7906,
      "Ġtransporting": 7907,
      "Ġkilog": 7908,
      "Ġcirculated": 7909,
      "ĠSwedish": 7910,
      "Ġnegatively": 7911,
      "Ġopponents": 7912,
      "Ġdisturb": 7913,
      "Ġnarrow": 7914,
      "iate": 7915,
      "Ġbin": 7916,
      "una": 7917,
      "Ġapprec": 7918,
      "Ġpostpon": 7919,
      "Ġlights": 7920,
      "Ġbul": 7921,
      "ĠViet": 7922,
      "ĠAnn": 7923,
      "Ġinfection": 7924,
      "Ġallocating": 7925,
      "Ġessential": 7926,
      "ulsory": 7927,
      "When": 7928,
      "tage": 7929,
      "oss": 7930,
      "Ġorph": 7931,
      "Ġcourty": 7932,
      "Ġconfisc": 7933,
      "Ġolder": 7934,
      "Ġeasier": 7935,
      "ĠValley": 7936,
      "Ġmalfunction": 7937,
      "Ġcell": 7938,
      "Ġreceip": 7939,
      "ĠJohn": 7940,
      "Ġbeaten": 7941,
      "Ġjourney": 7942,
      "Ġdaughters": 7943,
      "ĠAre": 7944,
      "ĠPod": 7945,
      "Ġleaves": 7946,
      "Ġcompar": 7947,
      "rick": 7948,
      "Ġrecognition": 7949,
      "rayev": 7950,
      "ĠRepresentative": 7951,
      "eu": 7952,
      "mak": 7953,
      "urally": 7954,
      "achel": 7955,
      "angar": 7956,
      "Ġwars": 7957,
      "Ġtalented": 7958,
      "Ġholidays": 7959,
      "Ġdemonstrate": 7960,
      "ĠQuest": 7961,
      "Ġmarriage": 7962,
      "fts": 7963,
      "Ġtheater": 7964,
      "Ġstar": 7965,
      "ĠDar": 7966,
      "apoli": 7967,
      "Ġinvestigate": 7968,
      "Ġobligation": 7969,
      "Ġeditorial": 7970,
      "asar": 7971,
      "ultan": 7972,
      "ĠStalin": 7973,
      "medov": 7974,
      "Ġdigest": 7975,
      "ĠApple": 7976,
      "ĠMalay": 7977,
      "Ġdistingu": 7978,
      "ĠPat": 7979,
      "ĠFIFA": 7980,
      "Ġselect": 7981,
      "Ġchampions": 7982,
      "Ġworried": 7983,
      "Ġimporting": 7984,
      "ĠSaf": 7985,
      "shan": 7986,
      "Ġcollective": 7987,
      "Ġquotes": 7988,
      "Ġliberated": 7989,
      "Ġultimately": 7990,
      "dam": 7991,
      "ĠToy": 7992,
      "Ġwearing": 7993,
      "tedly": 7994,
      "Ġchildhood": 7995,
      "Ġanswered": 7996,
      "oeing": 7997,
      "nsic": 7998,
      "Ġeye": 7999,
      "ĠAuthor": 8000,
      "44": 8001,
      "Ġnote": 8002,
      "Ġoperators": 8003,
      "Ġcontrolling": 8004,
      "ĠAbduq": 8005,
      "Ġinspectors": 8006,
      "ae": 8007,
      "from": 8008,
      "ien": 8009,
      "ques": 8010,
      "ĠTursun": 8011,
      "Ġinvolves": 8012,
      "ĠCrimean": 8013,
      "Ġautomotive": 8014,
      "Ġbarrel": 8015,
      "ĠMorocc": 8016,
      "oubtedly": 8017,
      "Jomart": 8018,
      "PO": 8019,
      "special": 8020,
      "enaries": 8021,
      "Ġbrands": 8022,
      "ribes": 8023,
      "Ġelite": 8024,
      "Ġpilot": 8025,
      "75": 8026,
      "estan": 8027,
      "ĠKor": 8028,
      "ĠWTO": 8029,
      "ĠkWh": 8030,
      "Ġcreates": 8031,
      "Ġcolor": 8032,
      "Ġstrongly": 8033,
      "Ġprofessor": 8034,
      "Ġimposing": 8035,
      "Ġdanger": 8036,
      "ĠGeorgian": 8037,
      "Ġspiritual": 8038,
      "Ġimagine": 8039,
      "Ġbronze": 8040,
      "):": 8041,
      "Ju": 8042,
      "list": 8043,
      "lev": 8044,
      "oms": 8045,
      "ĠKen": 8046,
      "Ġplays": 8047,
      "Ġprefer": 8048,
      "Ġempt": 8049,
      "Ġcry": 8050,
      "Ġrecovery": 8051,
      "Ġcapability": 8052,
      "ĠAliyev": 8053,
      "Ġphones": 8054,
      "Ġinfant": 8055,
      "Ġ2007": 8056,
      "Ġdispute": 8057,
      "ĠAttention": 8058,
      "ĠRailways": 8059,
      "unyod": 8060,
      "Ġunprecedented": 8061,
      "lined": 8062,
      "Ġengaging": 8063,
      "skaya": 8064,
      "Ġ1992": 8065,
      "Ġdeadline": 8066,
      "Ġburden": 8067,
      "Ġcomfortable": 8068,
      "Ġice": 8069,
      "real": 8070,
      "ĠAcc": 8071,
      "ĠMil": 8072,
      "ama": 8073,
      "Ġ53": 8074,
      "ĠAtlantic": 8075,
      "ĠArsenal": 8076,
      "Ġextrem": 8077,
      "shon": 8078,
      "Ġfeeling": 8079,
      "ĠUsmanov": 8080,
      "Ġexistence": 8081,
      "Ġembezzled": 8082,
      "ĠPreschool": 8083,
      "Ġrecy": 8084,
      "perature": 8085,
      "Ġguest": 8086,
      "Ġwriter": 8087,
      "ĠUmrah": 8088,
      "Ġrelieved": 8089,
      "Ġgender": 8090,
      "Ġminim": 8091,
      "Ġfactories": 8092,
      "Ġrelationship": 8093,
      "Ġgrades": 8094,
      "ĠGoogle": 8095,
      "Ġspacecraft": 8096,
      "olesale": 8097,
      "IN": 8098,
      "ein": 8099,
      "Ġconce": 8100,
      "Ġnotes": 8101,
      "Ġ88": 8102,
      "secution": 8103,
      "Ġdriven": 8104,
      "Ġfeatures": 8105,
      "Ġfreely": 8106,
      "Ġcrossed": 8107,
      "Ġdivisions": 8108,
      "Ġliberal": 8109,
      "Ġbattal": 8110,
      "Ġbattery": 8111,
      "Ġtitled": 8112,
      "Uzhydromet": 8113,
      "trans": 8114,
      "Ġrector": 8115,
      "ĠMur": 8116,
      "ĠGuter": 8117,
      "Ġbelieved": 8118,
      "Ġsuggestions": 8119,
      "Ġsoftware": 8120,
      "ĠGovernor": 8121,
      "Ġfault": 8122,
      "entially": 8123,
      "utch": 8124,
      "ĠKras": 8125,
      "ussia": 8126,
      "Ġcancer": 8127,
      "Ġtrained": 8128,
      "Ġexamined": 8129,
      "Ġdestination": 8130,
      "Ġdirectors": 8131,
      "Ġstronger": 8132,
      "ĠCommissioner": 8133,
      "Ġgraduated": 8134,
      "Ġsyn": 8135,
      "ĠImp": 8136,
      "iston": 8137,
      "ĠMong": 8138,
      "ocide": 8139,
      "Ġadap": 8140,
      "Ġuser": 8141,
      "ĠErkin": 8142,
      "Ġconsistently": 8143,
      "ĠInspection": 8144,
      "Ġtouc": 8145,
      "ĠChern": 8146,
      "ĠBax": 8147,
      "Ġpeak": 8148,
      "Ġassass": 8149,
      "ĠAbb": 8150,
      "Ġ168": 8151,
      "ridge": 8152,
      "ĠDemocrat": 8153,
      "Ġcharacteristics": 8154,
      "Ġpedestrians": 8155,
      "nish": 8156,
      "Ġmel": 8157,
      "ĠWHO": 8158,
      "ĠLacetti": 8159,
      "Ġwarrant": 8160,
      "Ġsocio": 8161,
      "Ġbuyer": 8162,
      "Ġmercenaries": 8163,
      "dor": 8164,
      "Ġcup": 8165,
      "ĠTre": 8166,
      "sibly": 8167,
      "Ġpointed": 8168,
      "Ġmessages": 8169,
      "Ġaccepting": 8170,
      "ourage": 8171,
      "Reg": 8172,
      "gid": 8173,
      "ker": 8174,
      "Ġinstances": 8175,
      "ordination": 8176,
      "ĠDoes": 8177,
      "Ġclashes": 8178,
      "Ġcollapsed": 8179,
      "400": 8180,
      "uv": 8181,
      "ĠTer": 8182,
      "ĠMa": 8183,
      "emed": 8184,
      "Ġchick": 8185,
      "Ġadding": 8186,
      "ĠProg": 8187,
      "Ġpenalties": 8188,
      "Ġlicenses": 8189,
      "ĠEveryone": 8190,
      "Ġvoluntarily": 8191,
      "ĠFamily": 8192,
      "ĠCSTO": 8193,
      "42": 8194,
      "95": 8195,
      "AZ": 8196,
      "Ġbott": 8197,
      "ĠMW": 8198,
      "ĠMurod": 8199,
      "ĠKatt": 8200,
      "ĠKiev": 8201,
      "actory": 8202,
      "pleasant": 8203,
      "Ġapproaching": 8204,
      "Ġrevenue": 8205,
      "Ġjurisdiction": 8206,
      "achelor": 8207,
      "\")": 8208,
      "Le": 8209,
      "enant": 8210,
      "oma": 8211,
      "ushed": 8212,
      "abz": 8213,
      "Ġrumors": 8214,
      "Ġcrash": 8215,
      "Ġsoum": 8216,
      "Ġadopt": 8217,
      "Ġmothers": 8218,
      "Ġcyber": 8219,
      "Ġcopy": 8220,
      "Ġpossess": 8221,
      "ĠEnvironmental": 8222,
      "Ġbicy": 8223,
      "ivals": 8224,
      "ĠPers": 8225,
      "Ġexists": 8226,
      "Ġincent": 8227,
      "Ġjoy": 8228,
      "liq": 8229,
      "uese": 8230,
      "related": 8231,
      "ĠBrazilian": 8232,
      "Ġconstructing": 8233,
      "ĠPortuguese": 8234,
      "Ġdiesel": 8235,
      "arova": 8236,
      "ĠMigration": 8237,
      "esty": 8238,
      "Ġassisting": 8239,
      "Ġassembly": 8240,
      "Ġorganizational": 8241,
      "ĠCommunications": 8242,
      "Ġdependent": 8243,
      "Ġthermal": 8244,
      "ĠShanghai": 8245,
      "City": 8246,
      "lim": 8247,
      "sen": 8248,
      "Ġlying": 8249,
      "irty": 8250,
      "ulled": 8251,
      "ĠFore": 8252,
      "Ġarisen": 8253,
      "Ġaccounting": 8254,
      "Ġnaturally": 8255,
      "ĠEngine": 8256,
      "Ġdomin": 8257,
      "Ġcheckpoint": 8258,
      "icide": 8259,
      "ĠIly": 8260,
      "ĠKule": 8261,
      "Ġemot": 8262,
      "Ġhappens": 8263,
      "Ġrescuers": 8264,
      "Ġpanel": 8265,
      "Ġsubsequent": 8266,
      "Ġmm": 8267,
      "erse": 8268,
      "ĠMob": 8269,
      "ĠFayz": 8270,
      "Ġsections": 8271,
      "ĠOleg": 8272,
      "Ġworst": 8273,
      "Ġdecide": 8274,
      "Ġ110": 8275,
      "Ġensures": 8276,
      "Ġ2005": 8277,
      "Ġdetected": 8278,
      "Ġappliances": 8279,
      "Ġhopes": 8280,
      "Liverpool": 8281,
      "ĠUp": 8282,
      "ocked": 8283,
      "ĠOs": 8284,
      "Ġargu": 8285,
      "Ġparticipant": 8286,
      "Ġinspected": 8287,
      "rdarya": 8288,
      "Ġentirely": 8289,
      "ĠAustria": 8290,
      "ĠDenov": 8291,
      "Ġemergence": 8292,
      "Ġpostponed": 8293,
      "Ġbrain": 8294,
      "Ġreaches": 8295,
      "ĠAy": 8296,
      "ivate": 8297,
      "artial": 8298,
      "Ġadapt": 8299,
      "Ġreception": 8300,
      "ĠPrize": 8301,
      "Ġencounter": 8302,
      "ĠSyrdarya": 8303,
      "space": 8304,
      "ĠÃķz": 8305,
      "Ġegg": 8306,
      "ulates": 8307,
      "Ġlease": 8308,
      "ĠWars": 8309,
      "Ġdisorder": 8310,
      "ĠYesterday": 8311,
      "Ġassign": 8312,
      "anche": 8313,
      "Nas": 8314,
      "ĠRus": 8315,
      "Ġwebsites": 8316,
      "Ġgranting": 8317,
      "ĠTemperature": 8318,
      "ĠFormer": 8319,
      "ĠHum": 8320,
      "Ġveter": 8321,
      "Ġdebates": 8322,
      "Ġlessons": 8323,
      "Ġcounterfe": 8324,
      "ĠAntonio": 8325,
      "pat": 8326,
      "ĠAven": 8327,
      "ster": 8328,
      "char": 8329,
      "iest": 8330,
      "Ġwholesale": 8331,
      "Ġkit": 8332,
      "Ġapproval": 8333,
      "Ġcenturies": 8334,
      "Ġengines": 8335,
      "Ġprisoner": 8336,
      "Ġessence": 8337,
      "ĠMarket": 8338,
      "Ġswe": 8339,
      "stal": 8340,
      "Ġunite": 8341,
      "ĠLib": 8342,
      "Ġpossibilities": 8343,
      "ASS": 8344,
      "Ġkeeping": 8345,
      "Ġelevator": 8346,
      "Ġrehabilit": 8347,
      "Ġprove": 8348,
      "ĠDigital": 8349,
      "ĠJens": 8350,
      "Ġperfect": 8351,
      "Ġrose": 8352,
      "Ġrecall": 8353,
      "ĠAbu": 8354,
      "Ġidentifying": 8355,
      "Ġapplies": 8356,
      "ĠMahmud": 8357,
      "ylum": 8358,
      "ĠStrategic": 8359,
      "mazor": 8360,
      "Ġconced": 8361,
      "ĠDid": 8362,
      "Ġunpleasant": 8363,
      "iction": 8364,
      "Ġkick": 8365,
      "Ġsystematic": 8366,
      "ĠShoh": 8367,
      "ĠIss": 8368,
      "ĠEverything": 8369,
      "Ġdisciples": 8370,
      "ĠAbdurahmonov": 8371,
      "Ġcontradict": 8372,
      "De": 8373,
      "Ġolig": 8374,
      "Ġwalls": 8375,
      "ille": 8376,
      "Ġthrow": 8377,
      "ĠPy": 8378,
      "Ġassists": 8379,
      "Ġblame": 8380,
      "Ġorganizers": 8381,
      "Ġ95": 8382,
      "ĠKhiva": 8383,
      "Ġcommunications": 8384,
      "Ġadvantages": 8385,
      "ĠSum": 8386,
      "unt": 8387,
      "pping": 8388,
      "Ġquant": 8389,
      "phone": 8390,
      "Ġsubstitut": 8391,
      "Ġexperiment": 8392,
      "Ġ99": 8393,
      "ĠSaidov": 8394,
      "Ġunexpectedly": 8395,
      "Ġcoup": 8396,
      "osi": 8397,
      "Ġnomin": 8398,
      "ĠIk": 8399,
      "Ġprosecution": 8400,
      "astro": 8401,
      "tenance": 8402,
      "Ġcongress": 8403,
      "ĠAFP": 8404,
      "Ġsettlements": 8405,
      "ĠIndonesia": 8406,
      "gic": 8407,
      "iat": 8408,
      "Ġcaut": 8409,
      "ĠTor": 8410,
      "Ġasylum": 8411,
      "Ġanywhere": 8412,
      "ieties": 8413,
      "Ġemerge": 8414,
      "Ġcommanders": 8415,
      "ĠInvestment": 8416,
      "Ġdeliberately": 8417,
      "Ġoligarch": 8418,
      "iets": 8419,
      "Ġanonym": 8420,
      "ĠSk": 8421,
      "ĠWal": 8422,
      "Ġlanded": 8423,
      "ĠJaparov": 8424,
      "Ġliters": 8425,
      "Ġforecasts": 8426,
      "Ġfleet": 8427,
      "Ġcongratulated": 8428,
      "bahor": 8429,
      "Ab": 8430,
      "ean": 8431,
      "omic": 8432,
      "sific": 8433,
      "ĠFernand": 8434,
      "ĠKass": 8435,
      "Ġshift": 8436,
      "ressor": 8437,
      "Ġherself": 8438,
      "Ġsurround": 8439,
      "ĠMirziyoyeva": 8440,
      "Ġbench": 8441,
      "ĠSoviets": 8442,
      "Ġcapacities": 8443,
      "Ġlifestyle": 8444,
      "Ġpleased": 8445,
      "mir": 8446,
      "Ġsand": 8447,
      "Ġant": 8448,
      "ilding": 8449,
      "ĠKab": 8450,
      "Ġhasn": 8451,
      "accept": 8452,
      "ĠQor": 8453,
      "ĠGovernment": 8454,
      "Ġadvancing": 8455,
      "ĠSlovakia": 8456,
      "ĠDamas": 8457,
      "Ġastron": 8458,
      "cher": 8459,
      "cles": 8460,
      "Ġdivers": 8461,
      "ĠKakh": 8462,
      "Ġexpertise": 8463,
      "ĠGuterres": 8464,
      "Ġdark": 8465,
      "Ġdisconn": 8466,
      "aircraft": 8467,
      "atorium": 8468,
      "Ġcounterpart": 8469,
      "Ġkilometer": 8470,
      "Ġskill": 8471,
      "ographer": 8472,
      "ĠPhil": 8473,
      "Ġpsychological": 8474,
      "ĠRobert": 8475,
      "Ġunclear": 8476,
      "ĠKuleba": 8477,
      "Ġreaction": 8478,
      "utenant": 8479,
      "Ġworksh": 8480,
      "Ġmodernization": 8481,
      "Ġlandscap": 8482,
      "ĠFurthermore": 8483,
      "amov": 8484,
      "ĠPel": 8485,
      "Ġnoting": 8486,
      "Ġdecades": 8487,
      "Ġstatistical": 8488,
      "Ġconversations": 8489,
      "Ġlesson": 8490,
      "ĠNorboyeva": 8491,
      "ĠAbduv": 8492,
      "No": 8493,
      "ĠTat": 8494,
      "Ġnom": 8495,
      "Ġalive": 8496,
      "ĠWhere": 8497,
      "ignity": 8498,
      "Ġskilled": 8499,
      "Ġfellow": 8500,
      "ĠAkmal": 8501,
      "AC": 8502,
      "Ġlarger": 8503,
      "Ġfeet": 8504,
      "Ġpromote": 8505,
      "being": 8506,
      "speed": 8507,
      "ĠInterestingly": 8508,
      "Ġempty": 8509,
      "AL": 8510,
      "Green": 8511,
      "ulf": 8512,
      "Ġrelation": 8513,
      "Ġmaintenance": 8514,
      "Ġfreight": 8515,
      "Ġdoubled": 8516,
      "Ġchairmanship": 8517,
      "ĠCombating": 8518,
      "Measures": 8519,
      "dem": 8520,
      "Ġhinder": 8521,
      "Ġrival": 8522,
      "Ġreceives": 8523,
      "Ġplacing": 8524,
      "Ġpublishing": 8525,
      "Ġfreedoms": 8526,
      "ĠNear": 8527,
      "Ġinvitation": 8528,
      "ĠYur": 8529,
      "Ġknowing": 8530,
      "anese": 8531,
      "All": 8532,
      "fare": 8533,
      "anon": 8534,
      "Ġalleg": 8535,
      "Ġseed": 8536,
      "ashvili": 8537,
      "ollah": 8538,
      "Ġapprove": 8539,
      "Ġexaminations": 8540,
      "Ġidentification": 8541,
      "Ġshowc": 8542,
      "Ġdiagnosed": 8543,
      "ĠBundes": 8544,
      "ĠInvestigative": 8545,
      "card": 8546,
      "Ġcin": 8547,
      "Ġclients": 8548,
      "Ġairspace": 8549,
      "Ġsanitary": 8550,
      "Ġ2001": 8551,
      "Ġdrive": 8552,
      "Ġpoet": 8553,
      "Ġfunctions": 8554,
      "Ġexperiencing": 8555,
      "ĠSilva": 8556,
      "sification": 8557,
      "rimin": 8558,
      "Ġnone": 8559,
      "ĠFSB": 8560,
      "Ġproven": 8561,
      "Ġmoreover": 8562,
      "oking": 8563,
      "ibly": 8564,
      "Ġdefensive": 8565,
      "ĠProced": 8566,
      "Ġtelecomm": 8567,
      "Ġdormitory": 8568,
      "ĠEuras": 8569,
      "unyodkor": 8570,
      "ĠKassym": 8571,
      "ĠKakhovka": 8572,
      "Ġcast": 8573,
      "ĠTol": 8574,
      "Ġstored": 8575,
      "ĠMilan": 8576,
      "Ġseat": 8577,
      "conds": 8578,
      "Ġarising": 8579,
      "Ġinterrog": 8580,
      "Ġemerging": 8581,
      "ĠReportedly": 8582,
      "Ġunsuccess": 8583,
      "Milan": 8584,
      "Ġturb": 8585,
      "Ġnations": 8586,
      "stand": 8587,
      "Ġloved": 8588,
      "Ġstars": 8589,
      "ivan": 8590,
      "agraph": 8591,
      "effic": 8592,
      "ecurity": 8593,
      "Ġinterfe": 8594,
      "ĠAlliance": 8595,
      "Ġholds": 8596,
      "Ġquotas": 8597,
      "Ġdisappear": 8598,
      "Ġtrend": 8599,
      "Bayern": 8600,
      "ĠProfessor": 8601,
      "Ġobstacles": 8602,
      "Ġtouched": 8603,
      "TI": 8604,
      "Ġthus": 8605,
      "rav": 8606,
      "ayrat": 8607,
      "reece": 8608,
      "Ġpassports": 8609,
      "Ġpotat": 8610,
      "Ġhistoric": 8611,
      "Ġterminated": 8612,
      "ĠDilshod": 8613,
      "ĠMongol": 8614,
      "acceptable": 8615,
      "ipe": 8616,
      "hemat": 8617,
      "ovic": 8618,
      "ĠForce": 8619,
      "Ġapproaches": 8620,
      "Ġeventually": 8621,
      "Ġsuspects": 8622,
      "ĠBeh": 8623,
      "Ġpiece": 8624,
      "Ġsolidarity": 8625,
      "Ġinflicted": 8626,
      "Ġmagaz": 8627,
      "ĠTreat": 8628,
      "resh": 8629,
      "manuel": 8630,
      "Ġdevast": 8631,
      "Ġforensic": 8632,
      "Ġtreaty": 8633,
      "Ġscheme": 8634,
      "ĠOverall": 8635,
      "Ġsolely": 8636,
      "Ġembargo": 8637,
      "abotage": 8638,
      "ney": 8639,
      "Ġfill": 8640,
      "ĠRas": 8641,
      "acific": 8642,
      "rencies": 8643,
      "ĠZh": 8644,
      "ographic": 8645,
      "ĠDenis": 8646,
      "ĠBakirov": 8647,
      "998": 8648,
      "Ġhorse": 8649,
      "Ġwaters": 8650,
      "600": 8651,
      "Ġbachelor": 8652,
      "ĠTASS": 8653,
      "Ġnort": 8654,
      "imed": 8655,
      "ĠRad": 8656,
      "ĠBÃµ": 8657,
      "ĠOmbudsman": 8658,
      "ĠGreece": 8659,
      "Ġspaces": 8660,
      "ayeva": 8661,
      "ĠQuestion": 8662,
      "ĠWarsaw": 8663,
      "78": 8664,
      "Tosh": 8665,
      "uj": 8666,
      "Ġtens": 8667,
      "organ": 8668,
      "Ġnet": 8669,
      "olf": 8670,
      "ayn": 8671,
      "ĠBoeing": 8672,
      "emiological": 8673,
      "ĠNorthern": 8674,
      "uda": 8675,
      "Ġworker": 8676,
      "Ġ2003": 8677,
      "Ġacquired": 8678,
      "ĠEmmanuel": 8679,
      "Ġlooked": 8680,
      "Ġdisputes": 8681,
      "Ġ1980": 8682,
      "Ġceremon": 8683,
      "Ġaudience": 8684,
      "ĠSilk": 8685,
      "ĠShaykh": 8686,
      "ĠFood": 8687,
      "ĠKarshi": 8688,
      "ĠYash": 8689,
      "Ġtroub": 8690,
      "China": 8691,
      "IMARS": 8692,
      "final": 8693,
      "Ġhiding": 8694,
      "adan": 8695,
      "Ġunderway": 8696,
      "aze": 8697,
      "ĠShoy": 8698,
      "Ġvisible": 8699,
      "arantine": 8700,
      "gidromet": 8701,
      "ych": 8702,
      "oral": 8703,
      "ĠIM": 8704,
      "Ġincur": 8705,
      "ĠLoc": 8706,
      "stana": 8707,
      "ĠPalace": 8708,
      "Ġearthquakes": 8709,
      "Ġcircumvent": 8710,
      "ĠEmirates": 8711,
      "Ġreligion": 8712,
      "Ġkitchen": 8713,
      "ĠIssues": 8714,
      "Ġuran": 8715,
      "Ġovers": 8716,
      "ĠMiro": 8717,
      "ĠFour": 8718,
      "ĠKol": 8719,
      "Ġunited": 8720,
      "ĠJo": 8721,
      "Ġ98": 8722,
      "Ġowns": 8723,
      "Ġfounded": 8724,
      "Ġfeed": 8725,
      "ĠOlmazor": 8726,
      "ermark": 8727,
      "ĠEmployment": 8728,
      "Ġuranium": 8729,
      "rin": 8730,
      "oni": 8731,
      "Ġbreat": 8732,
      "ĠDutch": 8733,
      "antly": 8734,
      "ĠGab": 8735,
      "Ġshots": 8736,
      "ikov": 8737,
      "Ġimportantly": 8738,
      "Ġaudio": 8739,
      "risabz": 8740,
      "ĠBayern": 8741,
      "59": 8742,
      "noc": 8743,
      "Ġpounds": 8744,
      "dustrial": 8745,
      "Ġsaving": 8746,
      "place": 8747,
      "Ġconfront": 8748,
      "ĠEnter": 8749,
      "Ġ180": 8750,
      "Ġpromise": 8751,
      "Ġfarms": 8752,
      "Ġdiplomat": 8753,
      "ĠElon": 8754,
      "Ġmagnitude": 8755,
      "din": 8756,
      "Ġharsh": 8757,
      "odon": 8758,
      "Ġadult": 8759,
      "Ġtransplant": 8760,
      "roll": 8761,
      "Ġdetermining": 8762,
      "ĠPeace": 8763,
      "Ġaddressing": 8764,
      "Ġpackages": 8765,
      "Ġparam": 8766,
      "bersecurity": 8767,
      "Ġaffecting": 8768,
      "Ġcleaning": 8769,
      "Ġspoken": 8770,
      "Ġundoubtedly": 8771,
      "eff": 8772,
      "istor": 8773,
      "Ġlux": 8774,
      "uli": 8775,
      "Ġseconds": 8776,
      "ĠHIMARS": 8777,
      "ĠGT": 8778,
      "Ġ190": 8779,
      "iola": 8780,
      "Ġseparated": 8781,
      "Ġgrounds": 8782,
      "Ġburied": 8783,
      "iencies": 8784,
      "ĠLangu": 8785,
      "ĠStock": 8786,
      "Ġmathemat": 8787,
      "Ġ2009": 8788,
      "Ġcircles": 8789,
      "author": 8790,
      "Ġvegetables": 8791,
      "Ġunusual": 8792,
      "Ġdynam": 8793,
      "Ġexit": 8794,
      "Ġbypass": 8795,
      "ĠDarya": 8796,
      "Ġhack": 8797,
      "ĠJames": 8798,
      "ĠLew": 8799,
      "Ġspect": 8800,
      "Ġsilk": 8801,
      "ĠLebanon": 8802,
      "Ġindifferent": 8803,
      "ĠVietnam": 8804,
      "Ġcounterfeit": 8805,
      "Ġmap": 8806,
      "riend": 8807,
      "Ġsuicide": 8808,
      "Ġdemol": 8809,
      "ĠAlexey": 8810,
      "Ġly": 8811,
      "Ġsure": 8812,
      "ariq": 8813,
      "ĠBern": 8814,
      "aken": 8815,
      "Ġconsolid": 8816,
      "olden": 8817,
      "born": 8818,
      "Ġwheel": 8819,
      "ringing": 8820,
      "Ġmultif": 8821,
      "zila": 8822,
      "uan": 8823,
      "rets": 8824,
      "iling": 8825,
      "ĠTaking": 8826,
      "Ġstriving": 8827,
      "ĠChev": 8828,
      "ĠGreen": 8829,
      "Ġinterviews": 8830,
      "Ġdebut": 8831,
      "ĠNuriddin": 8832,
      "including": 8833,
      "Ġsolved": 8834,
      "itively": 8835,
      "Ġfaster": 8836,
      "rolet": 8837,
      "ĠSSR": 8838,
      "ĠMich": 8839,
      "ami": 8840,
      "Ġvirt": 8841,
      "Ġencl": 8842,
      "ĠLy": 8843,
      "ĠLie": 8844,
      "Ġdepict": 8845,
      "Ġrecovered": 8846,
      "Ġworthy": 8847,
      "elihood": 8848,
      "Ġexpecting": 8849,
      "Ġlikelihood": 8850,
      "ĠTanzila": 8851,
      "ĠNetworks": 8852,
      "onel": 8853,
      "Ġhes": 8854,
      "ĠLv": 8855,
      "Ġactual": 8856,
      "Ġcaptain": 8857,
      "Ġrare": 8858,
      "Ġgreenhouses": 8859,
      "aturally": 8860,
      "ĠPaul": 8861,
      "ometimes": 8862,
      "andex": 8863,
      "Ġuses": 8864,
      "anka": 8865,
      "Ġ97": 8866,
      "orthy": 8867,
      "Ġvictories": 8868,
      "Ġtransported": 8869,
      "ĠFinnish": 8870,
      "Ġparks": 8871,
      "ĠBenz": 8872,
      "ĠAstana": 8873,
      "imu": 8874,
      "Ġgar": 8875,
      "ĠMak": 8876,
      "ĠRome": 8877,
      "ĠPatri": 8878,
      "ĠJer": 8879,
      "Ġcoverage": 8880,
      "Ġbusy": 8881,
      "Ġ2004": 8882,
      "ĠWithout": 8883,
      "ĠResources": 8884,
      "Ġbridges": 8885,
      "ĠHungarian": 8886,
      "Ġsuperiority": 8887,
      "Ġcourtyard": 8888,
      "MK": 8889,
      "lon": 8890,
      "vis": 8891,
      "Ġtheft": 8892,
      "ĠBook": 8893,
      "ostov": 8894,
      "Ġovert": 8895,
      "Ġyounger": 8896,
      "Ġpainful": 8897,
      "ĠValer": 8898,
      "Ġdeficiencies": 8899,
      "Ġfirmly": 8900,
      "inger": 8901,
      "ica": 8902,
      "ĠCatal": 8903,
      "terror": 8904,
      "ĠBR": 8905,
      "tech": 8906,
      "Ġwarfare": 8907,
      "axtakor": 8908,
      "Ġexchanging": 8909,
      "Ġcelebration": 8910,
      "Ġreflecting": 8911,
      "hamedov": 8912,
      "ashinyan": 8913,
      "Central": 8914,
      "Or": 8915,
      "gian": 8916,
      "ĠLim": 8917,
      "Ġbusinessman": 8918,
      "Ġcollaborate": 8919,
      "Ġclaiming": 8920,
      "NA": 8921,
      "usc": 8922,
      "ĠPashinyan": 8923,
      "oren": 8924,
      "Ġleather": 8925,
      "Ġsmoke": 8926,
      "Ġdivor": 8927,
      "Ġpipes": 8928,
      "Ãķzgidromet": 8929,
      "Ġregistering": 8930,
      "Ġseeking": 8931,
      "Ġepis": 8932,
      "Ġdistan": 8933,
      "ĠTottenham": 8934,
      "olen": 8935,
      "eth": 8936,
      "achev": 8937,
      "Ġworse": 8938,
      "Ġran": 8939,
      "Ġ350": 8940,
      "Ġfinish": 8941,
      "ĠSho": 8942,
      "Ġ89": 8943,
      "Ġ1994": 8944,
      "ĠApparently": 8945,
      "Ġcontaining": 8946,
      "keeping": 8947,
      "Ġprobability": 8948,
      "ĠYusup": 8949,
      "ĠOrtiqxÃµjayev": 8950,
      "Ġcomparison": 8951,
      "How": 8952,
      "handed": 8953,
      "nobod": 8954,
      "store": 8955,
      "ĠSout": 8956,
      "Ġstood": 8957,
      "ĠMag": 8958,
      "ĠRound": 8959,
      "ipp": 8960,
      "ĠNaturally": 8961,
      "aped": 8962,
      "Ġrecre": 8963,
      "Ġmaneu": 8964,
      "ĠQam": 8965,
      "Ġbride": 8966,
      "Ġperiods": 8967,
      "Ġterrorists": 8968,
      "Ġprovinces": 8969,
      "Ġinnoc": 8970,
      "aland": 8971,
      "Ġbases": 8972,
      "Ġloyal": 8973,
      "ĠBab": 8974,
      "Ġyellow": 8975,
      "abric": 8976,
      "ĠNorm": 8977,
      "ĠNodir": 8978,
      "ĠOcean": 8979,
      "oye": 8980,
      "ika": 8981,
      "Ġsuccesses": 8982,
      "Ġpedagogical": 8983,
      "Ġwatching": 8984,
      "Ġconfidential": 8985,
      "Af": 8986,
      "ESCO": 8987,
      "electric": 8988,
      "Ġsong": 8989,
      "Ġfat": 8990,
      "Ġintensive": 8991,
      "osti": 8992,
      "Ġrot": 8993,
      "phabet": 8994,
      "Ġtaxpay": 8995,
      "Ġstriking": 8996,
      "ĠMuh": 8997,
      "Ġdigit": 8998,
      "ĠProgram": 8999,
      "Sp": 9000,
      "ĠSay": 9001,
      "Ġtwenty": 9002,
      "Ġdestroying": 9003,
      "Ġbreaking": 9004,
      "Ġsubsidy": 9005,
      "Ġsurprised": 9006,
      "Ġprescribed": 9007,
      "Ġsurrounded": 9008,
      "Now": 9009,
      "unch": 9010,
      "Ġdepth": 9011,
      "Ġ900": 9012,
      "Ġ2002": 9013,
      "Ġelements": 9014,
      "Ġfulfilling": 9015,
      "ĠStudies": 9016,
      "Ġsurprising": 9017,
      "Ġgenocide": 9018,
      "PS": 9019,
      "winter": 9020,
      "ĠAirl": 9021,
      "rak": 9022,
      "ĠRav": 9023,
      "ĠHoj": 9024,
      "ĠArmy": 9025,
      "Ġbless": 9026,
      "Ġfailing": 9027,
      "Ġautomated": 9028,
      "Ġurgently": 9029,
      "Ġconvinced": 9030,
      "ĠCertain": 9031,
      "ĠChevrolet": 9032,
      "Don": 9033,
      "EI": 9034,
      "Ros": 9035,
      "arat": 9036,
      "ading": 9037,
      "ensity": 9038,
      "Ġbrings": 9039,
      "Ġplanes": 9040,
      "Ġdetect": 9041,
      "ferential": 9042,
      "lessly": 9043,
      "Ġdreams": 9044,
      "Ġhelicopter": 9045,
      "Ġorphan": 9046,
      "ĠTreasury": 9047,
      "41": 9048,
      "65": 9049,
      "BI": 9050,
      "vol": 9051,
      "Ġthrown": 9052,
      "Ġrepaired": 9053,
      "Ġedition": 9054,
      "egal": 9055,
      "Ġlegit": 9056,
      "Ġnationality": 9057,
      "Ġfinanced": 9058,
      "Ġlisten": 9059,
      "ĠMaria": 9060,
      "Ġhostages": 9061,
      "Ġunlikely": 9062,
      "Ġstipulated": 9063,
[...]
