{
  "version": "1.0",
  "truncation": null,
  "padding": null,
  "added_tokens": [
    {
      "id": 0,
      "content": "[PAD]",
      "single_word": false,
      "lstrip": false,
      "rstrip": false,
      "normalized": false,
      "special": true
    },
    {
      "id": 1,
      "content": "[UNK]",
      "single_word": false,
      "lstrip": false,
      "rstrip": false,
      "normalized": false,
      "special": true
    }
  ],
  "normalizer": null,
  "pre_tokenizer": {
    "type": "ByteLevel",
    "add_prefix_space": true,
    "trim_offsets": true,
    "use_regex": true
  },
  "post_processor": null,
  "decoder": null,
  "model": {
    "type": "BPE",
    "dropout": null,
    "unk_token": null,
    "continuing_subword_prefix": null,
    "end_of_word_suffix": null,
    "fuse_unk": false,
    "byte_fallback": false,
    "vocab": {
      "[PAD]": 0,
      "[UNK]": 1,
      "!": 2,
      "\"": 3,
      "#": 4,
      "$": 5,
      "%": 6,
      "&": 7,
      "'": 8,
      "(": 9,
      ")": 10,
      "*": 11,
      "+": 12,
      ",": 13,
      "-": 14,
      ".": 15,
      "/": 16,
      "0": 17,
      "1": 18,
      "2": 19,
      "3": 20,
      "4": 21,
      "5": 22,
      "6": 23,
      "7": 24,
      "8": 25,
      "9": 26,
      ":": 27,
      ";": 28,
      "<": 29,
      "=": 30,
      ">": 31,
      "?": 32,
      "@": 33,
      "A": 34,
      "B": 35,
      "C": 36,
      "D": 37,
      "E": 38,
      "F": 39,
      "G": 40,
      "H": 41,
      "I": 42,
      "J": 43,
      "K": 44,
      "L": 45,
      "M": 46,
      "N": 47,
      "O": 48,
      "P": 49,
      "Q": 50,
      "R": 51,
      "S": 52,
      "T": 53,
      "U": 54,
      "V": 55,
      "W": 56,
      "X": 57,
      "Y": 58,
      "Z": 59,
      "[": 60,
      "]": 61,
      "^": 62,
      "_": 63,
      "a": 64,
      "b": 65,
      "c": 66,
      "d": 67,
      "e": 68,
      "f": 69,
      "g": 70,
      "h": 71,
      "i": 72,
      "j": 73,
      "k": 74,
      "l": 75,
      "m": 76,
      "n": 77,
      "o": 78,
      "p": 79,
      "q": 80,
      "r": 81,
      "s": 82,
      "t": 83,
      "u": 84,
      "v": 85,
      "w": 86,
      "x": 87,
      "y": 88,
      "z": 89,
      "|": 90,
      "£": 91,
      "¦": 92,
      "§": 93,
      "¬": 94,
      "°": 95,
      "µ": 96,
      "½": 97,
      "Â": 98,
      "Ã": 99,
      "Ç": 100,
      "â": 101,
      "Ċ": 102,
      "Ġ": 103,
      "Ĥ": 104,
      "Ħ": 105,
      "ķ": 106,
      "ĸ": 107,
      "Ġt": 108,
      "he": 109,
      "in": 110,
      "Ġa": 111,
      "Ġthe": 112,
      "on": 113,
      "re": 114,
      "er": 115,
      "Ġo": 116,
      "at": 117,
      "en": 118,
      "Ġs": 119,
      "an": 120,
      "is": 121,
      "Ġw": 122,
      "or": 123,
      "Ġc": 124,
      "ed": 125,
      "Ġof": 126,
      "it": 127,
      "Ġin": 128,
      "Ġp": 129,
      "es": 130,
      "ion": 131,
      "ing": 132,
      "ar": 133,
      "Ġf": 134,
      "al": 135,
      "Ġb": 136,
      "Ġto": 137,
      "Ġan": 138,
      "as": 139,
      "Ġd": 140,
      "ic": 141,
      "ro": 142,
      "Ġm": 143,
      "ent": 144,
      "Ġand": 145,
      "ou": 146,
      "Ġh": 147,
      "il": 148,
      "Ġre": 149,
      "Ġth": 150,
      "ĠT": 151,
      "le": 152,
      "Ġn": 153,
      "ation": 154,
      "ĠA": 155,
      "ct": 156,
      "Ġbe": 157,
      "Ġe": 158,
      "st": 159,
      "om": 160,
      "id": 161,
      "ve": 162,
      "ur": 163,
      "ly": 164,
      "Ġfor": 165,
      "ist": 166,
      "ra": 167,
      "ĠI": 168,
      "Ġis": 169,
      "im": 170,
      "Ġon": 171,
      "us": 172,
      "ol": 173,
      "ot": 174,
      "Ġl": 175,
      "ĠU": 176,
      "ĠThe": 177,
      "ut": 178,
      "ce": 179,
      "Ġ\"": 180,
      "ĠS": 181,
      "ig": 182,
      "Ġg": 183,
      "Ġst": 184,
      "un": 185,
      "ad": 186,
      "Ġde": 187,
      "ir": 188,
      "ill": 189,
      "Ġthat": 190,
      "ay": 191,
      "ers": 192,
      "Ġcon": 193,
      "ment": 194,
      "et": 195,
      "ith": 196,
      "ĠM": 197,
      "el": 198,
      "am": 199,
      "Ġwith": 200,
      "ch": 201,
      "Ġpro": 202,
      "ĠC": 203,
      "ter": 204,
      "ĠR": 205,
      "ver": 206,
      "Ġ2": 207,
      "Ġwas": 208,
      "ort": 209,
      "ow": 210,
      "ul": 211,
      "oun": 212,
      "Ġit": 213,
      "si": 214,
      "os": 215,
      "ri": 216,
      "ding": 217,
      "Ġ1": 218,
      "Ġare": 219,
      "Ġwe": 220,
      "'s": 221,
      "Ġat": 222,
      "rom": 223,
      "Ġal": 224,
      "cc": 225,
      "ate": 226,
      "res": 227,
      "op": 228,
      "Ġas": 229,
      "Ġex": 230,
      "ĠP": 231,
      "ity": 232,
      "Ġhe": 233,
      "Ġfrom": 234,
      "ĠB": 235,
      "art": 236,
      "pe": 237,
      "Ġcom": 238,
      "Ġthis": 239,
      "ĠIn": 240,
      "Ġnot": 241,
      "ain": 242,
      "her": 243,
      "Ġwh": 244,
      "est": 245,
      "port": 246,
      "iv": 247,
      "Ġwill": 248,
      "and": 249,
      "Ġne": 250,
      "ore": 251,
      "ial": 252,
      "ak": 253,
      "Ġby": 254,
      "ary": 255,
      "Ġy": 256,
      "ies": 257,
      "se": 258,
      "ag": 259,
      "ĠD": 260,
      "iz": 261,
      "ĠF": 262,
      "if": 263,
      "ld": 264,
      "ions": 265,
      "Ġha": 266,
      "up": 267,
      "em": 268,
      "ek": 269,
      "ac": 270,
      "ĠE": 271,
      "Ġhas": 272,
      "od": 273,
      "Ġv": 274,
      "Ġse": 275,
      "ĠK": 276,
      "um": 277,
      "igh": 278,
      "red": 279,
      "Ġ20": 280,
      "ussi": 281,
      "ab": 282,
      "Ġle": 283,
      "rain": 284,
      "ĠRussi": 285,
      "Ġhave": 286,
      "th": 287,
      "istan": 288,
      "ccor": 289,
      "oc": 290,
      "ov": 291,
      "ount": 292,
      "ĠH": 293,
      "bek": 294,
      "ess": 295,
      "qu": 296,
      "ren": 297,
      "ccording": 298,
      "ated": 299,
      "Ġun": 300,
      "Ġpl": 301,
      "ant": 302,
      "Ġag": 303,
      "ĠN": 304,
      "ip": 305,
      "Ġreg": 306,
      "zbek": 307,
      "Ġ-": 308,
      "Ġbeen": 309,
      "ĠW": 310,
      "du": 311,
      "ry": 312,
      "ub": 313,
      "ĠO": 314,
      "Ġch": 315,
      "Ġwere": 316,
      "ive": 317,
      "ĠUzbek": 318,
      "ear": 319,
      "ĠG": 320,
      "Ġres": 321,
      "ber": 322,
      "ĠAccording": 323,
      "ric": 324,
      "krain": 325,
      "ans": 326,
      "Ġcomp": 327,
      "Ġwor": 328,
      "ous": 329,
      "Ġor": 330,
      "ĠUkrain": 331,
      "our": 332,
      "Ġint": 333,
      "ud": 334,
      "ĠJ": 335,
      "ations": 336,
      "so": 337,
      "ight": 338,
      "Ġen": 339,
      "Ġalso": 340,
      "der": 341,
      "ident": 342,
      "ep": 343,
      "ition": 344,
      "fic": 345,
      "Ġinc": 346,
      "inist": 347,
      "Ġim": 348,
      "ĠUzbekistan": 349,
      "Ġgo": 350,
      "ect": 351,
      "out": 352,
      "Ġab": 353,
      "per": 354,
      "pp": 355,
      "ure": 356,
      "Ġpart": 357,
      "orm": 358,
      "Ġad": 359,
      "Ġyear": 360,
      "Ġr": 361,
      "ign": 362,
      "Ġcount": 363,
      "00": 364,
      "Ġsh": 365,
      "ast": 366,
      "ue": 367,
      "all": 368,
      "ult": 369,
      "gh": 370,
      "Ġ(": 371,
      "lic": 372,
      "ime": 373,
      "ical": 374,
      "Ġper": 375,
      "Ġ202": 376,
      "ian": 377,
      "ang": 378,
      "ĠL": 379,
      "ced": 380,
      "ust": 381,
      "ide": 382,
      "Ġme": 383,
      "ap": 384,
      "ould": 385,
      "Ġhis": 386,
      "ong": 387,
      "Ġsa": 388,
      "Ġtheir": 389,
      "Ġwho": 390,
      "Ġhad": 391,
      "ard": 392,
      "Ġcont": 393,
      "erv": 394,
      "uring": 395,
      "ction": 396,
      "Ġk": 397,
      "ia": 398,
      "form": 399,
      "illion": 400,
      "og": 401,
      "Ġpe": 402,
      "ome": 403,
      "ru": 404,
      "age": 405,
      "tern": 406,
      "ire": 407,
      "Ġar": 408,
      "Ġall": 409,
      "ĠUkraine": 410,
      "any": 411,
      "Ġ3": 412,
      "ational": 413,
      "ash": 414,
      "Ġdis": 415,
      "ther": 416,
      "ces": 417,
      "ĠTh": 418,
      "ĠRussia": 419,
      "con": 420,
      "ell": 421,
      "ost": 422,
      "end": 423,
      "Ġcan": 424,
      "ople": 425,
      "Ġits": 426,
      ",\"": 427,
      "Ġte": 428,
      "Ġthere": 429,
      "fter": 430,
      "ame": 431,
      "ff": 432,
      "ace": 433,
      "ks": 434,
      "ase": 435,
      "Ġcl": 436,
      "vel": 437,
      "pl": 438,
      "ich": 439,
      "Ġsaid": 440,
      "Ġpre": 441,
      "ree": 442,
      "gan": 443,
      "Ġstate": 444,
      "Ġpres": 445,
      "und": 446,
      "Ġabout": 447,
      "ie": 448,
      "ĠMinist": 449,
      "Ġj": 450,
      "ice": 451,
      "ally": 452,
      "Ġreport": 453,
      "ĠSt": 454,
      "ĠRussian": 455,
      "Ġpeople": 456,
      "Ġsu": 457,
      "Ġdec": 458,
      "hed": 459,
      "Ġbeing": 460,
      "Ġam": 461,
      "oll": 462,
      "ilit": 463,
      "Ġus": 464,
      "Ġregion": 465,
      "Ġem": 466,
      "Ġspe": 467,
      "ens": 468,
      "Ġtime": 469,
      "Ġthey": 470,
      "ĠCh": 471,
      "uro": 472,
      "cent": 473,
      "very": 474,
      "Ġone": 475,
      "Ġev": 476,
      "one": 477,
      "ublic": 478,
      "ke": 479,
      "ass": 480,
      "cted": 481,
      "Ġapp": 482,
      ".\"": 483,
      "Ġcons": 484,
      "hen": 485,
      "Ġday": 486,
      "Ġbut": 487,
      "av": 488,
      "ine": 489,
      "Ġatt": 490,
      "Ġimp": 491,
      "Ġact": 492,
      "old": 493,
      "ased": 494,
      "Ġwork": 495,
      "ugh": 496,
      "Ġagain": 497,
      "Ġtr": 498,
      "ance": 499,
      "dition": 500,
      "ts": 501,
      "Ġnew": 502,
      "Ġdo": 503,
      "ence": 504,
      "Ġoffic": 505,
      "Ġinv": 506,
      "ater": 507,
      "Ġann": 508,
      "Ġcar": 509,
      "ments": 510,
      "rit": 511,
      "Ġout": 512,
      "ries": 513,
      "ted": 514,
      "ĠUn": 515,
      "oy": 516,
      "Ġthem": 517,
      "ory": 518,
      "ish": 519,
      "ied": 520,
      "ble": 521,
      "ose": 522,
      "ized": 523,
      "Ġwhich": 524,
      "ors": 525,
      "..": 526,
      "Ġsup": 527,
      "ious": 528,
      "Ġother": 529,
      "Ġcity": 530,
      "Ġbec": 531,
      "Ġ5": 532,
      "Ġent": 533,
      "Ġop": 534,
      "Ġro": 535,
      "ating": 536,
      "irst": 537,
      "Ġlead": 538,
      "ack": 539,
      "Ġrel": 540,
      "Ġinform": 541,
      "ĠThis": 542,
      "Ġunder": 543,
      "Ġpos": 544,
      "ev": 545,
      "ĠUS": 546,
      "ĠIt": 547,
      "Ġdist": 548,
      "Ġsit": 549,
      "ates": 550,
      "Ġsc": 551,
      "iy": 552,
      "Ġincre": 553,
      "act": 554,
      "Ġcountries": 555,
      "Ġla": 556,
      "Ġmore": 557,
      "oin": 558,
      "urn": 559,
      "Ġwar": 560,
      "az": 561,
      "Ġyears": 562,
      "ashk": 563,
      "cial": 564,
      "te": 565,
      "Ġprov": 566,
      "rent": 567,
      "rough": 568,
      "ilitary": 569,
      "Ġagainst": 570,
      "Ġ4": 571,
      "ge": 572,
      "ject": 573,
      "Ġinformation": 574,
      "ile": 575,
      "Ġqu": 576,
      "rict": 577,
      "Ġduring": 578,
      "ities": 579,
      "Ġserv": 580,
      "Ġpercent": 581,
      "Ġno": 582,
      "Ġfirst": 583,
      "mer": 584,
      "Ġup": 585,
      "vern": 586,
      "iss": 587,
      "Ġour": 588,
      "ove": 589,
      "ashkent": 590,
      "aus": 591,
      "Ġtak": 592,
      "Ġinto": 593,
      "cess": 594,
      "ĠOn": 595,
      "Ġannoun": 596,
      "Ġmilitary": 597,
      "ative": 598,
      "mit": 599,
      "ark": 600,
      "Ġmillion": 601,
      "ok": 602,
      "Ġtrans": 603,
      "ĠY": 604,
      "ific": 605,
      "Ġcountry": 606,
      "cy": 607,
      "lect": 608,
      "ind": 609,
      "ĠV": 610,
      "ĠEuro": 611,
      "Ġind": 612,
      "Ġsp": 613,
      "ĠTashkent": 614,
      "Ġrep": 615,
      "Ġpartic": 616,
      "able": 617,
      "Ġprodu": 618,
      "yst": 619,
      "Ġsitu": 620,
      "als": 621,
      "erm": 622,
      "ild": 623,
      "ĠIs": 624,
      "ob": 625,
      "Ġ7": 626,
      "uc": 627,
      "ĠEurope": 628,
      "Ġtw": 629,
      "rim": 630,
      "Ġsome": 631,
      "velop": 632,
      "Ġgovern": 633,
      "Ġresult": 634,
      "Ġthan": 635,
      "air": 636,
      "Ġdep": 637,
      "Ġannounced": 638,
      "ram": 639,
      "ĠPres": 640,
      "Ġair": 641,
      "Ġhim": 642,
      "ystem": 643,
      "fe": 644,
      "Ġafter": 645,
      "Ġyou": 646,
      "ph": 647,
      "Ġgro": 648,
      "Ġiss": 649,
      "ach": 650,
      "ĠFor": 651,
      "Ġpol": 652,
      "Ġco": 653,
      "Ġass": 654,
      "ann": 655,
      "Ġacc": 656,
      "Ġsuch": 657,
      "med": 658,
      "Ġtra": 659,
      "Ġnum": 660,
      "Ġsystem": 661,
      "erson": 662,
      "ĠAd": 663,
      "ays": 664,
      "Ġinst": 665,
      "ec": 666,
      "Ġorgan": 667,
      "Ġsign": 668,
      "ĠPresident": 669,
      "ents": 670,
      "Ġthrough": 671,
      "Ġsituation": 672,
      "Ġ19": 673,
      "Ġexp": 674,
      "ĠMinistry": 675,
      "Ġtwo": 676,
      "we": 677,
      "ense": 678,
      "ress": 679,
      "itut": 680,
      "Ġob": 681,
      "ĠAn": 682,
      "Ġofficial": 683,
      "Ġrem": 684,
      "rees": 685,
      "ĠDe": 686,
      "Ġmed": 687,
      "Ġthese": 688,
      "stan": 689,
      "Ġstart": 690,
      "ĠAs": 691,
      "ited": 692,
      "ank": 693,
      "ĠHe": 694,
      "Ġhead": 695,
      "ft": 696,
      "Ġdevelop": 697,
      "Ġonly": 698,
      "Ġbu": 699,
      "ĠAt": 700,
      "urrent": 701,
      "ron": 702,
      "tain": 703,
      "ris": 704,
      "inal": 705,
      "Ġoper": 706,
      "ew": 707,
      "gy": 708,
      "Ġchild": 709,
      "Ġdistrict": 710,
      "ars": 711,
      "akh": 712,
      "ĠUkrainian": 713,
      "Ġ6": 714,
      "here": 715,
      "Ġchang": 716,
      "ons": 717,
      "Ġintern": 718,
      "Ġmon": 719,
      "ĠAr": 720,
      "Ġdire": 721,
      "les": 722,
      "Ġbet": 723,
      "conom": 724,
      "anu": 725,
      "ved": 726,
      "Ġperson": 727,
      "are": 728,
      "Ġstud": 729,
      "Ġparticip": 730,
      "oreign": 731,
      "Ġrec": 732,
      "olog": 733,
      "Ġwould": 734,
      "Ġdeg": 735,
      "Ġbl": 736,
      "Ġdisc": 737,
      "hip": 738,
      "Ġnumber": 739,
      "Ġwell": 740,
      "Ġplace": 741,
      "amp": 742,
      "Ġmeet": 743,
      "ever": 744,
      "ency": 745,
      "pon": 746,
      "ures": 747,
      "Ġmain": 748,
      "rest": 749,
      "Ġ2023": 750,
      "now": 751,
      "ĠEuropean": 752,
      "ite": 753,
      "other": 754,
      "ade": 755,
      "Ġli": 756,
      "ets": 757,
      "ool": 758,
      "Ġcap": 759,
      "Ġocc": 760,
      "ood": 761,
      "ention": 762,
      "ract": 763,
      "li": 764,
      "ues": 765,
      "Ġlaw": 766,
      "Ġinvest": 767,
      "ener": 768,
      "Ġcit": 769,
      "Ġdegrees": 770,
      "Ġover": 771,
      "rael": 772,
      "Ġmy": 773,
      "pt": 774,
      "ween": 775,
      "ause": 776,
      "Ġcomm": 777,
      "ision": 778,
      "Ġimport": 779,
      "ning": 780,
      "Ġincl": 781,
      "Ġed": 782,
      "ina": 783,
      "ists": 784,
      "Ġbetween": 785,
      "ousand": 786,
      "reat": 787,
      "ĠIsrael": 788,
      "Ġelect": 789,
      "Ġcompany": 790,
      "Ġloc": 791,
      "ĠSh": 792,
      "day": 793,
      "Ġprovid": 794,
      "Ġconf": 795,
      "ict": 796,
      "ives": 797,
      "Ġest": 798,
      "Ġac": 799,
      "fore": 800,
      "Ġthousand": 801,
      "ather": 802,
      "iel": 803,
      "ished": 804,
      "ctor": 805,
      "Ġdef": 806,
      "Ġra": 807,
      "Ġorganiz": 808,
      "ĠHow": 809,
      "Ġbillion": 810,
      "Ġproject": 811,
      "ĠZ": 812,
      "Ġneed": 813,
      "ulation": 814,
      "ditionally": 815,
      "ility": 816,
      "Ġgovernment": 817,
      "ms": 818,
      "Ġteam": 819,
      "ily": 820,
      "ds": 821,
      "Ġdid": 822,
      "artment": 823,
      "ax": 824,
      "Ġ'": 825,
      "Ġcour": 826,
      "Ġmet": 827,
      "Ġif": 828,
      "Ġter": 829,
      "Ġworld": 830,
      "Ġmeeting": 831,
      "Ġfl": 832,
      "Ġconst": 833,
      "Ġcitiz": 834,
      "Ġcould": 835,
      "Ġeven": 836,
      "ffic": 837,
      "ĠTur": 838,
      "mber": 839,
      "ĠAdditionally": 840,
      "Ġsupport": 841,
      "Ġcontin": 842,
      "ral": 843,
      "ĠAfter": 844,
      "ants": 845,
      "chool": 846,
      "Ġcent": 847,
      "Ġpop": 848,
      "Ġ2022": 849,
      "riv": 850,
      "Ġend": 851,
      "ince": 852,
      "Ġcall": 853,
      "cond": 854,
      "ital": 855,
      "ward": 856,
      "sible": 857,
      "itions": 858,
      "...": 859,
      "Ġeduc": 860,
      "wn": 861,
      "Ġsoc": 862,
      "de": 863,
      "eration": 864,
      "abl": 865,
      "ĠWe": 866,
      "Ġbuil": 867,
      "Ġsub": 868,
      "lement": 869,
      "Ġlast": 870,
      "ĠCom": 871,
      "Ġ10": 872,
      "ĠAl": 873,
      "Ġpublic": 874,
      "Ġreported": 875,
      "ĠQ": 876,
      "ah": 877,
      "ared": 878,
      "pected": 879,
      "Ġ8": 880,
      "ound": 881,
      "phas": 882,
      "arch": 883,
      "Ġpresident": 884,
      "Ġemphas": 885,
      "Ġdem": 886,
      "Ġmonth": 887,
      "Ġpass": 888,
      "ices": 889,
      "Ġevery": 890,
      "Ġhigh": 891,
      "ail": 892,
      "Ġany": 893,
      "Ġman": 894,
      "leg": 895,
      "Ġactiv": 896,
      "rem": 897,
      "Ġ201": 898,
      "'t": 899,
      "uss": 900,
      "ctions": 901,
      "Ġcurrent": 902,
      "Ġdue": 903,
      "Ġfin": 904,
      "Ġwhen": 905,
      "Ġaut": 906,
      "Ġmany": 907,
      "ĠRep": 908,
      "Ġsec": 909,
      "get": 910,
      "Ġright": 911,
      "Ġtem": 912,
      "Ġestabl": 913,
      "ty": 914,
      "Ġheld": 915,
      "ord": 916,
      "Ġrespon": 917,
      "Ġwhere": 918,
      "ient": 919,
      "Ġdes": 920,
      "ĠCent": 921,
      "cts": 922,
      "Ġvery": 923,
      "ason": 924,
      "ake": 925,
      "ough": 926,
      "xt": 927,
      "Ġshould": 928,
      "ĠMinister": 929,
      "Ġbr": 930,
      "ower": 931,
      "anuary": 932,
      "Ġinter": 933,
      "riminal": 934,
      "Ġmade": 935,
      "Ġcondu": 936,
      "ried": 937,
      "Ġdoll": 938,
      "ĠJanuary": 939,
      "ĠGerm": 940,
      "ration": 941,
      "ĠDep": 942,
      "Ġplac": 943,
      "Ġeconom": 944,
      "ĠHowever": 945,
      "Ġspecial": 946,
      "000": 947,
      "Ġcre": 948,
      "Ġ+": 949,
      "Ġmem": 950,
      "Ġinternational": 951,
      "Ġmost": 952,
      "Ġrece": 953,
      "Ġgas": 954,
      "aj": 955,
      "Ġcomple": 956,
      "ature": 957,
      "Ġwhile": 958,
      "ouse": 959,
      "Ġamount": 960,
      "Ġchildren": 961,
      "chn": 962,
      "Ġappro": 963,
      "\".": 964,
      "urity": 965,
      "Ġexper": 966,
      "airs": 967,
      "ting": 968,
      "owing": 969,
      "Ġimplement": 970,
      "ik": 971,
      "ĠChina": 972,
      "Ġmay": 973,
      "),": 974,
      "Ġpopulation": 975,
      "Ġlar": 976,
      "resent": 977,
      "ven": 978,
      "ĠBut": 979,
      "Ġprev": 980,
      "ĠWh": 981,
      "Ġgroup": 982,
      "ĠThere": 983,
      "Ġplay": 984,
      "Ġwithin": 985,
      "Ġnecess": 986,
      "Ġnow": 987,
      "ĠIf": 988,
      "ases": 989,
      "Ġph": 990,
      "Ġ9": 991,
      "Ġ15": 992,
      "Ġservice": 993,
      "uz": 994,
      "iew": 995,
      "rol": 996,
      "ocu": 997,
      "Ġvis": 998,
      "Ġoccur": 999,
      "Ġforces": 1000,
      "Ġthose": 1001,
      "Ġsecond": 1002,
      "arly": 1003,
      "Ġagree": 1004,
      "osed": 1005,
      "minist": 1006,
      "Ġso": 1007,
      "eneral": 1008,
      "idered": 1009,
      "Ġfiel": 1010,
      "fer": 1011,
      "Ġinit": 1012,
      "tic": 1013,
      "ffairs": 1014,
      "Ġdollars": 1015,
      "Ġbeg": 1016,
      "ĠDuring": 1017,
      "Ġturn": 1018,
      "Ġdocu": 1019,
      "Ġarea": 1020,
      "...+": 1021,
      "Ġleg": 1022,
      "Ġconsidered": 1023,
      "ploy": 1024,
      "Ġknow": 1025,
      "ner": 1026,
      "Ġinte": 1027,
      "Ġap": 1028,
      "Ġwater": 1029,
      "Ġopen": 1030,
      "Ġdif": 1031,
      "The": 1032,
      "round": 1033,
      "Ġterrit": 1034,
      "cl": 1035,
      "Ġret": 1036,
      ").": 1037,
      "20": 1038,
      "Ġsent": 1039,
      "Ġschool": 1040,
      "Ġpur": 1041,
      "ual": 1042,
      "Ġdecision": 1043,
      "Ġhow": 1044,
      "Ġdoes": 1045,
      "ĠRe": 1046,
      "oot": 1047,
      "ĠKy": 1048,
      "elf": 1049,
      "Ġdiscuss": 1050,
      "Ġpolit": 1051,
      "ork": 1052,
      "Ġcor": 1053,
      "ĠRepublic": 1054,
      "ful": 1055,
      "ĠIntern": 1056,
      "ural": 1057,
      "ics": 1058,
      "ines": 1059,
      "Ġareas": 1060,
      "Ġattack": 1061,
      "Ġprocess": 1062,
      "imes": 1063,
      "Ġsever": 1064,
      "Ġinf": 1065,
      "Ġwithout": 1066,
      "Ãµ": 1067,
      "Ġlike": 1068,
      "Ġbus": 1069,
      "Ġequ": 1070,
      "Ġprot": 1071,
      "Ġpric": 1072,
      "Ġforeign": 1073,
      "Ġaccording": 1074,
      "oint": 1075,
      "Ġbuilding": 1076,
      "Ġseveral": 1077,
      "Ġpress": 1078,
      "Ġsays": 1079,
      "Ġdays": 1080,
      "arding": 1081,
      "Ġexpected": 1082,
      "ving": 1083,
      "Ġbased": 1084,
      "Ġrequ": 1085,
      "led": 1086,
      "ink": 1087,
      "ĠUnion": 1088,
      "Ġnight": 1089,
      "Ġcitizens": 1090,
      "Ġown": 1091,
      "rime": 1092,
      "ivers": 1093,
      "Ġemphasized": 1094,
      "ise": 1095,
      "\",": 1096,
      "ission": 1097,
      "Ġmark": 1098,
      "ib": 1099,
      "Ġincrease": 1100,
      "Ġnecessary": 1101,
      "rib": 1102,
      "atives": 1103,
      "Ġremain": 1104,
      "orth": 1105,
      "ĠLe": 1106,
      "uding": 1107,
      "Ġext": 1108,
      "Ġexpl": 1109,
      "Ġmod": 1110,
      "ows": 1111,
      "Ġgoal": 1112,
      "Ġstr": 1113,
      "Ġrepresent": 1114,
      "ruction": 1115,
      "hes": 1116,
      "Ġsame": 1117,
      "Ġregions": 1118,
      "ages": 1119,
      "Ġmust": 1120,
      "sive": 1121,
      "Ġplaces": 1122,
      "Ġcase": 1123,
      "read": 1124,
      "ism": 1125,
      "Ġgiv": 1126,
      "Ġanother": 1127,
      "Ġfound": 1128,
      "Ġpay": 1129,
      "ern": 1130,
      "Ġfam": 1131,
      "Ġamong": 1132,
      "Ġproble": 1133,
      "Ġmat": 1134,
      "Ġgu": 1135,
      "Ġprovided": 1136,
      "Ġcourt": 1137,
      "uty": 1138,
      "Ġinvestig": 1139,
      "ath": 1140,
      "Ġeducation": 1141,
      "Ġmin": 1142,
      "Ġuse": 1143,
      "Ġleaders": 1144,
      "Ġissue": 1145,
      "til": 1146,
      "way": 1147,
      "Ġtemper": 1148,
      "abor": 1149,
      "ug": 1150,
      "Ġrest": 1151,
      "Ġinstitut": 1152,
      "Ġcol": 1153,
      "my": 1154,
      "ran": 1155,
      "iet": 1156,
      "Ġrelated": 1157,
      "Ġadv": 1158,
      "Ġthree": 1159,
      "Ġbegin": 1160,
      "Ġwom": 1161,
      "Ġins": 1162,
      "uman": 1163,
      "Ġtechn": 1164,
      "alth": 1165,
      "own": 1166,
      "ution": 1167,
      "ply": 1168,
      "Ġbor": 1169,
      "Ġadminist": 1170,
      "Ġcontrol": 1171,
      "ĠAffairs": 1172,
      "Ġreports": 1173,
      "uk": 1174,
      "Ġbel": 1175,
      "Ġweather": 1176,
      "hor": 1177,
      "iness": 1178,
      "Ġser": 1179,
      "Ġtake": 1180,
      "Ġform": 1181,
      "lear": 1182,
      "ured": 1183,
      "Ġcalled": 1184,
      "Ġenter": 1185,
      "ĠAsi": 1186,
      "Ġmeas": 1187,
      "Ġsocial": 1188,
      "iod": 1189,
      "Ġimportant": 1190,
      "iol": 1191,
      "Ġneg": 1192,
      "Ġvar": 1193,
      "man": 1194,
      "ĠPro": 1195,
      "Ġsay": 1196,
      "Ġcer": 1197,
      "bers": 1198,
      "asing": 1199,
      "Ġlong": 1200,
      "Ġnational": 1201,
      "tal": 1202,
      "Ġworking": 1203,
      "ffect": 1204,
      "ivid": 1205,
      "ret": 1206,
      "Ġfield": 1207,
      "Ġtemperature": 1208,
      "ĠUnited": 1209,
      "Ġprog": 1210,
      "utin": 1211,
      "Ġprep": 1212,
      "ij": 1213,
      "ss": 1214,
      "Ġregarding": 1215,
      "operation": 1216,
      "ately": 1217,
      "Ġwhat": 1218,
      "its": 1219,
      "Ġpower": 1220,
      "Ġelectric": 1221,
      "Ġve": 1222,
      "Ġsom": 1223,
      "Ġperiod": 1224,
      "Ġspeed": 1225,
      "Ġfoll": 1226,
      "ered": 1227,
      "Ġsignific": 1228,
      "Ġwind": 1229,
      "ings": 1230,
      "ĠState": 1231,
      "ified": 1232,
      "ĠCentral": 1233,
      "Ġlevel": 1234,
      "Ġcarried": 1235,
      "Ġjust": 1236,
      "Ġhel": 1237,
      "Ġleader": 1238,
      "Ġaddition": 1239,
      "Ġinterest": 1240,
      "Ġrele": 1241,
      "Ġsince": 1242,
      "Ġmiss": 1243,
      "ians": 1244,
      "unity": 1245,
      "ived": 1246,
      "ĠPutin": 1247,
      "gency": 1248,
      "oth": 1249,
      "sec": 1250,
      "oney": 1251,
      "Ġlaun": 1252,
      "Ġsur": 1253,
      "Ġgiven": 1254,
      "ked": 1255,
      "ands": 1256,
      "Ġful": 1257,
      "Ġaround": 1258,
      "Ġproducts": 1259,
      "Ġsold": 1260,
      "eb": 1261,
      "outh": 1262,
      "Ġposition": 1263,
      "Ġemploy": 1264,
      "Ġvict": 1265,
      "ĠKaz": 1266,
      "Ġtaken": 1267,
      "Ġincluding": 1268,
      "ruct": 1269,
      "Ġsum": 1270,
      "Ġreturn": 1271,
      "Ġ12": 1272,
      "view": 1273,
      "Ġprop": 1274,
      "Ġactions": 1275,
      "ĠThey": 1276,
      "Ġ11": 1277,
      "istance": 1278,
      "Ġincreased": 1279,
      "ept": 1280,
      "Ġmoney": 1281,
      "rison": 1282,
      "Ġcond": 1283,
      "Ġrelations": 1284,
      "Ġopport": 1285,
      "Ġservices": 1286,
      "Ġhelp": 1287,
      "ĠSec": 1288,
      "els": 1289,
      "Ġlarge": 1290,
      "ife": 1291,
      "Ġbegan": 1292,
      "key": 1293,
      "Ġgame": 1294,
      "ky": 1295,
      "Ġbecome": 1296,
      "Ġtimes": 1297,
      "Ġtook": 1298,
      "Ġadd": 1299,
      "arm": 1300,
      "Ġofficials": 1301,
      "Ġfund": 1302,
      "ĠAb": 1303,
      "Ġfact": 1304,
      "cip": 1305,
      "ĠMay": 1306,
      "Ġnext": 1307,
      "meric": 1308,
      "Ġprogram": 1309,
      "Ġappe": 1310,
      "Ġgood": 1311,
      "ute": 1312,
      "uch": 1313,
      "Ġbecause": 1314,
      "ĠKazakh": 1315,
      "Ġbefore": 1316,
      "Ġvarious": 1317,
      "Ġminist": 1318,
      "ober": 1319,
      "ator": 1320,
      "urs": 1321,
      "Ġoff": 1322,
      "ember": 1323,
      "Ġwant": 1324,
      "ĠDepartment": 1325,
      "Ġoccurred": 1326,
      "Ġactivities": 1327,
      "Ġroad": 1328,
      "Ġpossible": 1329,
      "Ġher": 1330,
      "ange": 1331,
      "ĠAmeric": 1332,
      "term": 1333,
      "Ġindic": 1334,
      "Ġsignificant": 1335,
      "chie": 1336,
      "anned": 1337,
      "Ġweek": 1338,
      "year": 1339,
      "Ġhig": 1340,
      "Ġmonths": 1341,
      "reed": 1342,
      "Ġfight": 1343,
      "Ġcriminal": 1344,
      "Ġleft": 1345,
      "Ġauthor": 1346,
      "Ġviol": 1347,
      "Ġyour": 1348,
      "Ġread": 1349,
      "ave": 1350,
      "cing": 1351,
      "wards": 1352,
      "Ġcooperation": 1353,
      "ying": 1354,
      "anks": 1355,
      "Ġiniti": 1356,
      "Ġstri": 1357,
      "ĠKh": 1358,
      "Ġmarket": 1359,
      "pect": 1360,
      "aged": 1361,
      "Ġtransport": 1362,
      "12": 1363,
      "rep": 1364,
      "Ġpa": 1365,
      "ĠTurkey": 1366,
      "ick": 1367,
      "secut": 1368,
      "Ġconducted": 1369,
      "cil": 1370,
      "Ġprom": 1371,
      "ĠMarch": 1372,
      "ĠSa": 1373,
      "Ġthen": 1374,
      "Ġsan": 1375,
      "Ġagreement": 1376,
      "Ġsm": 1377,
      "ene": 1378,
      "ĠDef": 1379,
      "ular": 1380,
      "ergy": 1381,
      "Ġused": 1382,
      "ĠBel": 1383,
      "Ġset": 1384,
      "rat": 1385,
      "ves": 1386,
      "ources": 1387,
      "ross": 1388,
      "ton": 1389,
      "ĠMir": 1390,
      "ĠMos": 1391,
      "Ġenergy": 1392,
      "Ġestablished": 1393,
      "raft": 1394,
      "Ġ18": 1395,
      "ization": 1396,
      "ĠKazakhstan": 1397,
      "Ġindivid": 1398,
      "ticle": 1399,
      "ically": 1400,
      "ck": 1401,
      "bor": 1402,
      "Ġstarted": 1403,
      "alf": 1404,
      "Ġfoot": 1405,
      "Ġstop": 1406,
      "Ġmeasures": 1407,
      "Ġvide": 1408,
      "ality": 1409,
      "ourn": 1410,
      "TO": 1411,
      "cember": 1412,
      "ĠGaz": 1413,
      "Ġens": 1414,
      "pr": 1415,
      "Ġachie": 1416,
      "Ġdefense": 1417,
      "Ġwin": 1418,
      "dust": 1419,
      "Ġtax": 1420,
      "Ġhuman": 1421,
      "Ġinj": 1422,
      "Ġissues": 1423,
      "anies": 1424,
      "Ġscore": 1425,
      "cow": 1426,
      "reng": 1427,
      "feren": 1428,
      "Ġtotal": 1429,
      "ale": 1430,
      "Ġregional": 1431,
      "Ġmedia": 1432,
      "ajor": 1433,
      "ctober": 1434,
      "Ġcontract": 1435,
      "Ġuntil": 1436,
      "Ġhouse": 1437,
      "ection": 1438,
      "ached": 1439,
      "Ġsol": 1440,
      "ruary": 1441,
      "ebruary": 1442,
      "Ġdam": 1443,
      "Ġpolitical": 1444,
      "ames": 1445,
      "Ġ30": 1446,
      "Ġref": 1447,
      "ĠTe": 1448,
      "Ġcaus": 1449,
      "Ġbod": 1450,
      "ĠDecember": 1451,
      "Ġquest": 1452,
      "Ġorder": 1453,
      "go": 1454,
      "ovember": 1455,
      "Ġcoll": 1456,
      "over": 1457,
      "Ġstreng": 1458,
      "ĠOctober": 1459,
      "Ġcompanies": 1460,
      "Ġequip": 1461,
      "Ġbo": 1462,
      "ĠFebruary": 1463,
      "Ġ200": 1464,
      "ĠMoscow": 1465,
      "ĠGermany": 1466,
      "ouncil": 1467,
      "Ġterritory": 1468,
      "hic": 1469,
      "ova": 1470,
      "illed": 1471,
      "ĠDefense": 1472,
      "Ġ14": 1473,
      "oyev": 1474,
      "att": 1475,
      "ĠAnd": 1476,
      "sib": 1477,
      "Ġtrain": 1478,
      "ĠNovember": 1479,
      "oti": 1480,
      "Ġredu": 1481,
      "ended": 1482,
      "Ġvehic": 1483,
      "eptember": 1484,
      "Ġinclud": 1485,
      "ience": 1486,
      "Ġformer": 1487,
      "ĠPol": 1488,
      "Ġdevelopment": 1489,
      "ĠAf": 1490,
      "Ġmajor": 1491,
      "Ġ13": 1492,
      "Ġ16": 1493,
      "Ġfac": 1494,
      "Ġterm": 1495,
      "Ġexpress": 1496,
      "ees": 1497,
      "iving": 1498,
      "onst": 1499,
      "Ġplan": 1500,
      "Ġobs": 1501,
      "Ġconstruction": 1502,
      "Ġcompet": 1503,
      "ĠSeptember": 1504,
      "Ġstudents": 1505,
      "Ġaim": 1506,
      "une": 1507,
      "ize": 1508,
      "Ġvisit": 1509,
      "Ġlocal": 1510,
      "Ġlocated": 1511,
      "ront": 1512,
      "ĠMirz": 1513,
      "ĠAm": 1514,
      "Ġdocuments": 1515,
      "Ġlo": 1516,
      "Ġsecurity": 1517,
      "Ġstates": 1518,
      "Ġhist": 1519,
      "ten": 1520,
      "Ġfinan": 1521,
      "Ġopp": 1522,
      "Ġbecame": 1523,
      "ball": 1524,
      "Ġshe": 1525,
      "Ġeconomic": 1526,
      "Ġconditions": 1527,
      "Ġnet": 1528,
      "men": 1529,
      "AS": 1530,
      "itation": 1531,
      "rene": 1532,
      "Ġarmy": 1533,
      "Ġwords": 1534,
      "reprene": 1535,
      "ĠEn": 1536,
      "We": 1537,
      "not": 1538,
      "ample": 1539,
      "ĠUN": 1540,
      "ional": 1541,
      "iously": 1542,
      "Ġfire": 1543,
      "Ġmove": 1544,
      "ara": 1545,
      "ĠGaza": 1546,
      "Ġcenter": 1547,
      "ournal": 1548,
      "iversity": 1549,
      "Ġchar": 1550,
      "pril": 1551,
      "Ġtowards": 1552,
      "rab": 1553,
      "Ġcapital": 1554,
      "Ġwrit": 1555,
      "ĠSam": 1556,
      "Ġboth": 1557,
      "Ġsector": 1558,
      "lin": 1559,
      "ĠIran": 1560,
      "ex": 1561,
      "eng": 1562,
      "Ġweap": 1563,
      "mission": 1564,
      "Ġtransfer": 1565,
      "idd": 1566,
      "Ġneigh": 1567,
      "ĠKyiv": 1568,
      "Ġfollowing": 1569,
      "Ġsanctions": 1570,
      "Ġconv": 1571,
      "lim": 1572,
      "ayev": 1573,
      "Ġtas": 1574,
      "Ġsupply": 1575,
      "Ġexample": 1576,
      "Ġcommit": 1577,
      "ports": 1578,
      "Ġnegoti": 1579,
      "Ġmeters": 1580,
      "osp": 1581,
      "ched": 1582,
      "ĠJu": 1583,
      "Ġarrest": 1584,
      "arl": 1585,
      "Ġstatement": 1586,
      "oz": 1587,
      "Ġele": 1588,
      "Ġlist": 1589,
      "Ġcontinue": 1590,
      "aking": 1591,
      "uals": 1592,
      "ĠGeneral": 1593,
      "ĠForeign": 1594,
      "ĠApril": 1595,
      "Ġhapp": 1596,
      "aly": 1597,
      "ode": 1598,
      "rodu": 1599,
      "Ġbeginning": 1600,
      "ĠBe": 1601,
      "then": 1602,
      "ability": 1603,
      "Ġeach": 1604,
      "Ġclub": 1605,
      "Ġinstitutions": 1606,
      "Ġcases": 1607,
      "Ġobserv": 1608,
      "Ġtal": 1609,
      "ired": 1610,
      "ird": 1611,
      "Ġdown": 1612,
      "Ġincreasing": 1613,
      "Ġchanges": 1614,
      "ijan": 1615,
      "Ġval": 1616,
      "line": 1617,
      "rip": 1618,
      "Ġtrade": 1619,
      "ĠSe": 1620,
      "rig": 1621,
      "Ġvol": 1622,
      "Ġstill": 1623,
      "ued": 1624,
      "Ġmembers": 1625,
      "Ġcertain": 1626,
      "Ġincident": 1627,
      "Ġinvol": 1628,
      "Ġstrengthen": 1629,
      "Ġpresent": 1630,
      "ock": 1631,
      "Ġnetw": 1632,
      "erb": 1633,
      "Ġconflic": 1634,
      "Ġreason": 1635,
      "Ġalloc": 1636,
      "Ġpriv": 1637,
      "ology": 1638,
      "enal": 1639,
      "Ġbusiness": 1640,
      "Ġdest": 1641,
      "ĠJune": 1642,
      "Ġspec": 1643,
      "Ġborder": 1644,
      "ĠJuly": 1645,
      "Ġchann": 1646,
      "ilities": 1647,
      "Ġentreprene": 1648,
      "tee": 1649,
      "land": 1650,
      "Ġeng": 1651,
      "secutor": 1652,
      "pris": 1653,
      "ATO": 1654,
      "ĠStates": 1655,
      "Ġevent": 1656,
      "Ġce": 1657,
      "Ġfront": 1658,
      "Ġaccount": 1659,
      "gest": 1660,
      "ateg": 1661,
      "Ġ25": 1662,
      "ĠX": 1663,
      "rid": 1664,
      "Ġvideo": 1665,
      "Ġreached": 1666,
      "ficult": 1667,
      "Ġlegal": 1668,
      "Ġ17": 1669,
      "Ġseason": 1670,
      "ĠTr": 1671,
      "Ġreceived": 1672,
      "ll": 1673,
      "Ġsigned": 1674,
      "used": 1675,
      "udget": 1676,
      "Ġ2024": 1677,
      "Ġorganization": 1678,
      "Ġdifficult": 1679,
      "Ġneighbor": 1680,
      "iers": 1681,
      "ĠNATO": 1682,
      "ories": 1683,
      "Ġimpro": 1684,
      "Ġproduction": 1685,
      "Ġprice": 1686,
      "Ġmeans": 1687,
      "Ġapplic": 1688,
      "ences": 1689,
      "Ġexch": 1690,
      "Ġcurrently": 1691,
      "ners": 1692,
      "Ġmention": 1693,
      "ĠUSA": 1694,
      "Ġfour": 1695,
      "Ġdeli": 1696,
      "ix": 1697,
      "self": 1698,
      "Ġfootball": 1699,
      "Ġintrodu": 1700,
      "Ġplanned": 1701,
      "Ġfut": 1702,
      "ague": 1703,
      "ĠKore": 1704,
      "ĠWhat": 1705,
      "arth": 1706,
      "Ġget": 1707,
      "io": 1708,
      "Ġoperation": 1709,
      "Ġdepartment": 1710,
      "Ġfe": 1711,
      "ering": 1712,
      "Ġindividuals": 1713,
      "Ġrepresentatives": 1714,
      "ped": 1715,
      "Ġdecre": 1716,
      "Ġrights": 1717,
      "Ġprojects": 1718,
      "Ġcannot": 1719,
      "ference": 1720,
      "Ġlife": 1721,
      "Ġhalf": 1722,
      "Ġchange": 1723,
      "ined": 1724,
      "rup": 1725,
      "ually": 1726,
      "Ġrecent": 1727,
      "AM": 1728,
      "Ġdev": 1729,
      "ĠKar": 1730,
      "ĠKun": 1731,
      "Ġmov": 1732,
      "Ġcome": 1733,
      "Ġweapons": 1734,
      "Ġshort": 1735,
      "Ġadministration": 1736,
      "Ġmedical": 1737,
      "Ġche": 1738,
      "ators": 1739,
      "Ġconcl": 1740,
      "ccess": 1741,
      "Ġhigher": 1742,
      "ness": 1743,
      "com": 1744,
      "Ġgra": 1745,
      "unic": 1746,
      "ĠArab": 1747,
      "ĠTurk": 1748,
      "Ġback": 1749,
      "ĠAz": 1750,
      "Ġresults": 1751,
      "ways": 1752,
      "Ġfuture": 1753,
      "Ġadditional": 1754,
      "Ġwon": 1755,
      "Ġeuro": 1756,
      "ĠZel": 1757,
      "Ġnegotiations": 1758,
      "Ġway": 1759,
      "angu": 1760,
      "sk": 1761,
      "urrently": 1762,
      "Ġsim": 1763,
      "aw": 1764,
      "Ġdiscussed": 1765,
      "ĠCouncil": 1766,
      "Ġevents": 1767,
      "Ġes": 1768,
      "ĠInd": 1769,
      "Ġtop": 1770,
      "ĠZelens": 1771,
      "icy": 1772,
      "ĠInternational": 1773,
      "ugust": 1774,
      "Ġvot": 1775,
      "Ġrepublic": 1776,
      "sibility": 1777,
      "Ġdeterm": 1778,
      "Ġopportunity": 1779,
      "Ġ24": 1780,
      "Ġwomen": 1781,
      "ensive": 1782,
      "mb": 1783,
      "Ġproblems": 1784,
      "Ġnews": 1785,
      "Ġoffice": 1786,
      "ustom": 1787,
      "Ġprof": 1788,
      "Ġprison": 1789,
      "Ġexam": 1790,
      "Ġdat": 1791,
      "tion": 1792,
      "ĠWor": 1793,
      "sh": 1794,
      "Ġassistance": 1795,
      "Ġcomplete": 1796,
      "Ġpoin": 1797,
      "Ġbro": 1798,
      "ged": 1799,
      "arlia": 1800,
      "ĠPal": 1801,
      "Ġty": 1802,
      "Ġ$": 1803,
      "ivil": 1804,
      "ĠAugust": 1805,
      "cept": 1806,
      "Ġpurch": 1807,
      "oung": 1808,
      "cipitation": 1809,
      "Ġident": 1810,
      "por": 1811,
      "Ġagency": 1812,
      "Ġjournal": 1813,
      "Ġprecipitation": 1814,
      "hood": 1815,
      "Ġbank": 1816,
      "Ġvehicles": 1817,
      "Ġdied": 1818,
      "hers": 1819,
      "Ġfamily": 1820,
      "10": 1821,
      "Ġside": 1822,
      "thing": 1823,
      "ĠNew": 1824,
      "Ġart": 1825,
      "ond": 1826,
      "Ġdeath": 1827,
      "Ġprovide": 1828,
      "Ġestablish": 1829,
      "Ġsus": 1830,
      "Ġgl": 1831,
      "Ġland": 1832,
      "Ġindust": 1833,
      "aryo": 1834,
      "Ġorganizations": 1835,
      "anding": 1836,
      "arkand": 1837,
      "obal": 1838,
      "Ġinvestigation": 1839,
      "Ġbas": 1840,
      "ampions": 1841,
      "ĠWorld": 1842,
      "ĠInternal": 1843,
      "Ġdet": 1844,
      "Ġconsid": 1845,
      "Ġeast": 1846,
      "ised": 1847,
      "arliament": 1848,
      "Ġstre": 1849,
      "iyoyev": 1850,
      "Ġpeace": 1851,
      "In": 1852,
      "Ġconfir": 1853,
      "Ġnearly": 1854,
      "ological": 1855,
      "Ġstated": 1856,
      "Ġnoted": 1857,
      "Ġenv": 1858,
      "ĠOr": 1859,
      "Ġeuros": 1860,
      "ĠFed": 1861,
      "Ġeffect": 1862,
      "ĠCode": 1863,
      "Ġtaking": 1864,
      "urther": 1865,
      "tained": 1866,
      "Ġmater": 1867,
      "ĠMirziyoyev": 1868,
      "Ġsal": 1869,
      "Ġtar": 1870,
      "Ġattention": 1871,
      "ĠWhen": 1872,
      "Ġ50": 1873,
      "Ġfunds": 1874,
      "Ġcars": 1875,
      "Ġav": 1876,
      "Ġstrong": 1877,
      "AMAS": 1878,
      "Ġdirection": 1879,
      "Ġconsum": 1880,
      "Ġbudget": 1881,
      "ĠSamarkand": 1882,
      "Ġhour": 1883,
      "Ġsou": 1884,
      "Ġarmed": 1885,
      "rd": 1886,
      "Ġ0": 1887,
      "Ġyoung": 1888,
      "Ġmight": 1889,
      "Ġconn": 1890,
      "igence": 1891,
      "Ġflight": 1892,
      "Ġequipment": 1893,
      "Ġleast": 1894,
      "Ġdirect": 1895,
      "Ġsoldiers": 1896,
      "Ġcame": 1897,
      "Ġaway": 1898,
      "Ġrecord": 1899,
      "Ġlangu": 1900,
      "Ġadop": 1901,
      "ceed": 1902,
      "izing": 1903,
      "ĠHAMAS": 1904,
      "Ġ100": 1905,
      "ecause": 1906,
      "utes": 1907,
      "pecial": 1908,
      "Ġkilled": 1909,
      "Ġgr": 1910,
      "Ġris": 1911,
      "ĠNav": 1912,
      "Ġsuccess": 1913,
      "ĠCurrently": 1914,
      "ends": 1915,
      "Ġfree": 1916,
      "arus": 1917,
      "ey": 1918,
      "Ġhealth": 1919,
      "iation": 1920,
      "Ġobserved": 1921,
      "Ġmentioned": 1922,
      "Ġcrit": 1923,
      "Ġresident": 1924,
      "Ġopin": 1925,
      "retary": 1926,
      "Ġpract": 1927,
      "estern": 1928,
      "Ġdr": 1929,
      "arli": 1930,
      "Ġlaunched": 1931,
      "augh": 1932,
      "ĠArticle": 1933,
      "ium": 1934,
      "Ġteac": 1935,
      "Ġregist": 1936,
      "Ġemer": 1937,
      "Ġmodern": 1938,
      "illeg": 1939,
      "nel": 1940,
      "rov": 1941,
      "Ġinfl": 1942,
      "Ġoperations": 1943,
      "Ġblows": 1944,
      "epend": 1945,
      "aster": 1946,
      "rop": 1947,
      "Ġmake": 1948,
      "Ġfinancial": 1949,
      "arlier": 1950,
      "Ġthreat": 1951,
      "owed": 1952,
      "most": 1953,
      "ination": 1954,
      "Ġfall": 1955,
      "Ġinterview": 1956,
      "aring": 1957,
      "ards": 1958,
      "Ġworks": 1959,
      "Ġhand": 1960,
      "Ġfore": 1961,
      "ham": 1962,
      "ĠGerman": 1963,
      "Ġexpressed": 1964,
      "kat": 1965,
      "iron": 1966,
      "Ġhosp": 1967,
      "Ġmuch": 1968,
      "ulture": 1969,
      "fact": 1970,
      "ĠNational": 1971,
      "Ġpoints": 1972,
      "30": 1973,
      "Ġpurp": 1974,
      "ĠShav": 1975,
      "ĠIsraeli": 1976,
      "acks": 1977,
      "Ġ2021": 1978,
      "ĠAmerican": 1979,
      "arian": 1980,
      "Ġprevent": 1981,
      "ony": 1982,
      "ukh": 1983,
      "ots": 1984,
      "craft": 1985,
      "Ġ22": 1986,
      "Ġconduct": 1987,
      "Ġilleg": 1988,
      "Ġoil": 1989,
      "ĠShavkat": 1990,
      "Ġdeputy": 1991,
      "ĠZelensky": 1992,
      "elligence": 1993,
      "reme": 1994,
      "hest": 1995,
      "iles": 1996,
      "ĠCriminal": 1997,
      "Ġtest": 1998,
      "Ġcivil": 1999,
      "ĠBank": 2000,
      "ĠBecause": 2001,
      "Ġdata": 2002,
      "Ġsee": 2003,
      "arily": 2004,
      "ĠFin": 2005,
      "Ġgrow": 2006,
      "Ġold": 2007,
      "Ġtour": 2008,
      "Ġresol": 2009,
      "ĠSecurity": 2010,
      "reen": 2011,
      "ĠServ": 2012,
      "ĠAsian": 2013,
      "ending": 2014,
      "Ġusing": 2015,
      "Ġtraffic": 2016,
      "irl": 2017,
      "Ġpolice": 2018,
      "ĠBelarus": 2019,
      "Ġconflict": 2020,
      "Ġbelie": 2021,
      "lom": 2022,
      "Ġnat": 2023,
      "ĠFrom": 2024,
      "Ġpost": 2025,
      "Ġtoday": 2026,
      "Ġhere": 2027,
      "esp": 2028,
      "Ġprices": 2029,
      "Ġdocument": 2030,
      "Ġnear": 2031,
      "ze": 2032,
      "ĠPalest": 2033,
      "ĠCommit": 2034,
      "Ġbuildings": 2035,
      "ially": 2036,
      "ti": 2037,
      "Ġdel": 2038,
      "Ġbecom": 2039,
      "Ġyet": 2040,
      "Ġquestion": 2041,
      "ĠPrime": 2042,
      "ĠBl": 2043,
      "Ġenterpris": 2044,
      "ructure": 2045,
      "eters": 2046,
      "iety": 2047,
      "Ġexchange": 2048,
      "ĠCommittee": 2049,
      "Ġlos": 2050,
      "ĠUZ": 2051,
      "Ġinstall": 2052,
      "Ġmaterial": 2053,
      "Ġname": 2054,
      "Ġliving": 2055,
      "Ġfood": 2056,
      "Ġcal": 2057,
      "ĠAgency": 2058,
      "cies": 2059,
      "Ġhappen": 2060,
      "Ġsl": 2061,
      "Ġsystems": 2062,
      "rying": 2063,
      "Ġchannel": 2064,
      "Ç§": 2065,
      "rgy": 2066,
      "rgyz": 2067,
      "Ġemployees": 2068,
      "ka": 2069,
      "enced": 2070,
      "Ġstand": 2071,
      "Ġcustom": 2072,
      "Ġconc": 2073,
      "Ġ21": 2074,
      "ull": 2075,
      "ubl": 2076,
      "SR": 2077,
      "uclear": 2078,
      "ĠInst": 2079,
      "ĠForces": 2080,
      "bass": 2081,
      "Ġfive": 2082,
      "Ġround": 2083,
      "Ġgreat": 2084,
      "Ġcollabor": 2085,
      "ges": 2086,
      "ude": 2087,
      "Ġjoint": 2088,
      "Ġclose": 2089,
      "rance": 2090,
      "ained": 2091,
      "ĠBrit": 2092,
      "Ġrul": 2093,
      "cast": 2094,
      "sel": 2095,
      "Ġmatter": 2096,
      "agner": 2097,
      "Ġstat": 2098,
      "Ġ199": 2099,
      "Ġpersonnel": 2100,
      "que": 2101,
      "ĠBakh": 2102,
      "Ġpenal": 2103,
      "Ġarrested": 2104,
      "ery": 2105,
      "ĠMore": 2106,
      "Ġmanu": 2107,
      "Ġeas": 2108,
      "vant": 2109,
      "Ġproblem": 2110,
      "ultural": 2111,
      "iden": 2112,
      "Ġfram": 2113,
      "Ġdeveloping": 2114,
      "Ġcitizen": 2115,
      "ned": 2116,
      "ĠAsia": 2117,
      "ims": 2118,
      "ively": 2119,
      "ctors": 2120,
      "lad": 2121,
      "orts": 2122,
      "oh": 2123,
      "rial": 2124,
      "aff": 2125,
      "ukhara": 2126,
      "Ġpubl": 2127,
      "Ġdeb": 2128,
      "Ġaid": 2129,
      "iyev": 2130,
      "Ġhistory": 2131,
      "Ġprotect": 2132,
      "agement": 2133,
      "ogn": 2134,
      "isl": 2135,
      "Ġscient": 2136,
      "Ġschools": 2137,
      "Ġworth": 2138,
      "selves": 2139,
      "ready": 2140,
      "Ġline": 2141,
      "Ġimplemented": 2142,
      "ounter": 2143,
      "ĠKyrgyz": 2144,
      "Ġresponse": 2145,
      "urg": 2146,
      "Ġorganized": 2147,
      "Ġalong": 2148,
      "ring": 2149,
      "Ġfurther": 2150,
      "Ġpolicy": 2151,
      "ĠUZS": 2152,
      "Ġeconomy": 2153,
      "rote": 2154,
      "Ġwhy": 2155,
      "Ġindepend": 2156,
      "rative": 2157,
      "Ġreach": 2158,
      "Ġearth": 2159,
      "Ġdesign": 2160,
      "Ġserious": 2161,
      "ump": 2162,
      "Ġpasseng": 2163,
      "Ġcomplex": 2164,
      "ĠSp": 2165,
      "ĠDon": 2166,
      "for": 2167,
      "Ġthird": 2168,
      "ferent": 2169,
      "Ġsoums": 2170,
      "Ġlater": 2171,
      "Ġregul": 2172,
      "Ġcaused": 2173,
      "Ġinjured": 2174,
      "king": 2175,
      "ches": 2176,
      "Ġlabor": 2177,
      "Ġparticipate": 2178,
      "eor": 2179,
      "Ġbene": 2180,
      "idence": 2181,
      "Ġconvers": 2182,
      "Ġrelevant": 2183,
      "Ġcommand": 2184,
      "Ġput": 2185,
      "Ġclear": 2186,
      "iplom": 2187,
      "Ġthough": 2188,
      "ghan": 2189,
      "ume": 2190,
      "Ġleading": 2191,
      "Ġdemand": 2192,
      "Ġnatural": 2193,
      "ession": 2194,
      "Ġelectricity": 2195,
      "Ġpo": 2196,
      "Ġ23": 2197,
      "ĠBiden": 2198,
      "ĠLeague": 2199,
      "Ġjoin": 2200,
      "hing": 2201,
      "ĠKorea": 2202,
      "Ġled": 2203,
      "Ġalready": 2204,
      "Ġmanufact": 2205,
      "Ġball": 2206,
      "Ġattem": 2207,
      "rought": 2208,
      "ĠBukhara": 2209,
      "andid": 2210,
      "Ġneeds": 2211,
      "Ġnuclear": 2212,
      "irc": 2213,
      "Ġgames": 2214,
      "Ġreal": 2215,
      "Ġproviding": 2216,
      "ane": 2217,
      "Ġpresidential": 2218,
      "Ġhol": 2219,
      "osition": 2220,
      "ework": 2221,
      "Ġpublication": 2222,
      "Ġrequire": 2223,
      "Ġkil": 2224,
      "ironment": 2225,
      "SC": 2226,
      "par": 2227,
      "na": 2228,
      "Ġlet": 2229,
      "sequ": 2230,
      "Ġexperts": 2231,
      "Ġmob": 2232,
      "Ġcomb": 2233,
      "Ġparticipated": 2234,
      "Ġframework": 2235,
      "Ġmass": 2236,
      "Ġhome": 2237,
      "ĠSup": 2238,
      "Ġmember": 2239,
      "ung": 2240,
      "ĠUniversity": 2241,
      "Ġcities": 2242,
      "Ġfully": 2243,
      "vest": 2244,
      "ĠOffic": 2245,
      "ys": 2246,
      "Ġpropos": 2247,
      "Ġwrote": 2248,
      "Ġearthqu": 2249,
      "ior": 2250,
      "ĠOne": 2251,
      "ĠReg": 2252,
      "bs": 2253,
      "Ġthink": 2254,
      "ided": 2255,
      "Ġbeh": 2256,
      "Ġgirl": 2257,
      "Ġwhe": 2258,
      "iting": 2259,
      "mut": 2260,
      "Ġhost": 2261,
      "Ġlim": 2262,
      "Ġglobal": 2263,
      "Ġpartners": 2264,
      "Ġgeneral": 2265,
      "Ġpaid": 2266,
      "Ġcoming": 2267,
      "the": 2268,
      "Ġwoman": 2269,
      "Ġlanguage": 2270,
      "pa": 2271,
      "Ġaimed": 2272,
      "ier": 2273,
      "Ġattacks": 2274,
      "Ġallocated": 2275,
      "ĠSer": 2276,
      "Ġcandid": 2277,
      "ne": 2278,
      "ury": 2279,
      "Th": 2280,
      "aijan": 2281,
      "inese": 2282,
      "erbaijan": 2283,
      "hin": 2284,
      "Ġvill": 2285,
      "ĠJap": 2286,
      "Ġrepresentative": 2287,
      "Ġcondition": 2288,
      "udi": 2289,
      "Ġoccup": 2290,
      "Ġprivate": 2291,
      "Ġfar": 2292,
      "Ġeff": 2293,
      "ror": 2294,
      "ĠAfghan": 2295,
      "Ġentrepreneurs": 2296,
      "Ġwent": 2297,
      "Ġlost": 2298,
      "ety": 2299,
      "Ġcommunic": 2300,
      "Ġgoals": 2301,
      "Ġobject": 2302,
      "mon": 2303,
      "Ġsources": 2304,
      "hib": 2305,
      "Ġmor": 2306,
      "Ġstarting": 2307,
      "Ġdeveloped": 2308,
      "Ġintelligence": 2309,
      "oud": 2310,
      "Ġsummit": 2311,
      "Ġhospital": 2312,
      "Ġ27": 2313,
      "sif": 2314,
      "Ġsmall": 2315,
      "Ġago": 2316,
      "river": 2317,
      "uties": 2318,
      "Ġapproved": 2319,
      "Ġopinion": 2320,
      "verage": 2321,
      "ĠBakhmut": 2322,
      "Ġdiplom": 2323,
      "encies": 2324,
      "Ġrecogn": 2325,
      "legram": 2326,
      "Ġknown": 2327,
      "Ġfinal": 2328,
      "Ġsociety": 2329,
      "ko": 2330,
      "ĠSw": 2331,
      "mitted": 2332,
      "Ġplans": 2333,
      "oring": 2334,
      "fety": 2335,
      "ĠPart": 2336,
      "cel": 2337,
      "Ġpoint": 2338,
      "ĠChinese": 2339,
      "Ġhours": 2340,
      "Ġmother": 2341,
      "cement": 2342,
      "ament": 2343,
      "Ġquality": 2344,
      "less": 2345,
      "atic": 2346,
      "Ġcompletely": 2347,
      "Ġhimself": 2348,
      "ĠAzerbaijan": 2349,
      "Ġcolle": 2350,
      "ĠSince": 2351,
      "ĠEconom": 2352,
      "Ġsell": 2353,
      "Ġappoin": 2354,
      "Ġterms": 2355,
      "50": 2356,
      "Ġpr": 2357,
      "Ġpot": 2358,
      "ĠEven": 2359,
      "ĠEng": 2360,
      "Ġasked": 2361,
      "Ġbrought": 2362,
      "istics": 2363,
      "orms": 2364,
      "Ġconfirmed": 2365,
      "imov": 2366,
      "Ġleadership": 2367,
      "ĠSouth": 2368,
      "Ġcirc": 2369,
      "ologies": 2370,
      "ising": 2371,
      "ests": 2372,
      "isting": 2373,
      "Ġmult": 2374,
      "ĠAbd": 2375,
      "Ġready": 2376,
      "Ġproper": 2377,
      "ification": 2378,
      "ĠFederation": 2379,
      "sc": 2380,
      "row": 2381,
      "ĠDeputy": 2382,
      "Ġneighborhood": 2383,
      "atory": 2384,
      "Ġensure": 2385,
      "ĠEx": 2386,
      "Ġitself": 2387,
      "rones": 2388,
      "Ġsing": 2389,
      "Ġunderst": 2390,
      "Ġvolume": 2391,
      "ĠPe": 2392,
      "arya": 2393,
      "ĠCenter": 2394,
      "ĠWestern": 2395,
      "ĠSaudi": 2396,
      "Ġdestro": 2397,
      "Ġrate": 2398,
      "Ġadded": 2399,
      "itarian": 2400,
      "ĠEarlier": 2401,
      "Ġdecl": 2402,
      "ĠWest": 2403,
      "ai": 2404,
      "Ġonce": 2405,
      "Ġide": 2406,
      "Ġresponsible": 2407,
      "ential": 2408,
      "omm": 2409,
      "Ġmissiles": 2410,
      "reedom": 2411,
      "ĠService": 2412,
      "ĠVlad": 2413,
      "Ġren": 2414,
      "Ġrese": 2415,
      "rast": 2416,
      "asion": 2417,
      "Ġalmost": 2418,
      "Ġexport": 2419,
      "af": 2420,
      "ĠCour": 2421,
      "ĠKyrgyzstan": 2422,
      "Ġleave": 2423,
      "Ġaccused": 2424,
      "ĠPrig": 2425,
      "Ġadopted": 2426,
      "Ġdistrib": 2427,
      "Ġ28": 2428,
      "Ġchanging": 2429,
      "Ġconstitut": 2430,
      "Ġachieve": 2431,
      "ĠDue": 2432,
      "Ġvictory": 2433,
      "Ġcold": 2434,
      "rived": 2435,
      "ĠUSSR": 2436,
      "Ġappointed": 2437,
      "Ġacross": 2438,
      "Ġdirector": 2439,
      "Ġtons": 2440,
      "Ġcounter": 2441,
      "Ġdefe": 2442,
      "Ġpri": 2443,
      "Ġparliament": 2444,
      "imately": 2445,
      "Ġsepar": 2446,
      "Ġfind": 2447,
      "ĠTra": 2448,
      "Ġthemselves": 2449,
      "Ġspread": 2450,
      "ĠCourt": 2451,
      "ored": 2452,
      "Ġcompared": 2453,
      "Ġpositions": 2454,
      "Ġintroduced": 2455,
      "Ġ40": 2456,
      "Ġaffect": 2457,
      "Ġfew": 2458,
      "raw": 2459,
      "ĠFer": 2460,
      "Ġdetermined": 2461,
      "Ġdrones": 2462,
      "Ġcrim": 2463,
      "ĠWith": 2464,
      "Ġjob": 2465,
      "Wagner": 2466,
      "ĠSea": 2467,
      "Ġable": 2468,
      "Ġparticipation": 2469,
      "ĠJapan": 2470,
      "Ġopened": 2471,
      "ny": 2472,
      "Ġparties": 2473,
      "Ġgovernor": 2474,
      "ĠAir": 2475,
      "Ġconversation": 2476,
      "Ġaircraft": 2477,
      "Ġcost": 2478,
      "Ġinitiated": 2479,
      "Ġcare": 2480,
      "Ġreform": 2481,
      "Ġmovement": 2482,
      "Ġpublished": 2483,
      "itude": 2484,
      "ĠSov": 2485,
      "ĠArmed": 2486,
      "Ġpreviously": 2487,
      "Ġship": 2488,
      "Ġstation": 2489,
      "Ġtanks": 2490,
      "Uzbek": 2491,
      "ĠRes": 2492,
      "Ġparty": 2493,
      "ption": 2494,
      "orks": 2495,
      "road": 2496,
      "Ġappl": 2497,
      "Ġtro": 2498,
      "Ġalways": 2499,
      "oday": 2500,
      "ĠArmen": 2501,
      "Ġpurpose": 2502,
      "ĠMar": 2503,
      "Ġpassed": 2504,
      "Ġhaving": 2505,
      "pects": 2506,
      "adem": 2507,
      "pes": 2508,
      "Ġagreed": 2509,
      "ĠNow": 2510,
      "kh": 2511,
      "Ġremind": 2512,
      "lying": 2513,
      "Ġentire": 2514,
      "Ġstrik": 2515,
      "ĠSc": 2516,
      "Ġparticular": 2517,
      "Ġdecree": 2518,
      "Ġperform": 2519,
      "Ġkm": 2520,
      "overed": 2521,
      "rastructure": 2522,
      "Ġstations": 2523,
      "Ġplant": 2524,
      "ses": 2525,
      "Ġ26": 2526,
      "Ġexceed": 2527,
      "amed": 2528,
      "rug": 2529,
      "ins": 2530,
      "Ġeverything": 2531,
      "kov": 2532,
      "Ġtraining": 2533,
      "to": 2534,
      "Ġpenalty": 2535,
      "Ġelections": 2536,
      "Ġten": 2537,
      "ĠTelegram": 2538,
      "Ġenvironment": 2539,
      "Ġpun": 2540,
      "Ġdon": 2541,
      "fficient": 2542,
      "Ġrestrict": 2543,
      "ify": 2544,
      "ently": 2545,
      "ĠSur": 2546,
      "imir": 2547,
      "Ġgive": 2548,
      "Ġrain": 2549,
      "Ġage": 2550,
      "lig": 2551,
      "ping": 2552,
      "Ġeducational": 2553,
      "Ġprim": 2554,
      "Ġstrike": 2555,
      "Ġcollaboration": 2556,
      "Ġkilom": 2557,
      "Ġcle": 2558,
      "Ġconference": 2559,
      "ozhin": 2560,
      "Ġefforts": 2561,
      "Ġdifferent": 2562,
      "ĠSecretary": 2563,
      "ĠMed": 2564,
      "Ġpat": 2565,
      "Ġmanagement": 2566,
      "Ġdeliver": 2567,
      "Ġprepared": 2568,
      "ops": 2569,
      "ĠStrip": 2570,
      "ĠYou": 2571,
      "erous": 2572,
      "Ġforced": 2573,
      "Ġdemonst": 2574,
      "Ġelection": 2575,
      "Ġshot": 2576,
      "Ġcloud": 2577,
      "Ġbasis": 2578,
      "Ġothers": 2579,
      "pid": 2580,
      "ither": 2581,
      "Ġturned": 2582,
      "Ġearthquake": 2583,
      "ĠGo": 2584,
      "Ġstudy": 2585,
      "ĠAle": 2586,
      "ĠMon": 2587,
      "Ġgoods": 2588,
      "pecially": 2589,
      "mp": 2590,
      "uted": 2591,
      "erc": 2592,
      "ĠCommission": 2593,
      "ĠPrigozhin": 2594,
      "Ġcreated": 2595,
      "Ġaddress": 2596,
      "Ġproced": 2597,
      "Ġvictims": 2598,
      "ruption": 2599,
      "ogan": 2600,
      "Ġmissile": 2601,
      "Ġbodies": 2602,
      "Ġabove": 2603,
      "mat": 2604,
      "ises": 2605,
      "Ġmar": 2606,
      "ĠNorth": 2607,
      "Ġcapac": 2608,
      "Ġmig": 2609,
      "ĠAfghanistan": 2610,
      "Ġans": 2611,
      "Ġacqu": 2612,
      "Ġreceive": 2613,
      "ĠBy": 2614,
      "Ġless": 2615,
      "15": 2616,
      "oke": 2617,
      "Ġbelong": 2618,
      "ters": 2619,
      "ĠVladimir": 2620,
      "isions": 2621,
      "Ġbody": 2622,
      "ĠVol": 2623,
      "Ġnetwork": 2624,
      "ares": 2625,
      "Ġaverage": 2626,
      "Ġworked": 2627,
      "Ġview": 2628,
      "Ġthings": 2629,
      "Ġagric": 2630,
      "atis": 2631,
      "airman": 2632,
      "ĠPalestin": 2633,
      "Ġcross": 2634,
      "Ġcalc": 2635,
      "Ġdamage": 2636,
      "Ġinfrastructure": 2637,
      "iance": 2638,
      "ĠInstitut": 2639,
      "ĠMoreover": 2640,
      "Ġsingle": 2641,
      "Ġenterprises": 2642,
      "inary": 2643,
      "know": 2644,
      "gana": 2645,
      "Ġagencies": 2646,
      "gen": 2647,
      "Ġcamp": 2648,
      "Ġreview": 2649,
      "Ġeveryone": 2650,
      "ĠAll": 2651,
      "Ġtempor": 2652,
      "Ġcloudy": 2653,
      "Ġfri": 2654,
      "ĠSy": 2655,
      "ĠMus": 2656,
      "Ġsubject": 2657,
      "ĠKrem": 2658,
      "Ġcur": 2659,
      "Ġport": 2660,
      "ĠRussians": 2661,
      "ĠTherefore": 2662,
      "ĠFrance": 2663,
      "Ġhous": 2664,
      "Ġprosecutor": 2665,
      "Ġdesc": 2666,
      "25": 2667,
      "ling": 2668,
      "Ġlive": 2669,
      "Ġlargest": 2670,
      "ronic": 2671,
      "unities": 2672,
      "ĠThat": 2673,
      "uel": 2674,
      "ource": 2675,
      "though": 2676,
      "Ġdestroy": 2677,
      "Ġanaly": 2678,
      "ats": 2679,
      "ĠNo": 2680,
      "Ġunits": 2681,
      "Ġlit": 2682,
      "Ġstage": 2683,
      "hern": 2684,
      "Ġaccident": 2685,
      "Ġrisk": 2686,
      "Ġofficers": 2687,
      "Ġfail": 2688,
      "Ġdom": 2689,
      "Ġexperience": 2690,
      "Ġdriv": 2691,
      "ĠConst": 2692,
      "hod": 2693,
      "Ġfreedom": 2694,
      "Ġ2020": 2695,
      "Ġresources": 2696,
      "Ġprofess": 2697,
      "ĠAmong": 2698,
      "Ġconsequ": 2699,
      "Ġbre": 2700,
      "Ġlaunch": 2701,
      "Ġsuff": 2702,
      "Ġsaying": 2703,
      "This": 2704,
      "Ġprin": 2705,
      "akes": 2706,
      "Ġsentenced": 2707,
      "ope": 2708,
      "Ġtypes": 2709,
      "Ġcritic": 2710,
      "Ġexplos": 2711,
      "ulated": 2712,
      "Ġauthorities": 2713,
      "Ġcompetition": 2714,
      "mun": 2715,
      "ifically": 2716,
      "ountain": 2717,
      "Ġregard": 2718,
      "Ġbatt": 2719,
      "era": 2720,
      "Ġdig": 2721,
      "Ġadministrative": 2722,
      "Ġlow": 2723,
      "ĠFergana": 2724,
      "aving": 2725,
      "medi": 2726,
      "Ġcreate": 2727,
      "Ġsignificantly": 2728,
      "Ġlook": 2729,
      "Ġwebs": 2730,
      "ĠTrump": 2731,
      "hold": 2732,
      "iq": 2733,
      "Ġinternal": 2734,
      "Ġtasks": 2735,
      "Ġmaking": 2736,
      "ampionship": 2737,
      "eep": 2738,
      "ĠGeor": 2739,
      "Ġgroups": 2740,
      "Ġtechnologies": 2741,
      "hel": 2742,
      "ones": 2743,
      "Ġyouth": 2744,
      "ĠNavo": 2745,
      "ech": 2746,
      "pted": 2747,
      "ides": 2748,
      "Ġremains": 2749,
      "Ġvalue": 2750,
      "ban": 2751,
      "Ġreturned": 2752,
      "Ġstopped": 2753,
      "Ġtechnical": 2754,
      "iddle": 2755,
      "Ġmorning": 2756,
      "ĠCon": 2757,
      "Ġphot": 2758,
      "23": 2759,
      "Ġenc": 2760,
      "ashing": 2761,
      "Ġsk": 2762,
      "Ãķ": 2763,
      "Ġsix": 2764,
      "ĠTo": 2765,
      "ategic": 2766,
      "Ġairpl": 2767,
      "Ġfil": 2768,
      "Ġquick": 2769,
      "Ġstep": 2770,
      "Ġcourse": 2771,
      "Ġfull": 2772,
      "ximately": 2773,
      "arant": 2774,
      "ĠMy": 2775,
      "ĠThese": 2776,
      "Ġgradu": 2777,
      "Ġfather": 2778,
      "Ġinten": 2779,
      "fully": 2780,
      "Ġborn": 2781,
      "ĠErd": 2782,
      "Ġgoing": 2783,
      "avor": 2784,
      "Ġbring": 2785,
      "Ġconclus": 2786,
      "Ġconnect": 2787,
      "Ġbuilt": 2788,
      "Ġinvestment": 2789,
      "ĠKremlin": 2790,
      "Ġpast": 2791,
      "ĠArabia": 2792,
      "Ġabroad": 2793,
      "Ġnetworks": 2794,
      "Ġcontinu": 2795,
      "Ġindustry": 2796,
      "ĠInstitute": 2797,
      "Ġkilometers": 2798,
      "Ġimprove": 2799,
      "Ġminutes": 2800,
      "Ġminister": 2801,
      "ush": 2802,
      "Ġscored": 2803,
      "ĠToday": 2804,
      "Ġtoget": 2805,
      "Ġsituations": 2806,
      "Ġtogether": 2807,
      "side": 2808,
      "ĠCity": 2809,
      "ĠProsecutor": 2810,
      "ee": 2811,
      "eral": 2812,
      "enses": 2813,
      "yd": 2814,
      "Ġpresented": 2815,
      "Ġinflu": 2816,
      "Ġrequest": 2817,
      "ĠOffice": 2818,
      "aut": 2819,
      "vert": 2820,
      "Ġdecided": 2821,
      "Ġsoon": 2822,
      "Ġjournalists": 2823,
      "Ġthing": 2824,
      "Ġinterests": 2825,
      "Ġconsequences": 2826,
      "ĠTw": 2827,
      "Ġentered": 2828,
      "Ġnon": 2829,
      "Ġcompl": 2830,
      "Ġsummer": 2831,
      "Ġtask": 2832,
      "rents": 2833,
      "Ġcert": 2834,
      "Ġmean": 2835,
      "Ġimplementation": 2836,
      "Ġproduct": 2837,
      "Ġvillage": 2838,
      "Ġissued": 2839,
      "Ġlegisl": 2840,
      "Ġwhether": 2841,
      "Ġillegal": 2842,
      "22": 2843,
      "Ġcreating": 2844,
      "Ġrules": 2845,
      "Ġcrimes": 2846,
      "Ġterritories": 2847,
      "Ġforce": 2848,
      "ĠWar": 2849,
      "ĠIndia": 2850,
      "Ġjud": 2851,
      "Ġ60": 2852,
      "atform": 2853,
      "ĠErdogan": 2854,
      "abin": 2855,
      "cation": 2856,
      "oon": 2857,
      "Ġhom": 2858,
      "Ġteachers": 2859,
      "LC": 2860,
      "Ġexec": 2861,
      "ĠJSC": 2862,
      "Ġfacilities": 2863,
      "ĠGu": 2864,
      "Ġcomment": 2865,
      "ody": 2866,
      "itive": 2867,
      "Ġactivity": 2868,
      "ĠThen": 2869,
      "Ġstaff": 2870,
      "Ġidentified": 2871,
      "Ġincludes": 2872,
      "Ġforward": 2873,
      "Ġkeep": 2874,
      "Ġcenters": 2875,
      "rect": 2876,
      "Ġhot": 2877,
      "atisf": 2878,
      "18": 2879,
      "ert": 2880,
      "Ġassoc": 2881,
      "Ġpack": 2882,
      "ĠLLC": 2883,
      "Ġlear": 2884,
      "ĠHealth": 2885,
      "Ġpotential": 2886,
      "Ġstrikes": 2887,
      "aries": 2888,
      "asons": 2889,
      "Ġprec": 2890,
      "Ġpossibility": 2891,
      "ĠDevelop": 2892,
      "Ġministry": 2893,
      "ief": 2894,
      "Ġansw": 2895,
      "alp": 2896,
      "Ġimplementing": 2897,
      "ĠSoviet": 2898,
      "Ġrole": 2899,
      "Ġpressure": 2900,
      "Ġ29": 2901,
      "rency": 2902,
      "rev": 2903,
      "Ġformed": 2904,
      "Ġonline": 2905,
      "ivered": 2906,
      "Ġopportunities": 2907,
      "Ġrecorded": 2908,
      "anc": 2909,
      "aled": 2910,
      "Ġdirections": 2911,
      "nd": 2912,
      "Ġgrowth": 2913,
      "Ġproduced": 2914,
      "Ġdelivered": 2915,
      "Ġparticipants": 2916,
      "Ġcapacity": 2917,
      "ocrat": 2918,
      "Ġgener": 2919,
      "ĠJust": 2920,
      "Ġprevious": 2921,
      "rench": 2922,
      "Ġreserv": 2923,
      "Ġdise": 2924,
      "Ġmajority": 2925,
      "ĠGeorg": 2926,
      "ule": 2927,
      "forcement": 2928,
      "Ġbehind": 2929,
      "Ġsqu": 2930,
      "Ġcoal": 2931,
      "Ġbran": 2932,
      "ĠPeople": 2933,
      "ĠKarak": 2934,
      "ression": 2935,
      "Ġshare": 2936,
      "Ġmanaged": 2937,
      "Ġspace": 2938,
      "ĠAfric": 2939,
      "Ġdriver": 2940,
      "Ġcla": 2941,
      "imate": 2942,
      "Ġsusp": 2943,
      "osh": 2944,
      "Ġmedic": 2945,
      "Ġintensif": 2946,
      "ĠCrime": 2947,
      "Ġclass": 2948,
      "Ġplatform": 2949,
      "Ġattract": 2950,
      "Ġtourn": 2951,
      "Ġesc": 2952,
      "Ġcommunication": 2953,
      "Ġbest": 2954,
      "Ġbecoming": 2955,
      "ashington": 2956,
      "zh": 2957,
      "Ġinvasion": 2958,
      "Ġrapid": 2959,
      "jon": 2960,
      "Ġground": 2961,
      "ĠEU": 2962,
      "Ġson": 2963,
      "Ġ31": 2964,
      "Ġcontinues": 2965,
      "Ġdemonstr": 2966,
      "Ġhold": 2967,
      "ilater": 2968,
      "ĠEdu": 2969,
      "Ġlight": 2970,
      "Ġcapt": 2971,
      "Ġqual": 2972,
      "Ġlaws": 2973,
      "Ġtreat": 2974,
      "ĠWashington": 2975,
      "Ġhit": 2976,
      "ria": 2977,
      "Ġseem": 2978,
      "Ġimposed": 2979,
      "Ġunderstand": 2980,
      "alpak": 2981,
      "fort": 2982,
      "Ġbase": 2983,
      "Ġpolitic": 2984,
      "Ġfavor": 2985,
      "Ġrequirements": 2986,
      "ĠKarakalpak": 2987,
      "lam": 2988,
      "ĠCup": 2989,
      "Ġplayer": 2990,
      "nov": 2991,
      "Ġcateg": 2992,
      "Ġdang": 2993,
      "Ġrub": 2994,
      "Ġdefend": 2995,
      "Ġproposed": 2996,
      "ĠPoland": 2997,
      "ĠOrgan": 2998,
      "ires": 2999,
      "let": 3000,
      "ĠAg": 3001,
      "Ġpromot": 3002,
      "Ġapplication": 3003,
      "mad": 3004,
      "Ġwebsite": 3005,
      "Ġguarant": 3006,
      "ricts": 3007,
      "Ġz": 3008,
      "Ġgold": 3009,
      "ĠStre": 3010,
      "Ġstreets": 3011,
      "Ġconducting": 3012,
      "Ġachieved": 3013,
      "Ġagg": 3014,
      "Ġrepl": 3015,
      "ĠDevelopment": 3016,
      "19": 3017,
      "Ġparticipating": 3018,
      "Ġparents": 3019,
      "Ġchanged": 3020,
      "Ġterror": 3021,
      "Ġquestions": 3022,
      "be": 3023,
      "ĠHouse": 3024,
      "Ġarrived": 3025,
      "going": 3026,
      "Ġpayment": 3027,
      "oe": 3028,
      "Ġexact": 3029,
      "Ġdetail": 3030,
      "Ġinteg": 3031,
      "Ġfarm": 3032,
      "Ġdraft": 3033,
      "Ġimprison": 3034,
      "Ġmaterials": 3035,
      "arov": 3036,
      "rs": 3037,
      "Ġsource": 3038,
      "Ġimpos": 3039,
      "ĠFrench": 3040,
      "ĠNet": 3041,
      "ogra": 3042,
      "Ġquickly": 3043,
      "ledge": 3044,
      "Ġcommitted": 3045,
      "Ġdevices": 3046,
      "Ġpar": 3047,
      "Ġelectronic": 3048,
      "Ġimpact": 3049,
      "Ġdistricts": 3050,
      "Ġroads": 3051,
      "Ġflights": 3052,
      "undred": 3053,
      "Ġsy": 3054,
      "ĠMu": 3055,
      "Ġshow": 3056,
      "ook": 3057,
      "ĠCan": 3058,
      "Ġoperating": 3059,
      "Ġallowed": 3060,
      "Ġhowever": 3061,
      "illing": 3062,
      "ĠAss": 3063,
      "Ġfamil": 3064,
      "Ġassess": 3065,
      "Ġsafety": 3066,
      "Ġinvolved": 3067,
      "zm": 3068,
      "Ġ2019": 3069,
      "Ġincluded": 3070,
      "ilateral": 3071,
      "angan": 3072,
      "ique": 3073,
      "Ġbig": 3074,
      "Ġabs": 3075,
      "ĠNam": 3076,
      "Ġimmedi": 3077,
      "ĠBor": 3078,
      "Ġstudent": 3079,
      "atch": 3080,
      "Ġfell": 3081,
      "Ġteams": 3082,
      "Ġguil": 3083,
      "Ġresidential": 3084,
      "Ġaction": 3085,
      "Ġprotection": 3086,
      "Ġaward": 3087,
      "Ġexpand": 3088,
      "ĠNavoiy": 3089,
      "Ġmist": 3090,
      "Ġhumanitarian": 3091,
      "ĠBer": 3092,
      "rants": 3093,
      "Ġtravel": 3094,
      "Ġshar": 3095,
      "Ġbelieve": 3096,
      "Ġbuy": 3097,
      "Ġprincip": 3098,
      "ĠTaj": 3099,
      "Ġhousehold": 3100,
      "Ġcho": 3101,
      "Ġenforcement": 3102,
      "Ġ198": 3103,
      "igious": 3104,
      "Ġobtain": 3105,
      "Ġtroops": 3106,
      "Ġpil": 3107,
      "Ġcommunity": 3108,
      "ĠOl": 3109,
      "Ġconsider": 3110,
      "Ġimportance": 3111,
      "Ġbenef": 3112,
      "atar": 3113,
      "ccord": 3114,
      "Ġpractice": 3115,
      "Ġairport": 3116,
      "Ġfields": 3117,
      "Ġreleased": 3118,
      "iddin": 3119,
      "Ġdecreased": 3120,
      "ĠSen": 3121,
      "Ġnever": 3122,
      "ĠKarakalpakstan": 3123,
      "agn": 3124,
      "Ġmatch": 3125,
      "Ġinstalled": 3126,
      "Ġsw": 3127,
      "ĠTurkish": 3128,
      "Ġped": 3129,
      "Ġreduce": 3130,
      "Ġcard": 3131,
      "Ġpreparing": 3132,
      "Ġensuring": 3133,
      "tle": 3134,
      "ead": 3135,
      "uries": 3136,
      "Ġinspe": 3137,
      "Ġparts": 3138,
      "ger": 3139,
      "ple": 3140,
      "Ġhistor": 3141,
      "Ġinitiative": 3142,
      "ĠNamangan": 3143,
      "Ġrecomm": 3144,
      "Ġpunish": 3145,
      "Ġtru": 3146,
      "Ġreasons": 3147,
      "Ġden": 3148,
      "Ġlives": 3149,
      "ĠBased": 3150,
      "Ġcombat": 3151,
      "Ġearly": 3152,
      "arc": 3153,
      "Ġge": 3154,
      "ĠGro": 3155,
      "imum": 3156,
      "Ġofficially": 3157,
      "Ġmonit": 3158,
      "Ġdestroyed": 3159,
      "fiel": 3160,
      "Ġcollect": 3161,
      "hev": 3162,
      "Ġcrime": 3163,
      "Ġspeech": 3164,
      "Ġplayed": 3165,
      "Ġcentral": 3166,
      "Ġinternet": 3167,
      "berg": 3168,
      "Ġexplained": 3169,
      "aint": 3170,
      "acy": 3171,
      "Ġpersonal": 3172,
      "Ġopposition": 3173,
      "Ġver": 3174,
      "erve": 3175,
      "Ġplayers": 3176,
      "Ġtournament": 3177,
      "24": 3178,
      "If": 3179,
      "estic": 3180,
      "Ġaccord": 3181,
      "Ġpict": 3182,
      "Ġagreements": 3183,
      "Ġconcern": 3184,
      "Ġrail": 3185,
      "Ġmountain": 3186,
      "ĠMinisters": 3187,
      "Ġgrant": 3188,
      "Ġpassengers": 3189,
      "Ġresearch": 3190,
      "Ġprocedure": 3191,
      "ĠPM": 3192,
      "Ġevening": 3193,
      "Ġinitial": 3194,
      "Ġdeal": 3195,
      "Ġapproximately": 3196,
      "Ġhundred": 3197,
      "Ġexplosion": 3198,
      "ĠEducation": 3199,
      "Ġnamed": 3200,
      "ĠInvest": 3201,
      "Ġpath": 3202,
      "Ġharm": 3203,
      "Ġengine": 3204,
      "munition": 3205,
      "ĠBefore": 3206,
      "Ġel": 3207,
      "Ġautom": 3208,
      "Ġexpert": 3209,
      "Ġarticle": 3210,
      "Ġsomet": 3211,
      "Ġdaugh": 3212,
      "17": 3213,
      "aris": 3214,
      "Ġlot": 3215,
      "Ġdetained": 3216,
      "Ġprohib": 3217,
      "Ġmut": 3218,
      "Ġespecially": 3219,
      "Ġaccordance": 3220,
      "Ġcut": 3221,
      "16": 3222,
      "Ġwa": 3223,
      "ador": 3224,
      "Ġtrillion": 3225,
      "Ġcerem": 3226,
      "Ġclosed": 3227,
      "Ġdamaged": 3228,
      "Ġrad": 3229,
      "iated": 3230,
      "ilar": 3231,
      "Ġconven": 3232,
      "Ġdecisions": 3233,
      "Ġprograms": 3234,
      "ĠSupreme": 3235,
      "Ġoblig": 3236,
      "Ġenough": 3237,
      "Ġwarm": 3238,
      "aught": 3239,
      "Ġammunition": 3240,
      "Ġoccupied": 3241,
      "Ġsupporting": 3242,
      "by": 3243,
      "espite": 3244,
      "Ġsports": 3245,
      "Ġlack": 3246,
      "ĠBritish": 3247,
      "Ġstatus": 3248,
      "anov": 3249,
      "Ġcr": 3250,
      "ĠFirst": 3251,
      "Ġcustoms": 3252,
      "Ġsession": 3253,
      "Ġdou": 3254,
      "Ġdeleg": 3255,
      "Ġsupported": 3256,
      "ĠTrans": 3257,
      "Ġallow": 3258,
      "abinet": 3259,
      "ening": 3260,
      "izz": 3261,
      "ĠEast": 3262,
      "Ġrespond": 3263,
      "Ġremaining": 3264,
      "Ġforecast": 3265,
      "Ġmid": 3266,
      "Ġextra": 3267,
      "ances": 3268,
      "Ġstrategic": 3269,
      "Ġstrengthening": 3270,
      "Ġbanks": 3271,
      "Ġcandidate": 3272,
      "ĠSwed": 3273,
      "BC": 3274,
      "Ġreve": 3275,
      "appe": 3276,
      "Ġcover": 3277,
      "Ġwinter": 3278,
      "Ġunique": 3279,
      "Ġfighting": 3280,
      "Ġdirectly": 3281,
      "Ġmaintain": 3282,
      "Ġpurchase": 3283,
      "ĠPl": 3284,
      "ĠTajik": 3285,
      "Ġmoving": 3286,
      "Ġtele": 3287,
      "anning": 3288,
      "Ġprisoners": 3289,
      "Ġoffer": 3290,
      "Ġfuel": 3291,
      "orial": 3292,
      "Ġmodel": 3293,
      "ĠOrganization": 3294,
      "Ġuniversity": 3295,
      "Ġpromised": 3296,
      "Ġchampionship": 3297,
      "action": 3298,
      "Ġhighest": 3299,
      "nes": 3300,
      "off": 3301,
      "lish": 3302,
      "Ġrecon": 3303,
      "Ġdisp": 3304,
      "anner": 3305,
      "Ġended": 3306,
      "uded": 3307,
      "ĠLater": 3308,
      "ĠAndijan": 3309,
      "Ġrestrictions": 3310,
      "aration": 3311,
      "ĠEner": 3312,
      "Ġstreet": 3313,
      "miss": 3314,
      "ĠIslam": 3315,
      "Ġlawy": 3316,
      "Ġmen": 3317,
      "Ġtoo": 3318,
      "Ġongoing": 3319,
      "Ġwanted": 3320,
      "It": 3321,
      "ĠConstitut": 3322,
      "Ġsomeone": 3323,
      "xond": 3324,
      "respon": 3325,
      "ishing": 3326,
      "Ġvers": 3327,
      "Ġproperty": 3328,
      "ray": 3329,
      "Ġroute": 3330,
      "ĠAmerica": 3331,
      "Ġentrepreneur": 3332,
      "inder": 3333,
      "Ġcris": 3334,
      "ĠEm": 3335,
      "Ġdecrease": 3336,
      "ĠSurxond": 3337,
      "Ġcertific": 3338,
      "Ġdone": 3339,
      "Ġgreen": 3340,
      "ĠCo": 3341,
      "Ġupon": 3342,
      "Ġseen": 3343,
      "Ġincome": 3344,
      "Ġactive": 3345,
      "Ġec": 3346,
      "Ġ2018": 3347,
      "Ġfun": 3348,
      "ĠEnglish": 3349,
      "Ġbreak": 3350,
      "Ġapplied": 3351,
      "qad": 3352,
      "Ġregime": 3353,
      "formation": 3354,
      "ĠSurxondaryo": 3355,
      "oks": 3356,
      "ĠOur": 3357,
      "Ġrank": 3358,
      "Ġattempt": 3359,
      "Ġeither": 3360,
      "orezm": 3361,
      "ĠEvery": 3362,
      "Ġtarget": 3363,
      "Ġdeclared": 3364,
      "Ġwants": 3365,
      "Ġtransferred": 3366,
      "Ġemergency": 3367,
      "oad": 3368,
      "Ġtransportation": 3369,
      "Ġdeep": 3370,
      "Ġdeputies": 3371,
      "Ġadvance": 3372,
      "Ġacadem": 3373,
      "iver": 3374,
      "Ġsale": 3375,
      "ĠEnergy": 3376,
      "Ġtrees": 3377,
      "Ġmobile": 3378,
      "Ġremov": 3379,
      "inated": 3380,
      "Ġphone": 3381,
      "Ġviolence": 3382,
      "ĠKhorezm": 3383,
      "Ġimmediately": 3384,
      "dict": 3385,
      "ĠDespite": 3386,
      "Ġseve": 3387,
      "Ġremained": 3388,
      "13": 3389,
      "semb": 3390,
      "Ġdomestic": 3391,
      "Ġconclusion": 3392,
      "arter": 3393,
      "Ġhouses": 3394,
      "aps": 3395,
      "Ġoppon": 3396,
      ".,": 3397,
      "Re": 3398,
      "Ġmethod": 3399,
      "ĠAnother": 3400,
      "ging": 3401,
      "Ġmom": 3402,
      "Ġresc": 3403,
      "ender": 3404,
      "opol": 3405,
      "Russi": 3406,
      "ald": 3407,
      "ternal": 3408,
      "Ġavail": 3409,
      "ened": 3410,
      "Ġ70": 3411,
      "chan": 3412,
      "Ġappear": 3413,
      "Ġrock": 3414,
      "Ġauthority": 3415,
      "Ġtourism": 3416,
      "Ġprior": 3417,
      "br": 3418,
      "ĠHung": 3419,
      "Ġindustrial": 3420,
      "IS": 3421,
      "ĠDire": 3422,
      "Ġfighters": 3423,
      "Ġscientific": 3424,
      "ĠArmenia": 3425,
      "Ġaffairs": 3426,
      "Ġstandards": 3427,
      "ashqad": 3428,
      "Ġcorruption": 3429,
      "Ġcausing": 3430,
      "Ġinfluence": 3431,
      "Ġnegative": 3432,
      "ĠBritain": 3433,
      "Ġsupp": 3434,
      "Ġguilty": 3435,
      "ashqadaryo": 3436,
      "Ġchairman": 3437,
      "Ġseries": 3438,
      "istic": 3439,
      "Ġwritten": 3440,
      "ĠFrid": 3441,
      "Ġcommission": 3442,
      "Ġintended": 3443,
      "Ġindicator": 3444,
      "gor": 3445,
      "ĠAdminist": 3446,
      "Ġconnection": 3447,
      "arting": 3448,
      "Ġcompleted": 3449,
      "Ġworkers": 3450,
      "ĠGroup": 3451,
      "Ġsecret": 3452,
      "ona": 3453,
      "Ġtold": 3454,
      "Ġnorth": 3455,
      "ĠSenate": 3456,
      "Ġsend": 3457,
      "Ġbom": 3458,
      "Ġleaving": 3459,
      "ĠQashqadaryo": 3460,
      "Ġcommander": 3461,
      "ĠTajikistan": 3462,
      "ĠQatar": 3463,
      "Ġtechnology": 3464,
      "known": 3465,
      "of": 3466,
      "Ġrun": 3467,
      "ĠRed": 3468,
      "Ġfoc": 3469,
      "Ġord": 3470,
      "Ġspecialists": 3471,
      "Ġsimilar": 3472,
      "ĠVolody": 3473,
      "Ġanswer": 3474,
      "Ġspoke": 3475,
      "Ġreb": 3476,
      "Ġelim": 3477,
      "Ġrequired": 3478,
      "use": 3479,
      "uters": 3480,
      "abilities": 3481,
      "Ġmulti": 3482,
      "ills": 3483,
      "Ġplaced": 3484,
      "wh": 3485,
      "Ġpartly": 3486,
      "Ġphys": 3487,
      "Ġknowledge": 3488,
      "myr": 3489,
      "Ġadvant": 3490,
      "Ġtalk": 3491,
      "ĠVolodymyr": 3492,
      "atur": 3493,
      "Ġwithd": 3494,
      "ĠParty": 3495,
      "irov": 3496,
      "Ġheav": 3497,
      "izes": 3498,
      "Ġdidn": 3499,
      "Ġmayor": 3500,
      "Ġopening": 3501,
      "ocratic": 3502,
      "ructed": 3503,
      "Ġentities": 3504,
      "anes": 3505,
      "Ġburn": 3506,
      "ĠRom": 3507,
      "iff": 3508,
      "Ġsuppl": 3509,
      "Ġbrother": 3510,
      "ĠUkrainians": 3511,
      "Ġpayments": 3512,
      "Ġ197": 3513,
      "'.": 3514,
      "Ġwrites": 3515,
      "Ġpros": 3516,
      "aging": 3517,
      "Ġlosses": 3518,
      "Ġmanner": 3519,
      "ighter": 3520,
      "Ġsevere": 3521,
      "ĠBr": 3522,
      "Ġdrone": 3523,
      "Ġlegislation": 3524,
      "orn": 3525,
      "Ġlif": 3526,
      "Ġreforms": 3527,
      "sy": 3528,
      "Ġdiv": 3529,
      "lymp": 3530,
      "ĠMonday": 3531,
      "Ġgave": 3532,
      "Ġquot": 3533,
      "Ġenem": 3534,
      "Ġinstitution": 3535,
      "ĠJustice": 3536,
      "Ġdiss": 3537,
      "Ġprocesses": 3538,
      "Ġsectors": 3539,
      "Ġsil": 3540,
      "Ġ90": 3541,
      "Ġpackage": 3542,
      "Ġregistered": 3543,
      "ties": 3544,
      "Ġdangerous": 3545,
      "Ġ500": 3546,
      "Ġfootballer": 3547,
      "Ġresidents": 3548,
      "Ġseparate": 3549,
      "Ġhect": 3550,
      "ĠWhy": 3551,
      "Ġdelivery": 3552,
      "Ġbar": 3553,
      "Ġspent": 3554,
      "Ġdisaster": 3555,
      "Ġtrying": 3556,
      "Ġmoved": 3557,
      "ĠJizz": 3558,
      "Ġcorrespon": 3559,
      "Ġadvan": 3560,
      "ĠSund": 3561,
      "Ġexperi": 3562,
      "Ġmechan": 3563,
      "gey": 3564,
      "gypt": 3565,
      "ĠFriday": 3566,
      "Ġdust": 3567,
      "Ġavailable": 3568,
      "ining": 3569,
      "Ġextreme": 3570,
      "ients": 3571,
      "Ġlog": 3572,
      "Ġquite": 3573,
      "ĠSyria": 3574,
      "oura": 3575,
      "Ġdebt": 3576,
      "Ġgot": 3577,
      "ĠCabinet": 3578,
      "etsk": 3579,
      "Ġfre": 3580,
      "Ġinjuries": 3581,
      "Ġimpossible": 3582,
      "Ġpoll": 3583,
      "bassador": 3584,
      "Ġsouth": 3585,
      "Ġteacher": 3586,
      "Ġrecognized": 3587,
      "ya": 3588,
      "Ġur": 3589,
      "Ġbrid": 3590,
      "Ġmigrants": 3591,
      "Ġdi": 3592,
      "ĠAust": 3593,
      "keep": 3594,
      "Ġcrisis": 3595,
      "uge": 3596,
      "Ġ300": 3597,
      "Ġroom": 3598,
      "Ġresponsibility": 3599,
      "Ġ2017": 3600,
      "Ġconcluded": 3601,
      "Ġappeared": 3602,
      "Ġfeel": 3603,
      "Ġda": 3604,
      "ĠSome": 3605,
      "henko": 3606,
      "Ġthroughout": 3607,
      "Ġpers": 3608,
      "ĠEgypt": 3609,
      "Ġindependent": 3610,
      "head": 3611,
      "Ġcomes": 3612,
      "Ġamounted": 3613,
      "Ġ196": 3614,
      "ĠCrimea": 3615,
      "Ġoutside": 3616,
      "Ġstatements": 3617,
      "Ġrepe": 3618,
      "ograph": 3619,
      "aign": 3620,
      "Ġlic": 3621,
      "ĠUz": 3622,
      "40": 3623,
      "inate": 3624,
      "ificial": 3625,
      "Ġneeded": 3626,
      "Ġprotest": 3627,
      "amber": 3628,
      "Ġholid": 3629,
      "hester": 3630,
      "ĠComp": 3631,
      "Ġspecifically": 3632,
      "Ġpan": 3633,
      "Ġholding": 3634,
      "Ġexactly": 3635,
      "Ġaw": 3636,
      "Ġassets": 3637,
      "ought": 3638,
      "Ġhard": 3639,
      "Ġsearch": 3640,
      "Ġexpanding": 3641,
      "Ġcultural": 3642,
      "Ġshoot": 3643,
      "Ġdiscussion": 3644,
      "ival": 3645,
      "ĠStarting": 3646,
      "Ġobtained": 3647,
      "Ġdesp": 3648,
      "ĠSergey": 3649,
      "anchester": 3650,
      "artments": 3651,
      "Ġtext": 3652,
      "Ġreceiving": 3653,
      "Ġfamous": 3654,
      "Ġbecomes": 3655,
      "?\"": 3656,
      "au": 3657,
      "acu": 3658,
      "Ġclimate": 3659,
      "Ġjournalist": 3660,
      "Uzbekistan": 3661,
      "ĠTues": 3662,
      "chol": 3663,
      "Ġceremony": 3664,
      "Ġraised": 3665,
      "ĠSunday": 3666,
      "ĠHis": 3667,
      "Ġpunishment": 3668,
      "Ġreserves": 3669,
      "Ġcurrency": 3670,
      "Ġhon": 3671,
      "hammad": 3672,
      "stances": 3673,
      "Ġeffective": 3674,
      "Ġcontinued": 3675,
      "Ġanti": 3676,
      "Ġlands": 3677,
      "Ġrespect": 3678,
      "Ġreduced": 3679,
      "ĠAlex": 3680,
      "ĠTuesday": 3681,
      "illery": 3682,
      "Ġunable": 3683,
      "ĠDirector": 3684,
      "Al": 3685,
      "Ġcam": 3686,
      "pped": 3687,
      "Ġrating": 3688,
      "Ġviolations": 3689,
      "uh": 3690,
      "Ġut": 3691,
      "Ġunivers": 3692,
      "ension": 3693,
      "Ġbill": 3694,
      "Ġprimarily": 3695,
      "Ġdaughter": 3696,
      "ander": 3697,
      "ĠAlthough": 3698,
      "Ġclaim": 3699,
      "pri": 3700,
      "ĠGeorgia": 3701,
      "Ġblock": 3702,
      "ĠTurkmen": 3703,
      "Ġexerc": 3704,
      "ĠOlymp": 3705,
      "Ġtype": 3706,
      "Ġpassenger": 3707,
      "Ġwide": 3708,
      "Ġstay": 3709,
      "Ġappeal": 3710,
      "Ġcy": 3711,
      "Ġvisited": 3712,
      "Ġcampaign": 3713,
      "ednes": 3714,
      "Ġdelegation": 3715,
      "Ġacademic": 3716,
      "Ġfle": 3717,
      "Ġmess": 3718,
      "Ġapproach": 3719,
      "Ġbelonging": 3720,
      "ĠMold": 3721,
      "Ġcontain": 3722,
      "Ġ35": 3723,
      "Ġtrust": 3724,
      "Ġliber": 3725,
      "Ġrevealed": 3726,
      "ores": 3727,
      "Ġwaste": 3728,
      "Ġexpenses": 3729,
      "Ġaccept": 3730,
      "sid": 3731,
      "Ġequipped": 3732,
      "ĠPalestinian": 3733,
      "ĠStreet": 3734,
      "Ġdece": 3735,
      "Ġexports": 3736,
      "ĠWednes": 3737,
      "Ġsug": 3738,
      "Ġcele": 3739,
      "ites": 3740,
      "Ġmeetings": 3741,
      "Ġbuses": 3742,
      "Ġairplane": 3743,
      "ground": 3744,
      "eline": 3745,
      "Ġrepair": 3746,
      "Ġorganizing": 3747,
      "Ġfamilies": 3748,
      "ĠApp": 3749,
      "ĠPh": 3750,
      "Ġwhose": 3751,
      "obod": 3752,
      "Ġentering": 3753,
      "itical": 3754,
      "Ġartillery": 3755,
      "Ġstudying": 3756,
      "Ġsubmitted": 3757,
      "itness": 3758,
      "Ġillegally": 3759,
      "uan": 3760,
      "Ġded": 3761,
      "abakh": 3762,
      "ĠChampions": 3763,
      "Ġweeks": 3764,
      "Ġdrug": 3765,
      "Ġmaster": 3766,
      "Ġsubst": 3767,
      "Ġtemporarily": 3768,
      "ira": 3769,
      "Ġcollected": 3770,
      "Ġprofessional": 3771,
      "ef": 3772,
      "Ġwest": 3773,
      "Ġrailway": 3774,
      "dom": 3775,
      "Ġwal": 3776,
      "orter": 3777,
      "Ġbilateral": 3778,
      "Ġlat": 3779,
      "ĠUs": 3780,
      "eter": 3781,
      "ĠCons": 3782,
      "Ch": 3783,
      "Ç¦": 3784,
      "Ġclos": 3785,
      "mar": 3786,
      "ĠCor": 3787,
      "Ġinvolving": 3788,
      "Ġdistance": 3789,
      "Ġbegun": 3790,
      "Ġhectares": 3791,
      "rank": 3792,
      "ĠSpe": 3793,
      "Ġclar": 3794,
      "sembly": 3795,
      "urod": 3796,
      "vent": 3797,
      "yo": 3798,
      "Ġmainly": 3799,
      "Ġimproving": 3800,
      "Ġdead": 3801,
      "Ġcontrib": 3802,
      "Ġarm": 3803,
      "paper": 3804,
      "ĠWednesday": 3805,
      "oj": 3806,
      "aches": 3807,
      "ĠDo": 3808,
      "ĠDem": 3809,
      "Sh": 3810,
      "ĠMad": 3811,
      "Ġcivilian": 3812,
      "Ġrelatives": 3813,
      "Ġflo": 3814,
      "orders": 3815,
      "Ġcorrect": 3816,
      "ĠDonetsk": 3817,
      "Ġear": 3818,
      "Ġactively": 3819,
      "Ġcontracts": 3820,
      "Ġsalary": 3821,
      "Ġindependence": 3822,
      "Ġproposal": 3823,
      "atri": 3824,
      "ĠInit": 3825,
      "ĠThus": 3826,
      "Ġsufficient": 3827,
      "Ġletter": 3828,
      "Ġhope": 3829,
      "ĠEmer": 3830,
      "Ġdefeat": 3831,
      "me": 3832,
      "Ġupd": 3833,
      "ĠRepresent": 3834,
      "ta": 3835,
      "Ġcause": 3836,
      "Ġrev": 3837,
      "igned": 3838,
      "Ġexpensive": 3839,
      "Ġplane": 3840,
      "eed": 3841,
      "Ġfine": 3842,
      "Ġdigital": 3843,
      "Ġprecise": 3844,
      "ifying": 3845,
      "Ġmoment": 3846,
      "ĠSuch": 3847,
      "ĠThurs": 3848,
      "ĠRepublican": 3849,
      "Ġnewspaper": 3850,
      "Ġversion": 3851,
      "Ġfra": 3852,
      "Ġdraw": 3853,
      "Ġbranch": 3854,
      "',": 3855,
      "Ġdevice": 3856,
      "Ġhappened": 3857,
      "ĠEconomic": 3858,
      "gart": 3859,
      "isc": 3860,
      "Ġinflation": 3861,
      "ĠConstitution": 3862,
      "Ġtrip": 3863,
      "Ġthousands": 3864,
      "ĠKam": 3865,
      "lands": 3866,
      "Ġevacu": 3867,
      "Ġconsumption": 3868,
      "Ġreven": 3869,
      "ĠInter": 3870,
      "Ġpartnership": 3871,
      "ĠGuard": 3872,
      "Ġfig": 3873,
      "ĠAv": 3874,
      "Ġmutual": 3875,
      "bul": 3876,
      "Ġstating": 3877,
      "ĠItaly": 3878,
      "Ġsche": 3879,
      "Ġsurve": 3880,
      "Ġartificial": 3881,
      "ĠThursday": 3882,
      "Ġevidence": 3883,
      "mercial": 3884,
      "under": 3885,
      "Ġcub": 3886,
      "cepted": 3887,
      "ansk": 3888,
      "Ġinside": 3889,
      "Ġplanning": 3890,
      "Ġpractical": 3891,
      "Ġproposals": 3892,
      "Ġenemy": 3893,
      "Ġweak": 3894,
      "Ġdiplomatic": 3895,
      "scale": 3896,
      "35": 3897,
      "Ġtried": 3898,
      "Ġ80": 3899,
      "Ġvolun": 3900,
      "Ġera": 3901,
      "Ġexist": 3902,
      "Ġshowing": 3903,
      "Ġtariff": 3904,
      "Ġclean": 3905,
      "Ġagricultural": 3906,
      "ĠYork": 3907,
      "Ġrelease": 3908,
      "Ġdespite": 3909,
      "ulations": 3910,
      "Ġdoub": 3911,
      "ategy": 3912,
      "ĠSweden": 3913,
      "ĠLat": 3914,
      "Ġcharact": 3915,
      "Ġey": 3916,
      "Ġquarter": 3917,
      "ĠReuters": 3918,
      "Ġinvestigative": 3919,
      "Wh": 3920,
      "Ġexpect": 3921,
      "ovich": 3922,
      "Ġpaying": 3923,
      "ĠTV": 3924,
      "Ġheart": 3925,
      "ĠKing": 3926,
      "Ġusers": 3927,
      "Ġneighboring": 3928,
      "oses": 3929,
      "Ġwife": 3930,
      "Ġinnov": 3931,
      "iding": 3932,
      "ijing": 3933,
      "ĠIslamic": 3934,
      "ĠParis": 3935,
      "Ġminute": 3936,
      "Ġshell": 3937,
      "ula": 3938,
      "Ġlimit": 3939,
      "Ġdaily": 3940,
      "ĠMal": 3941,
      "ĠBBC": 3942,
      "Ġ36": 3943,
      "Ġstudied": 3944,
      "Ġvehicle": 3945,
      "Ġtopic": 3946,
      "Ġdismiss": 3947,
      "Ġcouldn": 3948,
      "Ġpictures": 3949,
      "otton": 3950,
      "ĠCong": 3951,
      "Ġmobil": 3952,
      "Ġcubic": 3953,
      "ĠÇ¦": 3954,
      "Ġexisting": 3955,
      "Ġinclude": 3956,
      "Ġcaught": 3957,
      "ades": 3958,
      "ĠGul": 3959,
      "Ġannual": 3960,
      "Ġbrand": 3961,
      "Ġdiseases": 3962,
      "Ġwid": 3963,
      "Ġfighter": 3964,
      "Ġmax": 3965,
      "Ġwarned": 3966,
      "ondon": 3967,
      "ream": 3968,
      "Ġfir": 3969,
      "Ġserve": 3970,
      "ĠTurkmenistan": 3971,
      "ights": 3972,
      "Ġspecific": 3973,
      "Ġsomething": 3974,
      "cks": 3975,
      "Ġunknown": 3976,
      "ĠJoe": 3977,
      "Ġinstead": 3978,
      "Ġblood": 3979,
      "Ġheavy": 3980,
      "Ġtick": 3981,
      "Ġlower": 3982,
      "Ġstruct": 3983,
      "Ġrecor": 3984,
      "Ġsmart": 3985,
      "Ġreviewed": 3986,
      "lected": 3987,
      "ĠMiddle": 3988,
      "Ġdoctors": 3989,
      "ĠBeijing": 3990,
      "Ġface": 3991,
      "Ġforum": 3992,
      "ĠHam": 3993,
      "ĠEmergency": 3994,
      "Ġwitness": 3995,
      "ĠLondon": 3996,
      "Ġequal": 3997,
      "Ġslight": 3998,
      "rary": 3999,
      "icated": 4000,
      "Ġmission": 4001,
      "rian": 4002,
      "ĠPrev": 4003,
      "Ġrule": 4004,
      "Ġidea": 4005,
      "Ġappropri": 4006,
      "ĠWhite": 4007,
      "Ġinterested": 4008,
      "Ġresolution": 4009,
      "zil": 4010,
      "Ġaccus": 4011,
      "Ġrubles": 4012,
      "Ġcarrying": 4013,
      "Ãķz": 4014,
      "rad": 4015,
      "fered": 4016,
      "Ġextremely": 4017,
      "Ġbal": 4018,
      "aya": 4019,
      "ĠIndust": 4020,
      "Ġalliance": 4021,
      "endments": 4022,
      "Ġcash": 4023,
      "Ġnorm": 4024,
      "urance": 4025,
      "AE": 4026,
      "Ġcompens": 4027,
      "Ġgetting": 4028,
      "Ġthought": 4029,
      "Ġcategory": 4030,
      "ible": 4031,
      "Ġbenefic": 4032,
      "Ġallies": 4033,
      "raq": 4034,
      "Ġsnow": 4035,
      "story": 4036,
      "conomic": 4037,
      "Ġcentury": 4038,
      "ano": 4039,
      "Ġcong": 4040,
      "Ġprovides": 4041,
      "ĠProt": 4042,
      "ĠFinance": 4043,
      "Ġfriend": 4044,
      "ĠAfrica": 4045,
      "Ġmach": 4046,
      "Ġstrict": 4047,
      "ĠPMC": 4048,
      "time": 4049,
      "ĠSoc": 4050,
      "Ġbattle": 4051,
      "yan": 4052,
      "Ġsides": 4053,
      "ĠUl": 4054,
      "Ġintention": 4055,
      "Ġdrink": 4056,
      "Ġawarded": 4057,
      "Ġopponent": 4058,
      "anged": 4059,
      "Ġcheck": 4060,
      "Ġselling": 4061,
      "lection": 4062,
      "utions": 4063,
      "ĠUntil": 4064,
      "Ġaccepted": 4065,
      "Ġmatches": 4066,
      "Ġsecretary": 4067,
      "Ġfactors": 4068,
      "Ġindicated": 4069,
      "Ġassist": 4070,
      "Ġguests": 4071,
      "IC": 4072,
      "iro": 4073,
      "Ġpark": 4074,
      "ĠSchool": 4075,
      "eli": 4076,
      "Ġmarkets": 4077,
      "Ġchannels": 4078,
      "Ġestablishing": 4079,
      "burg": 4080,
      "Ġmetro": 4081,
      "Ġsolar": 4082,
      "Ġcriticized": 4083,
      "Ġric": 4084,
      "Ġships": 4085,
      "inals": 4086,
      "ada": 4087,
      "Ġath": 4088,
      "rehen": 4089,
      "Ġbetter": 4090,
      "Ġsentence": 4091,
      "Ġindividual": 4092,
      "Ġlatest": 4093,
      "ructions": 4094,
      "Ġelev": 4095,
      "ns": 4096,
      "Ġcovered": 4097,
      "alu": 4098,
      "Ġstudies": 4099,
      "Ġrecently": 4100,
      "Ġlimited": 4101,
      "On": 4102,
      "vernment": 4103,
      "Ġreporter": 4104,
      "ĠMuslim": 4105,
      "Ġkind": 4106,
      "ĠYev": 4107,
      "Ġadvantage": 4108,
      "11": 4109,
      "Ġreject": 4110,
      "Ġfriends": 4111,
      "ĠCongress": 4112,
      "ĠNor": 4113,
      "Ġchief": 4114,
      "Ġadvert": 4115,
      "ĠChamber": 4116,
      "onov": 4117,
      "Ġtransition": 4118,
      "ikh": 4119,
      "27": 4120,
      "Ġcouncil": 4121,
      "Ġteach": 4122,
      "Ġdoctor": 4123,
      "ley": 4124,
      "ditional": 4125,
      "rec": 4126,
      "Ġbroad": 4127,
      "Ġprohibited": 4128,
      "Ġcommercial": 4129,
      "ĠWithin": 4130,
      "Ġuniversities": 4131,
      "atov": 4132,
      "Ġphase": 4133,
      "den": 4134,
      "Ġseven": 4135,
      "ĠVal": 4136,
      "Ġspok": 4137,
      "Ġnature": 4138,
      "ston": 4139,
      "Ġfulf": 4140,
      "Ġreaching": 4141,
      "Ġadvanced": 4142,
      ".'": 4143,
      "ote": 4144,
      "ĠKorean": 4145,
      "ius": 4146,
      "ese": 4147,
      "Ġmot": 4148,
      "Ġadmitted": 4149,
      "Ġestim": 4150,
      "rew": 4151,
      "Ġdiscl": 4152,
      "oq": 4153,
      "Ġhands": 4154,
      "ĠNe": 4155,
      "Ġreporting": 4156,
      "Ġcoach": 4157,
      "Ġmanufacture": 4158,
      "Ġimprisonment": 4159,
      "indergart": 4160,
      "iency": 4161,
      "Ġclas": 4162,
      "Ġemployee": 4163,
      "Ġconsumers": 4164,
      "Ġescal": 4165,
      "Ġbridge": 4166,
      "Ġcontinuing": 4167,
      "Ġsout": 4168,
      "Ġpain": 4169,
      "ĠSo": 4170,
      "Ġspeak": 4171,
      "Ġask": 4172,
      "Ġimm": 4173,
      "anging": 4174,
      "ĠLast": 4175,
      "Ġciting": 4176,
      "Ġclubs": 4177,
      "Ġmeaning": 4178,
      "lov": 4179,
      "Ġtre": 4180,
      "Ġcotton": 4181,
      "Ġgrain": 4182,
      "Ġpositive": 4183,
      "Ġsite": 4184,
      "Ġstrategy": 4185,
      "ĠFinland": 4186,
      "Ġagriculture": 4187,
      "Ġmaximum": 4188,
      "There": 4189,
      "itter": 4190,
      "Ġdisappe": 4191,
      "Ġapply": 4192,
      "Ġoffered": 4193,
      "Ġvotes": 4194,
      "500": 4195,
      "ĠMac": 4196,
      "Ġreli": 4197,
      "ribed": 4198,
      "Ġintegr": 4199,
      "Ġdirected": 4200,
      "Ġbloc": 4201,
      "ĠLeg": 4202,
      "rist": 4203,
      "Ġkn": 4204,
      "ĠHungary": 4205,
      "14": 4206,
      "Ġscene": 4207,
      "Ġbat": 4208,
      "Ġconsult": 4209,
      "Ġadvis": 4210,
      "Ġcommittee": 4211,
      "ĠMoldova": 4212,
      "Ġoften": 4213,
      "Ġopt": 4214,
      "Ġtreatment": 4215,
      "ault": 4216,
      "Ġcarry": 4217,
      "Ġattacked": 4218,
      "pts": 4219,
      "ĠPak": 4220,
      "Ġkindergart": 4221,
      "Ġcalling": 4222,
      "cluding": 4223,
      "Ġstorms": 4224,
      "Ġrelative": 4225,
      "Ġamounts": 4226,
      "Ġindicators": 4227,
      "economic": 4228,
      "ĠAc": 4229,
      "ĠIraq": 4230,
      "romet": 4231,
      "ĠDav": 4232,
      "owers": 4233,
      "Ġones": 4234,
      "Ġcontact": 4235,
      "Ġcircum": 4236,
      "alib": 4237,
      "Ġcoord": 4238,
      "Ġenvis": 4239,
      "ĠTrade": 4240,
      "Ġpolitician": 4241,
      "Ġbir": 4242,
      "Ġpopular": 4243,
      "Ġlonger": 4244,
      "band": 4245,
      "Ġboy": 4246,
      "ĠMe": 4247,
      "Ġengaged": 4248,
      "Ġsales": 4249,
      "app": 4250,
      "ously": 4251,
      "Ġconsc": 4252,
      "80": 4253,
      "ĠDay": 4254,
      "ĠFar": 4255,
      "Ġbook": 4256,
      "ĠTwo": 4257,
      "ĠMuhammad": 4258,
      "ĠBra": 4259,
      "Ġbuild": 4260,
      "Ġamounting": 4261,
      "Ġsuccessfully": 4262,
      "ĠAk": 4263,
      "Ġcarri": 4264,
      "Ġroutes": 4265,
      "arsh": 4266,
      "like": 4267,
      "ols": 4268,
      "Ġexternal": 4269,
      "Ġowner": 4270,
      "Ġnothing": 4271,
      "sea": 4272,
      "Ġgirls": 4273,
      "Ġbeneficial": 4274,
      "Ġ45": 4275,
      "Ġnumbers": 4276,
      "ĠComm": 4277,
      "Ġdedicated": 4278,
      "alyst": 4279,
      "Ġfactory": 4280,
      "Ġboard": 4281,
      "Ġdelivering": 4282,
      "sis": 4283,
      "Ġnor": 4284,
      "Ġeastern": 4285,
      "Ġhistorical": 4286,
      "Ġcharacter": 4287,
      "ĠMah": 4288,
      "ĠInformation": 4289,
      "ift": 4290,
      "Ġelse": 4291,
      "Ġcorrespond": 4292,
      "Ġdate": 4293,
      "Ġnort": 4294,
      "ounder": 4295,
      "Ġoperate": 4296,
      "Ġexplain": 4297,
      "Ġsection": 4298,
      "helsea": 4299,
      "Ġbomb": 4300,
      "sych": 4301,
      "ĠPreviously": 4302,
      "Ġculture": 4303,
      "Ġcargo": 4304,
      "Ġblog": 4305,
      "Ġdrivers": 4306,
      "Ġpriority": 4307,
      "bit": 4308,
      "Ġurg": 4309,
      "apt": 4310,
      "Ġleads": 4311,
      "iya": 4312,
      "spe": 4313,
      "oriz": 4314,
      "ĠInitially": 4315,
      "gets": 4316,
      "Ġpip": 4317,
      "Ġborders": 4318,
      "ĠFog": 4319,
      "Ġaccel": 4320,
      "Ġphysical": 4321,
      "rel": 4322,
      "Ġ32": 4323,
      "Ġemb": 4324,
      "Ġinspection": 4325,
      "elt": 4326,
      "Ġincreases": 4327,
      "Ġconflicts": 4328,
      "Ġapplicants": 4329,
      "ĠEl": 4330,
      "ashkad": 4331,
      "ented": 4332,
      "andon": 4333,
      "Ġplants": 4334,
      "Ġsquare": 4335,
      "Ġvac": 4336,
      "Ġexercises": 4337,
      "ĠPakistan": 4338,
      "ashkadarya": 4339,
      "AR": 4340,
      "pass": 4341,
      "Ġsending": 4342,
      "Ġembass": 4343,
      "Ġinitially": 4344,
      "Ġwaiting": 4345,
      "Ġslightly": 4346,
      "Ġembassy": 4347,
      "Ġwing": 4348,
      "Ġpartner": 4349,
      "Ġsafe": 4350,
      "Ġliability": 4351,
      "ĠPolish": 4352,
      "ĠKashkadarya": 4353,
      "Ġgiving": 4354,
      "Ġcustomers": 4355,
      "Ġviews": 4356,
      "37": 4357,
      "Ġallows": 4358,
      "ĠEc": 4359,
      "Ġdoz": 4360,
      "Ġ2016": 4361,
      "Ġtaxes": 4362,
      "Ġconsidering": 4363,
      "Ġconvenient": 4364,
      "Ġfocus": 4365,
      "Ġreligious": 4366,
      "Ġbattles": 4367,
      "Ġencoura": 4368,
      "Ġsea": 4369,
      "emic": 4370,
      "Ġaggression": 4371,
      "Ġremoved": 4372,
      "Ġwithdraw": 4373,
      "ĠMan": 4374,
      "Ġability": 4375,
      "erate": 4376,
      "ĠStat": 4377,
      "He": 4378,
      "ĠDen": 4379,
      "Ġdefeated": 4380,
      "ĠStud": 4381,
      "Ġinvestments": 4382,
      "Ġfinancing": 4383,
      "ĠPalestinians": 4384,
      "oly": 4385,
      "Ġdeploy": 4386,
      "Ġconsist": 4387,
      "ĠJizzakh": 4388,
      "Ġappropriate": 4389,
      "eness": 4390,
      "umn": 4391,
      "Ġconstant": 4392,
      "Ġfarmers": 4393,
      "Ġsupposed": 4394,
      "FA": 4395,
      "ĠLi": 4396,
      "Ġhappening": 4397,
      "Ġmur": 4398,
      "Ġtemporary": 4399,
      "house": 4400,
      "Ġsatisf": 4401,
      "ovo": 4402,
      "ĠAlong": 4403,
      "Ġ2014": 4404,
      "Ġlikely": 4405,
      "Ġtherefore": 4406,
      "Ġinformed": 4407,
      "Ġvideos": 4408,
      "ĠXi": 4409,
      "ĠPalestine": 4410,
      "Ġcertificate": 4411,
      "fers": 4412,
      "ilan": 4413,
      "ĠMedical": 4414,
      "athe": 4415,
      "rival": 4416,
      "Ġsoms": 4417,
      "Ġunit": 4418,
      "Ġextended": 4419,
      "Ġjobs": 4420,
      "St": 4421,
      "reg": 4422,
      "ison": 4423,
      "ĠPublic": 4424,
      "Ġheating": 4425,
      "ĠDmit": 4426,
      "Ġexamination": 4427,
      "ĠBak": 4428,
      "Ġcommon": 4429,
      "Ġreadiness": 4430,
      "ental": 4431,
      "arters": 4432,
      "Ġkey": 4433,
      "Ġresulting": 4434,
      "Ġcompetitions": 4435,
      "Ġprivile": 4436,
      "Ġpurchased": 4437,
      "mal": 4438,
      "su": 4439,
      "atures": 4440,
      "Ġflag": 4441,
      "Ġtact": 4442,
      "Ġfans": 4443,
      "Ġabandon": 4444,
      "Ġdiscovered": 4445,
      "Ġchem": 4446,
      "Ġcorrid": 4447,
      "Ġministers": 4448,
      "Ġsuccessful": 4449,
      "keeper": 4450,
      "Ġstructures": 4451,
      "Ġdro": 4452,
      "Ġlived": 4453,
      "Ġpharm": 4454,
      "Ġdetention": 4455,
      "Ġaviation": 4456,
      "Ġdetails": 4457,
      "Ġban": 4458,
      "olute": 4459,
      "ĠParliament": 4460,
      "Ġrise": 4461,
      "Ġdissatisf": 4462,
      "kiy": 4463,
      "Ġple": 4464,
      "Ġcharges": 4465,
      "Ġhomel": 4466,
      "rive": 4467,
      "Ġshown": 4468,
      "Ġnecessity": 4469,
      "erly": 4470,
      "itable": 4471,
      "ĠChe": 4472,
      "Ġconstructed": 4473,
      "Ġfrequ": 4474,
      "Ġir": 4475,
      "Ġfounder": 4476,
      "irus": 4477,
      "ĠRam": 4478,
      "ticles": 4479,
      "Ġlawyer": 4480,
      "ĠSatur": 4481,
      "standing": 4482,
      "ĠBlack": 4483,
      "Ġcelebr": 4484,
      "28": 4485,
      "Ġred": 4486,
      "anda": 4487,
      "dered": 4488,
      "Ġenterprise": 4489,
      "emen": 4490,
      "hedul": 4491,
      "Ġschedul": 4492,
      "ussels": 4493,
      "Ġinvolve": 4494,
      "Ġgradually": 4495,
      "vision": 4496,
      "yle": 4497,
      "Ġsust": 4498,
      "Ġhyd": 4499,
      "agon": 4500,
      "ĠFund": 4501,
      "Ġpoor": 4502,
      "Ġholiday": 4503,
      "face": 4504,
      "ĠOver": 4505,
      "ĠHere": 4506,
      "Ġdesignated": 4507,
      "Ġdozens": 4508,
      "Ġsen": 4509,
      "Ġblowing": 4510,
      "fortun": 4511,
      "Ukrain": 4512,
      "Ġanim": 4513,
      "Ġpedest": 4514,
      "Ġdenied": 4515,
      "ĠYevgen": 4516,
      "ape": 4517,
      "Ġtable": 4518,
      "Ġaud": 4519,
      "Ġranks": 4520,
      "ĠBlink": 4521,
      "law": 4522,
      "ĠTimes": 4523,
      "Ġnation": 4524,
      "Ġpersons": 4525,
      "Ġowners": 4526,
      "uting": 4527,
      "ĠNaval": 4528,
      "Ġdesigned": 4529,
      "Ġmistake": 4530,
      "Ġspring": 4531,
      "zod": 4532,
      "Ġcred": 4533,
      "ilov": 4534,
      "istant": 4535,
      "Ġturns": 4536,
      "Ġmanufacturing": 4537,
      "Ġobjects": 4538,
      "Ġdescend": 4539,
      "99": 4540,
      "ĠRegional": 4541,
      "Ġsuffered": 4542,
      "yl": 4543,
      "Ġbit": 4544,
      "Ġexhib": 4545,
      "Ġprotests": 4546,
      "Ġinteresting": 4547,
      "Ġsolution": 4548,
      "Ġfilm": 4549,
      "Ġfraud": 4550,
      "bo": 4551,
      "Ġduties": 4552,
      "ĠGreat": 4553,
      "ĠTechn": 4554,
      "ĠSpain": 4555,
      "Ġdistributed": 4556,
      "Ġrecommend": 4557,
      "Ġcontrary": 4558,
      "Ġshel": 4559,
      "ĠBrussels": 4560,
      "kin": 4561,
      "Ġhy": 4562,
      "oline": 4563,
      "epa": 4564,
      "Ġkg": 4565,
      "ĠBlinken": 4566,
      "cle": 4567,
      "Ġhus": 4568,
      "Ġlicense": 4569,
      "han": 4570,
      "Ġtell": 4571,
      "Ġeld": 4572,
      "ĠSal": 4573,
      "ĠCol": 4574,
      "ivka": 4575,
      "Ġestablishment": 4576,
      "Ġdiscussions": 4577,
      "Ġtalked": 4578,
      "Ġshortage": 4579,
      "Ġbenefit": 4580,
      "Real": 4581,
      "iences": 4582,
      "Ġmiddle": 4583,
      "ĠAh": 4584,
      "zz": 4585,
      "rey": 4586,
      "uth": 4587,
      "Ġserved": 4588,
      "ĠIl": 4589,
      "ĠAbdu": 4590,
      "DP": 4591,
      "Ġambassador": 4592,
      "Ġsubmit": 4593,
      "Ġexams": 4594,
      "Ġhomes": 4595,
      "rehensive": 4596,
      "ico": 4597,
      "ogue": 4598,
      "Ġorganize": 4599,
      "Ġaspects": 4600,
      "Ãµj": 4601,
      "ullayev": 4602,
      "Ġpage": 4603,
      "ĠBal": 4604,
      "Ġjets": 4605,
      "rupt": 4606,
      "Ġeasy": 4607,
      "Ġterrorist": 4608,
      "rant": 4609,
      "PP": 4610,
      "Ġtry": 4611,
      "Ġaer": 4612,
      "Ġnames": 4613,
      "Ġ34": 4614,
      "Ġ150": 4615,
      "Ġill": 4616,
      "ĠSan": 4617,
      "Ġspir": 4618,
      "ĠQÃµ": 4619,
      "Ġhighly": 4620,
      "Ġrefused": 4621,
      "Ġpurposes": 4622,
      "ih": 4623,
      "Ġmand": 4624,
      "Ġ37": 4625,
      "Ġgrand": 4626,
      "Ġtourists": 4627,
      "Ġdemanded": 4628,
      "Ġenvironmental": 4629,
      "yn": 4630,
      "idov": 4631,
      "Ġmountainous": 4632,
      "anish": 4633,
      "ĠSol": 4634,
      "Ġperman": 4635,
      "Ġclust": 4636,
      "Ġserving": 4637,
      "ĠZap": 4638,
      "Ġdifference": 4639,
      "Ġreturning": 4640,
      "Ġscientists": 4641,
      "ĠBrazil": 4642,
      "orizh": 4643,
      "gaz": 4644,
      "Ġdefic": 4645,
      "Ġrates": 4646,
      "Ġreducing": 4647,
      "ĠSecond": 4648,
      "Ġfourth": 4649,
      "ĠTwitter": 4650,
      "orizhzh": 4651,
      "Ġsurv": 4652,
      "Ġregular": 4653,
      "Ġseems": 4654,
      "ĠSaturday": 4655,
      "ps": 4656,
      "where": 4657,
      "Ġcomposition": 4658,
      "Ġprimary": 4659,
      "uter": 4660,
      "Ġspecialized": 4661,
      "ĠKingdom": 4662,
      "ĠFoll": 4663,
      "ĠYang": 4664,
      "Ġgasoline": 4665,
      "Ġrenew": 4666,
      "Ġclearly": 4667,
      "field": 4668,
      "ĠAssembly": 4669,
      "skiy": 4670,
      "Ġcosts": 4671,
      "Ġabsolute": 4672,
      "Ġrepeated": 4673,
      "ĠZaporizhzh": 4674,
      "Ġbur": 4675,
      "Ġviolation": 4676,
      "ĠBerlin": 4677,
      "ĠII": 4678,
      "Ġheard": 4679,
      "ems": 4680,
      "Ġconsisting": 4681,
      "ari": 4682,
      "igation": 4683,
      "ably": 4684,
      "Ġmonthly": 4685,
      "Ġgoalkeeper": 4686,
      "Ġstandard": 4687,
      "Ġmonitoring": 4688,
      "Ġfal": 4689,
      "Ġdial": 4690,
      "Ġactually": 4691,
      "Ġsimply": 4692,
      "Ġheadqu": 4693,
      "Ġsharp": 4694,
      "Ġhundreds": 4695,
      "ĠRoman": 4696,
      "Ġbirth": 4697,
      "Ġahead": 4698,
      "Ġofficer": 4699,
      "Ġbalance": 4700,
      "Ġbad": 4701,
      "ĠAut": 4702,
      "Ġaccess": 4703,
      "Ġformat": 4704,
      "ĠEconomy": 4705,
      "oph": 4706,
      "ĠEarth": 4707,
      "Ġarms": 4708,
      "Ġtwice": 4709,
      "Ġvisa": 4710,
      "overty": 4711,
      "Ġassociated": 4712,
      "Ġverdict": 4713,
      "aliban": 4714,
      "ĠCl": 4715,
      "Ġsuggest": 4716,
      "SG": 4717,
      "more": 4718,
      "Ġfired": 4719,
      "Ġdemands": 4720,
      "Ġformal": 4721,
      "Ġmeasure": 4722,
      "Ġdelay": 4723,
      "Ġlittle": 4724,
      "ĠFederal": 4725,
      "Ġresolved": 4726,
      "Ġutil": 4727,
      "ID": 4728,
      "Ġwarning": 4729,
      "Ġterritorial": 4730,
      "ĠTransport": 4731,
      "Ġhusband": 4732,
      "astic": 4733,
      "Ġfee": 4734,
      "isms": 4735,
      "enda": 4736,
      "Ġanything": 4737,
      "Ġforest": 4738,
      "espread": 4739,
      "ON": 4740,
      "gu": 4741,
      "ĠUm": 4742,
      "Ġstability": 4743,
      "Ġvia": 4744,
      "Ġscheduled": 4745,
      "ĠSpecial": 4746,
      "ivity": 4747,
      "ĠSafety": 4748,
      "Ġdrinking": 4749,
      "pro": 4750,
      "ĠNik": 4751,
      "Ġsem": 4752,
      "Ġfed": 4753,
      "ĠAnton": 4754,
      "Ġblack": 4755,
      "Ġcapable": 4756,
      "ĠRepresentatives": 4757,
      "Ġcou": 4758,
      "ĠIT": 4759,
      "Ġgather": 4760,
      "ĠOf": 4761,
      "Ġrange": 4762,
      "ahmon": 4763,
      "Ġcrossing": 4764,
      "Ġdriving": 4765,
      "Ġpsych": 4766,
      "arcel": 4767,
      "ulate": 4768,
      "ĠEr": 4769,
      "Ġaccom": 4770,
      "Ġpassing": 4771,
      "come": 4772,
      "Ġreserve": 4773,
      "rams": 4774,
      "Ġregulations": 4775,
      "ĠAcadem": 4776,
      "ali": 4777,
      "Ġhal": 4778,
      "ĠLet": 4779,
      "Ġsharply": 4780,
      "Ġwidespread": 4781,
      "Ġsmartph": 4782,
      "ĠHuman": 4783,
      "Ġshowed": 4784,
      "Ġarch": 4785,
      "Ġobst": 4786,
      "Ġcandidates": 4787,
      "Ġhonor": 4788,
      "ox": 4789,
      "itu": 4790,
      "Ġconcept": 4791,
      "Ġelectrical": 4792,
      "Ġzone": 4793,
      "arcelona": 4794,
      "Ġtrial": 4795,
      "Ġalone": 4796,
      "Ġspeaking": 4797,
      "Ġproduce": 4798,
      "Ġcondem": 4799,
      "Ġprinciples": 4800,
      ");": 4801,
      "Ġinsurance": 4802,
      "Ġprepare": 4803,
      "Ġindicates": 4804,
      "rong": 4805,
      "itz": 4806,
      "Ġfear": 4807,
      "Ġanalyst": 4808,
      "Ġhero": 4809,
      "second": 4810,
      "fficiency": 4811,
      "Ġactivists": 4812,
      "athered": 4813,
      "Ġeight": 4814,
      "Ġgrat": 4815,
      "iyor": 4816,
      "Ġsolve": 4817,
      "Ġobligations": 4818,
      "ĠZaporizhzhia": 4819,
      "Ġgathered": 4820,
      "ularly": 4821,
      "osing": 4822,
      "Ġdemanding": 4823,
      "Ġreflect": 4824,
      "Ġtalking": 4825,
      "letes": 4826,
      "ĠNavalny": 4827,
      "CO": 4828,
      "oid": 4829,
      "Ġfate": 4830,
      "icro": 4831,
      "ĠDn": 4832,
      "ĠLuk": 4833,
      "Ġentry": 4834,
      "Ġconfident": 4835,
      "ounded": 4836,
      "Ġplaying": 4837,
      "attack": 4838,
      "hny": 4839,
      "astern": 4840,
      "Ġtakes": 4841,
      "Ġairline": 4842,
      "ĠIndustry": 4843,
      "Ġrefer": 4844,
      "otten": 4845,
      "ĠSird": 4846,
      "ĠPrem": 4847,
      "Ġsubsid": 4848,
      "Ġpropag": 4849,
      "acc": 4850,
      "Ġasking": 4851,
      "Ġhelic": 4852,
      "ĠBen": 4853,
      "Ġcontent": 4854,
      "Ġtrue": 4855,
      "Ġrefuge": 4856,
      "Ġmembership": 4857,
      "Ġexceeded": 4858,
      "Ġhelicop": 4859,
      "Ġhar": 4860,
      "iev": 4861,
      "Ġassigned": 4862,
      "Ġheads": 4863,
      "ĠFollowing": 4864,
      "ester": 4865,
      "Ġ194": 4866,
      "inov": 4867,
      "ĠTai": 4868,
      "aves": 4869,
      "Ġconstruct": 4870,
      "Ġcommitting": 4871,
      "ildren": 4872,
      "bank": 4873,
      "light": 4874,
      "oom": 4875,
      "pool": 4876,
      "wide": 4877,
      "Ġbri": 4878,
      "Ġearlier": 4879,
      "Ġweight": 4880,
      "Ãµr": 4881,
      "Ġfollows": 4882,
      "Ġconfirm": 4883,
      "underst": 4884,
      "racy": 4885,
      "ĠJin": 4886,
      "ĠOnly": 4887,
      "Ġnumerous": 4888,
      "Ġcapabilities": 4889,
      "ĠAssoc": 4890,
      "reign": 4891,
      "ili": 4892,
      "ĠMany": 4893,
      "coming": 4894,
      "Ġsuspected": 4895,
      "aq": 4896,
      "Ġ33": 4897,
      "Ġamendments": 4898,
      "Ġannually": 4899,
      "Ġcalls": 4900,
      "Ġairplanes": 4901,
      "aur": 4902,
      "Ġdepend": 4903,
      "Ġwinning": 4904,
      "Ġpatients": 4905,
      "ĠSim": 4906,
      "chi": 4907,
      "Ġpowerful": 4908,
      "Ġthreats": 4909,
      "part": 4910,
      "Ġsat": 4911,
      "olution": 4912,
      "Ġagenda": 4913,
      "Ġsaw": 4914,
      "Ġcance": 4915,
      "Tashkent": 4916,
      "gra": 4917,
      "Ġeth": 4918,
      "Ġallocate": 4919,
      "Ġrocket": 4920,
      "icted": 4921,
      "overeign": 4922,
      "Ġminor": 4923,
      "Ġskills": 4924,
      "Ġdoing": 4925,
      "Ġvoting": 4926,
      "drop": 4927,
      "uration": 4928,
      "ĠThrough": 4929,
      "Ġpreparation": 4930,
      "Ġbanned": 4931,
      "ĠRoad": 4932,
      "Ġwealth": 4933,
      "Ġtransform": 4934,
      "herson": 4935,
      "Ġheadquarters": 4936,
      "ux": 4937,
      "Ġwatch": 4938,
      "ĠMi": 4939,
      "Ġsigns": 4940,
      "ĠSerg": 4941,
      "Ġgeopol": 4942,
      "utral": 4943,
      "ĠShe": 4944,
      "aceut": 4945,
      "Ġtit": 4946,
      "ĠKherson": 4947,
      "aceutical": 4948,
      "60": 4949,
      "bon": 4950,
      "Ġess": 4951,
      "Ġpred": 4952,
      "opard": 4953,
      "Ġtargets": 4954,
      "ĠHouth": 4955,
      "Ġflow": 4956,
      "Ġbackdrop": 4957,
      "Ġvote": 4958,
      "Ġmanufactured": 4959,
      "Ġsuffering": 4960,
      "Ġprecisely": 4961,
      "dule": 4962,
      "Ġliter": 4963,
      "ĠProtection": 4964,
      "tepa": 4965,
      "ithuan": 4966,
      "ĠInde": 4967,
      "Ġsuper": 4968,
      "Ġ400": 4969,
      "Ġcaptured": 4970,
      "Ġproceed": 4971,
      "earch": 4972,
      "ĠIranian": 4973,
      "Ġhosts": 4974,
      "Ġreliable": 4975,
      "ĠSitu": 4976,
      "hips": 4977,
      "TE": 4978,
      "aluz": 4979,
      "Ġmill": 4980,
      "ĠIm": 4981,
      "Ġgoes": 4982,
      "Ġspecified": 4983,
      "Ġtelevision": 4984,
      "GB": 4985,
      "Ġintends": 4986,
      "Ġfailed": 4987,
      "tor": 4988,
      "Ġsovereign": 4989,
      "oles": 4990,
      "Ġbegins": 4991,
      "Ġbasic": 4992,
      "Ġprize": 4993,
      "Ġtariffs": 4994,
      "Ġhomeland": 4995,
      "ressive": 4996,
      "Ġexc": 4997,
      "ĠPort": 4998,
      "expected": 4999,
      "Ġschedule": 5000,
      "Ġsurpris": 5001,
      "rugg": 5002,
      "omen": 5003,
      "herlands": 5004,
      "ager": 5005,
      "Ġagents": 5006,
      "Ġdiscip": 5007,
      "Ġdollar": 5008,
      "Ġpoison": 5009,
      "ranking": 5010,
      "ext": 5011,
      "Ġpie": 5012,
      "Ġstructure": 5013,
      "Ġcomprehensive": 5014,
      "ĠLithuan": 5015,
      "lectric": 5016,
      "Ġdefender": 5017,
      "Ġturning": 5018,
      "Ġlocation": 5019,
      "Ġfundament": 5020,
      "liminary": 5021,
      "Ġjoining": 5022,
      "Ġsuspended": 5023,
      "arent": 5024,
      "uction": 5025,
      "Ġthunderst": 5026,
      "ĠUr": 5027,
      "Ġathletes": 5028,
      "odir": 5029,
      "Ġannex": 5030,
      "Ġsupporters": 5031,
      "Ġbox": 5032,
      "90": 5033,
      "Ġresidence": 5034,
      "Ġsave": 5035,
      "Ġkept": 5036,
      "Ġclin": 5037,
      "Ġparticularly": 5038,
      "Ġsquad": 5039,
      "Ġmos": 5040,
      "Ġlink": 5041,
      "ĠMot": 5042,
      "Ãµl": 5043,
      "Ġbooks": 5044,
      "Ġcards": 5045,
      "ĠTok": 5046,
      "Ġimports": 5047,
      "Ġeasily": 5048,
      "Ġupdated": 5049,
      "isher": 5050,
      "Ġpoliticians": 5051,
      "iverpool": 5052,
      "Ġdismissed": 5053,
      "Ġself": 5054,
      "Ġgrowing": 5055,
      "rag": 5056,
      "ĠWhile": 5057,
      "Russia": 5058,
      "Ġstrugg": 5059,
      "andemic": 5060,
      "Ġanyone": 5061,
      "Ġdesire": 5062,
      "Ġexplan": 5063,
      "Ġfactor": 5064,
      "Ġloan": 5065,
      "Ġbelieves": 5066,
      "ĠPremier": 5067,
      "General": 5068,
      "room": 5069,
      "Ġimported": 5070,
      "Ġhouseholds": 5071,
      "fortunately": 5072,
      "ĠOd": 5073,
      "Ġinstructions": 5074,
      "Ġincreasingly": 5075,
      "ĠJapanese": 5076,
      "Ġfirm": 5077,
      "ĠAcademy": 5078,
      "zed": 5079,
      "Ġdivid": 5080,
      "Ġgen": 5081,
      "Ġunf": 5082,
      "Ġloss": 5083,
      "Ġlooking": 5084,
      "ĠAgric": 5085,
      "Ġguarantees": 5086,
      "Ġcongrat": 5087,
      "gent": 5088,
      "ĠKGB": 5089,
      "Ġopinions": 5090,
      "Ġdream": 5091,
      "ĠJournal": 5092,
      "Ġconsists": 5093,
      "Ġscience": 5094,
      "Ġstarts": 5095,
      "Ġfoundation": 5096,
      "ĠBelarusian": 5097,
      "Ġsubjects": 5098,
      "istrict": 5099,
      "ĠBek": 5100,
      "stanbul": 5101,
      "Ġcalculations": 5102,
      "Ġrequested": 5103,
      "Ġthunderstorms": 5104,
      "Ġgratitude": 5105,
      "ĠJinping": 5106,
      "Ġgone": 5107,
      "eta": 5108,
      "ĠNations": 5109,
      "ĠChairman": 5110,
      "Ġscen": 5111,
      "2023": 5112,
      "Ġult": 5113,
      "Ġfelt": 5114,
      "Ġstore": 5115,
      "ĠRights": 5116,
      "uma": 5117,
      "Ġinvited": 5118,
      "26": 5119,
      "Un": 5120,
      "Ġalthough": 5121,
      "Ġpermission": 5122,
      "Ġemerged": 5123,
      "ĠCooperation": 5124,
      "Ġeyes": 5125,
      "Ġcru": 5126,
      "ida": 5127,
      "Ġneutral": 5128,
      "ĠNur": 5129,
      "Ġflood": 5130,
      "Ġi": 5131,
      "ĠAct": 5132,
      "Ġshop": 5133,
      "Ġlosing": 5134,
      "Ġprotecting": 5135,
      "ĠAlexander": 5136,
      "21": 5137,
      "care": 5138,
      "Ġefficiency": 5139,
      "ĠInt": 5140,
      "Ġ2030": 5141,
      "ĠKarabakh": 5142,
      "Ġdialogue": 5143,
      "ĠSituations": 5144,
      "Ġriver": 5145,
      "abet": 5146,
      "ected": 5147,
      "Ġdispl": 5148,
      "ĠItal": 5149,
      "Ġemphasizes": 5150,
      "Ġemployment": 5151,
      "Ġdetermine": 5152,
      "cer": 5153,
      "pre": 5154,
      "Ġtank": 5155,
      "ĠPent": 5156,
      "ĠNaz": 5157,
      "Ġedit": 5158,
      "iversary": 5159,
      "Ġdisease": 5160,
      "aluzhny": 5161,
      "orrow": 5162,
      "ĠSerb": 5163,
      "Ġru": 5164,
      "ĠKhark": 5165,
      "Ġexecution": 5166,
      "ĠAdministration": 5167,
      "Ġrecords": 5168,
      "Ġarticles": 5169,
      "Ġdoesn": 5170,
      "ĠTaiw": 5171,
      "ĠTax": 5172,
      "Ġdemocratic": 5173,
      "Ġdestruction": 5174,
      "Ġdistribution": 5175,
      "cifically": 5176,
      "fra": 5177,
      "itals": 5178,
      "ĠMun": 5179,
      "Ġaspect": 5180,
      "Ġregularly": 5181,
      "gorod": 5182,
      "Ġarmored": 5183,
      "Ġrelatively": 5184,
      "Ġflying": 5185,
      "ashed": 5186,
      "Ġlines": 5187,
      "abb": 5188,
      "Ġfaced": 5189,
      "Ġjoined": 5190,
      "ĠPentagon": 5191,
      "ĠExper": 5192,
      "Ġorders": 5193,
      "Ġsouthern": 5194,
      "Ġpermanent": 5195,
      "ino": 5196,
      "Ġunexpected": 5197,
      "ĠArt": 5198,
      "Ġopenly": 5199,
      "They": 5200,
      "Ġlanguages": 5201,
      "ĠNetherlands": 5202,
      "roz": 5203,
      "Ġmagn": 5204,
      "ĠEs": 5205,
      "ĠGoals": 5206,
      "ola": 5207,
      "ĠNot": 5208,
      "ifications": 5209,
      "Ġextensive": 5210,
      "Ġacquain": 5211,
      "Ġcoalition": 5212,
      "Ġdeceased": 5213,
      "ĠKharkiv": 5214,
      "book": 5215,
      "dum": 5216,
      "Ġmedal": 5217,
      "Ġspirit": 5218,
      "Ġ75": 5219,
      "ĠZaluzhny": 5220,
      "Ġsurface": 5221,
      "Ġpandemic": 5222,
      "ĠIstanbul": 5223,
      "adium": 5224,
      "Ġcanal": 5225,
      "Ġoperational": 5226,
      "Ġcourts": 5227,
      "Ġoffers": 5228,
      "ĠAfrican": 5229,
      "Ġhop": 5230,
      "Ġtranspa": 5231,
      "Ġgovernors": 5232,
      "Ġlove": 5233,
      "Ġaltern": 5234,
      "Ġexem": 5235,
      "Ġautumn": 5236,
      "Ġachieving": 5237,
      "government": 5238,
      "Ġep": 5239,
      "Ġrather": 5240,
      "Ġspot": 5241,
      "Ġacknow": 5242,
      "Ġsubstances": 5243,
      "Ġmodels": 5244,
      "Ġcomplain": 5245,
      "ĠOlympic": 5246,
      "ĠLegisl": 5247,
      "Ġ[": 5248,
      "Ġwhom": 5249,
      "Ġregulation": 5250,
      "riving": 5251,
      "ĠTraffic": 5252,
      "offensive": 5253,
      "ĠManchester": 5254,
      "Ġorig": 5255,
      "Ġ2025": 5256,
      "ferendum": 5257,
      "ĠEngland": 5258,
      "Ġmigration": 5259,
      "Ġdrugs": 5260,
      "ario": 5261,
      "Ġadmission": 5262,
      "Ġprovision": 5263,
      "Ġlogistics": 5264,
      "Ġgeopolitical": 5265,
      "sky": 5266,
      "Ġlay": 5267,
      "Ġlate": 5268,
      "ampion": 5269,
      "Ġcolony": 5270,
      "Ġresponded": 5271,
      "Ġfloor": 5272,
      "itch": 5273,
      "Ġtruth": 5274,
      "Ġtransfers": 5275,
      "Ġpurchasing": 5276,
      "Ġmessage": 5277,
      "Ġrejected": 5278,
      "oice": 5279,
      "Ġonto": 5280,
      "iveness": 5281,
      "Ġattempts": 5282,
      "ercen": 5283,
      "AT": 5284,
      "eras": 5285,
      "Ġfair": 5286,
      "ocracy": 5287,
      "Ġ195": 5288,
      "Ġsalaries": 5289,
      "Ġmethods": 5290,
      "Ġbroadcast": 5291,
      "Ġbrief": 5292,
      "terior": 5293,
      "ĠOt": 5294,
      "Ġshows": 5295,
      "Ġsupports": 5296,
      "Ġrecommended": 5297,
      "Ġdivision": 5298,
      "Ġacquainted": 5299,
      "33": 5300,
      "Ġhanded": 5301,
      "Ġphoto": 5302,
      "what": 5303,
      "Ġbeaut": 5304,
      "ellect": 5305,
      "Ġprob": 5306,
      "Ġheat": 5307,
      "ĠThose": 5308,
      "Ġinstance": 5309,
      "vention": 5310,
      "Ġfif": 5311,
      "Ġconsecut": 5312,
      "riy": 5313,
      "quality": 5314,
      "Ġordered": 5315,
      "Ġraid": 5316,
      "pective": 5317,
      "Ġaffected": 5318,
      "Ġrescue": 5319,
      "alls": 5320,
      "ĠLeopard": 5321,
      "Ġseriously": 5322,
      "Ġlevels": 5323,
      "Ġvalues": 5324,
      "ĠBloom": 5325,
      "Ġcommented": 5326,
      "urodov": 5327,
      "ĠSocial": 5328,
      "Ġaerial": 5329,
      "haps": 5330,
      "ero": 5331,
      "Ġcop": 5332,
      "Ġstores": 5333,
      "ĠLaw": 5334,
      "Ġpresence": 5335,
      "Ġ55": 5336,
      "Ġreduction": 5337,
      "Ġgeneration": 5338,
      "Ġbi": 5339,
      "Ġnom": 5340,
      "Ġlose": 5341,
      "Ġstable": 5342,
      "cont": 5343,
      "Ġanniversary": 5344,
      "Ġregistration": 5345,
      "Ġlearning": 5346,
      "Ġprospects": 5347,
      "ĠBloomberg": 5348,
      "bl": 5349,
      "Ġdated": 5350,
      "Ġmercen": 5351,
      "Ġreally": 5352,
      "Ġmeat": 5353,
      "Ġwhole": 5354,
      "Ġmyself": 5355,
      "Ġranking": 5356,
      "ana": 5357,
      "Ġanc": 5358,
      "Ġword": 5359,
      "ksand": 5360,
      "Ġprest": 5361,
      "ĠSpecifically": 5362,
      "water": 5363,
      "ĠAF": 5364,
      "ĠBah": 5365,
      "Ġentrance": 5366,
      "ahu": 5367,
      "Ġ2000": 5368,
      "Ġspend": 5369,
      "Ġsecondary": 5370,
      "Ġload": 5371,
      "Ġcease": 5372,
      "Ġfallen": 5373,
      "ĠAbdur": 5374,
      "Ġshooting": 5375,
      "Ġfalse": 5376,
      "inating": 5377,
      "Ġ38": 5378,
      "Ġcrew": 5379,
      "Ġfailure": 5380,
      "Ġshells": 5381,
      "she": 5382,
      "ĠMost": 5383,
      "Ġsolutions": 5384,
      "Ġhousing": 5385,
      "Ġsuspic": 5386,
      "Ġbought": 5387,
      "Ġconfidence": 5388,
      "Ġdefin": 5389,
      "Ġapplications": 5390,
      "Ġmarried": 5391,
      "ĠAssociation": 5392,
      "Ġcomplic": 5393,
      "Ġpermit": 5394,
      "Ġreplac": 5395,
      "Ġchoose": 5396,
      "icial": 5397,
      "uds": 5398,
      "Ġdepartments": 5399,
      "Ġneighborhoods": 5400,
      "ĠCanada": 5401,
      "leep": 5402,
      "Ġbeat": 5403,
      "ĠSing": 5404,
      "Ġseized": 5405,
      "anyahu": 5406,
      "Ġconsiders": 5407,
      "Ġconsecutive": 5408,
      "rans": 5409,
      "Ġaff": 5410,
      "Ġpoverty": 5411,
      "ĠSil": 5412,
      "Ġpreliminary": 5413,
      "IA": 5414,
      "ĠStaff": 5415,
      "ĠCont": 5416,
      "38": 5417,
      "ĠMark": 5418,
      "Ġabol": 5419,
      "Ġjustice": 5420,
      "Ġcivilians": 5421,
      "ĠTaiwan": 5422,
      "ĠArgent": 5423,
      "Ġloans": 5424,
      "Ġcareer": 5425,
      "Ġexperienced": 5426,
      "lav": 5427,
      "ota": 5428,
      "utive": 5429,
      "ĠSev": 5430,
      "ĠYun": 5431,
      "Ġpublications": 5432,
      "Ġapartment": 5433,
      "Ġstrength": 5434,
      "Ġobtaining": 5435,
      "Ġgranted": 5436,
      "ĠAdministrative": 5437,
      "Ġexhibition": 5438,
      "mosp": 5439,
      "Ġtren": 5440,
      "Ġfinance": 5441,
      "ĠNetanyahu": 5442,
      "Ġrebell": 5443,
      "For": 5444,
      "iar": 5445,
      "mud": 5446,
      "Ġduty": 5447,
      "Ġreality": 5448,
      "idency": 5449,
      "Ġgard": 5450,
      "Ġfinding": 5451,
      "Ġministries": 5452,
      "ĠAmericans": 5453,
      "ĠKhan": 5454,
      "Ġconnected": 5455,
      "tak": 5456,
      "itary": 5457,
      "Ġrat": 5458,
      "Ġcharge": 5459,
      "Ç§on": 5460,
      "Ġbranches": 5461,
      "Ġdemonstrated": 5462,
      "Ġmind": 5463,
      "ĠIS": 5464,
      "Ġmine": 5465,
      "struction": 5466,
      "Ġsomewhat": 5467,
      "Ġremote": 5468,
      "Ġ2015": 5469,
      "Ġideas": 5470,
      "Ġcounterattack": 5471,
      "ĠKamol": 5472,
      "Ġnorthern": 5473,
      "nik": 5474,
      "Ġschol": 5475,
      "Ġeve": 5476,
      "ĠRF": 5477,
      "Ġitems": 5478,
      "ĠPer": 5479,
      "Ġannouncement": 5480,
      "Ġdeprived": 5481,
      "Ġlisted": 5482,
      "ĠWill": 5483,
      "Ġ(\"": 5484,
      "Ġdescribed": 5485,
      "Ġsymb": 5486,
      "ĠMadrid": 5487,
      "Ġhydro": 5488,
      "ĠDnip": 5489,
      "ĠLukas": 5490,
      "atal": 5491,
      "ott": 5492,
      "Ġattacking": 5493,
      "Ġsolid": 5494,
      "Ġintroduce": 5495,
      "Ġeffectively": 5496,
      "Ġassociation": 5497,
      "Ġappearance": 5498,
      "Ġordinary": 5499,
      "Ġreferendum": 5500,
      "Ġstory": 5501,
      "urov": 5502,
      "ĠRegarding": 5503,
      "ĠLegislative": 5504,
      "boyev": 5505,
      "Ġste": 5506,
      "Ġappoint": 5507,
      "Ġproducing": 5508,
      "Ġthinking": 5509,
      "Ġphotos": 5510,
      "Ġfrequently": 5511,
      "invest": 5512,
      "Ġpowers": 5513,
      "Ġoption": 5514,
      "Ġspecialist": 5515,
      "Ġrequires": 5516,
      "Ġforming": 5517,
      "Ġstanding": 5518,
      "illa": 5519,
      "ĠKir": 5520,
      "ĠLatv": 5521,
      "Ġmis": 5522,
      "Ġgain": 5523,
      "ĠMoon": 5524,
      "ĠPa": 5525,
      "Ġinvolvement": 5526,
      "Ġsky": 5527,
      "ruit": 5528,
      "Ġ78": 5529,
      "ĠShar": 5530,
      "ĠQur": 5531,
      "Ġstatistics": 5532,
      "Ġanalysis": 5533,
      "ha": 5534,
      "vers": 5535,
      "Ġchampion": 5536,
      "Ġsubsc": 5537,
      "Ġwinner": 5538,
      "Ġelected": 5539,
      "Ġportal": 5540,
      "fielder": 5541,
      "Russian": 5542,
      "ĠStatistics": 5543,
      "esterday": 5544,
      "hab": 5545,
      "igration": 5546,
      "Ġstadium": 5547,
      "Ġprovince": 5548,
      "Ġvictim": 5549,
      "Ġfigure": 5550,
      "sp": 5551,
      "ĠRel": 5552,
      "ables": 5553,
      "Ġscale": 5554,
      "nic": 5555,
      "ube": 5556,
      "ĠGl": 5557,
      "cessive": 5558,
      "Ġdeaths": 5559,
      "Ġconstitution": 5560,
      "cean": 5561,
      "ĠNig": 5562,
      "Ġcompatri": 5563,
      "ĠSpanish": 5564,
      "Ġmidfielder": 5565,
      "Ġvolunte": 5566,
      "inations": 5567,
      "oration": 5568,
      "odirov": 5569,
      "Ġscope": 5570,
      "Ġformation": 5571,
      "Ġreading": 5572,
      "ĠResearch": 5573,
      "Ġbenefits": 5574,
      "Ġtargeted": 5575,
      "Ġcorridor": 5576,
      "Ġcredit": 5577,
      "ĠLukashenko": 5578,
      "Ġwel": 5579,
      "ĠBo": 5580,
      "ĠGener": 5581,
      "Ġpreserv": 5582,
      "ĠShah": 5583,
      "ĠQu": 5584,
      "Ġfalling": 5585,
      "Ġmedicine": 5586,
      "Ġurban": 5587,
      "Ġadvisor": 5588,
      "ĠItalian": 5589,
      "val": 5590,
      "esh": 5591,
      "Ġfem": 5592,
      "Ġfilled": 5593,
      "rif": 5594,
      "Inter": 5595,
      "ydromet": 5596,
      "oir": 5597,
      "ras": 5598,
      "ams": 5599,
      "ĠHead": 5600,
      "Ġexplo": 5601,
      "Ġcamera": 5602,
      "Ġmicro": 5603,
      "usal": 5604,
      "Ġatmosp": 5605,
      "Ġexcept": 5606,
      "ĠYevgeniy": 5607,
      "van": 5608,
      "ister": 5609,
      "rawn": 5610,
      "Ġaccountable": 5611,
      "Ġwonder": 5612,
      "Ġrecognize": 5613,
      "Ġimprisoned": 5614,
      "Ġexpanded": 5615,
      "Ġcauses": 5616,
      "Ġcollection": 5617,
      "Ġattracting": 5618,
      "ĠGames": 5619,
      "Ġshares": 5620,
      "Ġdiscount": 5621,
      "ĠServices": 5622,
      "Ġruling": 5623,
      "ĠOfficial": 5624,
      "Ġreminded": 5625,
      "Ġaccidents": 5626,
      "Ġbringing": 5627,
      "Ġurgent": 5628,
      "Ġmillions": 5629,
      "ĠUAE": 5630,
      "ĠPark": 5631,
      "Ġsupplying": 5632,
      "esperson": 5633,
      "Ġeliminate": 5634,
      "Ãµjayev": 5635,
      "At": 5636,
      "ler": 5637,
      "Ġware": 5638,
      "Ġhum": 5639,
      "Ġrefe": 5640,
      "Ġintellect": 5641,
      "Ġunderground": 5642,
      "Ġ44": 5643,
      "Ġoperator": 5644,
      "governmental": 5645,
      "Ġsense": 5646,
      "ĠID": 5647,
      "iring": 5648,
      "Ġindeed": 5649,
      "Ġdegree": 5650,
      "Ġpolitics": 5651,
      "ĠAndrey": 5652,
      "Ġhealthcare": 5653,
      "Ġpanels": 5654,
      "ĠMacron": 5655,
      "Ġsatell": 5656,
      "IM": 5657,
      "chen": 5658,
      "ulov": 5659,
      "Ġattitude": 5660,
      "Ġissu": 5661,
      "Ġinvestors": 5662,
      "Ġdefenders": 5663,
      "Ġblocked": 5664,
      "200": 5665,
      "assy": 5666,
      "Ġteaching": 5667,
      "Ġalternative": 5668,
      "ole": 5669,
      "ĠIts": 5670,
      "Ġinitiatives": 5671,
      "Ġsett": 5672,
      "Ġwinners": 5673,
      "Ġkeeps": 5674,
      "Ġsun": 5675,
      "Ġgre": 5676,
      "ĠPay": 5677,
      "ĠJoh": 5678,
      "ĠAtt": 5679,
      "Ġbrig": 5680,
      "Ġsimple": 5681,
      "Ġhealthy": 5682,
      "Ġintegration": 5683,
      "Ġestimated": 5684,
      "Ukraine": 5685,
      "just": 5686,
      "uses": 5687,
      "Ġchemical": 5688,
      "Ġelderly": 5689,
      "29": 5690,
      "Uz": 5691,
      "Ġer": 5692,
      "ancial": 5693,
      "eds": 5694,
      "igher": 5695,
      "ĠWork": 5696,
      "ensions": 5697,
      "Ġworldwide": 5698,
      "SB": 5699,
      "zor": 5700,
      "ĠJew": 5701,
      "Ġspending": 5702,
      "Ġlearn": 5703,
      "Ġbarri": 5704,
      "Ġprivileges": 5705,
      "arently": 5706,
      "Ġsens": 5707,
      "unction": 5708,
      "Ġdeport": 5709,
      "ĠFl": 5710,
      "Ġplastic": 5711,
      "ancell": 5712,
      "Ġresolve": 5713,
      "bar": 5714,
      "ĠCIS": 5715,
      "ĠBay": 5716,
      "agram": 5717,
      "ureau": 5718,
      "Ġfunction": 5719,
      "ĠPresidential": 5720,
      "Ġattempted": 5721,
      "Ġrevenues": 5722,
      "eria": 5723,
      "Ġfest": 5724,
      "Ġmakes": 5725,
      "ĠMilitary": 5726,
      "Ġbroke": 5727,
      "zech": 5728,
      "Ġnormal": 5729,
      "Ġspokesperson": 5730,
      "kent": 5731,
      "ĠHigher": 5732,
      "Ġsupplied": 5733,
      "Ġder": 5734,
      "Ġsaved": 5735,
      "Ġkilling": 5736,
      "ĠBelgorod": 5737,
      "Ġengage": 5738,
      "Ġecological": 5739,
      "ĠUzA": 5740,
      "Ġnine": 5741,
      "oper": 5742,
      "ĠKos": 5743,
      "ouses": 5744,
      "ield": 5745,
      "Ġpharmaceutical": 5746,
      "45": 5747,
      "green": 5748,
      "urt": 5749,
      "Ġforg": 5750,
      "ĠWho": 5751,
      "Ġfacing": 5752,
      "ĠDonald": 5753,
      "sified": 5754,
      "Ġsteps": 5755,
      "Ġrebellion": 5756,
      "bayev": 5757,
      "Ġwrong": 5758,
      "Ġcoin": 5759,
      "Ġpension": 5760,
      "ĠPeters": 5761,
      "ĠEastern": 5762,
      "Ġevalu": 5763,
      "Ġpossib": 5764,
      "Ġ65": 5765,
      "Ġoccurring": 5766,
      "Ġdifficulties": 5767,
      "Ġprofit": 5768,
      "Ġacquaint": 5769,
      "Ġcompensation": 5770,
      "itzer": 5771,
      "39": 5772,
      "An": 5773,
      "Is": 5774,
      "right": 5775,
      "Ġcomfort": 5776,
      "ologist": 5777,
      "Ġpollution": 5778,
      "ĠSergeli": 5779,
      "Dun": 5780,
      "ez": 5781,
      "ĠIb": 5782,
      "iment": 5783,
      "ĠAlisher": 5784,
      "Ġtrains": 5785,
      "Ġcritical": 5786,
      "Ġintensified": 5787,
      "met": 5788,
      "atically": 5789,
      "oul": 5790,
      "ĠSchol": 5791,
      "Ġsites": 5792,
      "Ġemphasizing": 5793,
      "Ġsecured": 5794,
      "enko": 5795,
      "uck": 5796,
      "Ġviolating": 5797,
      "ulla": 5798,
      "'m": 5799,
      "fl": 5800,
      "point": 5801,
      "Ġoverall": 5802,
      "Ġcalculation": 5803,
      "Ġlaunching": 5804,
      "Ġfederal": 5805,
      "ksandr": 5806,
      "ĠPetersburg": 5807,
      "sa": 5808,
      "ĠSud": 5809,
      "Ġ600": 5810,
      "Ġtests": 5811,
      "Ġhotel": 5812,
      "elled": 5813,
      "Ġacting": 5814,
      "ancellor": 5815,
      "32": 5816,
      "ĠMin": 5817,
      "elling": 5818,
      "Ġextent": 5819,
      "Ġguard": 5820,
      "Ġwriting": 5821,
      "Ġjudge": 5822,
      "Ġconcerns": 5823,
      "Ġlawyers": 5824,
      "ĠTaliban": 5825,
      "Ġfort": 5826,
      "Ġexcessive": 5827,
      "iful": 5828,
      "Ġunlike": 5829,
      "Ġintend": 5830,
      "Ġ48": 5831,
      "Ġtransit": 5832,
      "ĠYemen": 5833,
      "Ġcorpor": 5834,
      "ĠAziz": 5835,
      "Ġcrashed": 5836,
      "Ġpropaganda": 5837,
      "uto": 5838,
      "Ġstor": 5839,
      "ĠBob": 5840,
      "ĠHigh": 5841,
      "ĠUzbeks": 5842,
      "Ġinters": 5843,
      "Ġtalks": 5844,
      "Ġmandatory": 5845,
      "za": 5846,
      "Ġdeterior": 5847,
      "ĠMain": 5848,
      "Ġresign": 5849,
      "Ġadvertising": 5850,
      "Ġfemale": 5851,
      "Ġfly": 5852,
      "Ġupcoming": 5853,
      "Ġtraged": 5854,
      "Ġmemor": 5855,
      "tenberg": 5856,
      "Ġavoid": 5857,
      "Ġrich": 5858,
      "gar": 5859,
      "arations": 5860,
      "ĠCzech": 5861,
      "Ġneither": 5862,
      "Ġcomply": 5863,
      "Ġmechanisms": 5864,
      "Ġmurder": 5865,
      "ita": 5866,
      "ĠTour": 5867,
      "ĠJam": 5868,
      "Ġinjury": 5869,
      "Ġcategories": 5870,
      "Ġrockets": 5871,
      "Ġlanding": 5872,
      "ĠTheir": 5873,
      "ription": 5874,
      "Ġsex": 5875,
      "Ġchain": 5876,
      "Ġ39": 5877,
      "Ġserves": 5878,
      "Ġcitizenship": 5879,
      "Ġtickets": 5880,
      "inter": 5881,
      "Ġefficient": 5882,
      "Ġunderstanding": 5883,
      "Ġgross": 5884,
      "Ġpersonally": 5885,
      "Ġfines": 5886,
      "Ġauth": 5887,
      "Ġsignificance": 5888,
      "Ġimproved": 5889,
      "Ġprofession": 5890,
      "Ġburned": 5891,
      "Ġwestern": 5892,
      "Ġhospitals": 5893,
      "Ġcapture": 5894,
      "Ġpilots": 5895,
      "Ġtruck": 5896,
      "Ġkindergarten": 5897,
      "ĠEcology": 5898,
      "range": 5899,
      "ani": 5900,
      "itiz": 5901,
      "istry": 5902,
      "ĠBul": 5903,
      "Ġnewly": 5904,
      "Ġcoron": 5905,
      "Ġparliamentary": 5906,
      "Ġjudicial": 5907,
      "bezz": 5908,
      "chiq": 5909,
      "Ġintensifying": 5910,
      "Ġguarantee": 5911,
      "Ġrefugees": 5912,
      "Dunyo": 5913,
      "Manchester": 5914,
      "Ġwat": 5915,
      "Ġmalf": 5916,
      "ĠTerm": 5917,
      "ĠCE": 5918,
      "ĠChildren": 5919,
      "Ġclaims": 5920,
      "Ġdivided": 5921,
      "Ġways": 5922,
      "ĠFace": 5923,
      "Ġgovernments": 5924,
      "Ġrisks": 5925,
      "Ġreplace": 5926,
      "But": 5927,
      "Ġtree": 5928,
      "racted": 5929,
      "Ġpresidency": 5930,
      "ĠYak": 5931,
      "Ġprocessing": 5932,
      "Ġaddressed": 5933,
      "Ġcanceled": 5934,
      "rozen": 5935,
      "34": 5936,
      "issance": 5937,
      "ĠNews": 5938,
      "Ġsubjected": 5939,
      "ĠMax": 5940,
      "ĠCN": 5941,
      "ĠDuma": 5942,
      "Ġprinciple": 5943,
      "!\"": 5944,
      "ora": 5945,
      "oltenberg": 5946,
      "ĠSm": 5947,
      "tery": 5948,
      "cently": 5949,
      "ĠYear": 5950,
      "Ġdropped": 5951,
      "ĠYunus": 5952,
      "prom": 5953,
      "Ġnorms": 5954,
      "oli": 5955,
      "ĠMor": 5956,
      "ĠBas": 5957,
      "ansion": 5958,
      "Ġscoring": 5959,
      "Ġweapon": 5960,
      "ĠTurkic": 5961,
      "Ġpreventing": 5962,
      "Ġsustain": 5963,
      "di": 5964,
      "wise": 5965,
      "rown": 5966,
      "Ġseek": 5967,
      "ĠStoltenberg": 5968,
      "ressed": 5969,
      "Ġmedals": 5970,
      "Ġdemocracy": 5971,
      "Ġcreation": 5972,
      "Ġminimum": 5973,
      "ĠIndian": 5974,
      "Ġvoters": 5975,
      "Ġattempting": 5976,
      "New": 5977,
      "ont": 5978,
      "ĠSlov": 5979,
      "antic": 5980,
      "Ġkid": 5981,
      "Ġpresentation": 5982,
      "Ġmistakes": 5983,
      "ĠManagement": 5984,
      "Ġstorage": 5985,
      "ĠCO": 5986,
      "abek": 5987,
      "Ġunm": 5988,
      "Ġincidents": 5989,
      "Ġscholars": 5990,
      "ĠGenerally": 5991,
      "ken": 5992,
      "Ġcra": 5993,
      "Ġfrozen": 5994,
      "Ġbab": 5995,
      "Ġallowing": 5996,
      "Ġposs": 5997,
      "ĠVik": 5998,
      "Ġindicate": 5999,
      "ĠEspecially": 6000,
      "ovka": 6001,
      "Ġpromising": 6002,
      "Ġhappy": 6003,
      "mbuds": 6004,
      "neft": 6005,
      "Ġchoice": 6006,
      "asures": 6007,
      "eless": 6008,
      "Ġund": 6009,
      "ĠWell": 6010,
      "ologists": 6011,
      "Ġraising": 6012,
      "Ġdesert": 6013,
      "Ġhelped": 6014,
      "Ġcollap": 6015,
      "Ġtrucks": 6016,
      "Ġmanufacturers": 6017,
      "Ġintegrity": 6018,
      "ĠLithuania": 6019,
      "Ad": 6020,
      "Our": 6021,
      "rah": 6022,
      "ĠSoon": 6023,
      "ipov": 6024,
      "Ġtraditional": 6025,
      "Ġexpend": 6026,
      "Ġnamely": 6027,
      "Ġperformed": 6028,
      "Ġengineering": 6029,
      "Ġcovering": 6030,
      "Ġabsolutely": 6031,
      "ÃµrÇ§on": 6032,
      "ĠChelsea": 6033,
      "ĠIncluding": 6034,
      "Ġimag": 6035,
      "Ġannounce": 6036,
      "Ġsoil": 6037,
      "Ġrestaur": 6038,
      "Ġviolated": 6039,
      "idden": 6040,
      "ĠBeeline": 6041,
      "Ġmechanism": 6042,
      "Ġauthors": 6043,
      "70": 6044,
      "ĠÃķ": 6045,
      "Ġauction": 6046,
      "Ġintense": 6047,
      "Ġ46": 6048,
      "Ġsigning": 6049,
      "comm": 6050,
      "Ġslow": 6051,
      "Ġdisclosed": 6052,
      "asc": 6053,
      "ĠFurther": 6054,
      "Ġarise": 6055,
      "Ġresulted": 6056,
      "Ġrestore": 6057,
      "Ġtransferring": 6058,
      "unications": 6059,
      "Ġregister": 6060,
      "Ġconstitutes": 6061,
      "ĠConstruction": 6062,
      "ĠDemocratic": 6063,
      "itzerland": 6064,
      "US": 6065,
      "Ġbon": 6066,
      "Ġgrade": 6067,
      "Ġconstitutional": 6068,
      "Ġpatient": 6069,
      "Ġfavorable": 6070,
      "HO": 6071,
      "Ġwounded": 6072,
      "ingly": 6073,
      "Ġhor": 6074,
      "Ġrelying": 6075,
      "unding": 6076,
      "Ġsitting": 6077,
      "hess": 6078,
      "ĠMusk": 6079,
      "Ġprestigious": 6080,
      "auc": 6081,
      "loc": 6082,
      "ĠMel": 6083,
      "Ġincor": 6084,
      "ĠRepublicans": 6085,
      "Ars": 6086,
      "Kar": 6087,
      "etition": 6088,
      "ĠCher": 6089,
      "ĠKim": 6090,
      "ĠNag": 6091,
      "ruck": 6092,
      "avirus": 6093,
      "ĠAng": 6094,
      "Ġoccasion": 6095,
      "Ġfinished": 6096,
      "Ġturnover": 6097,
      "Ġinstitute": 6098,
      "Ġportion": 6099,
      "Ġconclusions": 6100,
      "Ġdetailed": 6101,
      "Ġescalation": 6102,
      "Ġacknowled": 6103,
      "iter": 6104,
      "Ġmines": 6105,
      "Ġ120": 6106,
      "Ġdecis": 6107,
      "actions": 6108,
      "Ġapartments": 6109,
      "ĠArmenian": 6110,
      "Ġclasses": 6111,
      "Ġmaintaining": 6112,
      "Ġsurvey": 6113,
      "ĠMunich": 6114,
      "Ġbeautiful": 6115,
      "Ġexpendit": 6116,
      "sun": 6117,
      "ounds": 6118,
      "Ġ56": 6119,
      "inka": 6120,
      "ĠSpace": 6121,
      "ĠRespon": 6122,
      "Ġcircumstances": 6123,
      "ĠMotors": 6124,
      "ĠDnipro": 6125,
      "che": 6126,
      "Ġmas": 6127,
      "Ġkill": 6128,
      "Ġdepart": 6129,
      "Ġremember": 6130,
      "ĠScient": 6131,
      "ĠIndeed": 6132,
      "Ġisland": 6133,
      "aker": 6134,
      "Ġaccur": 6135,
      "Ġexpansion": 6136,
      "Ġowned": 6137,
      "Ġappeals": 6138,
      "Ġpaper": 6139,
      "ĠAustral": 6140,
      "Ġanalysts": 6141,
      "ĠExperts": 6142,
      "Ġtort": 6143,
      "Ġaro": 6144,
      "Ġmer": 6145,
      "ĠOther": 6146,
      "Ġscientist": 6147,
      "Ġlegislative": 6148,
      "Ġmedicines": 6149,
      "mbudsman": 6150,
      "Ar": 6151,
      "la": 6152,
      "int": 6153,
      "Ġmus": 6154,
      "Ġstages": 6155,
      "employ": 6156,
      "ĠJÃµ": 6157,
      "ogical": 6158,
      "ĠChampionship": 6159,
      "Ġaccusations": 6160,
      "Ġdissatisfaction": 6161,
      "ĠAgriculture": 6162,
      "ba": 6163,
      "iant": 6164,
      "load": 6165,
      "Ġstorm": 6166,
      "apore": 6167,
      "Ġembezz": 6168,
      "Ġcoast": 6169,
      "ĠDonbass": 6170,
      "ĠSwitzerland": 6171,
      "Ġanimals": 6172,
      "ottenham": 6173,
      "Ġsovereignty": 6174,
      "ĠPortug": 6175,
      "uls": 6176,
      "ĠDil": 6177,
      "ĠWagner": 6178,
      "Ġassistant": 6179,
      "Ġsole": 6180,
      "ĠBelg": 6181,
      "PR": 6182,
      "Ġintensify": 6183,
      "Ġfulfill": 6184,
      "var": 6185,
      "Ġfast": 6186,
      "Ġ1000": 6187,
      "ĠLabor": 6188,
      "Ġvoted": 6189,
      "Ġaware": 6190,
      "Ġcorrespondent": 6191,
      "Ġcompatriots": 6192,
      "itizens": 6193,
      "Ġcoronavirus": 6194,
      "fire": 6195,
      "vili": 6196,
      "Ġusual": 6197,
      "ĠZelenskiy": 6198,
      "Ġcertificates": 6199,
      "ĠScholz": 6200,
      "Ġpen": 6201,
      "Ġfake": 6202,
      "ĠMikh": 6203,
      "aming": 6204,
      "Ġhelping": 6205,
      "Ġposted": 6206,
      "Ġassessment": 6207,
      "Ġperspective": 6208,
      "Arsenal": 6209,
      "uit": 6210,
      "Ġcrop": 6211,
      "Ġstands": 6212,
      "ayy": 6213,
      "ĠPes": 6214,
      "Ġseats": 6215,
      "Ġcharged": 6216,
      "Ġsuspect": 6217,
      "Ġvacation": 6218,
      "Ġdisplay": 6219,
      "oes": 6220,
      "ĠSever": 6221,
      "ĠCulture": 6222,
      "Ġtrading": 6223,
      "Ġvillages": 6224,
      "ĠAirways": 6225,
      "Ġticket": 6226,
      "Ġshopping": 6227,
      "As": 6228,
      "Ġsize": 6229,
      "Ġduration": 6230,
      "ĠSu": 6231,
      "ĠSher": 6232,
      "abil": 6233,
      "Ġunch": 6234,
      "Ġcompon": 6235,
      "anges": 6236,
      "Ġmining": 6237,
      "Ġprivat": 6238,
      "Ġfifth": 6239,
      "ĠViktor": 6240,
      "Ph": 6241,
      "rete": 6242,
      "level": 6243,
      "usiness": 6244,
      "ĠJah": 6245,
      "ĠUzbekistanis": 6246,
      "Ġdiscussing": 6247,
      "Ġcorner": 6248,
      "ukus": 6249,
      "Ġ2008": 6250,
      "ĠKarimov": 6251,
      "Ġachievements": 6252,
      "ivalent": 6253,
      "Ġoptions": 6254,
      "Ġtactical": 6255,
      "Ġirrig": 6256,
      "Ġcollapse": 6257,
      "ĠFurthermore": 6258,
      "houses": 6259,
      "pay": 6260,
      "ĠTem": 6261,
      "oples": 6262,
      "ĠBoth": 6263,
      "iva": 6264,
      "Ġ47": 6265,
      "Ġraw": 6266,
      "ĠRecently": 6267,
      "Ġsurg": 6268,
      "ĠScience": 6269,
      "Ġexceeds": 6270,
      "Ġafra": 6271,
      "itect": 6272,
      "ĠNov": 6273,
      "Ġdeclaration": 6274,
      "Ġcalculated": 6275,
      "Ġsexual": 6276,
      "Ġafraid": 6277,
      "Ġast": 6278,
      "Ġsleep": 6279,
      "Ġtom": 6280,
      "ĠMet": 6281,
      "ĠMart": 6282,
      "ricted": 6283,
      "Ġarrival": 6284,
      "Ġcontrolled": 6285,
      "ĠPolicy": 6286,
      "ommod": 6287,
      "Ġmobilization": 6288,
      "ĠIntelligence": 6289,
      "ĠCar": 6290,
      "ĠRiver": 6291,
      "ĠDistrict": 6292,
      "Ġemphasize": 6293,
      "Ġreservoir": 6294,
      "ĠMikhail": 6295,
      "wing": 6296,
      "ĠHas": 6297,
      "ples": 6298,
      "Ġcool": 6299,
      "Ġestate": 6300,
      "Ġjudges": 6301,
      "Ġdisappeared": 6302,
      "Ġruins": 6303,
      "Ġunmanned": 6304,
      "bod": 6305,
      "gn": 6306,
      "mark": 6307,
      "senal": 6308,
      "ĠKur": 6309,
      "Ġrestored": 6310,
      "ĠSuper": 6311,
      "Ġwidely": 6312,
      "Ġconstantly": 6313,
      "gers": 6314,
      "asant": 6315,
      "agues": 6316,
      "Ġprem": 6317,
      "Ġsoft": 6318,
      "2024": 6319,
      "ĠLeban": 6320,
      "Ġidentify": 6321,
      "Ġvolunt": 6322,
      "edding": 6323,
      "ĠPen": 6324,
      "ĠEston": 6325,
      "udden": 6326,
      "Ġdecline": 6327,
      "Ġconserv": 6328,
      "Ġ49": 6329,
      "Ġfriendly": 6330,
      "Ġclassified": 6331,
      "ĠPeskov": 6332,
      "AN": 6333,
      "Ġclause": 6334,
      "Ġrounds": 6335,
      "Ġentrepreneurship": 6336,
      "Ġrunning": 6337,
      "Ġtragedy": 6338,
      "grim": 6339,
      "ĠPower": 6340,
      "aces": 6341,
      "ordinary": 6342,
      "Ġcancel": 6343,
      "ĠChief": 6344,
      "Ġinsult": 6345,
      "Ġdeficit": 6346,
      "Ġtomorrow": 6347,
      "uÇ§": 6348,
      "heast": 6349,
      "Ġnav": 6350,
      "otic": 6351,
      "siy": 6352,
      "ĠJord": 6353,
      "asters": 6354,
      "Ġspouse": 6355,
      "Ġmemory": 6356,
      "Ġcheap": 6357,
      "Ġhospitalized": 6358,
      "Ġcloser": 6359,
      "ĠSingapore": 6360,
      "uers": 6361,
      "alin": 6362,
      "Ġthor": 6363,
      "lets": 6364,
      "ĠAli": 6365,
      "Ġgained": 6366,
      "amin": 6367,
      "ĠEmb": 6368,
      "Ġincom": 6369,
      "ormit": 6370,
      "Ġbelow": 6371,
      "Ġfundamental": 6372,
      "isi": 6373,
      "rounding": 6374,
      "igital": 6375,
      "ĠInnov": 6376,
      "andarya": 6377,
      "Ġusually": 6378,
      "Ġrob": 6379,
      "Ġsignal": 6380,
      "Ġfinally": 6381,
      "Ġsurrounding": 6382,
      "Ġdiagn": 6383,
      "Ġawa": 6384,
      "Ġdefinite": 6385,
      "encing": 6386,
      "Ġsudden": 6387,
      "Ġgives": 6388,
      "ĠInte": 6389,
      "ĠChancellor": 6390,
      "Ġwarrant": 6391,
      "Ġaccommod": 6392,
      "ĠQodirov": 6393,
      "Ġaccounts": 6394,
      "ĠSurkh": 6395,
      "arshi": 6396,
      "ĠFacebook": 6397,
      "orov": 6398,
      "arq": 6399,
      "Ġdog": 6400,
      "ĠMex": 6401,
      "osen": 6402,
      "ollah": 6403,
      "Ġequivalent": 6404,
      "rovers": 6405,
      "Ġpreventive": 6406,
      "ĠInstagram": 6407,
      "ĠFirstly": 6408,
      "Ġcameras": 6409,
      "Ġpedestrian": 6410,
      "Ġunchanged": 6411,
      "lantic": 6412,
      "imb": 6413,
      "Ġwhite": 6414,
      "umb": 6415,
      "ĠUnder": 6416,
      "Ġ57": 6417,
      "ĠYouth": 6418,
      "Ġstopping": 6419,
      "Ġseeing": 6420,
      "Ġsymbol": 6421,
      "ĠCNN": 6422,
      "brid": 6423,
      "xÃµjayev": 6424,
      "Ġtri": 6425,
      "Ġextend": 6426,
      "naissance": 6427,
      "After": 6428,
      "lines": 6429,
      "Ġdormit": 6430,
      "rible": 6431,
      "Ġteen": 6432,
      "Ġapproached": 6433,
      "Ġcertainly": 6434,
      "ĠFinancial": 6435,
      "Ġlearned": 6436,
      "Ġfamiliar": 6437,
      "Ġrecommendations": 6438,
      "Ġmosque": 6439,
      "Ġreferee": 6440,
      "rust": 6441,
      "tiyor": 6442,
      "onom": 6443,
      "Ġchair": 6444,
      "ĠYes": 6445,
      "obile": 6446,
      "Ġinspect": 6447,
      "Ġtraveling": 6448,
      "Ġsupplies": 6449,
      "ĠKamoliddin": 6450,
      "Ġsatellite": 6451,
      "55": 6452,
      "ga": 6453,
      "Ġment": 6454,
      "Ġstruck": 6455,
      "andum": 6456,
      "ifies": 6457,
      "Ġdisabilities": 6458,
      "Ġ42": 6459,
      "ĠYe": 6460,
      "Ġreput": 6461,
      "Ġraise": 6462,
      "Ġbodily": 6463,
      "Ġcompliance": 6464,
      "Ġpromotion": 6465,
      "ĠUzAuto": 6466,
      "Ġforms": 6467,
      "ĠMaj": 6468,
      "ĠRon": 6469,
      "ĠBund": 6470,
      "ĠNukus": 6471,
      "ĠChar": 6472,
      "Ġcourses": 6473,
      "Ġ2010": 6474,
      "Ġfined": 6475,
      "Ġrestricted": 6476,
      "Ġwrite": 6477,
      "Ġthoughts": 6478,
      "Ġrequirement": 6479,
      "Ġexecuted": 6480,
      "anoat": 6481,
      "My": 6482,
      "ĠCy": 6483,
      "Ġmanaging": 6484,
      "Ġhelps": 6485,
      "Ġperformance": 6486,
      "Ġacceler": 6487,
      "Ġpieces": 6488,
      "Ġthorough": 6489,
      "Ġfer": 6490,
      "istor": 6491,
      "ĠSun": 6492,
      "ĠMak": 6493,
      "Ġexcl": 6494,
      "Ġagent": 6495,
      "Ġchance": 6496,
      "Ġscreen": 6497,
      "Ġpilgrim": 6498,
      "Ġmonitor": 6499,
      "Ġinnovative": 6500,
      "ĠTourism": 6501,
      "36": 6502,
      "Ġinqu": 6503,
      "ilon": 6504,
      "irt": 6505,
      "ĠBud": 6506,
      "ĠStr": 6507,
      "Ġaccum": 6508,
      "Ġconsumer": 6509,
      "Ġconcer": 6510,
      "Ġspacecraft": 6511,
      "Ġabsence": 6512,
      "Ġmercenaries": 6513,
      "ĠLatvia": 6514,
      "ĠAI": 6515,
      "idering": 6516,
      "istical": 6517,
      "ĠDel": 6518,
      "rick": 6519,
      "oyal": 6520,
      "Ġexpense": 6521,
      "Ġsimpl": 6522,
      "Ġunderstood": 6523,
      "Ġancient": 6524,
      "ĠSurkhandarya": 6525,
      "ros": 6526,
      "Ġhall": 6527,
      "ĠCustom": 6528,
      "akov": 6529,
      "agers": 6530,
      "Ġselected": 6531,
      "Ġunion": 6532,
      "ĠChrist": 6533,
      "Ġvalu": 6534,
      "Ġearthquakes": 6535,
      "Ġexplosions": 6536,
      "Ġfilling": 6537,
      "ĠAT": 6538,
      "rians": 6539,
      "Ġboil": 6540,
      "Ġseemed": 6541,
      "ĠNikol": 6542,
      "Tube": 6543,
      "Ġvoice": 6544,
      "Ġresistance": 6545,
      "Ġcontrovers": 6546,
      "Ġdatab": 6547,
      "Ġfalls": 6548,
      "ĠUluÇ§": 6549,
      "ĠAM": 6550,
      "Ġherit": 6551,
      "ifts": 6552,
      "Ġleak": 6553,
      "Ġreloc": 6554,
      "Ġrapidly": 6555,
      "Ġpicture": 6556,
      "ĠDmitry": 6557,
      "Ġethnic": 6558,
      "Ġheritage": 6559,
      "Nav": 6560,
      "da": 6561,
      "hran": 6562,
      "zb": 6563,
      "ĠSSR": 6564,
      "ĠMb": 6565,
      "Ġunus": 6566,
      "ĠOb": 6567,
      "ongir": 6568,
      "...-": 6569,
      "ength": 6570,
      "Ġresearc": 6571,
      "Ġevacuated": 6572,
      "998": 6573,
      "ĠCEO": 6574,
      "Karabakh": 6575,
      "vironment": 6576,
      "xon": 6577,
      "Ġpassport": 6578,
      "Ġprogress": 6579,
      "Ġsmartphone": 6580,
      "OR": 6581,
      "Ġdrop": 6582,
      "ĠHa": 6583,
      "ĠHPP": 6584,
      "Ġchosen": 6585,
      "Ġranging": 6586,
      "Ġdoor": 6587,
      "Ġelevator": 6588,
      "Ġenvisaged": 6589,
      "zing": 6590,
      "Ġwedding": 6591,
      "Ġbra": 6592,
      "Ġmilit": 6593,
      "ĠHer": 6594,
      "Ġhumanity": 6595,
      "ĠTehran": 6596,
      "Ġ250": 6597,
      "orno": 6598,
      "Ġexplanation": 6599,
      "ĠJordan": 6600,
      "anium": 6601,
      "Ġexting": 6602,
      "Ġinvestigations": 6603,
      "Ġ2006": 6604,
      "Ġstrengthened": 6605,
      "Ġterrorism": 6606,
      "Ġprosper": 6607,
      "Ġextingu": 6608,
      "ishes": 6609,
      "essi": 6610,
      "ima": 6611,
      "acted": 6612,
      "fect": 6613,
      "kara": 6614,
      "ming": 6615,
      "ingu": 6616,
      "ala": 6617,
      "ĠPR": 6618,
      "ĠHar": 6619,
      "Ġcontext": 6620,
      "Ġoperates": 6621,
      "Ġsometimes": 6622,
      "Ġfigures": 6623,
      "Ġcomplaints": 6624,
      "Ġatmosphere": 6625,
      "Ġtun": 6626,
      "Ġwish": 6627,
      "Ġrein": 6628,
      "ĠTosh": 6629,
      "ĠDam": 6630,
      "Ġvacc": 6631,
      "ĠJos": 6632,
      "Ġpartially": 6633,
      "Ġoffices": 6634,
      "Ġdealers": 6635,
      "Ġproceedings": 6636,
      "Ġcas": 6637,
      "Ġlength": 6638,
      "Ġgun": 6639,
      "Ġveget": 6640,
      "Ġapplicant": 6641,
      "Ġpurchases": 6642,
      "Med": 6643,
      "iets": 6644,
      "Ġcult": 6645,
      "Ġtown": 6646,
      "ĠRober": 6647,
      "Ġimages": 6648,
      "Ġservic": 6649,
      "Ġknows": 6650,
      "ĠEnt": 6651,
      "castle": 6652,
      "Ġradio": 6653,
      "Ġencourage": 6654,
      "gin": 6655,
      "rely": 6656,
      "orruption": 6657,
      "ĠLiverpool": 6658,
      "ailed": 6659,
      "Ġauthorized": 6660,
      "Ġsetting": 6661,
      "Ġfacility": 6662,
      "Ġhostages": 6663,
      "ĠSoviets": 6664,
      "ĠYouTube": 6665,
      "Ġfiled": 6666,
      "ĠInvestig": 6667,
      "Ġpipeline": 6668,
      "Ġobstac": 6669,
      "ĠSirdaryo": 6670,
      "Ġabolished": 6671,
      "ĠJahongir": 6672,
      "va": 6673,
      "etary": 6674,
      "ashin": 6675,
      "Ġcommun": 6676,
      "ĠEmploy": 6677,
      "Ġmotor": 6678,
      "Ġmagnitude": 6679,
      "ĠNagorno": 6680,
      "300": 6681,
      "aper": 6682,
      "hol": 6683,
      "omet": 6684,
      "othes": 6685,
      "Ġtrad": 6686,
      "Ġcolon": 6687,
      "Ġconnections": 6688,
      "ĠSecondly": 6689,
      "ĠAbdurahmon": 6690,
      "Ġappointment": 6691,
      "Ġdecisive": 6692,
      "ael": 6693,
      "Ġriv": 6694,
      "ĠSaint": 6695,
      "ĠPed": 6696,
      "Ġourselves": 6697,
      "Ġretail": 6698,
      "Ġaims": 6699,
      "Ġtruly": 6700,
      "Ġharmful": 6701,
      "ĠEmir": 6702,
      "ĠOfficials": 6703,
      "Ġreputation": 6704,
      "Ġbag": 6705,
      "add": 6706,
      "Ġpeoples": 6707,
      "Ġspreading": 6708,
      "Ġpromoting": 6709,
      "Ġblogger": 6710,
      "ĠNiger": 6711,
      "ĠSeveral": 6712,
      "Ġforget": 6713,
      "ĠUch": 6714,
      "ĠGe": 6715,
      "Ġcomputer": 6716,
      "ĠAnkara": 6717,
      "Ġintroduction": 6718,
      "Ġclosely": 6719,
      "Ġprotected": 6720,
      "ĠAzerbaijani": 6721,
      "Ġfarming": 6722,
      "Ġsilk": 6723,
      "ĠDirectorate": 6724,
      "\":": 6725,
      "ias": 6726,
      "Ġleague": 6727,
      "ĠThree": 6728,
      "ĠAdvert": 6729,
      "Ġapart": 6730,
      "Ġmissing": 6731,
      "Ġconcrete": 6732,
      "Ġdigest": 6733,
      "Ġflew": 6734,
      "Ġarose": 6735,
      "cap": 6736,
      "human": 6737,
      "work": 6738,
      "inery": 6739,
      "rog": 6740,
      "using": 6741,
      "ĠChir": 6742,
      "wered": 6743,
      "Ġoffensive": 6744,
      "ĠPolice": 6745,
      "Ġletters": 6746,
      "ĠCompany": 6747,
      "Ġdelayed": 6748,
      "lis": 6749,
      "arity": 6750,
      "Ġcongest": 6751,
      "ĠRust": 6752,
      "ĠDan": 6753,
      "Ġbuying": 6754,
      "Ġcollaps": 6755,
      "Ġexceeding": 6756,
      "Ġburning": 6757,
      "ĠDavid": 6758,
      "ES": 6759,
      "pir": 6760,
      "Ġnar": 6761,
      "state": 6762,
      "ĠBR": 6763,
      "ĠBar": 6764,
      "Ġnotice": 6765,
      "ĠDub": 6766,
      "Ġdoors": 6767,
      "Ġprovin": 6768,
      "Ġmaintained": 6769,
      "Ġtourist": 6770,
      "Ġregardless": 6771,
      "Ġannexed": 6772,
      "\")": 6773,
      "ĠRail": 6774,
      "ĠBureau": 6775,
      "ema": 6776,
      "umed": 6777,
      "ĠWater": 6778,
      "Ġ2026": 6779,
      "Ġmovie": 6780,
      "ĠAirport": 6781,
      "locut": 6782,
      "yev": 6783,
      "Ġnarc": 6784,
      "urb": 6785,
      "Ġ700": 6786,
      "ĠShay": 6787,
      "Ġmanage": 6788,
      "ĠEnvironment": 6789,
      "Ġencount": 6790,
      "Ġcrash": 6791,
      "Ġcluster": 6792,
      "ĠMbappe": 6793,
      "rell": 6794,
      "Ġtransl": 6795,
      "Ġtransmission": 6796,
      "Ġterrible": 6797,
      "Ġinterlocut": 6798,
      "ribe": 6799,
      "ĠAbdul": 6800,
      "ĠConsidering": 6801,
      "Ġrepeatedly": 6802,
      "Ġcoup": 6803,
      "Barcelona": 6804,
      "EC": 6805,
      "Ġcreat": 6806,
      "ĠRabb": 6807,
      "ĠPr": 6808,
      "rence": 6809,
      "ĠkWh": 6810,
      "ÃµÇ§": 6811,
      "Ġoccupation": 6812,
      "Ġanalyzed": 6813,
      "Ġaccomp": 6814,
      "Ġstruggle": 6815,
      "neftgaz": 6816,
      "Ġdefinitely": 6817,
      "aired": 6818,
      "Ġlineup": 6819,
      "ĠBoris": 6820,
      "ography": 6821,
      "Ġrenewable": 6822,
      "Ġreplaced": 6823,
      "Ġwonderful": 6824,
      "ilonzor": 6825,
      "Le": 6826,
      "chenko": 6827,
      "ĠKok": 6828,
      "ĠGDP": 6829,
      "Ġtechnological": 6830,
      "Ġwindow": 6831,
      "Ġfarmer": 6832,
      "Ġsubstance": 6833,
      "Ġcarriers": 6834,
      "Ġcode": 6835,
      "Ġpages": 6836,
      "ĠMam": 6837,
      "ĠPost": 6838,
      "overs": 6839,
      "ĠGen": 6840,
      "merce": 6841,
      "manov": 6842,
      "Ġreconstruction": 6843,
      "Ġcondemned": 6844,
      "ĠHouthis": 6845,
      "free": 6846,
      "pol": 6847,
      "yond": 6848,
      "Ġdies": 6849,
      "agogical": 6850,
      "ĠHol": 6851,
      "Ġpreschool": 6852,
      "Ġmedium": 6853,
      "Ġ2013": 6854,
      "Ġbusinesses": 6855,
      "Ġpeaceful": 6856,
      "Ġ1990": 6857,
      "Ġ1991": 6858,
      "Ġqualified": 6859,
      "Ġaggressive": 6860,
      "foreign": 6861,
      "ĠUnfortunately": 6862,
      "ĠAmbassador": 6863,
      "insula": 6864,
      "Ġwalk": 6865,
      "ĠRabbimov": 6866,
      "Ġtouch": 6867,
      "abad": 6868,
      "ĠWall": 6869,
      "ellow": 6870,
      "Ġexchanged": 6871,
      "Ġbiggest": 6872,
      "Ġparking": 6873,
      "Ġarchitect": 6874,
      "ĠEmbassy": 6875,
      "Ġcasual": 6876,
      "Ġfires": 6877,
      "Ġmood": 6878,
      "estock": 6879,
      "ivestock": 6880,
      "Ġadmit": 6881,
      "cycl": 6882,
      "Ġairports": 6883,
      "Ġtopics": 6884,
      "Ġswitch": 6885,
      "ĠMuslims": 6886,
      "Ġexpenditures": 6887,
      "fess": 6888,
      "ware": 6889,
      "Ġports": 6890,
      "ady": 6891,
      "osite": 6892,
      "ĠBudget": 6893,
      "ĠElectric": 6894,
      "Ġhighway": 6895,
      "Ġeconomist": 6896,
      "Ġcreative": 6897,
      "Ġdamages": 6898,
      "Ġtender": 6899,
      "Ġuranium": 6900,
      "ĠBaku": 6901,
      "grade": 6902,
      "ĠOtabek": 6903,
      "takor": 6904,
      "Ġacknowledged": 6905,
      "aire": 6906,
      "Ġprime": 6907,
      "icip": 6908,
      "Ġmag": 6909,
      "Ġbeyond": 6910,
      "unk": 6911,
      "ĠPet": 6912,
      "Ġapplying": 6913,
      "ĠPreschool": 6914,
      "Ġassault": 6915,
      "ĠAral": 6916,
      "Ġlasted": 6917,
      "Ġ2012": 6918,
      "Ġdecreasing": 6919,
      "Ġforemost": 6920,
      "Ġexported": 6921,
      "ĠGovern": 6922,
      "Ġclarified": 6923,
      "Ġkindergartens": 6924,
      "Ġsuddenly": 6925,
      "Ġconcerning": 6926,
      "Ġvaluable": 6927,
      "overy": 6928,
      "yen": 6929,
      "asury": 6930,
      "Ġdie": 6931,
      "oved": 6932,
      "Ġforeigners": 6933,
      "Ġlaboratory": 6934,
      "Ġescape": 6935,
      "Ġcollecting": 6936,
      "Ġreconnaissance": 6937,
      "Ġknew": 6938,
      "enter": 6939,
      "ĠMessi": 6940,
      "ĠPri": 6941,
      "ĠBa": 6942,
      "Ġenhan": 6943,
      "Ġsuitable": 6944,
      "Ġroof": 6945,
      "issions": 6946,
      "Ġspare": 6947,
      "Ġblow": 6948,
      "Ġsubsequ": 6949,
      "Ġwindows": 6950,
      "othing": 6951,
      "Ġexpressing": 6952,
      "Ġadoption": 6953,
      "useum": 6954,
      "bors": 6955,
      "Ġbread": 6956,
      "ayot": 6957,
      "ulating": 6958,
      "emb": 6959,
      "ĠWomen": 6960,
      "Ġpasses": 6961,
      "Ġmatters": 6962,
      "Ġensured": 6963,
      "ĠPolit": 6964,
      "Ġgraduates": 6965,
      "Ġcasualties": 6966,
      "Ġhun": 6967,
      "iled": 6968,
      "Ġheight": 6969,
      "Ġdistributing": 6970,
      "Ġprotesters": 6971,
      "ĠFarhod": 6972,
      "Ġhelicopters": 6973,
      "Ġsuperior": 6974,
      "Ġsustainable": 6975,
      "ED": 6976,
      "tical": 6977,
      "ĠRos": 6978,
      "ĠAnti": 6979,
      "lik": 6980,
      "ĠRece": 6981,
      "Ġbanking": 6982,
      "Ġranked": 6983,
      "Ġsatisfied": 6984,
      "ĠZaluzhnyi": 6985,
      "ĠResponsibility": 6986,
      "Ġcomponents": 6987,
      "Chelsea": 6988,
      "inks": 6989,
      "Ġcry": 6990,
      "Ġstyle": 6991,
      "ĠWars": 6992,
      "Ġwors": 6993,
      "Ġimpose": 6994,
      "Ġ800": 6995,
      "isement": 6996,
      "Ġinstallation": 6997,
      "Ġguaranteed": 6998,
      "Ġillness": 6999,
      "Ġscenario": 7000,
      "Ġpal": 7001,
      "ĠDigital": 7002,
      "Ġ($": 7003,
      "Ġdepends": 7004,
      "Ġpolic": 7005,
      "Ġinvestigated": 7006,
      "Ġmultip": 7007,
      "Ġpunished": 7008,
      "ĠGeorgian": 7009,
      "Ġstrictly": 7010,
      "ĠMajlis": 7011,
      "iate": 7012,
      "ki": 7013,
      "Ġsister": 7014,
      "usive": 7015,
      "abot": 7016,
      "ĠGra": 7017,
      "cedented": 7018,
      "Ġpresc": 7019,
      "Ġconsent": 7020,
      "Ġopposed": 7021,
      "Ġgrants": 7022,
      "ohol": 7023,
      "Ġfocused": 7024,
      "precedented": 7025,
      "Ġdatabase": 7026,
      "cohol": 7027,
      "hi": 7028,
      "Ġtheater": 7029,
      "roximately": 7030,
      "ĠCitizens": 7031,
      "ĠDa": 7032,
      "ĠNat": 7033,
      "Ġinfant": 7034,
      "ĠProdu": 7035,
      "Ġidentity": 7036,
      "ĠCrimean": 7037,
      "Ġcelebrated": 7038,
      "ĠiPh": 7039,
      "ĠAFP": 7040,
      "fare": 7041,
      "ĠKom": 7042,
      "Ġearn": 7043,
      "Ġevacuation": 7044,
      "Ġmachine": 7045,
      "Ġreferred": 7046,
      "Bay": 7047,
      "lar": 7048,
      "Ġign": 7049,
      "Ġmuseum": 7050,
      "ĠTom": 7051,
      "ĠOp": 7052,
      "ĠJal": 7053,
      "Ġinvad": 7054,
      "Ġcompetit": 7055,
      "Ġvalid": 7056,
      "Ġlawsuit": 7057,
      "Ġtreated": 7058,
      "ĠInterest": 7059,
      "Tur": 7060,
      "Ġarrive": 7061,
      "Ġ52": 7062,
      "ootball": 7063,
      "skaya": 7064,
      "Ġstriker": 7065,
      "ĠOliy": 7066,
      "Ġextraordinary": 7067,
      "Ġvolunteers": 7068,
      "Ġintersection": 7069,
      "Ġmemorandum": 7070,
      "ĠChery": 7071,
      "zbollah": 7072,
      "Ġtaught": 7073,
      "Ġpra": 7074,
      "Ġhidden": 7075,
      "ĠTat": 7076,
      "ĠMc": 7077,
      "Ġhear": 7078,
      "Ġplen": 7079,
      "ĠOle": 7080,
      "Ġthereby": 7081,
      "ĠPress": 7082,
      "ugg": 7083,
      "Ġcharter": 7084,
      "Ġconvin": 7085,
      "Ġemerg": 7086,
      "Ġbehalf": 7087,
      "Ġclusters": 7088,
      "Ġsubsidies": 7089,
      "ĠJosep": 7090,
      "You": 7091,
      "Ġsound": 7092,
      "aland": 7093,
      "ĠGal": 7094,
      "Ġjointly": 7095,
      "Ġcomplaint": 7096,
      "Ġanswers": 7097,
      "Ġdemonstrations": 7098,
      "Ġclaimed": 7099,
      "ĠDenmark": 7100,
      "PSG": 7101,
      "ma": 7102,
      "tt": 7103,
      "order": 7104,
      "Ġarises": 7105,
      "ĠAtlantic": 7106,
      "Ġwouldn": 7107,
      "Ġmode": 7108,
      "Ġcheaper": 7109,
      "ĠIndones": 7110,
      "Ġresolving": 7111,
      "Ġdiplomats": 7112,
      "Ġbloggers": 7113,
      "ĠAntony": 7114,
      "ĠGlobal": 7115,
      "itan": 7116,
      "ids": 7117,
      "illance": 7118,
      "ĠMountain": 7119,
      "Ġprosec": 7120,
      "sia": 7121,
      "ĠHus": 7122,
      "Ġends": 7123,
      "alleng": 7124,
      "ĠViet": 7125,
      "Ġ2011": 7126,
      "Ġoccurs": 7127,
      "Ġpreparations": 7128,
      "Ġvisitors": 7129,
      "Ġcustomer": 7130,
      "Ġdiplomacy": 7131,
      "ĠExec": 7132,
      "Ġdoubt": 7133,
      "Ġenvisages": 7134,
      "ĠTokayev": 7135,
      "Ġwarehouse": 7136,
      "ĠAustralia": 7137,
      "ĠLebanon": 7138,
      "ĠRonald": 7139,
      "fall": 7140,
      "person": 7141,
      "set": 7142,
      "ĠLa": 7143,
      "Ġdouble": 7144,
      "ĠUluÇ§bek": 7145,
      "finals": 7146,
      "Ġchess": 7147,
      "Ġbul": 7148,
      "ĠKakh": 7149,
      "Ġ54": 7150,
      "Ġthanks": 7151,
      "SCO": 7152,
      "Ġassessed": 7153,
      "Ġquoted": 7154,
      "son": 7155,
      "cell": 7156,
      "ĠMod": 7157,
      "Ġmanager": 7158,
      "Ġregistry": 7159,
      "Ġtested": 7160,
      "ĠSciences": 7161,
      "Ġperforming": 7162,
      "Ġoffering": 7163,
      "Ġtransitioning": 7164,
      "Ġclinic": 7165,
      "Ġincorrect": 7166,
      "Ġcollapsed": 7167,
      "ĠKakhovka": 7168,
      "76": 7169,
      "ĠRah": 7170,
      "Ġenh": 7171,
      "Ġimage": 7172,
      "Ġshared": 7173,
      "Ġcarbon": 7174,
      "ĠGermans": 7175,
      "Ġcompetitive": 7176,
      "Ġbattlefield": 7177,
      "ĠNorway": 7178,
      "When": 7179,
      "Ġice": 7180,
      "ena": 7181,
      "edly": 7182,
      "ĠTre": 7183,
      "uris": 7184,
      "ĠLib": 7185,
      "ĠChilonzor": 7186,
      "Ġacts": 7187,
      "Ġballistic": 7188,
      "ĠAleksandr": 7189,
      "Ġlowest": 7190,
      "How": 7191,
      "iad": 7192,
      "Ġpose": 7193,
      "ivation": 7194,
      "Ġvent": 7195,
      "essions": 7196,
      "Ġaged": 7197,
      "ĠYus": 7198,
      "Ġ71": 7199,
      "Ġ64": 7200,
      "Ġrelationships": 7201,
      "Ġyourself": 7202,
      "Ġcriteria": 7203,
      "Ġblockade": 7204,
      "Ġsurveillance": 7205,
      "Ġshelled": 7206,
      "Ġencountered": 7207,
      "ĠKokand": 7208,
      "Gaz": 7209,
      "clear": 7210,
      "lo": 7211,
      "ĠIC": 7212,
      "sey": 7213,
      "Ġclothes": 7214,
      "Ġattended": 7215,
      "Ġrace": 7216,
      "Ġextrem": 7217,
      "Ġappealed": 7218,
      "ĠMirzo": 7219,
      "ixed": 7220,
      "Ġcutting": 7221,
      "ICS": 7222,
      "Ġpedestrians": 7223,
      "ĠChirchiq": 7224,
      "rik": 7225,
      "odes": 7226,
      "ocide": 7227,
      "essa": 7228,
      "avi": 7229,
      "Ġwarfare": 7230,
      "Ġgarden": 7231,
      "ĠVietn": 7232,
      "100": 7233,
      "Ġcat": 7234,
      "Ġfees": 7235,
      "azor": 7236,
      "Ġgovernance": 7237,
      "Ġnationality": 7238,
      "Ġsoldier": 7239,
      "Ġplanted": 7240,
      "Ġmobilized": 7241,
      "Ġoptim": 7242,
      "Ġmalfunction": 7243,
      "fin": 7244,
      "Ġdyn": 7245,
      "ĠTayy": 7246,
      "ĠHague": 7247,
      "Ġundergo": 7248,
      "Ġ43": 7249,
      "ĠAsh": 7250,
      "Ġfootballers": 7251,
      "Ġstrongly": 7252,
      "Ġwait": 7253,
      "Ġbattery": 7254,
      "ĠTayyip": 7255,
      "ĠNear": 7256,
      "ĠOcean": 7257,
      "ĠLu": 7258,
      "Ġsuperv": 7259,
      "ĠVice": 7260,
      "Ġdemol": 7261,
      "Ġappears": 7262,
      "comings": 7263,
      "Ġbelongs": 7264,
      "Ġexperiences": 7265,
      "Ġrespectively": 7266,
      "Ġboys": 7267,
      "ĠMexico": 7268,
      "joy": 7269,
      "usion": 7270,
      "ĠArsenal": 7271,
      "Ġbright": 7272,
      "Ġindicating": 7273,
      "Ġcompete": 7274,
      "Ġshortcomings": 7275,
      "Ġpostpon": 7276,
      "Ġdebts": 7277,
      "Ġproperly": 7278,
      "Uzbekneftgaz": 7279,
      "jonov": 7280,
      "Ġqualification": 7281,
      "ĠPerhaps": 7282,
      "ĠEstonia": 7283,
      "Ġcongestion": 7284,
      "ĠRecep": 7285,
      "eu": 7286,
      "hr": 7287,
      "war": 7288,
      "Ġbron": 7289,
      "Ġlies": 7290,
      "ĠWHO": 7291,
      "ĠForum": 7292,
      "Ġrecover": 7293,
      "Ġconfisc": 7294,
      "Ġtemperatures": 7295,
      "ĠBelow": 7296,
      "Ġneighbors": 7297,
      "ĠOverall": 7298,
      "Ġsenior": 7299,
      "olesale": 7300,
      "Ġfestival": 7301,
      "Ġfertil": 7302,
      "VID": 7303,
      "Ġlapt": 7304,
      "ĠCap": 7305,
      "ĠKen": 7306,
      "Ġunsu": 7307,
      "Ġpeak": 7308,
      "Ġjourn": 7309,
      "ĠStalin": 7310,
      "Ġwars": 7311,
      "Ġopposite": 7312,
      "Ġthreatened": 7313,
      "Ġposts": 7314,
      "Ġwheat": 7315,
      "Ġimprovement": 7316,
      "ĠBorrell": 7317,
      "Ġentrepreneurial": 7318,
      "Ġrescuers": 7319,
      "Ġabandoned": 7320,
      "ĠAuthor": 7321,
      "Ġinquir": 7322,
      "ĠBRICS": 7323,
      "ĠWarsaw": 7324,
      "no": 7325,
      "ĠUK": 7326,
      "ĠGod": 7327,
      "rich": 7328,
      "Ġattracted": 7329,
      "Ġindex": 7330,
      "Ġ85": 7331,
      "Ġcreates": 7332,
      "EL": 7333,
      "hour": 7334,
      "iary": 7335,
      "och": 7336,
      "Ġhuge": 7337,
      "lete": 7338,
      "olid": 7339,
      "ĠPSG": 7340,
      "ĠEur": 7341,
      "Ġencl": 7342,
      "Ġjuris": 7343,
      "Ġattend": 7344,
      "Ġ77": 7345,
      "Ġelite": 7346,
      "Me": 7347,
      "dor": 7348,
      "rations": 7349,
      "ĠTÃµ": 7350,
      "ĠIgor": 7351,
      "Ġalcohol": 7352,
      "Ġlegally": 7353,
      "Ãµz": 7354,
      "Ġregulatory": 7355,
      "Ġpilot": 7356,
      "Ġsilver": 7357,
      "ĠJizzax": 7358,
      "Ġorigin": 7359,
      "Ġintellectual": 7360,
      "ĠSlovak": 7361,
      "31": 7362,
      "ym": 7363,
      "Ġcell": 7364,
      "Ġfought": 7365,
      "Ġben": 7366,
      "Ġtools": 7367,
      "ĠBu": 7368,
      "Ġmeter": 7369,
      "Ġinflic": 7370,
      "Ġwriter": 7371,
      "eorological": 7372,
      "Ġliters": 7373,
      "Ġinspector": 7374,
      "Ġwitnessed": 7375,
      "Ġaccelerate": 7376,
      "ĠBasic": 7377,
      "Ġcup": 7378,
      "ama": 7379,
      "aka": 7380,
      "Ġ41": 7381,
      "Ġ67": 7382,
      "ĠComb": 7383,
      "Ġlanded": 7384,
      "ĠDubai": 7385,
      "with": 7386,
      "Ġwave": 7387,
      "Ġgar": 7388,
      "oded": 7389,
      "Ġ74": 7390,
      "Ġcooper": 7391,
      "Ġlibr": 7392,
      "Ġcontrolling": 7393,
      "Ġsettle": 7394,
      "Ġfacilit": 7395,
      "Ġcomplexes": 7396,
      "ĠSupport": 7397,
      "ĠValer": 7398,
      "Ġbarriers": 7399,
      "ĠBundes": 7400,
      "ĠCustoms": 7401,
      "Ġmort": 7402,
      "Ġlivestock": 7403,
      "ĠBusiness": 7404,
      "agree": 7405,
      "ĠElection": 7406,
      "ĠHaj": 7407,
      "ĠJer": 7408,
      "Ġ76": 7409,
      "ĠForce": 7410,
      "Ġfled": 7411,
      "Ġvalued": 7412,
      "matov": 7413,
      "Ġqualifications": 7414,
      "Ġcollective": 7415,
      "diction": 7416,
      "Ġexistence": 7417,
      "Ġdeployed": 7418,
      "ĠDmitriy": 7419,
      "Ġaccompl": 7420,
      "ĠSudan": 7421,
      "ĠiPhone": 7422,
      "long": 7423,
      "rand": 7424,
      "oub": 7425,
      "Ġgift": 7426,
      "ĠMW": 7427,
      "ĠMa": 7428,
      "ĠRash": 7429,
      "Ġhaven": 7430,
      "umors": 7431,
      "Ġ51": 7432,
      "active": 7433,
      "Ġmonu": 7434,
      "Ġpromises": 7435,
      "Ġcommunications": 7436,
      "Ġaffects": 7437,
      "Ġruble": 7438,
      "Ġholidays": 7439,
      "Ġdissatisfied": 7440,
      "Ġhelicopter": 7441,
      "ĠIDF": 7442,
      "ĠKosovo": 7443,
      "ulsory": 7444,
      "des": 7445,
      "lings": 7446,
      "otive": 7447,
      "Ġgender": 7448,
      "iances": 7449,
      "ruits": 7450,
      "Ġremove": 7451,
      "ribers": 7452,
      "Ġrains": 7453,
      "Ġprocedures": 7454,
      "Ġtelecomm": 7455,
      "Ġrooms": 7456,
      "China": 7457,
      "Ġestimates": 7458,
      "Ġpoisoning": 7459,
      "ĠOdessa": 7460,
      "Ġissuing": 7461,
      "mans": 7462,
      "ĠRev": 7463,
      "ĠBrig": 7464,
      "ĠDarya": 7465,
      "Ġleaves": 7466,
      "oked": 7467,
      "shid": 7468,
      "Ġeffort": 7469,
      "Ġproperties": 7470,
      "ĠInvestments": 7471,
      "Ġobligation": 7472,
      "Ġtransparency": 7473,
      "ĠRailways": 7474,
      "city": 7475,
      "Ġsac": 7476,
      "rap": 7477,
      "ĠMob": 7478,
      "chuk": 7479,
      "ĠBarcelona": 7480,
      "Ġdepos": 7481,
      "Ġtaxi": 7482,
      "Ġconvicted": 7483,
      "Ġdeliber": 7484,
      "Ġdevast": 7485,
      "Ġbroken": 7486,
      "Ġsoum": 7487,
      "ĠAgain": 7488,
      "Ġwalking": 7489,
      "Ġpredict": 7490,
      "Ġprosecution": 7491,
      "ford": 7492,
      "iber": 7493,
      "oo": 7494,
      "Ġbes": 7495,
      "Ġdrawn": 7496,
      "Ġmm": 7497,
      "raph": 7498,
      "andex": 7499,
      "Ġyesterday": 7500,
      "enders": 7501,
      "Ġ59": 7502,
      "Ġtransactions": 7503,
      "ermark": 7504,
      "phabet": 7505,
      "Ġdefending": 7506,
      "Ġmatern": 7507,
      "Ġobjectives": 7508,
      "gench": 7509,
      "Ġextraction": 7510,
      "Ġdeeply": 7511,
      "ĠUsmon": 7512,
      "Ġcontribute": 7513,
      "Ġinnovations": 7514,
      "Ġcircumvent": 7515,
      "Ġcomplicated": 7516,
      "murodov": 7517,
      "Ġstock": 7518,
      "Ġconced": 7519,
      "ĠNob": 7520,
      "tered": 7521,
      "ĠYÃµ": 7522,
      "Ġlik": 7523,
      "enez": 7524,
      "Ġ2007": 7525,
      "Ġconnecting": 7526,
      "Ġdeadline": 7527,
      "Ġmanufacturer": 7528,
      "Ġwithdrawal": 7529,
      "Ġceasefire": 7530,
      "ĠArgentina": 7531,
      "Ġbrigade": 7532,
      "Ġfertiliz": 7533,
      "MS": 7534,
      "gas": 7535,
      "yansk": 7536,
      "ini": 7537,
      "Ġhat": 7538,
      "ĠRome": 7539,
      "Ġunemploy": 7540,
      "Ġenjoy": 7541,
      "Ġindif": 7542,
      "Ġadditions": 7543,
      "Ġcommanders": 7544,
      "Ġconcerned": 7545,
      "rayev": 7546,
      "Ġformalized": 7547,
      "rated": 7548,
      "Ġhung": 7549,
      "ĠSard": 7550,
      "ĠClim": 7551,
      "ĠPy": 7552,
      "Ġwholesale": 7553,
      "Ġresiding": 7554,
      "pping": 7555,
      "Ġdecades": 7556,
      "Ġsolving": 7557,
      "Ġstronger": 7558,
      "Ġcolleagues": 7559,
      "Ġconvenience": 7560,
      "Ġgreenhouse": 7561,
      "Ġeliminated": 7562,
      "Ġcorrectly": 7563,
      "diyev": 7564,
      "lan": 7565,
      "manu": 7566,
      "tar": 7567,
      "alle": 7568,
      "Ġgets": 7569,
      "Ġcrossed": 7570,
      "Ġplatforms": 7571,
      "Ġmutually": 7572,
      "Ġutilizing": 7573,
      "usalem": 7574,
      "equ": 7575,
      "ilk": 7576,
      "Ġrecycl": 7577,
      "estyle": 7578,
      "conds": 7579,
      "Ġoperators": 7580,
      "Ġ68": 7581,
      "ĠIsraelis": 7582,
      "Ġtasked": 7583,
      "Ġsuspects": 7584,
      "obalt": 7585,
      "ĠControl": 7586,
      "Ġthoroughly": 7587,
      "Ġenhance": 7588,
      "ĠValeriy": 7589,
      "gment": 7590,
      "isen": 7591,
      "Ġbrain": 7592,
      "Ġant": 7593,
      "ĠBot": 7594,
      "ĠAccordingly": 7595,
      "Ġadding": 7596,
      "Ġrural": 7597,
      "Ġshift": 7598,
      "ĠLav": 7599,
      "ĠVAT": 7600,
      "Ġimporting": 7601,
      "Ġlocations": 7602,
      "ĠLeyen": 7603,
      "ĠProfess": 7604,
      "Ġcombating": 7605,
      "Ġmarri": 7606,
      "Ġopponents": 7607,
      "Ġfreight": 7608,
      "Ġclarify": 7609,
      "Ġbattal": 7610,
      "ĠYakk": 7611,
      "ĠMountainous": 7612,
      "ĠJerusalem": 7613,
      "AC": 7614,
      "City": 7615,
      "aution": 7616,
      "min": 7617,
      "ĠCivil": 7618,
      "resident": 7619,
      "Ġhearing": 7620,
      "Ġrelig": 7621,
      "Ġbillionaire": 7622,
      "Ġcolor": 7623,
      "Ġliterature": 7624,
      "Ġsubscribers": 7625,
      "Ġresignation": 7626,
      "ĠStrategic": 7627,
      "occ": 7628,
      "Ġunprecedented": 7629,
      "ĠNar": 7630,
      "Ġshut": 7631,
      "Ġoperated": 7632,
      "Ġguards": 7633,
      "Ġrelationship": 7634,
      "Ġdefendant": 7635,
      "Ġcyber": 7636,
      "ĠAhmad": 7637,
      "ĠRomania": 7638,
      "Ġcomfortable": 7639,
      "Ġenhancing": 7640,
      "co": 7641,
      "do": 7642,
      "din": 7643,
      "Ġsessions": 7644,
      "Ġisol": 7645,
      "ĠSports": 7646,
      "iga": 7647,
      "ĠPop": 7648,
      "ĠFootball": 7649,
      "ĠKiev": 7650,
      "Ġunified": 7651,
      "Ġadap": 7652,
      "Ġtimely": 7653,
      "Ġdistingu": 7654,
      "Ġcapability": 7655,
      "Ġtransporting": 7656,
      "Ġhappens": 7657,
      "Ġcounteroffensive": 7658,
      "Ġwitnesses": 7659,
      "ĠBaltic": 7660,
      "nikov": 7661,
      "Ġwelcom": 7662,
      "ean": 7663,
      "gid": 7664,
      "iat": 7665,
      "Ġther": 7666,
      "entral": 7667,
      "ĠRahmon": 7668,
      "Ġnotes": 7669,
      "ĠDec": 7670,
      "Ġreflected": 7671,
      "ĠAmir": 7672,
      "onym": 7673,
      "Ġdebates": 7674,
      "Ġobjections": 7675,
      "Ġhalted": 7676,
      "Ġacquaintances": 7677,
      "Ġbaby": 7678,
      "Ġpostponed": 7679,
      "wa": 7680,
      "Ġdry": 7681,
      "Ġdivers": 7682,
      "ayd": 7683,
      "Ġcomments": 7684,
      "Ġvon": 7685,
      "Ġdisagree": 7686,
      "Ġuser": 7687,
      "Ġassists": 7688,
      "Ġdefined": 7689,
      "uza": 7690,
      "exia": 7691,
      "unicip": 7692,
      "Ġindependently": 7693,
      "ĠAlek": 7694,
      "Ġexecutive": 7695,
      "Ġautomatically": 7696,
      "Ġtextile": 7697,
      "Ġearned": 7698,
      "ylum": 7699,
      "ĠYÃµld": 7700,
      "Ġtrib": 7701,
      "ĠToy": 7702,
      "ĠSystem": 7703,
      "una": 7704,
      "oss": 7705,
      "Ġregret": 7706,
      "ĠOq": 7707,
      "Ġempt": 7708,
      "Ġspons": 7709,
      "ĠCommun": 7710,
      "Ġpresidents": 7711,
      "Ġapprove": 7712,
      "Ġ99": 7713,
      "Ġsmoke": 7714,
      "ferences": 7715,
      "ĠUNE": 7716,
      "Ġdestination": 7717,
      "Ġeffectiveness": 7718,
      "ĠSwedish": 7719,
      "Ġnegatively": 7720,
      "Ġrecording": 7721,
      "ĠTechnologies": 7722,
      "Ġreflecting": 7723,
      "ĠBoard": 7724,
      "ĠTermez": 7725,
      "Ġirrigation": 7726,
      "ĠEnvironmental": 7727,
      "Aq": 7728,
      "cked": 7729,
      "mir": 7730,
      "Ġreaches": 7731,
      "ĠSch": 7732,
      "ayz": 7733,
      "amov": 7734,
      "ĠDet": 7735,
      "Ġseconds": 7736,
      "umo": 7737,
      "Ġplots": 7738,
      "apoli": 7739,
      "Ġsaving": 7740,
      "Ġparticipant": 7741,
      "Ġmetal": 7742,
      "Ġdebut": 7743,
      "Ġhostage": 7744,
      "mudov": 7745,
      "ĠJamshid": 7746,
      "Ġwaters": 7747,
      "Ġinfantry": 7748,
      "down": 7749,
      "Ġcast": 7750,
      "urally": 7751,
      "Ġpressing": 7752,
      "Ġprofessor": 7753,
      "Ġcontribution": 7754,
      "Ġpossibilities": 7755,
      "AZ": 7756,
      "aron": 7757,
      "Ġeat": 7758,
      "ĠMil": 7759,
      "Ġasylum": 7760,
      "Ġyield": 7761,
      "ĠFrank": 7762,
      "Ġunity": 7763,
      "Ġunited": 7764,
      "Ġplays": 7765,
      "ĠNAS": 7766,
      "ogle": 7767,
      "Ġdisorder": 7768,
      "Ġrecall": 7769,
      "Ġ95": 7770,
      "ieties": 7771,
      "Ġpoly": 7772,
      "Ġeye": 7773,
      "ĠCOVID": 7774,
      "Ġdeparture": 7775,
      "ĠInvestigative": 7776,
      "gic": 7777,
      "uf": 7778,
      "Ġpick": 7779,
      "aling": 7780,
      "ĠSCO": 7781,
      "ĠMich": 7782,
      "ĠRa": 7783,
      "Ġhighlight": 7784,
      "Ġcharity": 7785,
      "Ġmodernization": 7786,
      "ĠArmenians": 7787,
      "Ġhotels": 7788,
      "ograp": 7789,
      "Ġpanel": 7790,
      "Ġsubstitut": 7791,
      "Ġeditorial": 7792,
      "PO": 7793,
      "iological": 7794,
      "aliyev": 7795,
      "asar": 7796,
      "ĠFound": 7797,
      "Ġvoc": 7798,
      "tedly": 7799,
      "Ġaccession": 7800,
      "Ġtesting": 7801,
      "tiq": 7802,
      "ĠPeace": 7803,
      "Ġdanger": 7804,
      "Ġdisappear": 7805,
      "Ġpsychological": 7806,
      "Ġtitle": 7807,
      "Ġafford": 7808,
      "ĠJohn": 7809,
      "Ġdrive": 7810,
      "enty": 7811,
      "ĠIr": 7812,
      "ayrat": 7813,
      "Ġalphabet": 7814,
      "ĠPar": 7815,
      "ĠJames": 7816,
      "Ġamaz": 7817,
      "techn": 7818,
      "ĠReal": 7819,
      "Ġrestoration": 7820,
      "linary": 7821,
      "ĠAbdulla": 7822,
      "ĠMari": 7823,
      "Ġsugar": 7824,
      "Ġshelling": 7825,
      "ĠGulf": 7826,
      "Ġcrops": 7827,
      "ĠTreasury": 7828,
      "Ġbronze": 7829,
      "Ġjourney": 7830,
      "oubtedly": 7831,
      "ĠClimate": 7832,
      ",'": 7833,
      "Ġfruits": 7834,
      "icide": 7835,
      "omb": 7836,
      "ĠMer": 7837,
      "rific": 7838,
      "Ġupper": 7839,
      "Ġ72": 7840,
      "Ġfollow": 7841,
      "Ġstatistical": 7842,
      "ĠBrazilian": 7843,
      "Ġsmartphones": 7844,
      "ionage": 7845,
      "letic": 7846,
      "Ġstip": 7847,
      "ersh": 7848,
      "ami": 7849,
      "ĠKol": 7850,
      "Ġeasier": 7851,
      "Ġcriticism": 7852,
      "ĠConvention": 7853,
      "ĠMalay": 7854,
      "Ġsenators": 7855,
      "Ġastron": 7856,
      "ĠRonaldo": 7857,
      "ER": 7858,
      "Ġtear": 7859,
      "imova": 7860,
      "ĠCatal": 7861,
      "ĠRaf": 7862,
      "ĠPat": 7863,
      "ĠBur": 7864,
      "raining": 7865,
      "Ġapprec": 7866,
      "Ġrelation": 7867,
      "Ġdepending": 7868,
      "ĠAnn": 7869,
      "Ġsecure": 7870,
      "Ġvisits": 7871,
      "Ġsurround": 7872,
      "Ġprompt": 7873,
      "Ġtrained": 7874,
      "Ġrestriction": 7875,
      "ĠCommissioner": 7876,
      "Ġcontinuous": 7877,
      "Ġapproaching": 7878,
      "ĠRepresentative": 7879,
      "ĠSirdarya": 7880,
      "Ġsuspicion": 7881,
      "Ġmusic": 7882,
      "ĠCharles": 7883,
      "ĠHajj": 7884,
      "based": 7885,
      "Ġmental": 7886,
      "ĠSk": 7887,
      "ĠShom": 7888,
      "ĠAbb": 7889,
      "Ġrepublics": 7890,
      "Ġputting": 7891,
      "Ġfreedoms": 7892,
      "anche": 7893,
      "ocrats": 7894,
      "Ġmountains": 7895,
      "Ġdoubled": 7896,
      "Ġmachinery": 7897,
      "ashinyan": 7898,
      "Ġemergence": 7899,
      "Ġunsuccess": 7900,
      "Ġtens": 7901,
      "ata": 7902,
      "enant": 7903,
      "iced": 7904,
      "ĠTim": 7905,
      "igu": 7906,
      "ript": 7907,
      "ĠPashinyan": 7908,
      "anded": 7909,
      "acific": 7910,
      "Ġdecide": 7911,
      "liq": 7912,
      "Ġlarger": 7913,
      "Ġapolog": 7914,
      "ĠReport": 7915,
      "ĠIndepend": 7916,
      "ĠOrtiq": 7917,
      "Ġbelieved": 7918,
      "Ġcirculation": 7919,
      "Ġtreaty": 7920,
      "ĠInvestigation": 7921,
      "Ġdivisions": 7922,
      "habilit": 7923,
      "Ġvoluntarily": 7924,
      "ĠRobert": 7925,
      "ien": 7926,
      "power": 7927,
      "wear": 7928,
      "Ġfish": 7929,
      "vey": 7930,
      "ĠCal": 7931,
      "ĠFSB": 7932,
      "ussia": 7933,
      "ĠHydromet": 7934,
      "Ġ58": 7935,
      "ĠVenez": 7936,
      "ugbek": 7937,
      "ĠOrban": 7938,
      "Ġdiplomat": 7939,
      "Ġcapacities": 7940,
      "ĠNavoi": 7941,
      "Ġkeeping": 7942,
      "Ġdemonstrate": 7943,
      "ĠQÃµsh": 7944,
      "ĠSerbia": 7945,
      "ĠUNESCO": 7946,
      "Today": 7947,
      "pet": 7948,
      "Ġrival": 7949,
      "asp": 7950,
      "Ġhinder": 7951,
      "ĠTol": 7952,
      "Ġassembly": 7953,
      "abri": 7954,
      "Ġkick": 7955,
      "rivate": 7956,
      "Ġsums": 7957,
      "Ġcollided": 7958,
      "ographic": 7959,
      "Ġconfidential": 7960,
      "ĠUrgench": 7961,
      "investigation": 7962,
      "ĠEntreprene": 7963,
      "ĠVenezuel": 7964,
      "Ġswe": 7965,
      "orz": 7966,
      "Ġfault": 7967,
      "Ġvirus": 7968,
      "Ġincon": 7969,
      "iction": 7970,
      "abled": 7971,
      "Ġprotoc": 7972,
      "Ġfeet": 7973,
      "Ġadopt": 7974,
      "Ġlights": 7975,
      "ĠOlaf": 7976,
      "Ġfeeling": 7977,
      "uhrat": 7978,
      "Ġliberal": 7979,
      "Ġcharacteristics": 7980,
      "Ġconstructing": 7981,
      "Ġhopes": 7982,
      "garia": 7983,
      "Ġplenary": 7984,
      "Corruption": 7985,
      "bil": 7986,
      "tem": 7987,
      "works": 7988,
      "utch": 7989,
      "ĠPatri": 7990,
      "Ġworried": 7991,
      "ĠJong": 7992,
      "Ġprefer": 7993,
      "Ġinvitation": 7994,
      "Ġunderwater": 7995,
      "Ġprovoc": 7996,
      "month": 7997,
      "ĠPlant": 7998,
      "Ġepis": 7999,
      "ĠVietnam": 8000,
      "600": 8001,
      "ĠMilan": 8002,
      "ĠCam": 8003,
      "Ġexit": 8004,
      "Ġunite": 8005,
      "Ġadapt": 8006,
      "astro": 8007,
      "ashvili": 8008,
      "Ġinvolves": 8009,
      "Ġprisoner": 8010,
      "Ġpenalties": 8011,
      "ĠMedved": 8012,
      "Ġrebels": 8013,
      "Ġfleet": 8014,
      "Ġembar": 8015,
      "ĠHouthi": 8016,
      "Ġbeaten": 8017,
      "ĠMarket": 8018,
      "Ġsubsequent": 8019,
      "Ġwelcomed": 8020,
      "Aqsa": 8021,
      "95": 8022,
      "col": 8023,
      "card": 8024,
      "ein": 8025,
      "Ġsong": 8026,
      "Ġwall": 8027,
      "Ġever": 8028,
      "char": 8029,
      "Ġexists": 8030,
      "ĠOmbudsman": 8031,
      "Ġassass": 8032,
      "Ġtalented": 8033,
      "Ġdestroying": 8034,
      "Ġexporting": 8035,
      "ĠResources": 8036,
      "ĠGoogle": 8037,
      "Ġpackages": 8038,
      "Ġbrothers": 8039,
      "ĠIndonesia": 8040,
      "):": 8041,
      "Ġcaut": 8042,
      "Ġtouc": 8043,
      "Ġdark": 8044,
      "bery": 8045,
      "Ġclients": 8046,
      "Ġfollowed": 8047,
      "ĠAbout": 8048,
      "Ġvisiting": 8049,
      "Ġnaturally": 8050,
      "ĠAlliance": 8051,
      "Ġzones": 8052,
      "Ġdaughters": 8053,
      "ĠApple": 8054,
      "Ġrevenue": 8055,
      "Ġtransparent": 8056,
      "Ġprivatization": 8057,
      "arqand": 8058,
      "Ġjurisdiction": 8059,
      "manship": 8060,
      "ĠSob": 8061,
      "Ġconce": 8062,
      "ĠMigration": 8063,
      "ieut": 8064,
      "Ġmaneu": 8065,
      "Ġencounter": 8066,
      "oeing": 8067,
      "ĠSpeaker": 8068,
      "Ġsurvived": 8069,
      "Ġunexpectedly": 8070,
      "Ġimagine": 8071,
      "Ġhorse": 8072,
      "Ġobstacles": 8073,
      "De": 8074,
      "oral": 8075,
      "ille": 8076,
      "oms": 8077,
      "Ġgifts": 8078,
      "ĠMat": 8079,
      "elines": 8080,
      "Ġking": 8081,
      "Ġemot": 8082,
      "ĠIss": 8083,
      "ĠAliyev": 8084,
      "Ġinterrog": 8085,
      "Ġcalm": 8086,
      "Ġrent": 8087,
      "Ġappliances": 8088,
      "matics": 8089,
      "ĠUlugbek": 8090,
      "78": 8091,
      "Central": 8092,
      "lu": 8093,
      "Ġmunicip": 8094,
      "omin": 8095,
      "erse": 8096,
      "Ġprosecut": 8097,
      "Ġyellow": 8098,
      "alla": 8099,
      "Ġemerge": 8100,
      "Ġrealized": 8101,
      "Ġfavorite": 8102,
      "Ġforecasts": 8103,
      "ĠConstitutional": 8104,
      "Ãķzgid": 8105,
      "Ġfriendship": 8106,
      "ĠRelations": 8107,
      "ĠScientific": 8108,
      "Ġunusual": 8109,
      "Ġprovinces": 8110,
      "Ġempty": 8111,
      "Ġinconven": 8112,
      "ieutenant": 8113,
      "All": 8114,
      "hang": 8115,
      "noc": 8116,
      "edar": 8117,
      "Ġhide": 8118,
      "ĠAcc": 8119,
      "ĠUp": 8120,
      "Ġprove": 8121,
      "ĠInspe": 8122,
      "Ġpregn": 8123,
      "ishk": 8124,
      "Ġque": 8125,
      "Ġbrands": 8126,
      "Ġallocation": 8127,
      "pleasant": 8128,
      "ĠHungarian": 8129,
      "Ġessence": 8130,
      "Ġeditor": 8131,
      "ĠBulgaria": 8132,
      "Pal": 8133,
      "west": 8134,
      "Ġstar": 8135,
      "Ġstriving": 8136,
      "ĠMem": 8137,
      "ĠRost": 8138,
      "ivan": 8139,
      "Ġhack": 8140,
      "Ġdisasters": 8141,
      "conn": 8142,
      "ensity": 8143,
      "Ġquant": 8144,
      "Ġinspected": 8145,
      "Ġfactories": 8146,
      "Ġengaging": 8147,
      "Ġconstituted": 8148,
      "Ġassoci": 8149,
      "Ġhistoric": 8150,
      "Ġlifestyle": 8151,
      "speed": 8152,
      "ĠNazar": 8153,
      "Ġsolidarity": 8154,
      "space": 8155,
      "Ġsurgery": 8156,
      "Ãķzgidromet": 8157,
      "75": 8158,
      "Nas": 8159,
      "ĠIk": 8160,
      "ĠPod": 8161,
      "ĠOs": 8162,
      "Ġincur": 8163,
      "Ġrelie": 8164,
      "Ġmoreover": 8165,
      "ecurity": 8166,
      "Ġvisible": 8167,
      "Ġengines": 8168,
      "Ġfreely": 8169,
      "uhansk": 8170,
      "books": 8171,
      "Ġgenocide": 8172,
      "Ġcopy": 8173,
      "Ġbench": 8174,
      "Ġmaternity": 8175,
      "400": 8176,
      "fight": 8177,
      "inger": 8178,
      "icts": 8179,
      "ĠTAS": 8180,
      "store": 8181,
      "ashn": 8182,
      "Ġrot": 8183,
      "ĠYerm": 8184,
      "Ġassisting": 8185,
      "Ġdirectors": 8186,
      "Ġrenov": 8187,
      "Ġdispute": 8188,
      "aturally": 8189,
      "ĠSoledar": 8190,
      "ĠInnovation": 8191,
      "Ġnarrow": 8192,
      "ĠGovernor": 8193,
      "orzinka": 8194,
      "Ġmun": 8195,
      "ilich": 8196,
      "Ġrector": 8197,
      "Ġcomparis": 8198,
      "ĠJud": 8199,
      "Ġshots": 8200,
      "medov": 8201,
      "Ġ66": 8202,
      "ĠCommerce": 8203,
      "Ġminim": 8204,
      "Ġ2005": 8205,
      "Ġpointed": 8206,
      "Ġidentifying": 8207,
      "Ġpoet": 8208,
      "ĠOlm": 8209,
      "Ġgathering": 8210,
      "Ġtrend": 8211,
      "Ġkidna": 8212,
      "ĠTemur": 8213,
      "Ġdormitory": 8214,
      "Ġprosperity": 8215,
      "ÃµÇ§li": 8216,
      "abotage": 8217,
      "42": 8218,
      "Milan": 8219,
      "Now": 8220,
      "dam": 8221,
      "ĠAre": 8222,
      "ĠSar": 8223,
      "ulled": 8224,
      "ĠPre": 8225,
      "ĠBoy": 8226,
      "ĠFam": 8227,
      "ĠFayz": 8228,
      "Ġcontacted": 8229,
      "Ġinstructed": 8230,
      "Ġinterfe": 8231,
      "Ġinvestigate": 8232,
      "Ġadministrations": 8233,
      "ĠProg": 8234,
      "Ġveter": 8235,
      "Ġensures": 8236,
      "Ġintroducing": 8237,
      "ĠEverything": 8238,
      "Ġadvantages": 8239,
      "ĠUsmanov": 8240,
      "Ġsemi": 8241,
      "ĠAttention": 8242,
      "BI": 8243,
      "No": 8244,
      "back": 8245,
      "Ġsand": 8246,
      "igrants": 8247,
      "ĠMI": 8248,
      "riend": 8249,
      "Ġalleg": 8250,
      "Ġselection": 8251,
      "ĠNaturally": 8252,
      "Ġdepriv": 8253,
      "Ġcoverage": 8254,
      "Ġ62": 8255,
      "Ġapproaches": 8256,
      "ikin": 8257,
      "Ġeventually": 8258,
      "Reg": 8259,
      "Ġconsistently": 8260,
      "Ġultimately": 8261,
      "Ġmagaz": 8262,
      "ĠAleksey": 8263,
      "Ġvocational": 8264,
      "from": 8265,
      "ords": 8266,
      "Ġfog": 8267,
      "ushed": 8268,
      "ĠMong": 8269,
      "ĠForm": 8270,
      "ĠGuter": 8271,
      "ĠLuhansk": 8272,
      "Ġclothing": 8273,
      "ĠStock": 8274,
      "Ġdepth": 8275,
      "Ġgrown": 8276,
      "Ġtrace": 8277,
      "Ġfounded": 8278,
      "Ġguest": 8279,
      "ĠEnter": 8280,
      "shod": 8281,
      "Ġpublishing": 8282,
      "Ġcertification": 8283,
      "ourage": 8284,
      "Ġhybrid": 8285,
      "ruptions": 8286,
      "Ġprobability": 8287,
      "Ġdynam": 8288,
      "cles": 8289,
      "ĠTottenham": 8290,
      "Ġalive": 8291,
      "upol": 8292,
      "Ġunpleasant": 8293,
      "ĠWTO": 8294,
      "Ġworst": 8295,
      "Ġallocating": 8296,
      "Ġ1992": 8297,
      "Ġcontinuously": 8298,
      "ventus": 8299,
      "Ġclashes": 8300,
      "Ġdisciples": 8301,
      "Ġepic": 8302,
      "Ġbriefing": 8303,
      "ĠFoundation": 8304,
      "ho": 8305,
      "pionage": 8306,
      "Ġlying": 8307,
      "amb": 8308,
      "esty": 8309,
      "Ġsear": 8310,
      "Ġresort": 8311,
      "Ġrumors": 8312,
      "Ġmathe": 8313,
      "Ġrising": 8314,
      "Ġrental": 8315,
      "kovich": 8316,
      "Ġpromote": 8317,
      "Ġmessages": 8318,
      "Ġcheckpoint": 8319,
      "Ġcongratulated": 8320,
      "urovikin": 8321,
      "ĠLavrov": 8322,
      "Ġmunitions": 8323,
      "AL": 8324,
      "bah": 8325,
      "well": 8326,
      "ancy": 8327,
      "roat": 8328,
      "Ġreaction": 8329,
      "eth": 8330,
      "ĠFI": 8331,
      "Ġapproval": 8332,
      "iola": 8333,
      "bersecurity": 8334,
      "Ġcirculated": 8335,
      "Ġceleb": 8336,
      "Ġmachines": 8337,
      "ĠBenj": 8338,
      "ĠPrize": 8339,
      "ĠMobi": 8340,
      "map": 8341,
      "Ġcovers": 8342,
      "Ġrehabilit": 8343,
      "ĠFore": 8344,
      "Ġsuicide": 8345,
      "Ġdefensive": 8346,
      "Ġorganizational": 8347,
      "Ġvictories": 8348,
      "Ġ2009": 8349,
      "ĠAbdullayev": 8350,
      "Ġentirely": 8351,
      "Ġlessons": 8352,
      "ĠEveryone": 8353,
      "Ġbarrel": 8354,
      "Ġharvest": 8355,
      "Ġbags": 8356,
      "ĠIssues": 8357,
      "ĠBenjamin": 8358,
      "TS": 8359,
      "gian": 8360,
      "lers": 8361,
      "Ġbott": 8362,
      "irts": 8363,
      "ĠMur": 8364,
      "ĠCobalt": 8365,
      "osis": 8366,
      "Ġnote": 8367,
      "fication": 8368,
      "Ġdisabled": 8369,
      "Ġrecruit": 8370,
      "Ġedition": 8371,
      "ĠTursun": 8372,
      "Ġcenturies": 8373,
      "Ġespionage": 8374,
      "Ġskilled": 8375,
      "Ġlifted": 8376,
      "Ġtextbooks": 8377,
      "Ġunlikely": 8378,
      "Ġtorture": 8379,
      "ĠTASS": 8380,
      "She": 8381,
      "Ġpray": 8382,
      "Ġnone": 8383,
      "rav": 8384,
      "ulf": 8385,
      "Ġnoting": 8386,
      "estan": 8387,
      "akers": 8388,
      "ĠDis": 8389,
      "Ġconsolid": 8390,
      "ĠShuhrat": 8391,
      "Ġsubmar": 8392,
      "Ġfeatures": 8393,
      "ligarch": 8394,
      "Ġ1980": 8395,
      "ashnobod": 8396,
      "bus": 8397,
      "entially": 8398,
      "Ġharsh": 8399,
      "ĠIly": 8400,
      "olf": 8401,
      "Ġlux": 8402,
      "ĠFood": 8403,
      "ĠKras": 8404,
      "Ġappell": 8405,
      "ĠYur": 8406,
      "Ġflour": 8407,
      "Ġminors": 8408,
      "Ġadvice": 8409,
      "Ġgrades": 8410,
      "Ġanswered": 8411,
      "ĠAbdurahmonov": 8412,
      "ĠAdvertisement": 8413,
      "electric": 8414,
      "Ġinnoc": 8415,
      "stand": 8416,
      "ĠSum": 8417,
      "accept": 8418,
      "Ġunclear": 8419,
      "Ġspaces": 8420,
      "Ġinterviews": 8421,
      "Ġapplies": 8422,
      "ĠMedia": 8423,
      "ĠAustria": 8424,
      "Ġsustained": 8425,
      "ĠPRC": 8426,
      "bilisi": 8427,
      "ĠIM": 8428,
      "terror": 8429,
      "Ġbypass": 8430,
      "ĠOleg": 8431,
      "atorium": 8432,
      "Ġ180": 8433,
      "Ġexamined": 8434,
      "ĠBakhtiyor": 8435,
      "Ġrecognition": 8436,
      "Ġseparately": 8437,
      "Ġlooked": 8438,
      "ĠEgyptian": 8439,
      "Ġ1960": 8440,
      "ĠApparently": 8441,
      "ĠJews": 8442,
      "ĠBelgium": 8443,
      "ĠNearly": 8444,
      "Ġcomparison": 8445,
      "ĠMobiuz": 8446,
      "ster": 8447,
      "ĠKule": 8448,
      "oyatov": 8449,
      "oking": 8450,
      "Ġphones": 8451,
      "Ġemerging": 8452,
      "ĠEngine": 8453,
      "ĠGovernment": 8454,
      "Ġinspections": 8455,
      "Ġceremon": 8456,
      "Ġpersec": 8457,
      "Ġaccepting": 8458,
      "Ġinspectors": 8459,
      "ĠEuras": 8460,
      "Ġenclave": 8461,
      "Ġreligion": 8462,
      "Ġsurrounded": 8463,
      "OC": 8464,
      "nish": 8465,
      "yod": 8466,
      "Ġcin": 8467,
      "ĠTreat": 8468,
      "rome": 8469,
      "umes": 8470,
      "ĠLv": 8471,
      "ĠYashnobod": 8472,
      "aircraft": 8473,
      "Ġsystematic": 8474,
      "Ġlegit": 8475,
      "Ġbackground": 8476,
      "Ġolder": 8477,
      "Ġexpectations": 8478,
      "ĠValley": 8479,
      "related": 8480,
      "ĠStudies": 8481,
      "Ġfirmly": 8482,
      "aucas": 8483,
      "ĠInterestingly": 8484,
      "ĠGuterres": 8485,
      "Ġappellate": 8486,
      "44": 8487,
      "Ġoligarch": 8488,
      "Ġwalls": 8489,
      "Ġpensions": 8490,
      "Ġbreat": 8491,
      "ĠTbilisi": 8492,
      "Ġloyal": 8493,
      "adow": 8494,
      "Ġselect": 8495,
      "ĠKl": 8496,
      "Ġsuc": 8497,
      "aze": 8498,
      "ĠVin": 8499,
      "Ġairspace": 8500,
      "Ġblame": 8501,
      "Ġsurren": 8502,
      "ĠKhiva": 8503,
      "Ġ160": 8504,
      "ĠMirziyoyeva": 8505,
      "Ġinstalling": 8506,
      "Ġhitting": 8507,
      "Ġbuyers": 8508,
      "ĠAustin": 8509,
      "keeping": 8510,
      "ĠAlexey": 8511,
      "Ġexpecting": 8512,
      "Ġadvertise": 8513,
      "Bayern": 8514,
      "nels": 8515,
      "wer": 8516,
      "Ġanonym": 8517,
      "ĠAP": 8518,
      "Ġstabil": 8519,
      "sification": 8520,
      "ĠBY": 8521,
      "ĠFour": 8522,
      "ĠNexia": 8523,
      "ĠWhere": 8524,
      "Ġvisas": 8525,
      "Ġinfect": 8526,
      "revan": 8527,
      "Ġbuyer": 8528,
      "ĠYerevan": 8529,
      "Ġsucceed": 8530,
      "SJ": 8531,
      "Tosh": 8532,
      "ĠEd": 8533,
      "Ġargu": 8534,
      "Ġnovel": 8535,
      "ĠVil": 8536,
      "Ġplacing": 8537,
      "Ġdetected": 8538,
      "ĠOlympiad": 8539,
      "Ġquarterfinals": 8540,
      "Ġcarrier": 8541,
      "Ġpossess": 8542,
      "Ġaccompan": 8543,
      "ĠRostov": 8544,
      "Ġdeprivation": 8545,
      "MK": 8546,
      "ori": 8547,
      "iling": 8548,
      "ĠRas": 8549,
      "Ġkit": 8550,
      "Ġuses": 8551,
      "Ġconfront": 8552,
      "Ġorganizers": 8553,
      "Ġreceives": 8554,
      "Ġequality": 8555,
      "Ġpromise": 8556,
      "Ġ2001": 8557,
      "ropri": 8558,
      "Ġconcert": 8559,
      "Ġconversations": 8560,
      "Ġseparated": 8561,
      "Ġdomin": 8562,
      "Ġskill": 8563,
      "ĠBorn": 8564,
      "Ġautomotive": 8565,
      "ĠPhil": 8566,
      "Ġspoken": 8567,
      "Ġessential": 8568,
      "Ġspiritual": 8569,
      "ĠSilk": 8570,
      "Ġpreserved": 8571,
      "ĠJÃµrayev": 8572,
      "Ġdealership": 8573,
      "ĠExecutive": 8574,
      "storey": 8575,
      "Az": 8576,
      "fts": 8577,
      "sen": 8578,
      "vol": 8579,
      "Ġtight": 8580,
      "rets": 8581,
      "Ġine": 8582,
      "Ġbases": 8583,
      "Ġstored": 8584,
      "ĠKatt": 8585,
      "Ġperfect": 8586,
      "iano": 8587,
      "Ġarisen": 8588,
      "Ġworker": 8589,
      "Ġassign": 8590,
      "Ġexperiment": 8591,
      "Ġ2003": 8592,
      "ĠSamarqand": 8593,
      "ĠSyrian": 8594,
      "Ġimposing": 8595,
      "Ġecology": 8596,
      "Ġ1970": 8597,
      "Ġadvancing": 8598,
      "ĠJewish": 8599,
      "Ġundoubtedly": 8600,
      "humanitarian": 8601,
      "Ġindifferent": 8602,
      "acceptable": 8603,
      "Ġbin": 8604,
      "Ġthrow": 8605,
      "Ġstood": 8606,
      "opoly": 8607,
      "ĠBÃµ": 8608,
      "ĠBern": 8609,
      "achel": 8610,
      "ĠKia": 8611,
      "ques": 8612,
      "Ġran": 8613,
      "Ġlaid": 8614,
      "stana": 8615,
      "Ġstrange": 8616,
      "Ġcandidacy": 8617,
      "ĠPhot": 8618,
      "ĠLatin": 8619,
      "ĠPolitico": 8620,
      "Ġtouched": 8621,
      "Bel": 8622,
      "One": 8623,
      "itively": 8624,
      "Ġbicy": 8625,
      "Ġsections": 8626,
      "Ġchildhood": 8627,
      "uese": 8628,
      "ĠZe": 8629,
      "Ġrescued": 8630,
      "ĠGuardiola": 8631,
      "Ġpleased": 8632,
      "Ġburden": 8633,
      "Ġtitled": 8634,
      "ĠPortuguese": 8635,
      "Gazprom": 8636,
      "Ġinflicted": 8637,
      "Ġbattalion": 8638,
      "ĠMariupol": 8639,
      "Ġaccompanied": 8640,
      "fied": 8641,
      "ĠÃķz": 8642,
      "Ġdistan": 8643,
      "ĠTaking": 8644,
      "Ġnations": 8645,
      "ĠSay": 8646,
      "Ġhes": 8647,
      "ĠDutch": 8648,
      "Ġorph": 8649,
      "ĠJoint": 8650,
      "Ġcancer": 8651,
      "Ġ53": 8652,
      "Ġstriking": 8653,
      "Ġlesson": 8654,
      "Ġbreaking": 8655,
      "Ġgraduated": 8656,
      "zhydromet": 8657,
      "Ġzero": 8658,
      "Ġquotes": 8659,
      "Ġexplosive": 8660,
      "Ġsoftware": 8661,
      "Ġepicenter": 8662,
      "'ve": 8663,
      "Every": 8664,
      "Liverpool": 8665,
      "diy": 8666,
      "ĠAy": 8667,
      "ĠCaucas": 8668,
      "ĠDar": 8669,
      "ĠGre": 8670,
      "apers": 8671,
      "Ġarising": 8672,
      "Ġ69": 8673,
      "Ġanywhere": 8674,
      "Ġfinish": 8675,
      "ibly": 8676,
      "Ġauthoritarian": 8677,
      "ĠSaidov": 8678,
      "rators": 8679,
      "Ġfootage": 8680,
      "Ġ2004": 8681,
      "Ġdecreases": 8682,
      "Ġsuffer": 8683,
      "Ġholds": 8684,
      "Ġclaiming": 8685,
      "ĠÇ¦ayrat": 8686,
      "ĠHamas": 8687,
      "ĠMinsk": 8688,
      "Ġtunnels": 8689,
      "Ġprescribed": 8690,
      "ĠSlovakia": 8691,
      "Ġthermal": 8692,
      "ĠMichael": 8693,
      "Ġrelieved": 8694,
      "ĠMongol": 8695,
      "Sov": 8696,
      "list": 8697,
      "zes": 8698,
      "Ġsick": 8699,
      "Ġang": 8700,
      "olen": 8701,
      "ading": 8702,
      "ĠCS": 8703,
      "Ġalt": 8704,
      "ĠBab": 8705,
      "ĠBoeing": 8706,
      "ocked": 8707,
      "ĠJens": 8708,
      "plant": 8709,
      "ĠChange": 8710,
      "ĠAdd": 8711,
      "Ġrecru": 8712,
      "Ġconfig": 8713,
      "Ġsentences": 8714,
      "Ġ168": 8715,
      "Ġopposing": 8716,
      "ayeva": 8717,
      "Ġbusinessman": 8718,
      "ĠPalace": 8719,
      "Ġdetect": 8720,
      "Ġcircles": 8721,
      "Ġprofessions": 8722,
      "Ġfunctions": 8723,
      "Ġremoval": 8724,
      "Ġconsultations": 8725,
      "ĠLiber": 8726,
      "Ġaudience": 8727,
      "ihayot": 8728,
      "ĠErkin": 8729,
      "Ġrestaurant": 8730,
      "ĠEmirates": 8731,
      "ĠAuthority": 8732,
      "Ġtelecommunications": 8733,
      "Ġdeliberately": 8734,
      "ĠViln": 8735,
      "Pe": 8736,
      "yang": 8737,
      "Ġmap": 8738,
      "Ġlab": 8739,
      "Ġproport": 8740,
      "Ġwearing": 8741,
      "sem": 8742,
      "ips": 8743,
      "Ġincent": 8744,
      "Ġemissions": 8745,
      "Ġproven": 8746,
      "Ġcontinent": 8747,
      "ĠQilich": 8748,
      "Ġknowing": 8749,
      "Ġcollaborate": 8750,
      "Ġaddressing": 8751,
      "Ġdefendants": 8752,
      "Ġguilt": 8753,
      "Ġradical": 8754,
      "ĠEmmanu": 8755,
      "Ġcorridors": 8756,
      "Ġnaval": 8757,
      "ĠUchtepa": 8758,
      "hangaron": 8759,
      "election": 8760,
      "gg": 8761,
      "gments": 8762,
      "organ": 8763,
      "arat": 8764,
      "ĠMash": 8765,
      "ĠMurod": 8766,
      "ĠCount": 8767,
      "ĠBook": 8768,
      "ĠFran": 8769,
      "abz": 8770,
      "uda": 8771,
      "aped": 8772,
      "Ġtelegram": 8773,
      "Ġrose": 8774,
      "Ġinstances": 8775,
      "Ġlique": 8776,
      "Ġflu": 8777,
      "orthy": 8778,
      "Ġelements": 8779,
      "shan": 8780,
      "ullo": 8781,
      "Ġcounterpart": 8782,
      "Ġwebsites": 8783,
      "iqov": 8784,
      "ĠConference": 8785,
      "while": 8786,
      "Ġquotas": 8787,
      "ĠAvdi": 8788,
      "ĠElon": 8789,
      "ĠStudy": 8790,
      "Ġdependent": 8791,
      "ometimes": 8792,
      "Palest": 8793,
      "ĠFIFA": 8794,
      "ĠVilnius": 8795,
      "ĠEmmanuel": 8796,
      "ĠAvdiivka": 8797,
      "special": 8798,
      "Ġsabotage": 8799,
      "alt": 8800,
      "Ġthus": 8801,
      "leted": 8802,
      "ĠAD": 8803,
      "unt": 8804,
      "Ġseat": 8805,
      "Ġadult": 8806,
      "Ġarbit": 8807,
      "aziz": 8808,
      "ĠArmy": 8809,
      "Ġ110": 8810,
      "Ġsolved": 8811,
      "Ġdetermining": 8812,
      "Ġsuccesses": 8813,
      "Ġgrounds": 8814,
      "Ġfloors": 8815,
      "Ġtrips": 8816,
      "Ġcongress": 8817,
      "Israel": 8818,
      "ĠAngren": 8819,
      "Ġcontroversial": 8820,
      "ĠDamas": 8821,
      "Ġmarriage": 8822,
      "ĠOlmazor": 8823,
      "afe": 8824,
      "car": 8825,
      "friend": 8826,
      "ĠTer": 8827,
      "rait": 8828,
      "place": 8829,
      "Ġamb": 8830,
      "Ġ61": 8831,
      "dustrial": 8832,
      "Ġ1999": 8833,
      "Ġbehav": 8834,
      "Ġmothers": 8835,
      "Ġparks": 8836,
      "Ġexpertise": 8837,
      "Ġdispos": 8838,
      "ĠDemocrats": 8839,
      "Ġsuggested": 8840,
      "Ġcruise": 8841,
      "ĠDilshod": 8842,
      "Ġsuperiority": 8843,
      "Ġconvinced": 8844,
      "Ġrecycling": 8845,
      "ĠVenezuela": 8846,
      "Ġmagazine": 8847,
      "mates": 8848,
      "onel": 8849,
      "Ġdim": 8850,
      "Ġforcing": 8851,
      "ĠSurovikin": 8852,
      "ĠMic": 8853,
      "Ġvirt": 8854,
      "Ġending": 8855,
      "Ġjoy": 8856,
      "Ġactor": 8857,
      "Ġelectron": 8858,
      "Ġ86": 8859,
      "Ġexaminations": 8860,
      "Ġworksh": 8861,
      "Ġcontaining": 8862,
      "nsic": 8863,
      "Ġcoinc": 8864,
      "Ġvegetables": 8865,
      "ĠKuleba": 8866,
      "77": 8867,
      "ahed": 8868,
      "vard": 8869,
      "omic": 8870,
      "ĠSult": 8871,
      "Ġstars": 8872,
      "ĠDid": 8873,
      "Ġvice": 8874,
      "Ġcompulsory": 8875,
      "irect": 8876,
      "Ġactual": 8877,
      "Ġ73": 8878,
      "ĠQam": 8879,
      "ĠQarshi": 8880,
      "Ġowns": 8881,
      "Ġexploded": 8882,
      "Ġplanes": 8883,
      "lined": 8884,
      "ripov": 8885,
      "Ġfellow": 8886,
      "ĠBerd": 8887,
      "Ġautomatic": 8888,
      "DPR": 8889,
      "Ġlinked": 8890,
      "ĠNobel": 8891,
      "Ġsn": 8892,
      "Ġtoil": 8893,
      "otics": 8894,
      "ĠSout": 8895,
      "Ġcaptain": 8896,
      "Ġactivist": 8897,
      "Ġrestoring": 8898,
      "Ġperiods": 8899,
      "Ġpeacekeeping": 8900,
      "Ġdeportation": 8901,
      "ĠBayern": 8902,
      "holm": 8903,
      "Ġdign": 8904,
      "emed": 8905,
      "ĠNorm": 8906,
      "ĠGas": 8907,
      "Ġairlines": 8908,
      "Ġtradition": 8909,
      "ĠShoh": 8910,
      "Ġreception": 8911,
      "ika": 8912,
      "Ġobservers": 8913,
      "author": 8914,
      "Ġterrorists": 8915,
      "Ġscheme": 8916,
      "Ġsurprised": 8917,
      "Ġsurprising": 8918,
      "ĠJournalists": 8919,
      "Ġexempt": 8920,
      "ĠMartin": 8921,
      "Ġpilgrimage": 8922,
      "ĠDelhi": 8923,
      "ĠTatars": 8924,
      "ĠToyota": 8925,
      "ishkek": 8926,
      "Ġliquefied": 8927,
      "Ju": 8928,
      "gi": 8929,
      "itted": 8930,
      "Ġhiding": 8931,
      "Ġnut": 8932,
      "ĠAstana": 8933,
      "Ġsees": 8934,
      "ĠLangu": 8935,
      "Ġexposed": 8936,
      "chief": 8937,
      "ĠSaid": 8938,
      "Ġ130": 8939,
      "Ġmultif": 8940,
      "maty": 8941,
      "Ãķzbek": 8942,
      "orney": 8943,
      "Ġrevolution": 8944,
      "ĠInterior": 8945,
      "ĠMahmud": 8946,
      "ĠBakirov": 8947,
      "Ġsemif": 8948,
      "ĠThroughout": 8949,
      "Ġhydroelectric": 8950,
      "ĠPavel": 8951,
      "Ġconfiscated": 8952,
      "ĠSardor": 8953,
      "Ġinterfere": 8954,
      "achelor": 8955,
      "uv": 8956,
      "atts": 8957,
      "Ġcart": 8958,
      "iti": 8959,
      "Ġloved": 8960,
      "etic": 8961,
      "ĠRad": 8962,
      "Ġadhere": 8963,
      "ĠStorm": 8964,
      "Ġ190": 8965,
      "Ġ900": 8966,
      "Ġfaces": 8967,
      "Ġsheep": 8968,
      "rupted": 8969,
      "Ġ1996": 8970,
      "Ġpedoph": 8971,
      "Ġflags": 8972,
      "Ġburied": 8973,
      "ĠSherzod": 8974,
      "Ġkitchen": 8975,
      "DA": 8976,
      "Green": 8977,
      "ker": 8978,
      "zig": 8979,
      "ĠMass": 8980,
      "ĠRav": 8981,
      "Ġchose": 8982,
      "Ġ350": 8983,
      "reece": 8984,
      "Ġapparently": 8985,
      "ressor": 8986,
      "Ġheading": 8987,
      "ĠEconomics": 8988,
      "Ġcamps": 8989,
      "Ġexperiencing": 8990,
      "Ġbridges": 8991,
      "Ġdisclose": 8992,
      "Ġcoordin": 8993,
      "Ġcorporate": 8994,
      "Ġdogs": 8995,
      "ĠPyong": 8996,
      "BR": 8997,
      "PS": 8998,
      "Ros": 8999,
      "qulov": 9000,
      "tti": 9001,
      "Ġgrams": 9002,
      "ĠBishkek": 9003,
      "artial": 9004,
      "aken": 9005,
      "Ġseed": 9006,
      "ĠYar": 9007,
      "Ġtragic": 9008,
      "Ġrecre": 9009,
      "2022": 9010,
      "Ġtransported": 9011,
      "atisfact": 9012,
      "Ġreviewing": 9013,
      "Ġparam": 9014,
      "Ġsyn": 9015,
      "Ġswim": 9016,
      "Ġcleaning": 9017,
      "yana": 9018,
      "ARS": 9019,
      "abetes": 9020,
      "ĠShaykh": 9021,
      "ĠQilichdor": 9022,
      "ĠPyongyang": 9023,
      "Af": 9024,
      "And": 9025,
      "vich": 9026,
      "Ġsure": 9027,
      "Ġcited": 9028,
      "ilding": 9029,
      "ĠSad": 9030,
      "Ġstolen": 9031,
      "ayn": 9032,
      "Ġlease": 9033,
      "ĠGreece": 9034,
      "Ġring": 9035,
      "angi": 9036,
      "oglu": 9037,
      "Ġoutsk": 9038,
      "Ġrare": 9039,
      "Ġ88": 9040,
      "Ġbusy": 9041,
      "Ġstops": 9042,
      "Ġkilog": 9043,
      "ĠParticip": 9044,
      "Ġlandscap": 9045,
      "Ġflee": 9046,
      "ĠCorpor": 9047,
      "Ġaudio": 9048,
[...]
