{
  "version": "1.0",
  "truncation": null,
  "padding": null,
  "added_tokens": [
    {
      "id": 0,
      "content": "[PAD]",
      "single_word": false,
      "lstrip": false,
      "rstrip": false,
      "normalized": false,
      "special": true
    },
    {
      "id": 1,
      "content": "[UNK]",
      "single_word": false,
      "lstrip": false,
      "rstrip": false,
      "normalized": false,
      "special": true
    },
    {
      "id": 2,
      "content": "[START]",
      "single_word": false,
      "lstrip": false,
      "rstrip": false,
      "normalized": false,
      "special": true
    },
    {
      "id": 3,
      "content": "[END]",
      "single_word": false,
      "lstrip": false,
      "rstrip": false,
      "normalized": false,
      "special": true
    }
  ],
  "normalizer": null,
  "pre_tokenizer": {
    "type": "ByteLevel",
    "add_prefix_space": true,
    "trim_offsets": true,
    "use_regex": true
  },
  "post_processor": null,
  "decoder": null,
  "model": {
    "type": "BPE",
    "dropout": null,
    "unk_token": null,
    "continuing_subword_prefix": null,
    "end_of_word_suffix": null,
    "fuse_unk": false,
    "byte_fallback": false,
    "vocab": {
      "[PAD]": 0,
      "[UNK]": 1,
      "[START]": 2,
      "[END]": 3,
      "!": 4,
      "\"": 5,
      "#": 6,
      "$": 7,
      "%": 8,
      "&": 9,
      "'": 10,
      "(": 11,
      ")": 12,
      "*": 13,
      "+": 14,
      ",": 15,
      "-": 16,
      ".": 17,
      "/": 18,
      "0": 19,
      "1": 20,
      "2": 21,
      "3": 22,
      "4": 23,
      "5": 24,
      "6": 25,
      "7": 26,
      "8": 27,
      "9": 28,
      ":": 29,
      ";": 30,
      "<": 31,
      "=": 32,
      ">": 33,
      "?": 34,
      "@": 35,
      "A": 36,
      "B": 37,
      "C": 38,
      "D": 39,
      "E": 40,
      "F": 41,
      "G": 42,
      "H": 43,
      "I": 44,
      "J": 45,
      "K": 46,
      "L": 47,
      "M": 48,
      "N": 49,
      "O": 50,
      "P": 51,
      "Q": 52,
      "R": 53,
      "S": 54,
      "T": 55,
      "U": 56,
      "V": 57,
      "W": 58,
      "X": 59,
      "Y": 60,
      "Z": 61,
      "[": 62,
      "\\": 63,
      "]": 64,
      "_": 65,
      "a": 66,
      "b": 67,
      "c": 68,
      "d": 69,
      "e": 70,
      "f": 71,
      "g": 72,
      "h": 73,
      "i": 74,
      "j": 75,
      "k": 76,
      "l": 77,
      "m": 78,
      "n": 79,
      "o": 80,
      "p": 81,
      "q": 82,
      "r": 83,
      "s": 84,
      "t": 85,
      "u": 86,
      "v": 87,
      "w": 88,
      "x": 89,
      "y": 90,
      "z": 91,
      "{": 92,
      "|": 93,
      "}": 94,
      "~": 95,
      "£": 96,
      "¦": 97,
      "§": 98,
      "«": 99,
      "¬": 100,
      "°": 101,
      "±": 102,
      "µ": 103,
      "»": 104,
      "½": 105,
      "Â": 106,
      "Ã": 107,
      "Ç": 108,
      "â": 109,
      "Ċ": 110,
      "Ġ": 111,
      "Ĥ": 112,
      "Ħ": 113,
      "ķ": 114,
      "ĸ": 115,
      "la": 116,
      "sh": 117,
      "da": 118,
      "ga": 119,
      "ni": 120,
      "ri": 121,
      "li": 122,
      "Ġb": 123,
      "Ãµ": 124,
      "ti": 125,
      "di": 126,
      "ch": 127,
      "ma": 128,
      "Ġt": 129,
      "si": 130,
      "Ġk": 131,
      "lar": 132,
      "ar": 133,
      "Ġq": 134,
      "ya": 135,
      "ng": 136,
      "ra": 137,
      "gan": 138,
      "Ġh": 139,
      "on": 140,
      "Ġy": 141,
      "va": 142,
      "Ġo": 143,
      "il": 144,
      "lari": 145,
      "shi": 146,
      "ning": 147,
      "Ġa": 148,
      "gi": 149,
      "Ġs": 150,
      "Ġva": 151,
      "Ġu": 152,
      "ta": 153,
      "Ġm": 154,
      "Ġe": 155,
      "Ġi": 156,
      "dan": 157,
      "or": 158,
      "chi": 159,
      "na": 160,
      "Ġta": 161,
      "zi": 162,
      "ki": 163,
      "Ġma": 164,
      "ĠÃµ": 165,
      "un": 166,
      "ka": 167,
      "mo": 168,
      "mi": 169,
      "Ġbi": 170,
      "ĠbÃµ": 171,
      "lan": 172,
      "sa": 173,
      "Ġha": 174,
      "cha": 175,
      "lik": 176,
      "Ç§": 177,
      "ro": 178,
      "de": 179,
      "qi": 180,
      "at": 181,
      "Ġke": 182,
      "yi": 183,
      "Ġqi": 184,
      "Ġj": 185,
      "er": 186,
      "Ġbo": 187,
      "yo": 188,
      "lo": 189,
      "Ġmu": 190,
      "Ġx": 191,
      "ĠB": 192,
      "siya": 193,
      "Ġf": 194,
      "ĠkÃµ": 195,
      "qa": 196,
      "st": 197,
      "lgan": 198,
      "dagi": 199,
      "ĠS": 200,
      "Ġp": 201,
      "Ġsh": 202,
      "Ġda": 203,
      "vo": 204,
      "bi": 205,
      "rish": 206,
      "ĠA": 207,
      "Ġtu": 208,
      "Ġham": 209,
      "ladi": 210,
      "Ġ\"": 211,
      "lash": 212,
      "ba": 213,
      "Ġya": 214,
      "Ġuch": 215,
      "ĠM": 216,
      "Ġbilan": 217,
      "ay": 218,
      "en": 219,
      "uv": 220,
      "no": 221,
      "Ġ2": 222,
      "ĠU": 223,
      "Ġde": 224,
      "Ġqili": 225,
      "Ġ1": 226,
      "do": 227,
      "ur": 228,
      "ligi": 229,
      "Ġish": 230,
      "Ġbu": 231,
      "re": 232,
      "Ġyil": 233,
      "an": 234,
      "gani": 235,
      "Ġku": 236,
      "Ġbe": 237,
      "ara": 238,
      "Ġuchun": 239,
      "so": 240,
      "ĠT": 241,
      "ĠR": 242,
      "ĠqÃµ": 243,
      "lab": 244,
      "Ġsa": 245,
      "Ġ-": 246,
      "ldi": 247,
      "Ġbosh": 248,
      "Ġso": 249,
      "larni": 250,
      "lat": 251,
      "os": 252,
      "Ġyo": 253,
      "al": 254,
      "zo": 255,
      "lib": 256,
      "Ġhu": 257,
      "Ġto": 258,
      "iz": 259,
      "ston": 260,
      "tgan": 261,
      "ĠtÃµ": 262,
      "oy": 263,
      "ja": 264,
      "ĠK": 265,
      "Ç§i": 266,
      "Ġra": 267,
      "aro": 268,
      "kin": 269,
      "lishi": 270,
      "moq": 271,
      "be": 272,
      "za": 273,
      "Ġbir": 274,
      "Ãķ": 275,
      "yat": 276,
      "lu": 277,
      "et": 278,
      "tish": 279,
      "Ġna": 280,
      "ol": 281,
      "ĠyÃµ": 282,
      "Ġchi": 283,
      "Ġja": 284,
      "sida": 285,
      "ĠSh": 286,
      "vi": 287,
      "ĠY": 288,
      "Ġtash": 289,
      "larga": 290,
      "lish": 291,
      "ul": 292,
      "Ġay": 293,
      "Ġqil": 294,
      "ĠI": 295,
      "Ġki": 296,
      "ĠÃķ": 297,
      "Ġte": 298,
      "Ġyu": 299,
      "fa": 300,
      "Ġ20": 301,
      "larini": 302,
      "ona": 303,
      "miz": 304,
      "ori": 305,
      "ot": 306,
      "ĠQ": 307,
      "ossiya": 308,
      "ev": 309,
      "ĠÃµz": 310,
      "kat": 311,
      "ah": 312,
      "moqda": 313,
      "larning": 314,
      "ĠRossiya": 315,
      "rat": 316,
      "ĠsÃµ": 317,
      "kra": 318,
      "ydi": 319,
      "tib": 320,
      "Ġch": 321,
      "lma": 322,
      "Ġho": 323,
      "kiston": 324,
      "Ġxa": 325,
      "ina": 326,
      "rib": 327,
      "Ġdav": 328,
      "ĠBu": 329,
      "Ġqa": 330,
      "oli": 331,
      "zbe": 332,
      "du": 333,
      "ĠH": 334,
      "le": 335,
      "Ġqo": 336,
      "Ġn": 337,
      "niya": 338,
      "sti": 339,
      "larda": 340,
      "Ġmi": 341,
      "ko": 342,
      "ĠbÃµlgan": 343,
      "ha": 344,
      "Ġvazi": 345,
      "pa": 346,
      "kt": 347,
      "us": 348,
      "Ġka": 349,
      "ĠP": 350,
      "kraina": 351,
      "ĠbÃµyi": 352,
      "zbekiston": 353,
      "ĠO": 354,
      "ngi": 355,
      "langan": 356,
      "ĠbÃµyicha": 357,
      "siz": 358,
      "Ġqu": 359,
      "lani": 360,
      "lariga": 361,
      "ĠÃķzbekiston": 362,
      "ĠÃµt": 363,
      "Ġor": 364,
      "ĠUkraina": 365,
      "tirish": 366,
      "man": 367,
      "Ġhi": 368,
      "Ġti": 369,
      "uq": 370,
      "ent": 371,
      "ir": 372,
      "uvchi": 373,
      "Ġtar": 374,
      "yin": 375,
      "Ġin": 376,
      "Ġdavlat": 377,
      "tida": 378,
      "ĠN": 379,
      "rin": 380,
      "Ġsi": 381,
      "um": 382,
      "kazi": 383,
      "ĠD": 384,
      "ĠX": 385,
      "Ġqilish": 386,
      "mat": 387,
      "Ġ(": 388,
      "yot": 389,
      "Ġko": 390,
      "iy": 391,
      "Ġg": 392,
      "Ġre": 393,
      "Ġmum": 394,
      "sp": 395,
      "kil": 396,
      "Ġmumkin": 397,
      "to": 398,
      "mas": 399,
      "ĠÃµr": 400,
      "biy": 401,
      "Â»": 402,
      "Â«": 403,
      "kor": 404,
      "ĠÂ«": 405,
      "Ġhar": 406,
      "bu": 407,
      "ĠkÃµra": 408,
      "Ġber": 409,
      "day": 410,
      "Ġhaqi": 411,
      "moni": 412,
      "bar": 413,
      "Ġkuni": 414,
      "Ġdo": 415,
      "Ġshu": 416,
      "ĠJ": 417,
      "rak": 418,
      "Ġsu": 419,
      "dir": 420,
      "ru": 421,
      "lga": 422,
      "roq": 423,
      "yotgan": 424,
      "Ġfa": 425,
      "den": 426,
      "hi": 427,
      "Ġ3": 428,
      "Ġ202": 429,
      "bo": 430,
      "Ġqar": 431,
      "Ġeti": 432,
      "ĠF": 433,
      "sha": 434,
      "ov": 435,
      "yati": 436,
      "ĠkÃµp": 437,
      "Ġqay": 438,
      "Ġesa": 439,
      "Ġbor": 440,
      "dam": 441,
      "ĠG": 442,
      "osh": 443,
      "Ġno": 444,
      "liy": 445,
      "zar": 446,
      "fi": 447,
      "bat": 448,
      "mon": 449,
      "ĠMa": 450,
      "gar": 451,
      "Ġtomoni": 452,
      "rilgan": 453,
      "sini": 454,
      "Ġav": 455,
      "Ġqilin": 456,
      "radi": 457,
      "ku": 458,
      "ĠkÃµr": 459,
      "ĠV": 460,
      "Ġim": 461,
      "Ġga": 462,
      "ĠE": 463,
      "lov": 464,
      "in": 465,
      "siga": 466,
      "ilo": 467,
      "Ġtashkil": 468,
      "Ġoshi": 469,
      "Ġkun": 470,
      "Ġdeb": 471,
      "nadi": 472,
      "Ġshah": 473,
      "ziden": 474,
      "dda": 475,
      "lardan": 476,
      "reziden": 477,
      "liq": 478,
      "dek": 479,
      "Ġkerak": 480,
      "Ġv": 481,
      "00": 482,
      "ĠL": 483,
      "Ġama": 484,
      "Ġolib": 485,
      "'m": 486,
      "Ġaso": 487,
      "Ġmar": 488,
      "Ġtomonidan": 489,
      "ort": 490,
      "Ġik": 491,
      "dim": 492,
      "Ç§ri": 493,
      "mmo": 494,
      "Ġba": 495,
      "Ġni": 496,
      "br": 497,
      "Ġhudu": 498,
      "miy": 499,
      "ut": 500,
      "siy": 501,
      "pi": 502,
      "Ġjoy": 503,
      "qar": 504,
      "mla": 505,
      "Ġhiso": 506,
      "lin": 507,
      "Ġdara": 508,
      "lim": 509,
      "zil": 510,
      "larida": 511,
      "Ġsha": 512,
      "Ġtur": 513,
      "Ġdavo": 514,
      "ĠShu": 515,
      "ĠbÃµl": 516,
      "Ġhaqida": 517,
      "mida": 518,
      "\",": 519,
      "tan": 520,
      "tir": 521,
      "Ġbar": 522,
      "lumo": 523,
      "tadi": 524,
      "ran": 525,
      "Ġmil": 526,
      "ligini": 527,
      "fo": 528,
      "chilik": 529,
      "Ġxiz": 530,
      "ĠÃµzi": 531,
      "rishi": 532,
      "Ġboshqa": 533,
      "Sh": 534,
      "qat": 535,
      "mu": 536,
      "Ġfo": 537,
      "el": 538,
      "Ġji": 539,
      "ĠbÃµlib": 540,
      "Ġoldi": 541,
      "Ġ5": 542,
      "ĠkÃµrsa": 543,
      "Ġmah": 544,
      "ĠbÃµladi": 545,
      "tilgan": 546,
      "evro": 547,
      "Ġqildi": 548,
      "Ġyi": 549,
      "Ġdaraja": 550,
      "ganini": 551,
      "Ġedi": 552,
      "mati": 553,
      "Ġye": 554,
      "xona": 555,
      "Ġvaq": 556,
      "dor": 557,
      "Ġme": 558,
      "nga": 559,
      "ĠtÃµÇ§ri": 560,
      "lum": 561,
      "zir": 562,
      "lumot": 563,
      "Ġyangi": 564,
      "Ġpreziden": 565,
      "Ġharbiy": 566,
      "Ġmamla": 567,
      "qin": 568,
      "diy": 569,
      "Ġche": 570,
      "Ġega": 571,
      "Ġhuj": 572,
      "Ġ4": 573,
      "Ġyilda": 574,
      "viy": 575,
      "yap": 576,
      "Ġyet": 577,
      "Ġxabar": 578,
      "Ġd": 579,
      "Ġming": 580,
      "mani": 581,
      "Ġkom": 582,
      "Ġlo": 583,
      "ĠC": 584,
      "ĠyÃµq": 585,
      "Ġqan": 586,
      "Ġvazir": 587,
      "ron": 588,
      "kent": 589,
      "Ġrah": 590,
      "Ġvilo": 591,
      "Ġolish": 592,
      "Ġxo": 593,
      "tdi": 594,
      "oyda": 595,
      "Ġhara": 596,
      "rida": 597,
      "paniya": 598,
      "larining": 599,
      "landi": 600,
      "niq": 601,
      "it": 602,
      "Ġhisob": 603,
      "QSh": 604,
      "dar": 605,
      "av": 606,
      "oshkent": 607,
      "Ġikki": 608,
      "tsiya": 609,
      "alq": 610,
      "gacha": 611,
      "Ġmamlakat": 612,
      "unday": 613,
      "Ġfoyda": 614,
      "ĠAQSh": 615,
      "Ġqarshi": 616,
      "ora": 617,
      "bli": 618,
      "Ġzar": 619,
      "bir": 620,
      "sining": 621,
      "sidagi": 622,
      "Ġemas": 623,
      "lanadi": 624,
      "yu": 625,
      "Ġchiqa": 626,
      "ĠToshkent": 627,
      "Ġne": 628,
      "sta": 629,
      "giya": 630,
      "yor": 631,
      "Ġyoki": 632,
      "bor": 633,
      "Ġqilgan": 634,
      "xi": 635,
      "tin": 636,
      "uri": 637,
      "ulo": 638,
      "Ġchiqi": 639,
      "Ġyana": 640,
      "Ġqis": 641,
      "Ġeng": 642,
      "Ġberi": 643,
      "bari": 644,
      "eri": 645,
      "Ġyor": 646,
      "lon": 647,
      "var": 648,
      "Ġishlab": 649,
      "xs": 650,
      "Ġqat": 651,
      "Ġ7": 652,
      "ĠyÃµl": 653,
      "Ġnar": 654,
      "Ġberish": 655,
      "ĠYa": 656,
      "ho": 657,
      "lay": 658,
      "far": 659,
      "lagan": 660,
      "ĠbÃµlishi": 661,
      "ningdek": 662,
      "ĠYevro": 663,
      "Ġtan": 664,
      "yapti": 665,
      "tini": 666,
      "Ġshar": 667,
      "ĠSa": 668,
      "shbu": 669,
      "Ġkuch": 670,
      "Ġharakat": 671,
      "Ġvo": 672,
      "ĠqÃµshi": 673,
      "Ġuning": 674,
      "Ġmo": 675,
      "Ġhamda": 676,
      "Ġtizi": 677,
      "Ġorqa": 678,
      "lashi": 679,
      "Ġmaq": 680,
      "Ġsaba": 681,
      "yiha": 682,
      "Ġamalga": 683,
      "Ġbiz": 684,
      "Ġdol": 685,
      "ĠÃµrta": 686,
      "bul": 687,
      "Ġqara": 688,
      "undan": 689,
      "uqaro": 690,
      "laridan": 691,
      "son": 692,
      "layotgan": 693,
      "ĠbÃµldi": 694,
      "ud": 695,
      "Ġml": 696,
      "Ġyer": 697,
      "Ġah": 698,
      "ĠqÃµl": 699,
      "Ġeka": 700,
      "Ġmilli": 701,
      "dbir": 702,
      "atta": 703,
      "masi": 704,
      "Ġbarcha": 705,
      "Ġchiq": 706,
      "..": 707,
      "Ġholat": 708,
      "ji": 709,
      "Ġfoiz": 710,
      "Ġjamo": 711,
      "as": 712,
      "Ġaniq": 713,
      "Ġxav": 714,
      "qti": 715,
      "lanish": 716,
      "erg": 717,
      "Ġqon": 718,
      "Ġorqali": 719,
      "te": 720,
      "mol": 721,
      "Ġ6": 722,
      "rol": 723,
      "ĠÃµtka": 724,
      "rinchi": 725,
      "ĠsÃµng": 726,
      "Ġfuqaro": 727,
      "Ġmasa": 728,
      "Ġkeyin": 729,
      "Ġloyiha": 730,
      "Ġtez": 731,
      "Ġij": 732,
      "lgi": 733,
      "Ġdi": 734,
      "niy": 735,
      "lekt": 736,
      "ĠbÃµlma": 737,
      "ĠÇ§": 738,
      "Ġetish": 739,
      "san": 740,
      "Ġr": 741,
      "gu": 742,
      "tiga": 743,
      "Ġpay": 744,
      "magan": 745,
      "Ġoyi": 746,
      "es": 747,
      "rim": 748,
      "Ġxizmat": 749,
      "ilgan": 750,
      "Ġuru": 751,
      "Ġqilingan": 752,
      "Ġkompaniya": 753,
      "Ġ19": 754,
      "Ġmav": 755,
      "xta": 756,
      "Ġrahbari": 757,
      "ĠYevropa": 758,
      "Ġman": 759,
      "Ġqanday": 760,
      "Ġkatta": 761,
      "vat": 762,
      "Ġxalq": 763,
      "lanishi": 764,
      "Ġkiri": 765,
      "Ġavto": 766,
      "Ġshahar": 767,
      "ĠsÃµm": 768,
      "Ġpa": 769,
      "tda": 770,
      "ngiz": 771,
      "Ġkel": 772,
      "ĠbÃµlsa": 773,
      "sidan": 774,
      "Ġtush": 775,
      "lashti": 776,
      "Ġmay": 777,
      "Ġvazirligi": 778,
      "ĠÃµrin": 779,
      "qtiso": 780,
      "Ġtay": 781,
      "Ġtop": 782,
      "likda": 783,
      "Ġxavf": 784,
      "Ġolin": 785,
      "Ġqabul": 786,
      "tishi": 787,
      "Ġtayyor": 788,
      "Ġyordam": 789,
      "Ġen": 790,
      "lashtirish": 791,
      "ubli": 792,
      "Ġri": 793,
      "ĠÃµtkazi": 794,
      "Ġaholi": 795,
      "tiq": 796,
      "jat": 797,
      "ublika": 798,
      "spublika": 799,
      "Ġhuq": 800,
      "Ġmasala": 801,
      "kid": 802,
      "ĠZ": 803,
      "Ġuni": 804,
      "laydi": 805,
      "tiro": 806,
      "ve": 807,
      "may": 808,
      "Ġbil": 809,
      "ksiya": 810,
      "Ġyosh": 811,
      "Ġza": 812,
      "Ġpro": 813,
      "ĠTa": 814,
      "Ġtak": 815,
      "rasida": 816,
      "ĠboÇ§": 817,
      "chilar": 818,
      "Ġhudud": 819,
      "Ġcha": 820,
      "uz": 821,
      "Ġdedi": 822,
      "Ġbelgi": 823,
      "ĠCh": 824,
      "uda": 825,
      "Ġmun": 826,
      "Ġyax": 827,
      "Ġtaq": 828,
      "Ġfaoli": 829,
      "Ġmaqsa": 830,
      "tija": 831,
      "don": 832,
      "rash": 833,
      "Ġ2022": 834,
      "Ġbiri": 835,
      "maydi": 836,
      "Ġishtiro": 837,
      "ke": 838,
      "ĠRe": 839,
      "Ġdoi": 840,
      "Ġpar": 841,
      "Ġbirinchi": 842,
      "nini": 843,
      "Ġis": 844,
      "Ġsifa": 845,
      "Ġimko": 846,
      "Ġet": 847,
      "Ġshi": 848,
      "liklar": 849,
      "Ġberdi": 850,
      "Ġil": 851,
      "til": 852,
      "ĠIs": 853,
      "Ġyaqin": 854,
      "Ġar": 855,
      "kta": 856,
      "Ġalo": 857,
      "Ġhamkor": 858,
      "Ġgaz": 859,
      "ĠyÃµna": 860,
      "Ġras": 861,
      "mir": 862,
      "Ġjavo": 863,
      "Ġodam": 864,
      "Ġhoki": 865,
      "Ġse": 866,
      "Ġyuq": 867,
      "Ġoy": 868,
      "ech": 869,
      "Ġprezidenti": 870,
      "oriy": 871,
      "Ġyaxshi": 872,
      "Ġqilib": 873,
      "Ġsoha": 874,
      "Ġelekt": 875,
      "nishi": 876,
      "Ġdavom": 877,
      "quv": 878,
      "Ġban": 879,
      "Ġ10": 880,
      "Ġtumani": 881,
      "shga": 882,
      "timo": 883,
      "ĠHa": 884,
      "Ġuy": 885,
      "Ġnafar": 886,
      "lif": 887,
      "bil": 888,
      "Ġ8": 889,
      "Ġyuqori": 890,
      "Ġqiladi": 891,
      "Ġolgan": 892,
      "Ġushbu": 893,
      "Ġbola": 894,
      "ssiya": 895,
      "Ġrivo": 896,
      "ĠsÃµz": 897,
      "Ġqonun": 898,
      "nida": 899,
      "ĠNa": 900,
      "Ġkishi": 901,
      "tlar": 902,
      "unyo": 903,
      "Ġqayta": 904,
      "ver": 905,
      "Ġfi": 906,
      "noyat": 907,
      "val": 908,
      "Ġek": 909,
      "nat": 910,
      "sk": 911,
      "Ġmaj": 912,
      "mini": 913,
      "ĠqÃµy": 914,
      "Ġkor": 915,
      "uru": 916,
      "Ġsiyo": 917,
      "Ġtex": 918,
      "Ġtadbir": 919,
      "Ġjuda": 920,
      "bla": 921,
      "Ġsay": 922,
      "ter": 923,
      "hat": 924,
      "qan": 925,
      "Ġmuno": 926,
      "loq": 927,
      "Ġular": 928,
      "ĠÃµtgan": 929,
      "Ġjamoa": 930,
      "Ġhaq": 931,
      "riladi": 932,
      "Ġkon": 933,
      "Ġhuku": 934,
      "Ġrivoj": 935,
      "ratsiya": 936,
      "shda": 937,
      "Ġnatija": 938,
      "ĠQo": 939,
      "moya": 940,
      "Ġsuv": 941,
      "20": 942,
      "rik": 943,
      "sport": 944,
      "Ġshaxs": 945,
      "Ġsabab": 946,
      "ĠÃµqi": 947,
      "mcha": 948,
      "yotgani": 949,
      "ĠÃµyin": 950,
      "tasi": 951,
      "lashgan": 952,
      "Ġreja": 953,
      "Ġun": 954,
      "mar": 955,
      "Ġtashqa": 956,
      "yish": 957,
      "yabr": 958,
      "Ġishlar": 959,
      "dida": 960,
      "Ġhozir": 961,
      "Ġxalqaro": 962,
      "shan": 963,
      "lantirish": 964,
      "ĠHo": 965,
      "Ġqurol": 966,
      "ril": 967,
      "Ġsifatida": 968,
      "Ġviloyati": 969,
      "Ġtalab": 970,
      "Ġdavomida": 971,
      "riga": 972,
      "go": 973,
      "Ġ9": 974,
      "Ġichi": 975,
      "noma": 976,
      "Ġnis": 977,
      "Ġtas": 978,
      "Ġbirga": 979,
      "Ġshart": 980,
      "Ġiqtiso": 981,
      "Ġetgan": 982,
      "ĠTur": 983,
      "Ġyuza": 984,
      "lida": 985,
      "tti": 986,
      "faa": 987,
      "Ġolma": 988,
      "Ġro": 989,
      "Ġnisba": 990,
      "Ġsaq": 991,
      "Ġasosiy": 992,
      "Ġdast": 993,
      "Ġ201": 994,
      "Ġvaziyat": 995,
      "Ġtushi": 996,
      "Ġsud": 997,
      "Ãµy": 998,
      "'t": 999,
      "Ġxavfsiz": 1000,
      "zilgan": 1001,
      "ĠMu": 1002,
      "Ç¦": 1003,
      "Ġbergan": 1004,
      "sulo": 1005,
      "Ġyetkazi": 1006,
      "Ġjavob": 1007,
      "Ġrasmiy": 1008,
      "Ġboshqar": 1009,
      "chisi": 1010,
      "Ġnisbatan": 1011,
      "likni": 1012,
      "Ġoshirish": 1013,
      "sari": 1014,
      "dofaa": 1015,
      "Ġguru": 1016,
      "rilishi": 1017,
      "ayon": 1018,
      "adi": 1019,
      "itoy": 1020,
      "tax": 1021,
      "ey": 1022,
      "Ġvaziri": 1023,
      "oni": 1024,
      "Ġbuy": 1025,
      "Ġol": 1026,
      "Ġmillion": 1027,
      "Ġdegan": 1028,
      "Ġmahsulo": 1029,
      "usu": 1030,
      "Ġpul": 1031,
      "Ġmunosa": 1032,
      "laba": 1033,
      "Ġtashqari": 1034,
      "Ġxodim": 1035,
      "Ġ15": 1036,
      "ĠtÃµxta": 1037,
      "ral": 1038,
      "Ġortiq": 1039,
      "Ġhech": 1040,
      "Ġhujum": 1041,
      "ĠBi": 1042,
      "ĠMar": 1043,
      "riy": 1044,
      "Ġmua": 1045,
      "ttifo": 1046,
      "ktab": 1047,
      "Ġkenga": 1048,
      "Ġhol": 1049,
      "Ġyara": 1050,
      "Ġmln": 1051,
      "ski": 1052,
      "Ġmuho": 1053,
      "ĠÇ¦": 1054,
      "Ġmuhi": 1055,
      "Ġkam": 1056,
      "bol": 1057,
      "Ġmudda": 1058,
      "Ġprezident": 1059,
      "Ġiy": 1060,
      "rini": 1061,
      "lam": 1062,
      "pe": 1063,
      "Ç§ir": 1064,
      "ĠVa": 1065,
      "liga": 1066,
      "Ġjoriy": 1067,
      "Ġkelib": 1068,
      "Ġqilindi": 1069,
      "rd": 1070,
      "lanib": 1071,
      "Ġoi": 1072,
      "Ç§iston": 1073,
      "Ãµl": 1074,
      "zim": 1075,
      "Ġmiq": 1076,
      "Ġoqi": 1077,
      "Ġtran": 1078,
      "Ġishtirok": 1079,
      "Ġmas": 1080,
      "Ġer": 1081,
      "Ġshuningdek": 1082,
      "jon": 1083,
      "ĠÃµzga": 1084,
      "Ġqaror": 1085,
      "Ġochi": 1086,
      "Ġmuammo": 1087,
      "Ġmarkazi": 1088,
      "likka": 1089,
      "Ġetilgan": 1090,
      "Ġxizmati": 1091,
      "shni": 1092,
      "Ġan": 1093,
      "Ġag": 1094,
      "Ġtomon": 1095,
      "Ġtaklif": 1096,
      "erma": 1097,
      "po": 1098,
      "zod": 1099,
      "Ġkelish": 1100,
      "ĠrÃµy": 1101,
      "liya": 1102,
      "Ġchora": 1103,
      "ĠXitoy": 1104,
      "Ġkelgan": 1105,
      "Ġfaqat": 1106,
      "vdo": 1107,
      "uvi": 1108,
      "Ġqilishi": 1109,
      "Ġmat": 1110,
      "Ġaj": 1111,
      "oro": 1112,
      "Ġsavdo": 1113,
      "Ġdunyo": 1114,
      "Ġhimoya": 1115,
      "sat": 1116,
      "diq": 1117,
      "Ġmahal": 1118,
      "miya": 1119,
      "Ġbah": 1120,
      "ĠAmmo": 1121,
      "Ġolingan": 1122,
      "Ġvaqt": 1123,
      "Ġularning": 1124,
      "timoiy": 1125,
      "ĠqÃµshimcha": 1126,
      "Ġfar": 1127,
      "mobil": 1128,
      "ĠLe": 1129,
      "port": 1130,
      "riya": 1131,
      "Ġammo": 1132,
      "logiya": 1133,
      "Ġkabi": 1134,
      "Ġyilning": 1135,
      "om": 1136,
      "ram": 1137,
      "kinchi": 1138,
      "ĠboÇ§liq": 1139,
      "Ġ2023": 1140,
      "oliya": 1141,
      "Ġla": 1142,
      "Ġsodir": 1143,
      "shli": 1144,
      "Ġtari": 1145,
      "Ġoyida": 1146,
      "Ġyan": 1147,
      "Ġak": 1148,
      "kama": 1149,
      "Ġhavo": 1150,
      "Ġhaqda": 1151,
      "Ç§in": 1152,
      "Ġhujjat": 1153,
      "larimiz": 1154,
      "Ġhuquq": 1155,
      "orij": 1156,
      "Ġtashkilot": 1157,
      "ĠAv": 1158,
      "yol": 1159,
      "Ġtah": 1160,
      "dov": 1161,
      "bek": 1162,
      "ĠUkrainaga": 1163,
      "ĠÃµq": 1164,
      "stit": 1165,
      "rov": 1166,
      "Ġdar": 1167,
      "qo": 1168,
      "etr": 1169,
      "Ġqayd": 1170,
      "Ġdeya": 1171,
      "roil": 1172,
      "ĠShuningdek": 1173,
      "ĠPu": 1174,
      "yev": 1175,
      "Ġmeh": 1176,
      "siyo": 1177,
      "tar": 1178,
      "Ġchiqarish": 1179,
      "tibi": 1180,
      "Ġom": 1181,
      "tiladi": 1182,
      "chasi": 1183,
      "ĠKa": 1184,
      "lini": 1185,
      "ddiy": 1186,
      "Ġjinoyat": 1187,
      "Ġfaoliyati": 1188,
      "Ġurush": 1189,
      "kur": 1190,
      "Ġqadar": 1191,
      "rildi": 1192,
      "nan": 1193,
      "shina": 1194,
      "miga": 1195,
      "ura": 1196,
      "Ġberadi": 1197,
      "Ġvi": 1198,
      "unga": 1199,
      "Ġru": 1200,
      "Ġnecha": 1201,
      "ermaniya": 1202,
      "ĠkÃµrsat": 1203,
      "'s": 1204,
      "hon": 1205,
      "arli": 1206,
      "niga": 1207,
      "Ġholda": 1208,
      "qiq": 1209,
      "...": 1210,
      "Ġmaktab": 1211,
      "ĠÃķzbekistonda": 1212,
      "ladan": 1213,
      "Ġmuhim": 1214,
      "ĠÃµy": 1215,
      "Ġfik": 1216,
      "ĠqÃµllab": 1217,
      "lama": 1218,
      "nali": 1219,
      "Ġchek": 1220,
      "Ġnazo": 1221,
      "Ġqoldi": 1222,
      "xa": 1223,
      "sita": 1224,
      "Ġbora": 1225,
      "ĠBundan": 1226,
      "miyat": 1227,
      "Ġyanvar": 1228,
      "quvvat": 1229,
      "Ġmahsulot": 1230,
      "Ġbos": 1231,
      "Ġtuman": 1232,
      "Ġmudofaa": 1233,
      "ĠBa": 1234,
      "Ġkim": 1235,
      "Ġqolgan": 1236,
      "Ġeh": 1237,
      "ĠUning": 1238,
      "Ġdollar": 1239,
      "jud": 1240,
      "ĠRespublika": 1241,
      "Ġax": 1242,
      "Ġoldin": 1243,
      "ĠGermaniya": 1244,
      "ĠAn": 1245,
      "ĠÃµzgar": 1246,
      "enta": 1247,
      "Ġbal": 1248,
      "Ġyetkazib": 1249,
      "Ġsoat": 1250,
      "par": 1251,
      "Ġelektr": 1252,
      "Ġat": 1253,
      "chki": 1254,
      "Ġagent": 1255,
      "Ġbunday": 1256,
      "Ġhay": 1257,
      "Ġviloyat": 1258,
      "unki": 1259,
      "tidan": 1260,
      "Ġzarba": 1261,
      "Ġnima": 1262,
      "Ġtopshi": 1263,
      "Ġmusta": 1264,
      "Ġnav": 1265,
      "utbol": 1266,
      "Ġas": 1267,
      "gara": 1268,
      "lovchi": 1269,
      "tilishi": 1270,
      "Ġgap": 1271,
      "Ġshunday": 1272,
      "ĠBiz": 1273,
      "ganidan": 1274,
      "Ġal": 1275,
      "Ġz": 1276,
      "Ġetdi": 1277,
      "Ġyak": 1278,
      "zm": 1279,
      "zoq": 1280,
      "Ġaloqa": 1281,
      "Ġshahri": 1282,
      "Ġnarsa": 1283,
      "umladan": 1284,
      "Ġekan": 1285,
      "zor": 1286,
      "kiya": 1287,
      "Ġayb": 1288,
      "ĠDav": 1289,
      "Ġmarta": 1290,
      "Ġtegi": 1291,
      "skiy": 1292,
      "borot": 1293,
      "Ġmavjud": 1294,
      "ĠIsroil": 1295,
      "Ġtasdiq": 1296,
      "Ġmunosabat": 1297,
      "Ġsoni": 1298,
      "niyat": 1299,
      "Ġquri": 1300,
      "Ġfoydalanish": 1301,
      "tak": 1302,
      "lok": 1303,
      "Ġchaqi": 1304,
      "Ġsov": 1305,
      "atsiya": 1306,
      "Ġavtomobil": 1307,
      "ayli": 1308,
      "se": 1309,
      "ĠPutin": 1310,
      "ttifoqi": 1311,
      "madi": 1312,
      "unda": 1313,
      "Ġuchrash": 1314,
      "Ġsan": 1315,
      "nal": 1316,
      "ĠKe": 1317,
      "Ġ12": 1318,
      "qon": 1319,
      "Ġtizim": 1320,
      "tilma": 1321,
      "tun": 1322,
      "dro": 1323,
      "shanba": 1324,
      "Ġijtimoiy": 1325,
      "tga": 1326,
      "qiy": 1327,
      "rdi": 1328,
      "Ġtuf": 1329,
      "ziyo": 1330,
      "Ġqish": 1331,
      "qe": 1332,
      "Ġkuza": 1333,
      "ktori": 1334,
      "Ġajra": 1335,
      "ĠRossiyaning": 1336,
      "Ġtufayli": 1337,
      "kon": 1338,
      "Ġtele": 1339,
      "lashga": 1340,
      "Ġpo": 1341,
      "roz": 1342,
      "Ġfutbol": 1343,
      "Ġtegishli": 1344,
      "ĠBe": 1345,
      "ĠtÃµÇ§risida": 1346,
      "Ġyoz": 1347,
      "Ġbildir": 1348,
      "ĠIn": 1349,
      "tika": 1350,
      "Ġyildan": 1351,
      "ĠBosh": 1352,
      "nov": 1353,
      "Ġchegara": 1354,
      "Ġmoliya": 1355,
      "Ġ11": 1356,
      "yiladi": 1357,
      "Ġtarmoq": 1358,
      "roja": 1359,
      "ste": 1360,
      "zoÇ§iston": 1361,
      "Ġosh": 1362,
      "Ġayol": 1363,
      "Ġumu": 1364,
      "Ġyerda": 1365,
      "rgan": 1366,
      "ĠTe": 1367,
      "ard": 1368,
      "xsus": 1369,
      "Ġaxborot": 1370,
      "fta": 1371,
      "daryo": 1372,
      "Ġyuzasidan": 1373,
      "ildi": 1374,
      "Ġoladi": 1375,
      "Ġkucha": 1376,
      "is": 1377,
      "ĠDavlat": 1378,
      "Ġmashina": 1379,
      "Ġturli": 1380,
      "yib": 1381,
      "moqchi": 1382,
      "ĠtÃµp": 1383,
      "ĠKun": 1384,
      "Ġetadi": 1385,
      "gik": 1386,
      "ĠyiÇ§i": 1387,
      "Ġmlrd": 1388,
      "Ġdu": 1389,
      "Ġtashqi": 1390,
      "ĠBo": 1391,
      "ergiya": 1392,
      "Ġasosida": 1393,
      "bus": 1394,
      "Ġnafa": 1395,
      "Ġhaqidagi": 1396,
      "voz": 1397,
      "Ġap": 1398,
      "keta": 1399,
      "Ġkorxona": 1400,
      "Ġtadbirkor": 1401,
      "Ġxorij": 1402,
      "Ġmuhokama": 1403,
      "yan": 1404,
      "Ġlavo": 1405,
      "ĠbÃµlish": 1406,
      "ĠTurkiya": 1407,
      "Ġvosita": 1408,
      "Ġmin": 1409,
      "Ġqaro": 1410,
      "Ãµja": 1411,
      "Ġjang": 1412,
      "Ġtib": 1413,
      "ĠMir": 1414,
      "Ġeksp": 1415,
      "Ġmabla": 1416,
      "Ġdeydi": 1417,
      "Ġbino": 1418,
      "stida": 1419,
      "sion": 1420,
      "Ġtaqdim": 1421,
      "ĠHozir": 1422,
      "tiya": 1423,
      "marqan": 1424,
      "ĠÃµrinbo": 1425,
      "ĠQozoÇ§iston": 1426,
      "meri": 1427,
      "ĠsÃµzlariga": 1428,
      "Ġmen": 1429,
      "ligiga": 1430,
      "buot": 1431,
      "tildi": 1432,
      "kaziy": 1433,
      "Ġqilinishi": 1434,
      "Ġqol": 1435,
      "Ġinson": 1436,
      "rab": 1437,
      "Ġichida": 1438,
      "Ġshak": 1439,
      "ĠyÃµnalish": 1440,
      "Ġvakil": 1441,
      "Ġsavo": 1442,
      "Ġenergiya": 1443,
      "Ġrivojlantirish": 1444,
      "rita": 1445,
      "lashtirilgan": 1446,
      "Ġxusu": 1447,
      "Ġmilliy": 1448,
      "Ġatro": 1449,
      "Ġ18": 1450,
      "ĠkÃµrib": 1451,
      "ĠLekin": 1452,
      "arb": 1453,
      "ĠÃµrinbosari": 1454,
      "biq": 1455,
      "qea": 1456,
      "Ġishi": 1457,
      "Ġyuk": 1458,
      "batida": 1459,
      "ĠAy": 1460,
      "dori": 1461,
      "Ġbank": 1462,
      "Ġsamol": 1463,
      "siq": 1464,
      "uvchilar": 1465,
      "Ġ30": 1466,
      "Ġtexni": 1467,
      "Ġraketa": 1468,
      "Ġguruh": 1469,
      "Ġkeladi": 1470,
      "Ġishlari": 1471,
      "Ġvazifa": 1472,
      "kati": 1473,
      "Ġtartib": 1474,
      "Ġunga": 1475,
      "tiv": 1476,
      "dik": 1477,
      "zon": 1478,
      "ĠtÃµliq": 1479,
      "ss": 1480,
      "Ġoila": 1481,
      "Ġikkinchi": 1482,
      "ĠmablaÇ§": 1483,
      "Ġasos": 1484,
      "Ġbosqi": 1485,
      "zda": 1486,
      "chalik": 1487,
      "ĠOsiyo": 1488,
      "Ġamal": 1489,
      "Ġuchi": 1490,
      "Ġmatbuot": 1491,
      "kva": 1492,
      "assi": 1493,
      "ĠSamarqan": 1494,
      "Ġmuroja": 1495,
      "sal": 1496,
      "su": 1497,
      "Ġjoylarda": 1498,
      "kam": 1499,
      "ye": 1500,
      "der": 1501,
      "bori": 1502,
      "yishi": 1503,
      "ĠÃµta": 1504,
      "Ç§a": 1505,
      "zkur": 1506,
      "hida": 1507,
      "tiyo": 1508,
      "Ġ+": 1509,
      "merika": 1510,
      "Ġrahbar": 1511,
      "Ġle": 1512,
      "ergov": 1513,
      "Ġchiqish": 1514,
      "Ġchiqib": 1515,
      "ĠJa": 1516,
      "Ġkechasi": 1517,
      "ĠMarkaziy": 1518,
      "ĠTo": 1519,
      "Ġhukumati": 1520,
      "Ġyirik": 1521,
      "Ġtarqa": 1522,
      "Ġimzo": 1523,
      "Ġmaxsus": 1524,
      "bur": 1525,
      "ĠÃµrna": 1526,
      "Ġtin": 1527,
      "izi": 1528,
      "Ġhududi": 1529,
      "chilari": 1530,
      "Ġjazo": 1531,
      "liÇ§i": 1532,
      "Ġuzoq": 1533,
      "tirib": 1534,
      "Ġkelishi": 1535,
      "Ġhafta": 1536,
      "Ġqur": 1537,
      "yotganini": 1538,
      "Ch": 1539,
      "Ġ14": 1540,
      "ĠÇ§a": 1541,
      "Ġrespublika": 1542,
      "ĠRa": 1543,
      "ĠÃµtkaz": 1544,
      "Ġishon": 1545,
      "diya": 1546,
      "vishda": 1547,
      "Ġpoy": 1548,
      "Ġyasha": 1549,
      "Ġetilishi": 1550,
      "ĠxÃµja": 1551,
      "Ġvide": 1552,
      "ibor": 1553,
      "arorat": 1554,
      "\".": 1555,
      "Ġdoirasida": 1556,
      "Ġjoylashgan": 1557,
      "ĠAb": 1558,
      "Ġ200": 1559,
      "oskva": 1560,
      "iyev": 1561,
      "Ġravishda": 1562,
      "ĠÃµrtasida": 1563,
      "versi": 1564,
      "kara": 1565,
      "Ġbutun": 1566,
      "Ġuz": 1567,
      "sib": 1568,
      "kaz": 1569,
      "Ġ16": 1570,
      "anu": 1571,
      "'d": 1572,
      "tishga": 1573,
      "ziq": 1574,
      "qil": 1575,
      "ĠqÃµmi": 1576,
      "taxassi": 1577,
      "Ġtizimi": 1578,
      "bon": 1579,
      "ĠqÃµlga": 1580,
      "Ġhokim": 1581,
      "zokara": 1582,
      "Ġsanksiya": 1583,
      "Â»,": 1584,
      "tli": 1585,
      "Ġsenta": 1586,
      "Ġ2021": 1587,
      "Ġfoizga": 1588,
      "Ġayrim": 1589,
      "tirgan": 1590,
      "Ġdeka": 1591,
      "Ġnarx": 1592,
      "Ġberilgan": 1593,
      "rel": 1594,
      "Ġqila": 1595,
      "ĠII": 1596,
      "gun": 1597,
      "Ġmaqsadida": 1598,
      "Ġ13": 1599,
      "Ġbayon": 1600,
      "Ġsar": 1601,
      "Ġvoqea": 1602,
      "ĠBir": 1603,
      "Ġmilliard": 1604,
      "Ġhamkorlik": 1605,
      "ĠAf": 1606,
      "Ġrossiya": 1607,
      "Ġdeyiladi": 1608,
      "yoti": 1609,
      "Ġyanada": 1610,
      "rishga": 1611,
      "Ġjumladan": 1612,
      "Ġarmiya": 1613,
      "Ġturadi": 1614,
      "Ġyetak": 1615,
      "dosh": 1616,
      "shadi": 1617,
      "ĠKiyev": 1618,
      "ĠsÃµnggi": 1619,
      "Ġboshi": 1620,
      "ĠMoskva": 1621,
      "uniy": 1622,
      "Ġnom": 1623,
      "Ġshahrida": 1624,
      "limi": 1625,
      "Ġiste": 1626,
      "Ġnazorat": 1627,
      "Ġshartnoma": 1628,
      "ĠPreziden": 1629,
      "Ġqismi": 1630,
      "tilmoqda": 1631,
      "Ġtor": 1632,
      "Ġkundu": 1633,
      "Ġberishi": 1634,
      "Ġhalok": 1635,
      "Ġmuva": 1636,
      "ĠMi": 1637,
      "Ġlekin": 1638,
      "ffa": 1639,
      "rif": 1640,
      "ĠUlar": 1641,
      "12": 1642,
      "ĠtÃµÇ§risidagi": 1643,
      "uriy": 1644,
      "lati": 1645,
      "mad": 1646,
      "Ġhuqu": 1647,
      "Ġiqtisodiy": 1648,
      "Ġtayin": 1649,
      "Ġfev": 1650,
      "Ġbaho": 1651,
      "Ġmaqsad": 1652,
      "Ġishga": 1653,
      "Ġfoizi": 1654,
      "Ġ25": 1655,
      "AT": 1656,
      "taqa": 1657,
      "inlash": 1658,
      "Ġhisoblanadi": 1659,
      "taxassis": 1660,
      "ĠkÃµproq": 1661,
      "Ġsentabr": 1662,
      "ĠEn": 1663,
      "Ġhal": 1664,
      "ĠSha": 1665,
      "Ġ100": 1666,
      "ĠÃµrgani": 1667,
      "kshi": 1668,
      "),": 1669,
      "sim": 1670,
      "boy": 1671,
      "Ġaytdi": 1672,
      "stitut": 1673,
      "dj": 1674,
      "mov": 1675,
      "mpi": 1676,
      "ne": 1677,
      "araf": 1678,
      "Ġegal": 1679,
      "Ġdavlatlar": 1680,
      "Ġyuri": 1681,
      "oq": 1682,
      "lana": 1683,
      "Ġ17": 1684,
      "Ġnavbat": 1685,
      "Ġmurojaat": 1686,
      "shma": 1687,
      "Ġtinch": 1688,
      "Ġmuvaffa": 1689,
      "Ġel": 1690,
      "ft": 1691,
      "ĠIttifoqi": 1692,
      "Ġtexno": 1693,
      "ĠbÃµlmagan": 1694,
      "Ġinter": 1695,
      "yingi": 1696,
      "lanuvchi": 1697,
      "hbat": 1698,
      "...+": 1699,
      "Ġozod": 1700,
      "ĠkÃµcha": 1701,
      "Ġoch": 1702,
      "Ġyash": 1703,
      "ton": 1704,
      "Ġyon": 1705,
      "Ġsotib": 1706,
      "Ġfaol": 1707,
      "ĠNi": 1708,
      "zib": 1709,
      "Ġket": 1710,
      "Ġzarur": 1711,
      "Ġmuzokara": 1712,
      "Ġtarki": 1713,
      "ĠÃµtdi": 1714,
      "Ġyevro": 1715,
      "Ġrai": 1716,
      "Ġhukumat": 1717,
      "Ġmux": 1718,
      "sin": 1719,
      "ĠQay": 1720,
      "ino": 1721,
      "ĠKor": 1722,
      "Ġnoyabr": 1723,
      "Ġqilinadi": 1724,
      "ida": 1725,
      "Ġista": 1726,
      "Ġorgan": 1727,
      "ĠDa": 1728,
      "ĠtuÇ§": 1729,
      "Ġope": 1730,
      "Ġjo": 1731,
      "Ġdekabr": 1732,
      "Ġinf": 1733,
      "olo": 1734,
      "chon": 1735,
      "nib": 1736,
      "ĠÃµtkazish": 1737,
      "valroq": 1738,
      "ritaniya": 1739,
      "nash": 1740,
      "ĠBiroq": 1741,
      "ĠUshbu": 1742,
      "xon": 1743,
      "Ġularni": 1744,
      "ĠbÃµlgani": 1745,
      "ĠSamarqand": 1746,
      "ĠYe": 1747,
      "ĠMe": 1748,
      "Ġboshlab": 1749,
      "Ġagentligi": 1750,
      "Ġxavfsizlik": 1751,
      "Ġstan": 1752,
      "Ġkuchlari": 1753,
      "Ġishla": 1754,
      "Ġnamo": 1755,
      "Ġsobiq": 1756,
      "Ġbelgilangan": 1757,
      "Ġturib": 1758,
      "Ġaytgan": 1759,
      "Ġichki": 1760,
      "Ġmaydon": 1761,
      "Ġshifo": 1762,
      "Ġiyul": 1763,
      "ĠÃµtkazilgan": 1764,
      "Ġvideo": 1765,
      "mal": 1766,
      "ĠQÃµ": 1767,
      "kov": 1768,
      "Ġjami": 1769,
      "lil": 1770,
      "Ġkeng": 1771,
      "oz": 1772,
      "von": 1773,
      "Ġtekshi": 1774,
      "mara": 1775,
      "Ġsamolyot": 1776,
      "Ġqator": 1777,
      "lardagi": 1778,
      "Ġtik": 1779,
      "ktyabr": 1780,
      "lek": 1781,
      "Ġnash": 1782,
      "Ġmart": 1783,
      "Ġpaytda": 1784,
      "Ġtaj": 1785,
      "ĠAgar": 1786,
      "oti": 1787,
      "tirilgan": 1788,
      "Ġport": 1789,
      "erge": 1790,
      "Ġmanba": 1791,
      "Ġtushun": 1792,
      "Ġqiy": 1793,
      "Ġekanini": 1794,
      "Ġjamoat": 1795,
      "fot": 1796,
      "Ġklu": 1797,
      "qam": 1798,
      "rt": 1799,
      "Ġkunduzi": 1800,
      "Ġbuyon": 1801,
      "Ġproku": 1802,
      "ĠIk": 1803,
      "ĠÃµrtasidagi": 1804,
      "Ġmintaqa": 1805,
      "ero": 1806,
      "Ġuniversi": 1807,
      "ATO": 1808,
      "Ġumumiy": 1809,
      "noat": 1810,
      "dr": 1811,
      "rid": 1812,
      "Ġyakun": 1813,
      "ĠoÇ§ir": 1814,
      "Ġimkoniyat": 1815,
      "ratura": 1816,
      "ĠÃµsha": 1817,
      "Ġsoliq": 1818,
      "Ġetiladi": 1819,
      "Ġst": 1820,
      "gust": 1821,
      "Ġsiyosiy": 1822,
      "modda": 1823,
      "riq": 1824,
      "Ġsharo": 1825,
      "Ġtabi": 1826,
      "kom": 1827,
      "urnali": 1828,
      "Ġmetr": 1829,
      "ban": 1830,
      "Ġquyi": 1831,
      "garlik": 1832,
      "Ġketgan": 1833,
      "ĠQora": 1834,
      "ĠDe": 1835,
      "Ġquv": 1836,
      "ĠkÃµplab": 1837,
      "Ġkompaniyasi": 1838,
      "ĠkÃµta": 1839,
      "ĠtÃµlov": 1840,
      "ĠbÃµy": 1841,
      "Ġjar": 1842,
      "shish": 1843,
      "ĠHu": 1844,
      "ĠBritaniya": 1845,
      "ktor": 1846,
      "Ġkasal": 1847,
      "ĠyÃµqo": 1848,
      "ĠPrezident": 1849,
      "chik": 1850,
      "Ġuchrashuv": 1851,
      "Ġmahalliy": 1852,
      "for": 1853,
      "Ġalohida": 1854,
      "Ġtergov": 1855,
      "Ġerish": 1856,
      "Ġinve": 1857,
      "tirdi": 1858,
      "Ġ0": 1859,
      "Ġqilishga": 1860,
      "Ġsababli": 1861,
      "Ġust": 1862,
      "ĠNATO": 1863,
      "Ġgol": 1864,
      "elen": 1865,
      "min": 1866,
      "Ġhaj": 1867,
      "Ġsuhbat": 1868,
      "mni": 1869,
      "Ġ24": 1870,
      "assa": 1871,
      "Ġtezlikda": 1872,
      "ĠFar": 1873,
      "ĠFa": 1874,
      "Ġyili": 1875,
      "ĠÇ§alaba": 1876,
      "Ġqiyin": 1877,
      "Ġsafar": 1878,
      "Ġchiqar": 1879,
      "Ġkuchli": 1880,
      "ĠMirziyo": 1881,
      "Ġxat": 1882,
      "im": 1883,
      "Ġcho": 1884,
      "Ġochiq": 1885,
      "rilmoqda": 1886,
      "Ġmuvo": 1887,
      "ĠQa": 1888,
      "Ġetildi": 1889,
      "enti": 1890,
      "Ġoktyabr": 1891,
      "Ġdire": 1892,
      "ĠMah": 1893,
      "nish": 1894,
      "Ġbalki": 1895,
      "disa": 1896,
      "zan": 1897,
      "Ġbudj": 1898,
      "Ġrus": 1899,
      "ĠEron": 1900,
      "ĠZelen": 1901,
      "Ġhali": 1902,
      "goh": 1903,
      "Ġpartiya": 1904,
      "Ġzarar": 1905,
      "loh": 1906,
      "Ġkirish": 1907,
      "Ġkengashi": 1908,
      "Ġjara": 1909,
      "Ġjahon": 1910,
      "Ġdan": 1911,
      "Ġxodimlari": 1912,
      "Ġsamara": 1913,
      "MT": 1914,
      "tuvchi": 1915,
      "Ġbozor": 1916,
      "Ġqishloq": 1917,
      "Ġfevral": 1918,
      "Ġkelishuv": 1919,
      "ĠZelenskiy": 1920,
      "Ġmutaxassis": 1921,
      "Ġoxi": 1922,
      "Ġetib": 1923,
      "kan": 1924,
      "dora": 1925,
      "Ġjarayo": 1926,
      "Ġraisi": 1927,
      "Ġkes": 1928,
      "Ġatrofi": 1929,
      "klar": 1930,
      "eya": 1931,
      "Ġorasida": 1932,
      "Ġyuz": 1933,
      "garchilik": 1934,
      "Ġtuga": 1935,
      "xat": 1936,
      "Ġtalaba": 1937,
      "Ġnarxi": 1938,
      "Ġsavol": 1939,
      "Ġshakl": 1940,
      "ĠyÃµnalishi": 1941,
      "Ġomma": 1942,
      "ĠHarorat": 1943,
      "ĠAr": 1944,
      "fat": 1945,
      "assasa": 1946,
      "gram": 1947,
      "ĠSo": 1948,
      "Ġgu": 1949,
      "Ġsaqlash": 1950,
      "Ġavgust": 1951,
      "Ġyoshli": 1952,
      "Ġoliy": 1953,
      "Ġtaqiq": 1954,
      "fer": 1955,
      "ytirish": 1956,
      "Ġkeldi": 1957,
      "pu": 1958,
      "Ġhisobi": 1959,
      "Ġshax": 1960,
      "Ġoli": 1961,
      "Ġtax": 1962,
      "Ġsiz": 1963,
      "Ġlavozi": 1964,
      "gina": 1965,
      "Ġmuassasa": 1966,
      "ĠShav": 1967,
      "ĠTÃµ": 1968,
      "Ġalma": 1969,
      "zu": 1970,
      "Ġnazar": 1971,
      "Ġiqtisodi": 1972,
      "ĠNe": 1973,
      "ĠXalq": 1974,
      "ĠkÃµrish": 1975,
      "Ġdarajada": 1976,
      "tlari": 1977,
      "Ġvaqtida": 1978,
      "Ġissiq": 1979,
      "ĠShavkat": 1980,
      "missiya": 1981,
      "Ġodamlar": 1982,
      "Ġkunda": 1983,
      "alb": 1984,
      "Ġimkoniya": 1985,
      "Ġkeskin": 1986,
      "ĠkÃµrsatish": 1987,
      "fiq": 1988,
      "Ġavi": 1989,
      "Ġtopi": 1990,
      "Ġendi": 1991,
      "Ġilk": 1992,
      "Ġchet": 1993,
      "Ġ50": 1994,
      "Ġjaro": 1995,
      "xir": 1996,
      "tik": 1997,
      "Ġobla": 1998,
      "ĠSu": 1999,
      "202": 2000,
      "Ġkutilma": 2001,
      "Ġyubori": 2002,
      "Ġchiqqan": 2003,
      "ĠsÃµra": 2004,
      "Ġmos": 2005,
      "Ġxona": 2006,
      "Ġtransport": 2007,
      "ĠkÃµrsatki": 2008,
      "Ġhokimi": 2009,
      "Ġrossiyalik": 2010,
      "Ġfaoliyat": 2011,
      "kidladi": 2012,
      "sil": 2013,
      "yti": 2014,
      "Ġmash": 2015,
      "ĠMirziyoyev": 2016,
      "Ġvakillari": 2017,
      "Ġizo": 2018,
      "Ġkar": 2019,
      "ĠdÃµ": 2020,
      "por": 2021,
      "tam": 2022,
      "Ġaprel": 2023,
      "Ġfikr": 2024,
      "onna": 2025,
      "nchi": 2026,
      "Ġesadi": 2027,
      "ĠAl": 2028,
      "Ġmehnat": 2029,
      "Ġsta": 2030,
      "Ġsaylov": 2031,
      "Ġyillarda": 2032,
      "Ç§ida": 2033,
      "ziga": 2034,
      "Ġchempi": 2035,
      "Ġkeyingi": 2036,
      "Ġjalb": 2037,
      "Ġge": 2038,
      "Ġidora": 2039,
      "Ġ21": 2040,
      "ĠFran": 2041,
      "Ġmuvaffaqi": 2042,
      "ĠBMT": 2043,
      "Ġolishi": 2044,
      "ĠAmerika": 2045,
      "qib": 2046,
      "urs": 2047,
      "ĠKÃµ": 2048,
      "Ġqurolli": 2049,
      "Ġhamma": 2050,
      "Ġoqibatida": 2051,
      "gandi": 2052,
      "sizlik": 2053,
      "van": 2054,
      "Ġara": 2055,
      "ĠRossiyaga": 2056,
      "umi": 2057,
      "ede": 2058,
      "Ġetishi": 2059,
      "Ġjarayon": 2060,
      "Ġqilmoqda": 2061,
      "ĠQayd": 2062,
      "ĠYangi": 2063,
      "Ġasosan": 2064,
      "ĠyÃµlga": 2065,
      "Ġboshladi": 2066,
      "ddi": 2067,
      "Ġbuni": 2068,
      "Ġqarori": 2069,
      "Ġjiddiy": 2070,
      "Ġbiroz": 2071,
      "Ġdey": 2072,
      "Ġkotibi": 2073,
      "Ġtexnologiya": 2074,
      "Ġmuvofiq": 2075,
      "Ġ22": 2076,
      "ĠyoÇ§in": 2077,
      "Ġora": 2078,
      "Ġqoida": 2079,
      "Ġrux": 2080,
      "Ġnatijasida": 2081,
      "Ġjurnali": 2082,
      "riba": 2083,
      "Ġtartibi": 2084,
      "rate": 2085,
      "biyot": 2086,
      "Ġkela": 2087,
      "ĠÃµzaro": 2088,
      "Ġpaydo": 2089,
      "me": 2090,
      "Ġovoz": 2091,
      "stik": 2092,
      "Ġbekor": 2093,
      "Ġbolalar": 2094,
      "tal": 2095,
      "ergetika": 2096,
      "Ġhaydov": 2097,
      "Ġyillik": 2098,
      "Ġquyidagi": 2099,
      "fon": 2100,
      "gungi": 2101,
      "ĠMen": 2102,
      "Ġmahalla": 2103,
      "Ġeva": 2104,
      "Ġfor": 2105,
      "jal": 2106,
      "Ġvaki": 2107,
      "Ġnamoyish": 2108,
      "ĠyoÇ§ingarchilik": 2109,
      "bekt": 2110,
      "lumotlar": 2111,
      "Ġbildirdi": 2112,
      "ĠHavo": 2113,
      "Ġmajbu": 2114,
      "ĠÇ§o": 2115,
      "gona": 2116,
      "Ġush": 2117,
      "ngil": 2118,
      "Ġprokuratura": 2119,
      "Ġeksper": 2120,
      "stitsiya": 2121,
      "Ġchunki": 2122,
      "Ġjoyi": 2123,
      "Ġtonna": 2124,
      "Ġuchra": 2125,
      "masligi": 2126,
      "zilma": 2127,
      "nes": 2128,
      "ĠKo": 2129,
      "maslik": 2130,
      "Ġxara": 2131,
      "Ġmuvaffaqiyat": 2132,
      "faat": 2133,
      ").": 2134,
      "ĠÃµzgarib": 2135,
      "Ġhududida": 2136,
      "zadi": 2137,
      "Ġteng": 2138,
      "larus": 2139,
      "Ġobekt": 2140,
      "Ġibo": 2141,
      "qaror": 2142,
      "Ġiyun": 2143,
      "Ġkodek": 2144,
      "Ġkomp": 2145,
      "ĠqÃµmitasi": 2146,
      "Ġostida": 2147,
      "Ġtumanida": 2148,
      "gach": 2149,
      "Ġbildi": 2150,
      "iyo": 2151,
      "ĠAvvalroq": 2152,
      "ĠMil": 2153,
      "Ġraqam": 2154,
      "Ġberiladi": 2155,
      "Ġvaqtda": 2156,
      "tining": 2157,
      "Ġishlash": 2158,
      "SS": 2159,
      "ĠxÃµjaligi": 2160,
      "ĠÃµtish": 2161,
      "bod": 2162,
      "ĠÃµtib": 2163,
      "mda": 2164,
      "Ġ23": 2165,
      "tÃµ": 2166,
      "Ġmanfaat": 2167,
      "ĠHar": 2168,
      "Ġyilga": 2169,
      "uli": 2170,
      "Ġancha": 2171,
      "Ġtajriba": 2172,
      "Ġloyihasi": 2173,
      "tob": 2174,
      "ĠqÃµshin": 2175,
      "Ġboshqarmasi": 2176,
      "Ġruxsat": 2177,
      "Ġqancha": 2178,
      "ĠSe": 2179,
      "Ġturgan": 2180,
      "ĠbÃµlmaydi": 2181,
      "ssa": 2182,
      "Ġsport": 2183,
      "chiligi": 2184,
      "yuk": 2185,
      "lumotlariga": 2186,
      "Ç§ona": 2187,
      "tayotgan": 2188,
      "Ġhuquqi": 2189,
      "ĠBay": 2190,
      "Ġyarim": 2191,
      "Ġaynan": 2192,
      "ĠRespublikasi": 2193,
      "vir": 2194,
      "ĠÃķzbekistonning": 2195,
      "Ġboshlan": 2196,
      "Ġtabiiy": 2197,
      "Ġneft": 2198,
      "Ġsiyosat": 2199,
      "ĠÃµzining": 2200,
      "ab": 2201,
      "ĠLi": 2202,
      "ĠChunki": 2203,
      "ĠrÃµyxat": 2204,
      "ĠkÃµrsatkich": 2205,
      "Ġvakili": 2206,
      "10": 2207,
      "ĠbÃµylab": 2208,
      "Ġota": 2209,
      "ĠÃµn": 2210,
      "ĠÃµzini": 2211,
      "Ġularga": 2212,
      "Ġmajbur": 2213,
      "Ġavval": 2214,
      "Ġmazkur": 2215,
      "ĠÇ¦a": 2216,
      "ĠsoÇ§": 2217,
      "sga": 2218,
      "ĠqÃµyish": 2219,
      "Ç§li": 2220,
      "yatida": 2221,
      "Ġyur": 2222,
      "qdan": 2223,
      "plo": 2224,
      "ĠShamol": 2225,
      "uk": 2226,
      "mizda": 2227,
      "Ġmada": 2228,
      "shon": 2229,
      "Ġisti": 2230,
      "Ġmustah": 2231,
      "Ġqurilish": 2232,
      "Ġbit": 2233,
      "sla": 2234,
      "ĠTash": 2235,
      "Ãµr": 2236,
      "ner": 2237,
      "Ġhodisa": 2238,
      "mona": 2239,
      "Ġlozim": 2240,
      "rima": 2241,
      "Ġguruhi": 2242,
      "qiqa": 2243,
      "Ġusti": 2244,
      "labki": 2245,
      "ĠVazir": 2246,
      "ĠJi": 2247,
      "Ġyuzaga": 2248,
      "mga": 2249,
      "Ġkunlari": 2250,
      "ĠÃµziga": 2251,
      "tishicha": 2252,
      "Ġus": 2253,
      "dqiq": 2254,
      "ĠShundan": 2255,
      "Ġishonch": 2256,
      "qonuniy": 2257,
      "Ġxorijiy": 2258,
      "Ġoperatsiya": 2259,
      "Ġli": 2260,
      "bal": 2261,
      "Ç§oni": 2262,
      "katsiya": 2263,
      "Ġsho": 2264,
      "Ġekani": 2265,
      "Ġturi": 2266,
      "Ġyetib": 2267,
      "Ġdavlatlari": 2268,
      "ĠKoreya": 2269,
      "lanmoqda": 2270,
      "Ġmustaqil": 2271,
      "ensiya": 2272,
      "ĠVladi": 2273,
      "sak": 2274,
      "ĠUkrainadagi": 2275,
      "tira": 2276,
      "ovqat": 2277,
      "Ġamali": 2278,
      "Ġuyu": 2279,
      "Ġyubor": 2280,
      "Ġbesh": 2281,
      "Ġdirektori": 2282,
      "ĠÇ¦arb": 2283,
      "Ġizoh": 2284,
      "ĠboshliÇ§i": 2285,
      "puta": 2286,
      "Ġeshi": 2287,
      "ĠbÃµla": 2288,
      "stika": 2289,
      "ror": 2290,
      "shqa": 2291,
      "Ç§on": 2292,
      "Ç§izi": 2293,
      "Ġpasa": 2294,
      "landiya": 2295,
      "Ġhuk": 2296,
      "Ġ199": 2297,
      "Ġyaku": 2298,
      "Ç§iziston": 2299,
      "Ġishtiroki": 2300,
      "Ġmodda": 2301,
      "ĠFransiya": 2302,
      "mer": 2303,
      "Ġtarkibi": 2304,
      "Ġkechi": 2305,
      "uncha": 2306,
      "ĠDon": 2307,
      "orat": 2308,
      "lanma": 2309,
      "ziya": 2310,
      "dlar": 2311,
      "Ġstrate": 2312,
      "Ġetilishicha": 2313,
      "ĠyÃµli": 2314,
      "Ġjarima": 2315,
      "Ġqim": 2316,
      "Ġmaydo": 2317,
      "Ġtexnika": 2318,
      "ĠIIB": 2319,
      "ĠtuÇ§ilgan": 2320,
      "Ġbaja": 2321,
      "ber": 2322,
      "Ġfutbolchi": 2323,
      "Ġqiz": 2324,
      "ĠkÃµri": 2325,
      "xira": 2326,
      "ganda": 2327,
      "Ġaero": 2328,
      "Ġinvestitsiya": 2329,
      "Ġpoytax": 2330,
      "ĠShi": 2331,
      "Ġerkin": 2332,
      "ĠPol": 2333,
      "Ġyozi": 2334,
      "ĠOliy": 2335,
      "Ġijro": 2336,
      "moliy": 2337,
      "Ġxususiy": 2338,
      "ĠBelarus": 2339,
      "ĠUn": 2340,
      "ĠqÃµyilgan": 2341,
      "dqiqot": 2342,
      "Ġborib": 2343,
      "ĠtÃµrt": 2344,
      "ĠÃķzbekistonga": 2345,
      "irÇ§iziston": 2346,
      "zarboy": 2347,
      "shini": 2348,
      "lmagan": 2349,
      "30": 2350,
      "stitutsiya": 2351,
      "Ġqizi": 2352,
      "ster": 2353,
      "Ġdastur": 2354,
      "ĠVladimir": 2355,
      "Ġkamay": 2356,
      "Ġfarzan": 2357,
      "Ġmul": 2358,
      "ĠShar": 2359,
      "rati": 2360,
      "ĠtÃµq": 2361,
      "Ġyubo": 2362,
      "AS": 2363,
      "Ġdaro": 2364,
      "Ġeksport": 2365,
      "Ġmustahkam": 2366,
      "ĠÃµtkazil": 2367,
      "Ġbozo": 2368,
      "Ġpoli": 2369,
      "Ġjurnalist": 2370,
      "krain": 2371,
      "Ġbera": 2372,
      "Ġxarajat": 2373,
      "Ġsharoit": 2374,
      "monaviy": 2375,
      "mmi": 2376,
      "ĠQu": 2377,
      "ĠKon": 2378,
      "Ġnoqonuniy": 2379,
      "Ġiborat": 2380,
      "Ġfaoliyatini": 2381,
      "Ġqiluvchi": 2382,
      "ĠZa": 2383,
      "likdan": 2384,
      "Ġbosqich": 2385,
      "ts": 2386,
      "Ġtanqi": 2387,
      "ĠÃµquv": 2388,
      "Ġ27": 2389,
      "Ġzaxira": 2390,
      "lashdi": 2391,
      "Ç§ul": 2392,
      "Ġstansiya": 2393,
      "Ġavva": 2394,
      "ĠKeyin": 2395,
      "ĠÃµtadi": 2396,
      "metr": 2397,
      "Ġkamida": 2398,
      "ĠGa": 2399,
      "Ġqolish": 2400,
      "Ġmarkaz": 2401,
      "Ġborish": 2402,
      "Ġkirib": 2403,
      "Ġtibbiy": 2404,
      "redi": 2405,
      "Ġqulay": 2406,
      "Ġqimmat": 2407,
      "Ġnomi": 2408,
      "langani": 2409,
      "ĠÃµzgarish": 2410,
      "maniston": 2411,
      "tto": 2412,
      "Ġtibbiyot": 2413,
      "ĠPo": 2414,
      "masdan": 2415,
      "Ġehti": 2416,
      "zitsiya": 2417,
      "ĠSÃµ": 2418,
      "Ġona": 2419,
      "ĠkÃµz": 2420,
      "Ġoziq": 2421,
      "net": 2422,
      "ĠkÃµchi": 2423,
      "quvvatlash": 2424,
      "Ġommaviy": 2425,
      "sofa": 2426,
      "Ġyorda": 2427,
      "ĠBayden": 2428,
      "lom": 2429,
      "Ç§oniston": 2430,
      "Ġdengiz": 2431,
      "ĠQirÇ§iziston": 2432,
      "Ġpe": 2433,
      "he": 2434,
      "Ġchiqdi": 2435,
      "Ġparlam": 2436,
      "mor": 2437,
      "batta": 2438,
      "Ġtashrif": 2439,
      "Ġetmoqda": 2440,
      "Ġnuq": 2441,
      "Ġjihat": 2442,
      "Ġyadro": 2443,
      "Ġshaxslar": 2444,
      "psiya": 2445,
      "ĠÃµzbek": 2446,
      "Ġyaratish": 2447,
      "ĠNo": 2448,
      "vich": 2449,
      "000": 2450,
      "stan": 2451,
      "Ġtashab": 2452,
      "Ġhatto": 2453,
      "Ġjarohat": 2454,
      "shiga": 2455,
      "Ġ40": 2456,
      "xirgi": 2457,
      "ĠÃķz": 2458,
      "xoro": 2459,
      "ulosa": 2460,
      "Ġdiplo": 2461,
      "qal": 2462,
      "Ġmasofa": 2463,
      "ĠUkrainaning": 2464,
      "sum": 2465,
      "salan": 2466,
      "anubiy": 2467,
      "Ġkilo": 2468,
      "Ġul": 2469,
      "ĠÃµsi": 2470,
      "Ġkutilmaydi": 2471,
      "Ġshta": 2472,
      "Ġrad": 2473,
      "Ġ28": 2474,
      "Ġdeputa": 2475,
      "Ġkomissiya": 2476,
      "ene": 2477,
      "moddasi": 2478,
      "ĠSi": 2479,
      "Ġaytishicha": 2480,
      "Ġxabari": 2481,
      "Bu": 2482,
      "ĠRossiyada": 2483,
      "Ġoid": 2484,
      "Ġtahdi": 2485,
      "ĠqÃµz": 2486,
      "riza": 2487,
      "Ġuniversite": 2488,
      "jaro": 2489,
      "Ġqisqa": 2490,
      "stin": 2491,
      "Ġpozitsiya": 2492,
      "Ġyetish": 2493,
      "Ġvafot": 2494,
      "Ġsharqdan": 2495,
      "ĠAbdu": 2496,
      "lis": 2497,
      "biya": 2498,
      "Ġsal": 2499,
      "ĠshuÇ§ul": 2500,
      "yoq": 2501,
      "Ġholatda": 2502,
      "Ġkura": 2503,
      "Ġsalo": 2504,
      "bati": 2505,
      "Ġdasturi": 2506,
      "ĠrÃµyxa": 2507,
      "Ġata": 2508,
      "Ġsiyosa": 2509,
      "Ġbiznes": 2510,
      "Ġpast": 2511,
      "Ġtushgan": 2512,
      "Ġzavo": 2513,
      "ĠRo": 2514,
      "Ġsovuq": 2515,
      "Ġbitta": 2516,
      "malar": 2517,
      "Ġberildi": 2518,
      "Ġdron": 2519,
      "Ġser": 2520,
      "ĠAfÇ§oniston": 2521,
      "ĠFarÇ§ona": 2522,
      "Ġkech": 2523,
      "Ġmiqdori": 2524,
      "ĠÃµldi": 2525,
      "Ġtarzda": 2526,
      "ridan": 2527,
      "Ġjamoasi": 2528,
      "Ġerta": 2529,
      "ĠEndi": 2530,
      "ruv": 2531,
      "Ġaytib": 2532,
      "nit": 2533,
      "laridagi": 2534,
      "ĠmÃµl": 2535,
      "tiradi": 2536,
      "Ġbarqaror": 2537,
      "Ġnazarda": 2538,
      "Ġbaza": 2539,
      "Ġjino": 2540,
      "kka": 2541,
      "Ġmiqdor": 2542,
      "Ġundan": 2543,
      "ved": 2544,
      "Ġunda": 2545,
      "ĠJinoyat": 2546,
      "Ġikkita": 2547,
      "Ġmasla": 2548,
      "ĠÇ¦azo": 2549,
      "Ġkichik": 2550,
      "Ġtashkiloti": 2551,
      "Ġzamonaviy": 2552,
      "Ġkiritish": 2553,
      "Ġmuloq": 2554,
      "Ġyar": 2555,
      "ĠÃµyna": 2556,
      "Ġuyush": 2557,
      "vet": 2558,
      "Ġaf": 2559,
      "ĠPa": 2560,
      "ĠPolsha": 2561,
      "mÇ§ir": 2562,
      "ali": 2563,
      "Ġmehmon": 2564,
      "Ġketdi": 2565,
      "Ġbudjet": 2566,
      "Ġdoimiy": 2567,
      "Ġtarix": 2568,
      "nik": 2569,
      "ĠmÃµljal": 2570,
      "kasi": 2571,
      "Ġdeyarli": 2572,
      "Biz": 2573,
      "Ġbunga": 2574,
      "ardi": 2575,
      "ĠjÃµ": 2576,
      "ratu": 2577,
      "vyu": 2578,
      "ĠKi": 2579,
      "Ġisloh": 2580,
      "Ġxarid": 2581,
      "Ġqamoq": 2582,
      "Ġqir": 2583,
      "Ġxulosa": 2584,
      "ĠKu": 2585,
      "Ġkurash": 2586,
      "Ġyetarli": 2587,
      "Ġpala": 2588,
      "Ġtrans": 2589,
      "ĠBax": 2590,
      "Ġ2024": 2591,
      "land": 2592,
      "Ġmaqo": 2593,
      "Ġmavsum": 2594,
      "Ġviloyatida": 2595,
      "Ġbuyur": 2596,
      "Ġtomonlama": 2597,
      "Ġvako": 2598,
      "tu": 2599,
      "ĠMasalan": 2600,
      "Ġ2020": 2601,
      "Ġter": 2602,
      "Ç§o": 2603,
      "Ġix": 2604,
      "udiya": 2605,
      "Ġ26": 2606,
      "rifi": 2607,
      "Ġsudi": 2608,
      "Ġuyi": 2609,
      "Ġtovar": 2610,
      "Ġavia": 2611,
      "Ġbiroq": 2612,
      "mizni": 2613,
      "ĠBuxoro": 2614,
      "mak": 2615,
      "sho": 2616,
      "voza": 2617,
      "Ġsub": 2618,
      "Ġmojaro": 2619,
      "ĠÃµquvchi": 2620,
      "dijon": 2621,
      "Ġyagona": 2622,
      "Ġtark": 2623,
      "Ġmingdan": 2624,
      "era": 2625,
      "Ġboy": 2626,
      "alla": 2627,
      "Ġilmiy": 2628,
      "Ġharakati": 2629,
      "zarboyjon": 2630,
      "AM": 2631,
      "Ġmasalalari": 2632,
      "Ġariza": 2633,
      "gari": 2634,
      "50": 2635,
      "ĠXalqaro": 2636,
      "tadbir": 2637,
      "shqadaryo": 2638,
      "Ġkelayotgan": 2639,
      "ĠBunday": 2640,
      "Ġtahlil": 2641,
      "Ġmoliyaviy": 2642,
      "stitu": 2643,
      "Ġmaslahat": 2644,
      "Ġjam": 2645,
      "Ġdollarga": 2646,
      "ganida": 2647,
      "qalpo": 2648,
      "Ġsaqlab": 2649,
      "Ġarmiyasi": 2650,
      "Ġoblasti": 2651,
      "Ġdavr": 2652,
      "Ġinfratu": 2653,
      "Ġagar": 2654,
      "Ġbirgalikda": 2655,
      "riyb": 2656,
      "ĠyonÇ§in": 2657,
      "Ġsammi": 2658,
      "Ġinstitu": 2659,
      "Ġxabariga": 2660,
      "lashicha": 2661,
      "pol": 2662,
      "Ġreji": 2663,
      "ĠBer": 2664,
      "liqni": 2665,
      "Ġyol": 2666,
      "Ġqaratilgan": 2667,
      "ratsiyasi": 2668,
      "Ġqurilma": 2669,
      "jak": 2670,
      "ksi": 2671,
      "ati": 2672,
      "Ġogoh": 2673,
      "Ġyilgi": 2674,
      "ĠTele": 2675,
      "Ġsanksiyalar": 2676,
      "zlar": 2677,
      "Ġtexnik": 2678,
      "Ġsanoat": 2679,
      "Ġqilishni": 2680,
      "Ġbayonot": 2681,
      "Ġgi": 2682,
      "Ġqoladi": 2683,
      "uddi": 2684,
      "ĠQashqadaryo": 2685,
      "liklari": 2686,
      "Ç§lu": 2687,
      "Ġtav": 2688,
      "Ġmuh": 2689,
      "enko": 2690,
      "Ġyechi": 2691,
      "ĠXusu": 2692,
      "Ġaks": 2693,
      "Ġdarvoza": 2694,
      "mid": 2695,
      "Ġukrain": 2696,
      "Ġalmash": 2697,
      "Ġxil": 2698,
      "Ġqaysi": 2699,
      "havo": 2700,
      "lifi": 2701,
      "Ġdaromad": 2702,
      "Ġiz": 2703,
      "Ġharakatlari": 2704,
      "Ġenergetika": 2705,
      "ĠkÃµpay": 2706,
      "Ġyopi": 2707,
      "ĠÃµrtacha": 2708,
      "19": 2709,
      "Ġqop": 2710,
      "pul": 2711,
      "Ġad": 2712,
      "sligi": 2713,
      "Ġsohasida": 2714,
      "Ġtutilgan": 2715,
      "Ġevaziga": 2716,
      "zved": 2717,
      "Ġvaqti": 2718,
      "Ġnuqta": 2719,
      "Ġzi": 2720,
      "ttifoq": 2721,
      "lobal": 2722,
      "Ç§ar": 2723,
      "Ġbermoqda": 2724,
      "Ġnafaqat": 2725,
      "Ġoqibat": 2726,
      "Ġtezkor": 2727,
      "Ġqilishicha": 2728,
      "logik": 2729,
      "ĠmaÇ§lu": 2730,
      "yatini": 2731,
      "Ġklub": 2732,
      "taraf": 2733,
      "Ġyomon": 2734,
      "Ġtemir": 2735,
      "ham": 2736,
      "qish": 2737,
      "xt": 2738,
      "demiya": 2739,
      "Ġqora": 2740,
      "ĠMilliy": 2741,
      "Ġdastlabki": 2742,
      "layotgani": 2743,
      "ĠÃµzgartirish": 2744,
      "skar": 2745,
      "Ġintervyu": 2746,
      "ĠAndijon": 2747,
      "Ġvaqtin": 2748,
      "Ġjinoiy": 2749,
      "Ġqisqar": 2750,
      "Ġsarf": 2751,
      "ĠLu": 2752,
      "Ġiliq": 2753,
      "Ġmahsulotlari": 2754,
      "ĠPe": 2755,
      "ĠyomÇ§ir": 2756,
      "ĠKom": 2757,
      "ĠqÃµzÇ§a": 2758,
      "tifi": 2759,
      "yapmiz": 2760,
      "Ġketish": 2761,
      "Ġqariyb": 2762,
      "Ġturibdi": 2763,
      "yon": 2764,
      "Ġdaqiqa": 2765,
      "ĠJah": 2766,
      "rem": 2767,
      "shanda": 2768,
      "Ġtushib": 2769,
      "voh": 2770,
      "ĠAJ": 2771,
      "Ġtadqiqot": 2772,
      "Ġhukm": 2773,
      "Ġaha": 2774,
      "Ġtil": 2775,
      "bot": 2776,
      "Ġshifoxona": 2777,
      "Ġboshlangan": 2778,
      "Ġatrofida": 2779,
      "qulo": 2780,
      "Ġqachon": 2781,
      "Ġfikri": 2782,
      "Ġmuzokaralar": 2783,
      "Ġhujumi": 2784,
      "rum": 2785,
      "sto": 2786,
      "partam": 2787,
      "Ġyetakchi": 2788,
      "ĠUch": 2789,
      "ĠUnga": 2790,
      "Ġum": 2791,
      "Ġpun": 2792,
      "orozi": 2793,
      "Ġnavbatdagi": 2794,
      "Ġayt": 2795,
      "ĠbÃµlim": 2796,
      "Ġon": 2797,
      "Ġkirishi": 2798,
      "Ġelektron": 2799,
      "Ġsurat": 2800,
      "bos": 2801,
      "ÃµÇ§": 2802,
      "ĠUkrainada": 2803,
      "ovchi": 2804,
      "Ġchiqarilgan": 2805,
      "AV": 2806,
      "xo": 2807,
      "Ġsamarali": 2808,
      "ChJ": 2809,
      "ĠSÃµng": 2810,
      "qalpoÇ§iston": 2811,
      "diston": 2812,
      "Ġshuncha": 2813,
      "Ġang": 2814,
      "ĠAlek": 2815,
      "orlar": 2816,
      "alqi": 2817,
      "Ġijo": 2818,
      "ĠMChJ": 2819,
      "SSR": 2820,
      "Ġborada": 2821,
      "ag": 2822,
      "Ġimkon": 2823,
      "Ġgapi": 2824,
      "Ġchor": 2825,
      "Ġmuloqot": 2826,
      "qu": 2827,
      "Ġerishi": 2828,
      "ren": 2829,
      "ĠqÃµmon": 2830,
      "ĠBuyuk": 2831,
      "lak": 2832,
      "Ġbay": 2833,
      "zish": 2834,
      "uter": 2835,
      "Ġborasida": 2836,
      "zbek": 2837,
      "Ãµra": 2838,
      "Ġres": 2839,
      "Ġgacha": 2840,
      "Ġhozirgi": 2841,
      "tet": 2842,
      "lardi": 2843,
      "Ġketishi": 2844,
      "ganiga": 2845,
      "ĠOzarboyjon": 2846,
      "ĠSaudiya": 2847,
      "Ġolishga": 2848,
      "ĠÃµrganish": 2849,
      "Ġbaro": 2850,
      "Ġhajmi": 2851,
      "Ġbanki": 2852,
      "Ġbundan": 2853,
      "mizga": 2854,
      "biri": 2855,
      "Ġnorozi": 2856,
      "Ġbara": 2857,
      "Ġdori": 2858,
      "digan": 2859,
      "ĠqÃµr": 2860,
      "Ġberilishi": 2861,
      "poniya": 2862,
      "ĠÃµtkaziladi": 2863,
      "zini": 2864,
      "zatsiya": 2865,
      "ĠW": 2866,
      "qtisodiy": 2867,
      "Ġkredi": 2868,
      "Ġmuz": 2869,
      "ĠBirinchi": 2870,
      "Ġhola": 2871,
      "lastin": 2872,
      "ĠToshkentda": 2873,
      "ĠQon": 2874,
      "yil": 2875,
      "ĠqÃµsh": 2876,
      "Ġsinov": 2877,
      "ĠbÃµlimi": 2878,
      "Ġoq": 2879,
      "ĠyÃµlovchi": 2880,
      "sab": 2881,
      "Ġjamiyat": 2882,
      "Ġijara": 2883,
      "Ġmaro": 2884,
      "ĠÃµqituvchi": 2885,
      "malari": 2886,
      "Ġboshlagan": 2887,
      "Ġrazved": 2888,
      "ĠUlarning": 2889,
      "ĠÃµzida": 2890,
      "Ġob": 2891,
      "AMAS": 2892,
      "mayapti": 2893,
      "ĠgÃµ": 2894,
      "Ġtavsiya": 2895,
      "mik": 2896,
      "layn": 2897,
      "Ġtahdid": 2898,
      "matik": 2899,
      "ĠQoraqalpoÇ§iston": 2900,
      "bili": 2901,
      "Ġmuko": 2902,
      "lanayotgan": 2903,
      "Ġkengaytirish": 2904,
      "Ġnor": 2905,
      "Ġfan": 2906,
      "Ġqurish": 2907,
      "Ġolindi": 2908,
      "Ġilo": 2909,
      "Ġimport": 2910,
      "ger": 2911,
      "ĠHin": 2912,
      "Ġaniqlangan": 2913,
      "Ġurushi": 2914,
      "ĠÃµyinda": 2915,
      "Ġislohot": 2916,
      "Ġresurs": 2917,
      "voiy": 2918,
      "lanadigan": 2919,
      "ĠXususan": 2920,
      "ĠmÃµljallangan": 2921,
      "Ġoldini": 2922,
      "ngli": 2923,
      "Ġosti": 2924,
      "qulodda": 2925,
      "ĠUnda": 2926,
      "Ġittifoq": 2927,
      "Ġsana": 2928,
      "Ġoshiriladi": 2929,
      "ks": 2930,
      "Ġqaramay": 2931,
      "ĠSSSR": 2932,
      "Ġolmaydi": 2933,
      "Ãķzbekiston": 2934,
      "ĠchÃµ": 2935,
      "Ġhududlarda": 2936,
      "ĠLo": 2937,
      "rilib": 2938,
      "Ġvositalari": 2939,
      "Ġkm": 2940,
      "ĠVi": 2941,
      "Ġziyo": 2942,
      "moÇ§i": 2943,
      "Ġboshida": 2944,
      "ĠJanubiy": 2945,
      "Ġrahbarlari": 2946,
      "qqi": 2947,
      "lashni": 2948,
      "rupsiya": 2949,
      "Ġaytish": 2950,
      "Ġcheklov": 2951,
      "Ġsin": 2952,
      "lashib": 2953,
      "Ġhamkorlikni": 2954,
      "Ġov": 2955,
      "ĠÃµx": 2956,
      "luta": 2957,
      "Ġavtobus": 2958,
      "vka": 2959,
      "Ġulu": 2960,
      "riyat": 2961,
      "Ġaka": 2962,
      "buzar": 2963,
      "niqsa": 2964,
      "Ġyilgacha": 2965,
      "dal": 2966,
      "Ġaskar": 2967,
      "lashtir": 2968,
      "Ġbaj": 2969,
      "Ġchaqirdi": 2970,
      "Ġkiritilgan": 2971,
      "Ġhayot": 2972,
      "Ġbuning": 2973,
      "Ġdavrida": 2974,
      "ĠQi": 2975,
      "ĠChe": 2976,
      "ĠHAMAS": 2977,
      "Rossiya": 2978,
      "Ġnishon": 2979,
      "Ġrejalashtirilgan": 2980,
      "ĠIkkinchi": 2981,
      "laka": 2982,
      "Ġeko": 2983,
      "ĠOAV": 2984,
      "Ġxoh": 2985,
      "Ġberishni": 2986,
      "Ġ60": 2987,
      "Ġorganlari": 2988,
      "Ġboj": 2989,
      "Ġfon": 2990,
      "Ġberib": 2991,
      "ligida": 2992,
      "Ġkas": 2993,
      "Ġtelefon": 2994,
      "minan": 2995,
      "Ġkir": 2996,
      "Ġbormoqda": 2997,
      "ĠbÃµlin": 2998,
      "Ġyaqi": 2999,
      "Ġkilometr": 3000,
      "Ġbiror": 3001,
      "Ġxalqi": 3002,
      "Ġtaqdir": 3003,
      "Ġmunosabati": 3004,
      "Ġuchinchi": 3005,
      "ĠSt": 3006,
      "ĠYo": 3007,
      "Ġiq": 3008,
      "bit": 3009,
      "ez": 3010,
      "ush": 3011,
      "Ġetil": 3012,
      "ĠjÃµna": 3013,
      "sam": 3014,
      "Ġ29": 3015,
      "15": 3016,
      "ĠÃµzbe": 3017,
      "Ġqut": 3018,
      "Ġsifat": 3019,
      "Ġjamoatchilik": 3020,
      "ĠYaponiya": 3021,
      "ĠÃµzbekiston": 3022,
      "Ġes": 3023,
      "Ġfarq": 3024,
      "Ġbartaraf": 3025,
      "tel": 3026,
      "ransport": 3027,
      "Ġmuammolar": 3028,
      "tilayotgan": 3029,
      "slatib": 3030,
      "Ãµrin": 3031,
      "Ġdepartam": 3032,
      "Ġkafo": 3033,
      "Ġqiymati": 3034,
      "ĠBuning": 3035,
      "ĠRF": 3036,
      "Ġpolitsiya": 3037,
      "umon": 3038,
      "Ġtara": 3039,
      "Ġbemor": 3040,
      "Ġgapir": 3041,
      "Ġsot": 3042,
      "Ġkuchayishi": 3043,
      "Ġbugungi": 3044,
      "per": 3045,
      "Ġmamlakatda": 3046,
      "qul": 3047,
      "lmaydi": 3048,
      "Ġfuqarolar": 3049,
      "Ġustidan": 3050,
      "yÃµl": 3051,
      "Ġguvoh": 3052,
      "Ġtarixi": 3053,
      "Ġkuz": 3054,
      "Ġmahrum": 3055,
      "los": 3056,
      "Ġimtiyo": 3057,
      "ress": 3058,
      "Ġhokimiyat": 3059,
      "dimi": 3060,
      "Ġoxirgi": 3061,
      "mush": 3062,
      "che": 3063,
      "Ġyigi": 3064,
      "ĠqÃµshma": 3065,
      "ĠMazkur": 3066,
      "Ġturni": 3067,
      "pro": 3068,
      "Ġsheri": 3069,
      "ĠÇ§arb": 3070,
      "ĠShah": 3071,
      "Ġ2019": 3072,
      "laqa": 3073,
      "Ġilgari": 3074,
      "Ġbosti": 3075,
      "ĠÃķtgan": 3076,
      "Ġmig": 3077,
      "Ġyengil": 3078,
      "Ġxato": 3079,
      "Ġberuvchi": 3080,
      "Ġjavobgar": 3081,
      "moniy": 3082,
      "ĠKrem": 3083,
      "Ġehtiyo": 3084,
      "ĠHindiston": 3085,
      "Ġrozi": 3086,
      "mut": 3087,
      "bay": 3088,
      "lanmagan": 3089,
      "ĠchoÇ§ida": 3090,
      "Ġolim": 3091,
      "zolari": 3092,
      "Ġiqtisodiyot": 3093,
      "ĠFede": 3094,
      "lashadi": 3095,
      "laydigan": 3096,
      "Ġehtimo": 3097,
      "ĠNaman": 3098,
      "Ġaksiya": 3099,
      "laqachon": 3100,
      "ES": 3101,
      "Ġtoza": 3102,
      "hur": 3103,
      "mis": 3104,
      "kidlashicha": 3105,
      "ĠMudofaa": 3106,
      "ting": 3107,
      "fes": 3108,
      "ĠShuning": 3109,
      "Ġyashovchi": 3110,
      "Ġtinchlik": 3111,
      "sel": 3112,
      "gatsiya": 3113,
      "Ġyozadi": 3114,
      "jikiston": 3115,
      "Ġtanish": 3116,
      "ermer": 3117,
      "Ġklubi": 3118,
      "ket": 3119,
      "Ġukraina": 3120,
      "Ġdona": 3121,
      "Ġsafarbar": 3122,
      "Ġhib": 3123,
      "ĠYeI": 3124,
      "Ġhozirda": 3125,
      "Ġkodeksining": 3126,
      "tim": 3127,
      "ĠShimoliy": 3128,
      "Ġnashri": 3129,
      "yasi": 3130,
      "Ġbulu": 3131,
      "Ġyetka": 3132,
      "Ġmiqdo": 3133,
      "Ġmavzu": 3134,
      "Ġucha": 3135,
      "Ġpan": 3136,
      "Ġamaliyot": 3137,
      "qobat": 3138,
      "ĠVe": 3139,
      "bl": 3140,
      "Ġmalaka": 3141,
      "Ġlavozim": 3142,
      "tihon": 3143,
      "ĠÃķsha": 3144,
      "ĠAyni": 3145,
      "Ġnega": 3146,
      "Ġqism": 3147,
      "ĠyiÇ§ilishi": 3148,
      "Ġbarobar": 3149,
      "Ġkutilmoqda": 3150,
      "chta": 3151,
      "ĠTelegram": 3152,
      "Ġallaqachon": 3153,
      "Ġboradi": 3154,
      "Ġqilinishicha": 3155,
      "Ġvazirlik": 3156,
      "erial": 3157,
      "Ġnomzod": 3158,
      "Ġerka": 3159,
      "met": 3160,
      "ĠJo": 3161,
      "ĠKÃµp": 3162,
      "ĠVazirlar": 3163,
      "ovar": 3164,
      "rilayotgan": 3165,
      "Ġtayyorlash": 3166,
      "Ġqavat": 3167,
      "Ġ31": 3168,
      "Ġnafari": 3169,
      "ĠDi": 3170,
      "mua": 3171,
      "uqur": 3172,
      "ĠXa": 3173,
      "Ġtaraf": 3174,
      "Ġyashi": 3175,
      "Ġmasalasi": 3176,
      "Ġtaya": 3177,
      "ĠNavoiy": 3178,
      "Ġmulk": 3179,
      "zal": 3180,
      "yadi": 3181,
      "Ġinternet": 3182,
      "taliya": 3183,
      "arakat": 3184,
      "Ġplat": 3185,
      "gaz": 3186,
      "ff": 3187,
      "atar": 3188,
      "tni": 3189,
      "Ġ500": 3190,
      "Ġmet": 3191,
      "Ġshahridagi": 3192,
      "ĠBel": 3193,
      "Ġxavfsizligi": 3194,
      "ĠÇ§olib": 3195,
      "urxon": 3196,
      "ifa": 3197,
      "Ġmual": 3198,
      "ĠEr": 3199,
      "Ġhisobga": 3200,
      "Ġimkonini": 3201,
      "Ġinfratuzilma": 3202,
      "Ġayni": 3203,
      "Ġdars": 3204,
      "Ġvakolat": 3205,
      "Ġhuquqlari": 3206,
      "Ġxonadon": 3207,
      "ĠHozirda": 3208,
      "ĠjamÇ§ar": 3209,
      "Ġtayyorgarlik": 3210,
      "zila": 3211,
      "Ġjiho": 3212,
      "Ġtili": 3213,
      "Ġtariqa": 3214,
      "ĠÃµrniga": 3215,
      "Ġqarab": 3216,
      "Ġpayt": 3217,
      "Ġtizimini": 3218,
      "rinish": 3219,
      "Ġtarmoqlarda": 3220,
      "ĠtÃµqnash": 3221,
      "Ġkons": 3222,
      "Ġmuddatli": 3223,
      "Ġyut": 3224,
      "Ġqilayotgan": 3225,
      "ana": 3226,
      "Ġchiqishi": 3227,
      "Ġtushu": 3228,
      "tatsiya": 3229,
      "Ġoltin": 3230,
      "Ġparlament": 3231,
      "ĠSan": 3232,
      "iza": 3233,
      "Ġketadi": 3234,
      "ce": 3235,
      "Ġtashrifi": 3236,
      "spe": 3237,
      "Ġbizning": 3238,
      "Ġshaxsiy": 3239,
      "Ġsolish": 3240,
      "ĠLa": 3241,
      "gor": 3242,
      "izza": 3243,
      "Ġvaluta": 3244,
      "ĠBugun": 3245,
      "Ġimkoniyati": 3246,
      "Ġhuz": 3247,
      "Ġband": 3248,
      "Ġ000": 3249,
      "Ġtanqid": 3250,
      "kash": 3251,
      "Ġustun": 3252,
      "Ġborgan": 3253,
      "faza": 3254,
      "Ġbosqichi": 3255,
      "Ġholati": 3256,
      "Ġreyti": 3257,
      "Ġishlagan": 3258,
      "ĠqÃµshni": 3259,
      "Ġqurbon": 3260,
      "yoh": 3261,
      "lumotlarni": 3262,
      "Ġbulutli": 3263,
      "Ġyuborish": 3264,
      "ĠÃķzbekistondagi": 3265,
      "Ġhozircha": 3266,
      "Ġhuzuri": 3267,
      "Ġbugun": 3268,
      "ĠQonun": 3269,
      "Ġqolishi": 3270,
      "zilar": 3271,
      "Ġyillar": 3272,
      "Ġhaydovchi": 3273,
      "liklarni": 3274,
      "Ġmuhofaza": 3275,
      "ĠtÃµÇ§ridan": 3276,
      "Ġyashash": 3277,
      "bha": 3278,
      "Ġshifokor": 3279,
      "Ġdemo": 3280,
      "ĠÃµyi": 3281,
      "Ġelchi": 3282,
      "tirishi": 3283,
      "Ġmumkinligini": 3284,
      "ju": 3285,
      "Ġqor": 3286,
      "Ġurib": 3287,
      "Ġqilgandi": 3288,
      "Ġmuso": 3289,
      "Ġoson": 3290,
      "Ġfron": 3291,
      "Ġqatnash": 3292,
      "ĠÃµchi": 3293,
      "ĠBunda": 3294,
      "ĠkÃµzda": 3295,
      "ĠTojikiston": 3296,
      "lokat": 3297,
      "orti": 3298,
      "ĠÃµtamiz": 3299,
      "inoti": 3300,
      "ÃµÇ§an": 3301,
      "Ġoxirida": 3302,
      "Ġonlayn": 3303,
      "jin": 3304,
      "muni": 3305,
      "Ġenergiyasi": 3306,
      "ĠTu": 3307,
      "ĠqÃµygan": 3308,
      "zin": 3309,
      "tiriladi": 3310,
      "Ġhududlarida": 3311,
      "Ġtoifa": 3312,
      "Ġkema": 3313,
      "vor": 3314,
      "Ġishchi": 3315,
      "Ġjabr": 3316,
      "Ġglobal": 3317,
      "Ġoda": 3318,
      "Ġboshlaydi": 3319,
      "eta": 3320,
      "Ġchuqur": 3321,
      "Ġsektori": 3322,
      "Ġtekshiruv": 3323,
      "Ġboshqaruvi": 3324,
      "Ġtaxminan": 3325,
      "Ġfikricha": 3326,
      "ĠNamangan": 3327,
      "shing": 3328,
      "lovi": 3329,
      "ĠPri": 3330,
      "Ġqarz": 3331,
      "ĠÃµxsha": 3332,
      "dul": 3333,
      "Ġimtihon": 3334,
      "Ġhududiy": 3335,
      "dini": 3336,
      "Ġkafolat": 3337,
      "Ġxavo": 3338,
      "Ġjihatdan": 3339,
      "ĠAra": 3340,
      "ĠTadbir": 3341,
      "Ġola": 3342,
      "Ġjis": 3343,
      "Ġxodimi": 3344,
      "maydigan": 3345,
      "Ġparvoz": 3346,
      "ĠJahon": 3347,
      "Ġturdagi": 3348,
      "Ġittifoqi": 3349,
      "rush": 3350,
      "Ġdam": 3351,
      "Ġharakatlar": 3352,
      "ĠBaxmut": 3353,
      "Ġhuzuridagi": 3354,
      "ĠHam": 3355,
      "ĠyiÇ§ilish": 3356,
      "22": 3357,
      "gra": 3358,
      "avf": 3359,
      "uriyati": 3360,
      "uma": 3361,
      "Ġharbiylar": 3362,
      "Ġmuddat": 3363,
      "urxondaryo": 3364,
      "Ġetishga": 3365,
      "Ġplatfor": 3366,
      "Ġvay": 3367,
      "ĠMo": 3368,
      "Ġmajmua": 3369,
      "Ġortidan": 3370,
      "ten": 3371,
      "gon": 3372,
      "Ġpiyo": 3373,
      "ĠTi": 3374,
      "izzax": 3375,
      "zam": 3376,
      "likning": 3377,
      "Ġayollar": 3378,
      "Ġbostirib": 3379,
      "Ġahvo": 3380,
      "Ġmumkinligi": 3381,
      "harakat": 3382,
      "ys": 3383,
      "Ġmurab": 3384,
      "naqa": 3385,
      "ĠBar": 3386,
      "Ġraqib": 3387,
      "Ġqatna": 3388,
      "ĠIsh": 3389,
      "mizning": 3390,
      "ĠbÃµlganini": 3391,
      "Ġaksari": 3392,
      "Ġ198": 3393,
      "Ya": 3394,
      "Ġeta": 3395,
      "Ġ70": 3396,
      "ĠqÃµmita": 3397,
      "Ġtamo": 3398,
      "Ġbosib": 3399,
      "sos": 3400,
      "ĠAs": 3401,
      "lumotlarga": 3402,
      "Ġoddiy": 3403,
      "ĠtarmoÇ§i": 3404,
      "18": 3405,
      "Ġshamol": 3406,
      "Ġfermer": 3407,
      "ĠKreml": 3408,
      "Ç§ulo": 3409,
      "Ġuniversiteti": 3410,
      "Ġumuman": 3411,
      "Ġboshlandi": 3412,
      "Ġstrategik": 3413,
      "ĠQar": 3414,
      "ĠtÃµldi": 3415,
      "Ġvaziyatni": 3416,
      "ĠkÃµpchilik": 3417,
      "Ġaholisi": 3418,
      "rdÃµÇ§an": 3419,
      "Ġdoim": 3420,
      "Ġumid": 3421,
      "Ġtayanib": 3422,
      "Ġsur": 3423,
      "Ġqattiq": 3424,
      "Ġraqobat": 3425,
      "shington": 3426,
      "Ġkerakligini": 3427,
      "Ġinstituti": 3428,
      "erson": 3429,
      "Ġxizmatlari": 3430,
      "Ġinqi": 3431,
      "layman": 3432,
      "ĠErdÃµÇ§an": 3433,
      "ĠYana": 3434,
      "Ġberishga": 3435,
      "Ġxavotir": 3436,
      "Ġprofes": 3437,
      "Ġsurish": 3438,
      "tilib": 3439,
      "midan": 3440,
      "Ġnavbatida": 3441,
      "ĠsÃµmdan": 3442,
      "Ġhokimligi": 3443,
      "ramp": 3444,
      "lamoqda": 3445,
      "ĠSurxondaryo": 3446,
      "latsiya": 3447,
      "Ġulardan": 3448,
      "Ġxususan": 3449,
      "ktar": 3450,
      "Ġ300": 3451,
      "Ġturnir": 3452,
      "berg": 3453,
      "Ġjangovar": 3454,
      "Ġdarajasi": 3455,
      "Ġelektro": 3456,
      "ĠyoÇ§": 3457,
      "tning": 3458,
      "ĠYaqin": 3459,
      "Ç§ish": 3460,
      "fasida": 3461,
      "Ġboshqarish": 3462,
      "25": 3463,
      "ĠqÃµyi": 3464,
      "ĠSÃµnggi": 3465,
      "Ġqurilishi": 3466,
      "ĠTashqi": 3467,
      "nidagi": 3468,
      "Ġhis": 3469,
      "ĠbÃµlishini": 3470,
      "Ġrazvedka": 3471,
      "Ġkur": 3472,
      "Ġaylan": 3473,
      "Ġyordamida": 3474,
      "Ġxari": 3475,
      "Ġfarzand": 3476,
      "Ġkurashish": 3477,
      "kki": 3478,
      "ĠUmu": 3479,
      "ĠNatija": 3480,
      "ĠÃµqqa": 3481,
      "Ġogohlan": 3482,
      "kro": 3483,
      "Ġxuddi": 3484,
      "lashuv": 3485,
      "baqa": 3486,
      "hu": 3487,
      "tishni": 3488,
      "Ġgumon": 3489,
      "Ġatrof": 3490,
      "Ġchempiona": 3491,
      "rika": 3492,
      "Ġturish": 3493,
      "ĠqÃµydi": 3494,
      "legatsiya": 3495,
      "klama": 3496,
      "Ġalbatta": 3497,
      "Ġbojxona": 3498,
      "kuna": 3499,
      "Ġboshlanishi": 3500,
      "gojin": 3501,
      "tsi": 3502,
      "Ġqayer": 3503,
      "Ġportlash": 3504,
      "ĠKonstitutsiya": 3505,
      "ĠJizzax": 3506,
      "Ġaylandi": 3507,
      "Ġkitob": 3508,
      "Ġborilmoqda": 3509,
      "Ġmamlakati": 3510,
      "Ġmode": 3511,
      "Ġnashr": 3512,
      "ĠEng": 3513,
      "ĠYer": 3514,
      "Ġjanu": 3515,
      "Ġmana": 3516,
      "ĠAQShning": 3517,
      "ĠTramp": 3518,
      "tistika": 3519,
      "lagani": 3520,
      "ĠAd": 3521,
      "inal": 3522,
      "Ġblo": 3523,
      "Ġhibsga": 3524,
      "ĠÃµtishi": 3525,
      "Ġboshqaruv": 3526,
      "Ġbur": 3527,
      "Ġrahbariyati": 3528,
      "Ġtushishi": 3529,
      "Vag": 3530,
      "Ġtashabbus": 3531,
      "zilarli": 3532,
      "tra": 3533,
      "Vagner": 3534,
      "Ġistiq": 3535,
      "Ãķz": 3536,
      "ĠItaliya": 3537,
      "Ġbarchasi": 3538,
      "Ġshundan": 3539,
      "ĠRossiyadan": 3540,
      "Ġtank": 3541,
      "ĠMan": 3542,
      "nidan": 3543,
      "Ġyozdi": 3544,
      "kompaniya": 3545,
      "Ġpi": 3546,
      "ĠShta": 3547,
      "ĠJumladan": 3548,
      "Ġsovet": 3549,
      "ĠEslatib": 3550,
      "ĠHi": 3551,
      "ĠIj": 3552,
      "Ġolti": 3553,
      "ĠNor": 3554,
      "ĠIkki": 3555,
      "Ġsun": 3556,
      "Ġahamiyat": 3557,
      "Ġehtiyoj": 3558,
      "ĠPrigojin": 3559,
      "Ç§ini": 3560,
      "Ġberishicha": 3561,
      "etsk": 3562,
      "fiy": 3563,
      "joz": 3564,
      "lav": 3565,
      "Ġoylik": 3566,
      "Ġkelin": 3567,
      "Ġuchta": 3568,
      "ĠQrim": 3569,
      "nada": 3570,
      "liklarning": 3571,
      "monlar": 3572,
      "Ġbizga": 3573,
      "Ġturar": 3574,
      "ĠÃµtkazdi": 3575,
      "ĠVolo": 3576,
      "ĠAng": 3577,
      "Ġkelishib": 3578,
      "Ġsezilarli": 3579,
      "Ġolinadi": 3580,
      "Ġmuvaffaqiyatli": 3581,
      "ĠyÃµnal": 3582,
      "Ġsherik": 3583,
      "Ġkadr": 3584,
      "shin": 3585,
      "Ġqochi": 3586,
      "ĠUkrainani": 3587,
      "eriya": 3588,
      "Ġstandar": 3589,
      "mli": 3590,
      "Ġmajburiy": 3591,
      "Ġishtirokida": 3592,
      "Ġhujjatlar": 3593,
      "ayev": 3594,
      "Ġkecha": 3595,
      "Ma": 3596,
      "chilarning": 3597,
      "Ġdelegatsiya": 3598,
      "zbeki": 3599,
      "mart": 3600,
      "qis": 3601,
      "Ġuniversitet": 3602,
      "Ġmashhur": 3603,
      "Ç§ur": 3604,
      "Ġbayono": 3605,
      "ĠSho": 3606,
      "Ġnechta": 3607,
      "Ġarzon": 3608,
      "zida": 3609,
      "manitar": 3610,
      "ĠArabi": 3611,
      "yt": 3612,
      "soz": 3613,
      "Ġehtiyot": 3614,
      "Ġaytilgan": 3615,
      "Ġduch": 3616,
      "Ġ35": 3617,
      "Ġichiga": 3618,
      "Ġkesi": 3619,
      "Ġbaland": 3620,
      "ĠÃµtkazib": 3621,
      "rilgani": 3622,
      "shyo": 3623,
      "Ġqazib": 3624,
      "Ġxavfi": 3625,
      "mdan": 3626,
      "ĠAh": 3627,
      "Ġmuxbiri": 3628,
      "Ġbildirgan": 3629,
      "kab": 3630,
      "ĠqÃµshinlari": 3631,
      "und": 3632,
      "mish": 3633,
      "ok": 3634,
      "ĠyÃµqotish": 3635,
      "vetsiya": 3636,
      "masiga": 3637,
      "ĠPro": 3638,
      "ĠrÃµyxatdan": 3639,
      "kana": 3640,
      "Ġyoshlar": 3641,
      "Ġjismoniy": 3642,
      "ladigan": 3643,
      "Ġtumanidagi": 3644,
      "17": 3645,
      "laver": 3646,
      "Ġjihoz": 3647,
      "Ġver": 3648,
      "Ġqadam": 3649,
      "ĠXerson": 3650,
      "Ġ2018": 3651,
      "Ġoshgan": 3652,
      "Ġfot": 3653,
      "ĠmashÇ§ulo": 3654,
      "Ġqilgani": 3655,
      "ĠFin": 3656,
      "Ġvoz": 3657,
      "Ġchiqaruvchi": 3658,
      "Ġmadaniy": 3659,
      "Ġborishi": 3660,
      "Ġgektar": 3661,
      "ĠShunday": 3662,
      "ĠYu": 3663,
      "Ġinspe": 3664,
      "Ġdoira": 3665,
      "Ġsohasidagi": 3666,
      "qibat": 3667,
      "moli": 3668,
      "ĠSud": 3669,
      "ĠkÃµrsatilgan": 3670,
      "Ġkelmoqda": 3671,
      "ddin": 3672,
      "sir": 3673,
      "Ġmarkaziy": 3674,
      "enga": 3675,
      "ge": 3676,
      "mlik": 3677,
      "rori": 3678,
      "ĠkÃµlam": 3679,
      "Ġ90": 3680,
      "tÃµÇ§ri": 3681,
      "Ġishdan": 3682,
      "Ġqilishda": 3683,
      "Ġsertifi": 3684,
      "Ġtana": 3685,
      "ska": 3686,
      "Ġdollarlik": 3687,
      "rakkab": 3688,
      "zbekistan": 3689,
      "Ġofi": 3690,
      "Ġgene": 3691,
      "ergey": 3692,
      "Ġnoma": 3693,
      "ĠkÃµrsatadi": 3694,
      "XR": 3695,
      "lararo": 3696,
      "Ġyuridik": 3697,
      "Ġovqat": 3698,
      "Ġayblov": 3699,
      "sonli": 3700,
      "Ġkelajak": 3701,
      "Ãµravon": 3702,
      "ĠVolodi": 3703,
      "Ġhayoti": 3704,
      "stoni": 3705,
      "ĠUni": 3706,
      "ĠÃµtkazildi": 3707,
      "variya": 3708,
      "Ġbosim": 3709,
      "irlash": 3710,
      "Ġqismini": 3711,
      "Ġxizmatlar": 3712,
      "Ġtayinlangan": 3713,
      "Ġqonuniy": 3714,
      "rian": 3715,
      "rigacha": 3716,
      "tazam": 3717,
      "joy": 3718,
      "Ġmaterial": 3719,
      "pp": 3720,
      "ĠUz": 3721,
      "Ġkorrupsiya": 3722,
      "Ġmuddatga": 3723,
      "Ġhisobot": 3724,
      "ĠArmaniston": 3725,
      "Ġfoydalani": 3726,
      "Ġuchast": 3727,
      "nar": 3728,
      "ĠKiyevga": 3729,
      "ler": 3730,
      "Ġimtiyoz": 3731,
      "Ġholatlar": 3732,
      "ĠShvetsiya": 3733,
      "ĠsÃµmlik": 3734,
      "ĠtÃµla": 3735,
      "Ġchiqadi": 3736,
      "Ġshubha": 3737,
      "Ġtashkilotlar": 3738,
      "tirishga": 3739,
      "Ġzil": 3740,
      "ĠSergey": 3741,
      "ĠBunga": 3742,
      "ĠQÃµshma": 3743,
      "bini": 3744,
      "Ġkelgu": 3745,
      "Ġmiqdorda": 3746,
      "xonasi": 3747,
      "arov": 3748,
      "gur": 3749,
      "har": 3750,
      "Ġberil": 3751,
      "Ġtaqdi": 3752,
      "Ġhuquqiy": 3753,
      "ĠOq": 3754,
      "Ġxabarlar": 3755,
      "gno": 3756,
      "Ġkredit": 3757,
      "Ġjarayoni": 3758,
      "Ġturizm": 3759,
      "mlakat": 3760,
      "Ġaniqlash": 3761,
      "Ġpiyoda": 3762,
      "liklarga": 3763,
      "Ġfun": 3764,
      "Ġtasvir": 3765,
      "Ġtartibda": 3766,
      "Ġsalohi": 3767,
      "Ġtaraqqi": 3768,
      "lidan": 3769,
      "Ġhududiga": 3770,
      "ment": 3771,
      "zilishi": 3772,
      "zosi": 3773,
      "Ġbahs": 3774,
      "Ġchempion": 3775,
      "ĠNatijada": 3776,
      "dolat": 3777,
      "Ġtarbiya": 3778,
      "ĠÃµrnatilgan": 3779,
      "Ġmavsu": 3780,
      "nayotgan": 3781,
      "ĠIl": 3782,
      "Ġomil": 3783,
      "Ġmiqdorida": 3784,
      "ĠSenat": 3785,
      "yosh": 3786,
      "Ġistiqbol": 3787,
      "Ġmurakkab": 3788,
      "viya": 3789,
      "Ġmuntazam": 3790,
      "Ġkarta": 3791,
      "uvor": 3792,
      "masa": 3793,
      "Ġsano": 3794,
      "Ġpartiyasi": 3795,
      "Ġhissa": 3796,
      "komil": 3797,
      "ĠqÃµmondon": 3798,
      "Ġqavatli": 3799,
      "tiladigan": 3800,
      "Ukraina": 3801,
      "Ġboshlanadi": 3802,
      "tilgani": 3803,
      "Ġqiladigan": 3804,
      "chiq": 3805,
      "Ġoldida": 3806,
      "Ġbudje": 3807,
      "ĠtemiryÃµl": 3808,
      "Ġvaqtincha": 3809,
      "ĠSir": 3810,
      "tiruvchi": 3811,
      "Ġxabarda": 3812,
      "lashish": 3813,
      "pov": 3814,
      "masligini": 3815,
      "Ġegallab": 3816,
      "Ġmijoz": 3817,
      "Ġfav": 3818,
      "Ġjon": 3819,
      "stru": 3820,
      "Ġpoyez": 3821,
      "ĠÃµlim": 3822,
      "Ġholatlari": 3823,
      "ĠHuj": 3824,
      "16": 3825,
      "shib": 3826,
      "ĠJoriy": 3827,
      "Ġusta": 3828,
      "Ġmexa": 3829,
      "hati": 3830,
      "ĠVolodimir": 3831,
      "Ġkuzat": 3832,
      "Ġtaxmin": 3833,
      "Ġkeltirib": 3834,
      "laversa": 3835,
      "ĠAir": 3836,
      "Ġoshirilgan": 3837,
      "Ġmamlakatlar": 3838,
      "Ãµj": 3839,
      "Ġamerika": 3840,
      "Ġhaqiqiy": 3841,
      "ydir": 3842,
      "Ġfuqarolik": 3843,
      "Ġolmadi": 3844,
      "ĠFinlandiya": 3845,
      "Ġkunlarda": 3846,
      "sional": 3847,
      "Ġqonunchilik": 3848,
      "Ġilova": 3849,
      "Ġinstitut": 3850,
      "Ġrubl": 3851,
      "Ġsalbiy": 3852,
      "Ġshunchaki": 3853,
      "Ġkunlik": 3854,
      "Ġustuvor": 3855,
      "Ġgeo": 3856,
      "ĠÃµl": 3857,
      "dova": 3858,
      "avfsizlik": 3859,
      "Ġaktiv": 3860,
      "HT": 3861,
      "ĠzÃµravon": 3862,
      "yut": 3863,
      "Ġbuz": 3864,
      "ĠThe": 3865,
      "Ġqano": 3866,
      "dorlik": 3867,
      "ros": 3868,
      "Ġxos": 3869,
      "Ãķzbek": 3870,
      "Ġve": 3871,
      "ĠsoÇ§liqni": 3872,
      "Ġuchuvchi": 3873,
      "tex": 3874,
      "qara": 3875,
      "Re": 3876,
      "tur": 3877,
      "ĠDu": 3878,
      "ker": 3879,
      "Ġxavfli": 3880,
      "gida": 3881,
      "Ġayniqsa": 3882,
      "Ġsahi": 3883,
      "Ġkuchi": 3884,
      "ĠMak": 3885,
      "Ġtala": 3886,
      "kas": 3887,
      "yov": 3888,
      "mning": 3889,
      "burg": 3890,
      "ĠUrush": 3891,
      "ĠIspaniya": 3892,
      "Ġmuddati": 3893,
      "leriya": 3894,
      "IV": 3895,
      "ling": 3896,
      "Ġtakomil": 3897,
      "ĠQatar": 3898,
      "Ġ80": 3899,
      "ĠVashington": 3900,
      "ĠqÃµn": 3901,
      "tidagi": 3902,
      "Ġtizimlari": 3903,
      "Ġfavqulodda": 3904,
      "magani": 3905,
      "ĠkÃµlamli": 3906,
      "ĠRas": 3907,
      "Ġkiradi": 3908,
      "lashtirishga": 3909,
      "Ġten": 3910,
      "ahra": 3911,
      "Ġaybdor": 3912,
      "Ġjarayonida": 3913,
      "Ġeski": 3914,
      "ĠqÃµyil": 3915,
      "sno": 3916,
      "ĠBoshqa": 3917,
      "Ġpalatasi": 3918,
      "Ġchiqarib": 3919,
      "Ġqolmoqda": 3920,
      "Ġintervyusida": 3921,
      "stlar": 3922,
      "Ġbajar": 3923,
      "Ġdepartamenti": 3924,
      "Ġqam": 3925,
      "eva": 3926,
      "Â».": 3927,
      "tilleriya": 3928,
      "mit": 3929,
      "Ġamaliy": 3930,
      "ĠArabistoni": 3931,
      "Ġfuqarolari": 3932,
      "Ġpor": 3933,
      "dio": 3934,
      "Ġrea": 3935,
      "ĠTurk": 3936,
      "Ġasr": 3937,
      "lumotiga": 3938,
      "Ġharbiylari": 3939,
      "ĠDast": 3940,
      "Ġdaraxt": 3941,
      "ĠkÃµrsatib": 3942,
      "barida": 3943,
      "Ġmeni": 3944,
      "Ġhamkorlikda": 3945,
      "Ġfede": 3946,
      "Ġ197": 3947,
      "Ġanju": 3948,
      "Ġuskuna": 3949,
      "Ġsotish": 3950,
      "ĠdÃµkon": 3951,
      "Ġijobiy": 3952,
      "orazm": 3953,
      "umli": 3954,
      "Ġyozishi": 3955,
      "ĠÃµs": 3956,
      "BC": 3957,
      "ova": 3958,
      "ĠkÃµrgan": 3959,
      "Ġoshib": 3960,
      "yus": 3961,
      "Ġviza": 3962,
      "rans": 3963,
      "Ġatadi": 3964,
      "ngizni": 3965,
      "ĠPutinning": 3966,
      "urmat": 3967,
      "ĠÃµzgarishi": 3968,
      "Ġino": 3969,
      "yaga": 3970,
      "Ġjavobgarlik": 3971,
      "Ġmexani": 3972,
      "ĠPar": 3973,
      "diruv": 3974,
      "Ãµz": 3975,
      "batga": 3976,
      "ferensiya": 3977,
      "dash": 3978,
      "qindi": 3979,
      "Ġuchastka": 3980,
      "likdagi": 3981,
      "Ġqolib": 3982,
      "sandr": 3983,
      "Ġnizo": 3984,
      "Ġyerga": 3985,
      "Ġblok": 3986,
      "chilarga": 3987,
      "Ġrasman": 3988,
      "Ġtadbirkorlik": 3989,
      "tiruv": 3990,
      "iqtisodiy": 3991,
      "ze": 3992,
      "Ġkiritdi": 3993,
      "Ġmahsulotlar": 3994,
      "ĠtÃµlash": 3995,
      "ĠTay": 3996,
      "Ġhisobidan": 3997,
      "ĠBr": 3998,
      "Ġdalil": 3999,
      "mlar": 4000,
      "Ġdunyoning": 4001,
      "ĠInter": 4002,
      "fe": 4003,
      "dav": 4004,
      "Ġchang": 4005,
      "Ġaeropor": 4006,
      "Ç§iga": 4007,
      "ĠAbdul": 4008,
      "ĠYÃµl": 4009,
      "ĠOr": 4010,
      "Ġmansab": 4011,
      "Ġtomondan": 4012,
      "Ġquvvat": 4013,
      "Ġustida": 4014,
      "Ġqanchalik": 4015,
      "Ġmamlakatning": 4016,
      "zov": 4017,
      "mayman": 4018,
      "Ġartilleriya": 4019,
      "yÃµ": 4020,
      "Ġqozon": 4021,
      "ngriya": 4022,
      "ĠIchki": 4023,
      "ĠyiÇ§": 4024,
      "Ġborayotgan": 4025,
      "taj": 4026,
      "Ġmobil": 4027,
      "Ġtopshiriq": 4028,
      "Ġfonida": 4029,
      "ĠsÃµmga": 4030,
      "tirildi": 4031,
      "Ġdavlati": 4032,
      "Ġqatori": 4033,
      "Ġyozgan": 4034,
      "Ġiqlim": 4035,
      "Ġliga": 4036,
      "Ġuzay": 4037,
      "Ġfili": 4038,
      "ĠqÃµyib": 4039,
      "Ġmasalalar": 4040,
      "Ġhisobiga": 4041,
      "Ġinobatga": 4042,
      "Ġchoralar": 4043,
      "Ġyozishicha": 4044,
      "Ġtopilgan": 4045,
      "Ġfil": 4046,
      "Ġtaklifi": 4047,
      "Ġkla": 4048,
      "ddan": 4049,
      "Ġkiyi": 4050,
      "Ġsiyosati": 4051,
      "Ġpunkt": 4052,
      "Ġniya": 4053,
      "Ġshuning": 4054,
      "Ġ2017": 4055,
      "40": 4056,
      "chan": 4057,
      "Ġsafi": 4058,
      "Ġkama": 4059,
      "TM": 4060,
      "kratik": 4061,
      "mosha": 4062,
      "Ġtayinlandi": 4063,
      "ĠXar": 4064,
      "Ġoldingi": 4065,
      "Ġdunyoda": 4066,
      "Ġyuborilgan": 4067,
      "tali": 4068,
      "Ġshunda": 4069,
      "Ġbilim": 4070,
      "ĠSirdaryo": 4071,
      "Ġhosil": 4072,
      "Ġmamlakatlari": 4073,
      "In": 4074,
      "boÇ§": 4075,
      "Ġstrategiya": 4076,
      "tma": 4077,
      "Ġavvalgi": 4078,
      "13": 4079,
      "ĠÃµtkazgan": 4080,
      "Ġtuzilgan": 4081,
      "Ġpaytida": 4082,
      "Ġochko": 4083,
      "para": 4084,
      "Ġkasb": 4085,
      "ĠBugungi": 4086,
      "AR": 4087,
      "Ġvarian": 4088,
      "ĠYi": 4089,
      "ĠChi": 4090,
      "Ġjavoban": 4091,
      "Ġtartibga": 4092,
      "Ġamalda": 4093,
      "Ġeki": 4094,
      "Ġqismida": 4095,
      "Ġdaryo": 4096,
      "Ġmusobaqa": 4097,
      "Ġqilamiz": 4098,
      "ĠmaÇ§lubi": 4099,
      "qli": 4100,
      "ĠSuri": 4101,
      "sol": 4102,
      "Ġqishlo": 4103,
      "Ġholatiga": 4104,
      "ans": 4105,
      "lanishiga": 4106,
      "sus": 4107,
      "Ġtanlov": 4108,
      "Ġmaqsadi": 4109,
      "ĠXorazm": 4110,
      "Ġprogno": 4111,
      "ĠKompaniya": 4112,
      "Ġkirgan": 4113,
      "Ġtalabalar": 4114,
      "ĠÃµzbekistonlik": 4115,
      "Ġsharoi": 4116,
      "Ġboshidan": 4117,
      "Ġmetro": 4118,
      "smon": 4119,
      "str": 4120,
      "Ġqoch": 4121,
      "Ġhududda": 4122,
      "rashuv": 4123,
      "Ġboshlanganidan": 4124,
      "iro": 4125,
      "ĠbÃµlgandi": 4126,
      "giron": 4127,
      "Ġmon": 4128,
      "Ġboshchiligi": 4129,
      "Ġchiqara": 4130,
      "Ġrivojlanish": 4131,
      "Ġamaldagi": 4132,
      "qismi": 4133,
      "biga": 4134,
      "ĠÃķshanda": 4135,
      "lanishini": 4136,
      "Ġyashay": 4137,
      "Ġxotin": 4138,
      "ĠAk": 4139,
      "Ġnarsani": 4140,
      "Ġoladigan": 4141,
      "Ġehtimol": 4142,
      "ĠUmuman": 4143,
      "Ġharorat": 4144,
      "Ġchiqindi": 4145,
      "virus": 4146,
      "Ġvayron": 4147,
      "bida": 4148,
      "lashtirib": 4149,
      "Ġkuchaytirish": 4150,
      "Ġmenga": 4151,
      "Ġerkak": 4152,
      "ĠyÃµnalishida": 4153,
      "vosita": 4154,
      "ĠMamlakat": 4155,
      "Ġtarixiy": 4156,
      "tisos": 4157,
      "Ç§iz": 4158,
      "nomasi": 4159,
      "Ġrekor": 4160,
      "qich": 4161,
      "Ġmut": 4162,
      "ĠSer": 4163,
      "ĠbaÇ§ish": 4164,
      "ĠÃµtkazilishi": 4165,
      "Ġishlarini": 4166,
      "res": 4167,
      "Ġkomplek": 4168,
      "Ġrasmiylari": 4169,
      "yer": 4170,
      "Ġoshirishga": 4171,
      "Ġnaza": 4172,
      "Ġukrainalik": 4173,
      "qiz": 4174,
      "Ġxabarida": 4175,
      "sul": 4176,
      "Ġtest": 4177,
      "XX": 4178,
      "rant": 4179,
      "Ġzona": 4180,
      "Ġishlashi": 4181,
      "ĠMaj": 4182,
      "viga": 4183,
      "ĠÃµÇ§": 4184,
      "Ġerishish": 4185,
      "say": 4186,
      "Ġketa": 4187,
      "Ġfoizdan": 4188,
      "Ġzilzila": 4189,
      "hol": 4190,
      "shun": 4191,
      "Ġminglab": 4192,
      "dirish": 4193,
      "kitob": 4194,
      "dromet": 4195,
      "Ġjamiyati": 4196,
      "kast": 4197,
      "Ġoylarida": 4198,
      "Ġbaravar": 4199,
      "jorat": 4200,
      "Ġoshdi": 4201,
      "Ġmurabbiy": 4202,
      "Ġnazorati": 4203,
      "Me": 4204,
      "Ġtushadi": 4205,
      "ĠÃµrto": 4206,
      "Ġmaqola": 4207,
      "ley": 4208,
      "kidlagan": 4209,
      "Ġmaydoni": 4210,
      "Ġturmush": 4211,
      "ĠÃµrinda": 4212,
      "ĠQurol": 4213,
      "Ġtopish": 4214,
      "bituriy": 4215,
      "ada": 4216,
      "chil": 4217,
      "Ġfoydalangan": 4218,
      "bituriyent": 4219,
      "onavirus": 4220,
      "larim": 4221,
      "Ġbirida": 4222,
      "ĠVengriya": 4223,
      "ĠDonetsk": 4224,
      "Ġinno": 4225,
      "laymiz": 4226,
      "Ġishonchli": 4227,
      "23": 4228,
      "Ġorada": 4229,
      "ĠXitoyning": 4230,
      "hammad": 4231,
      "Ġyurish": 4232,
      "Ġjoyda": 4233,
      "qqat": 4234,
      "yotini": 4235,
      "Ġqaytarish": 4236,
      "ĠkÃµmak": 4237,
      "Ġtuzilma": 4238,
      "ĠÃķr": 4239,
      "ĠQiz": 4240,
      "Ġchiqilgan": 4241,
      "Ġmustahkamlash": 4242,
      "bass": 4243,
      "Ġbom": 4244,
      "Ġtarkib": 4245,
      "lgach": 4246,
      "ĠnotÃµÇ§ri": 4247,
      "ĠAfrika": 4248,
      "simi": 4249,
      "ligidan": 4250,
      "Ġishni": 4251,
      "Ġavt": 4252,
      "Ġdollardan": 4253,
      "Ġushlab": 4254,
      "Ġfoydalanishga": 4255,
      "Ġtadbirkorlar": 4256,
      "Ġyadroviy": 4257,
      "sanoat": 4258,
      "oya": 4259,
      "ĠRi": 4260,
      "Ġpaxta": 4261,
      "ĠUchrashuv": 4262,
      "ĠyoÇ§i": 4263,
      "ĠÃµrgan": 4264,
      "Ġbata": 4265,
      "larimizni": 4266,
      "Ġyuborgan": 4267,
      "ĠIjtimoiy": 4268,
      "Ġlavozimida": 4269,
      "Ġstatistika": 4270,
      "Ġoshirilishi": 4271,
      "Ġdunyodagi": 4272,
      "ĠBola": 4273,
      "Ġbozori": 4274,
      "Ġtaraqqiyot": 4275,
      "Ġvazirligining": 4276,
      "ĠBol": 4277,
      "Ġsifatli": 4278,
      "Ta": 4279,
      "sht": 4280,
      "ĠKim": 4281,
      "Ġviloyatining": 4282,
      "Ġshikast": 4283,
      "Ġkonstitutsiya": 4284,
      "Ġtransp": 4285,
      "ĠJamo": 4286,
      "ĠUzbekistan": 4287,
      "Ġtomosha": 4288,
      "rij": 4289,
      "ĠkÃµrinishi": 4290,
      "daydir": 4291,
      "ĠbÃµlmasa": 4292,
      "Ġaholining": 4293,
      "Bar": 4294,
      "lashtirgan": 4295,
      "lÇ§i": 4296,
      "ĠVo": 4297,
      "Ġbelgilandi": 4298,
      "ftga": 4299,
      "davlat": 4300,
      "Ġloyihasini": 4301,
      "Ġ36": 4302,
      "Ġyoshi": 4303,
      "Ġdavri": 4304,
      "2022": 4305,
      "Ġur": 4306,
      "Ç§al": 4307,
      "Ġbari": 4308,
      "yekt": 4309,
      "xfiy": 4310,
      "Ġtashkilotlari": 4311,
      "Ġatrofidagi": 4312,
      "yen": 4313,
      "Ġyetkaz": 4314,
      "Ġolmagan": 4315,
      "Ġavtomobillar": 4316,
      "tdagi": 4317,
      "ĠSuriya": 4318,
      "Ġkompaniyalari": 4319,
      "Ġ196": 4320,
      "ĠkÃµpa": 4321,
      "Ġtashlab": 4322,
      "ĠTurkmaniston": 4323,
      "Na": 4324,
      "Ġharo": 4325,
      "ĠtÃµxtatish": 4326,
      "layotganini": 4327,
      "ĠAleksandr": 4328,
      "Ġkelishuvga": 4329,
      "Ġtaqdirda": 4330,
      "lol": 4331,
      "yul": 4332,
      "Ġjuma": 4333,
      "vokat": 4334,
      "ĠRossiyani": 4335,
      "Ġ45": 4336,
      "ĠbÃµlmas": 4337,
      "Ġbelgilab": 4338,
      "ĠÃµsish": 4339,
      "nati": 4340,
      "Ġbepul": 4341,
      "Ġqaytarib": 4342,
      "Ġball": 4343,
      "Ġtasdiqladi": 4344,
      "shunos": 4345,
      "Ġnut": 4346,
      "uqori": 4347,
      "Ġaviakompaniya": 4348,
      "Ġtaf": 4349,
      "ĠFalastin": 4350,
      "ĠQur": 4351,
      "Ġdeyish": 4352,
      "Ġshiko": 4353,
      "Ġolishni": 4354,
      "ĠÃµrnatish": 4355,
      "ĠtoÇ§li": 4356,
      "Ġmanzil": 4357,
      "Ġhujumidan": 4358,
      "nika": 4359,
      "Ġoyda": 4360,
      "ologik": 4361,
      "Toshkent": 4362,
      "kuatsiya": 4363,
      "Ç§or": 4364,
      "Ġmiqyo": 4365,
      "lyat": 4366,
      "ĠsÃµrov": 4367,
      "Ġmuxoli": 4368,
      "Ġmingga": 4369,
      "gratsiya": 4370,
      "oliq": 4371,
      "Ġmarkazida": 4372,
      "parvar": 4373,
      "ĠBan": 4374,
      "Ġborligi": 4375,
      "Ġyetti": 4376,
      "Ġyot": 4377,
      "udlik": 4378,
      "Ġiqtisodiyoti": 4379,
      "ĠSta": 4380,
      "ĠOta": 4381,
      "Ġdarajadagi": 4382,
      "Ġaholiga": 4383,
      "dago": 4384,
      "onal": 4385,
      "Ġmingta": 4386,
      "Ġfoydalanuvchi": 4387,
      "Ġdushanba": 4388,
      "Ġmaydonga": 4389,
      "ĠSiz": 4390,
      "Ġkompaniyalar": 4391,
      "Ġbutunlay": 4392,
      "Ġkomissiyasi": 4393,
      "sning": 4394,
      "ĠbÃµlmoqda": 4395,
      "xe": 4396,
      "zatish": 4397,
      "Ġmutla": 4398,
      "Ġishlarni": 4399,
      "Ġixtisos": 4400,
      "rma": 4401,
      "Ġasir": 4402,
      "Ġtiklash": 4403,
      "tilishicha": 4404,
      "Ġulgur": 4405,
      "rey": 4406,
      "Ġdavlatga": 4407,
      "layev": 4408,
      "Ġmajli": 4409,
      "sidiya": 4410,
      "Ç§urta": 4411,
      "ĠÃµzgarishlar": 4412,
      "Ġurinish": 4413,
      "Ç§u": 4414,
      "lanishicha": 4415,
      "Ġsayyoh": 4416,
      "Ġolinishi": 4417,
      "Ġtashabbu": 4418,
      "IM": 4419,
      "Ç§bat": 4420,
      "Ġfuqarosi": 4421,
      "Ġaloqador": 4422,
      "ĠFaqat": 4423,
      "Ġmutaxassislar": 4424,
      "Ġinte": 4425,
      "am": 4426,
      "Ġquyosh": 4427,
      "tilmagan": 4428,
      "bank": 4429,
      "sor": 4430,
      "Ġ[": 4431,
      "ĠDmit": 4432,
      "Ġbren": 4433,
      "Ġtuz": 4434,
      "Ġyal": 4435,
      "tinchi": 4436,
      "Ġchiqildi": 4437,
      "Ġmintaqaviy": 4438,
      "ngda": 4439,
      "Ġertalab": 4440,
      "ĠQurolli": 4441,
      "Ġmoddiy": 4442,
      "Ġshunga": 4443,
      "Ġqilinmoqda": 4444,
      "ĠLoyiha": 4445,
      "zilish": 4446,
      "Ġkutib": 4447,
      "Ġurin": 4448,
      "Ġrais": 4449,
      "Ġjoylarga": 4450,
      "Ġinqiroz": 4451,
      "ĠsÃµradi": 4452,
      "Ġinflatsiya": 4453,
      "ĠÃµqishga": 4454,
      "tadbirlar": 4455,
      "tr": 4456,
      "ngliz": 4457,
      "tellekt": 4458,
      "Ġnavbatda": 4459,
      "Ġkol": 4460,
      "arbiy": 4461,
      "Ġvatan": 4462,
      "Ġrioya": 4463,
      "Ġteleka": 4464,
      "Ġeksperti": 4465,
      "Ġquro": 4466,
      "Ġadolat": 4467,
      "Ġqandaydir": 4468,
      "Ġqilingandi": 4469,
      "Ġjazosi": 4470,
      "Ġdush": 4471,
      "Ġmajburiyat": 4472,
      "Ġtransfer": 4473,
      "14": 4474,
      "Ġshuni": 4475,
      "jo": 4476,
      "Ġlavozimiga": 4477,
      "Ġyildagi": 4478,
      "sangiz": 4479,
      "ĠkÃµrsatgan": 4480,
      "lashuvi": 4481,
      "oriya": 4482,
      "Ġekanligini": 4483,
      "ĠtarÇ§i": 4484,
      "ĠMaktab": 4485,
      "ĠraÇ§bat": 4486,
      "Ġaylanib": 4487,
      "ĠyÃµqligi": 4488,
      "Ġyoq": 4489,
      "Ġdiplomatik": 4490,
      "ĠMahkama": 4491,
      "Ġevakuatsiya": 4492,
      "kar": 4493,
      "ĠAso": 4494,
      "Ġyop": 4495,
      "Ġborligini": 4496,
      "ID": 4497,
      "shil": 4498,
      "ĠMis": 4499,
      "ĠSar": 4500,
      "ĠKar": 4501,
      "Ġ32": 4502,
      "Ġolmay": 4503,
      "dlik": 4504,
      "Ġbarpo": 4505,
      "Ġrejalashti": 4506,
      "inot": 4507,
      "ĠbÃµsh": 4508,
      "ĠTim": 4509,
      "Ġavvalroq": 4510,
      "ĠQolaversa": 4511,
      "Ġchizi": 4512,
      "Ġloyihalar": 4513,
      "Ġkos": 4514,
      "kamasi": 4515,
      "Ġimkoni": 4516,
      "Ġpalata": 4517,
      "Ġdollarni": 4518,
      "Ġochish": 4519,
      "Ġmukofot": 4520,
      "ĠtÃµsiq": 4521,
      "ĠXo": 4522,
      "Ġquruq": 4523,
      "ĠRah": 4524,
      "Ġnemis": 4525,
      "Ġimkoniyatini": 4526,
      "Ġyetkazish": 4527,
      "Ġoxirigacha": 4528,
      "Ġkapi": 4529,
      "gist": 4530,
      "Ġshaxslarga": 4531,
      "ktiv": 4532,
      "Ġkut": 4533,
      "riladigan": 4534,
      "Ġuchrashuvi": 4535,
      "ĠÇ§oya": 4536,
      "Ġtushdi": 4537,
      "ĠjamÇ§armasi": 4538,
      "ovning": 4539,
      "Ġraqamli": 4540,
      "Ġisi": 4541,
      "ĠqÃµyiladi": 4542,
      "Ġkuchga": 4543,
      "ĠMol": 4544,
      "Ġzavod": 4545,
      "Ġjoyida": 4546,
      "Ġviloyatlarida": 4547,
      "Ġsertifikat": 4548,
      "Ġkunga": 4549,
      "Ġurushga": 4550,
      "ftgaz": 4551,
      "bÃµ": 4552,
      "ĠbÃµlardi": 4553,
      "muro": 4554,
      "Ġyetakchisi": 4555,
      "2023": 4556,
      "ĠmaÇ§lubiyat": 4557,
      "ĠHujjat": 4558,
      "Ġurushning": 4559,
      "jir": 4560,
      "Ġkamera": 4561,
      "ĠdÃµst": 4562,
      "iri": 4563,
      "tlarni": 4564,
      "Ġkuzatilgan": 4565,
      "Ġajratilgan": 4566,
      "siyasi": 4567,
      "Ġvoqealar": 4568,
      "ĠMeh": 4569,
      "35": 4570,
      "yur": 4571,
      "dagilar": 4572,
      "Ġkanal": 4573,
      "ĠAngliya": 4574,
      "ĠOTM": 4575,
      "onlar": 4576,
      "noq": 4577,
      "kumat": 4578,
      "ĠsÃµragan": 4579,
      "Ġkamaytirish": 4580,
      "Ġmol": 4581,
      "Ġtasi": 4582,
      "Ġmaxfiy": 4583,
      "ĠTIV": 4584,
      "ĠRus": 4585,
      "Ġoldindan": 4586,
      "kÃµ": 4587,
      "Ġhammasi": 4588,
      "dorlar": 4589,
      "Ġstavka": 4590,
      "Ġqiziq": 4591,
      "Ġtarqalgan": 4592,
      "ĠOlim": 4593,
      "Ġnogiron": 4594,
      "chilarni": 4595,
      "Ġqayt": 4596,
      "hqon": 4597,
      "ĠkÃµch": 4598,
      "ĠqÃµllash": 4599,
      "Ġprokuraturasi": 4600,
      "uf": 4601,
      "Ġusul": 4602,
      "Ġangla": 4603,
      "rator": 4604,
      "Ġkundan": 4605,
      "ĠqÃµyildi": 4606,
      "ĠrÃµyxatga": 4607,
      "Ġumum": 4608,
      "Ġjan": 4609,
      "ĠsuÇ§urta": 4610,
      "neftgaz": 4611,
      "ĠmaÇ§lub": 4612,
      "ĠTergov": 4613,
      "Ġyiliga": 4614,
      "kul": 4615,
      "Ġsum": 4616,
      "Ġqisqartirish": 4617,
      "Ġmukofo": 4618,
      "Ġqilishdi": 4619,
      "Ġoshishi": 4620,
      "Ġhududlar": 4621,
      "aroq": 4622,
      "Ġoshir": 4623,
      "ĠAvst": 4624,
      "Ġkurs": 4625,
      "ĠMin": 4626,
      "Ġshaf": 4627,
      "Ġkoronavirus": 4628,
      "ĠkÃµrin": 4629,
      "Ġaytadi": 4630,
      "baÇ§al": 4631,
      "Ġloyihalarni": 4632,
      "Ġbaholash": 4633,
      "Ġchorshanba": 4634,
      "Ġyetkazilgan": 4635,
      "oma": 4636,
      "Ġtosh": 4637,
      "ĠMuhammad": 4638,
      "Ġvazifasini": 4639,
      "Ġanjumani": 4640,
      "Ġketayotgan": 4641,
      "Ġziyod": 4642,
      "Ġaniqlik": 4643,
      "Ġdegani": 4644,
      "lmas": 4645,
      "Ġkeyinchalik": 4646,
      "Ġraketalar": 4647,
      "ĠSharqiy": 4648,
      "Ġmahsulotlarini": 4649,
      "uters": 4650,
      "Ġnorozilik": 4651,
      "ĠBBC": 4652,
      "Ġseshanba": 4653,
      "Ġlits": 4654,
      "ĠDonbass": 4655,
      "Ġsubsidiya": 4656,
      "munikatsiya": 4657,
      "Ġtanishi": 4658,
      "Ġzudlik": 4659,
      "ĠNATOga": 4660,
      "Ġbois": 4661,
      "Ġmillat": 4662,
      "Ġvaziyatda": 4663,
      "qibatda": 4664,
      "Ġbaribir": 4665,
      "tigi": 4666,
      "Ġhurmat": 4667,
      "Ġaylangan": 4668,
      "Ġbiriga": 4669,
      "Ġhuquqbuzar": 4670,
      "11": 4671,
      "tirmoqda": 4672,
      "ĠÃµng": 4673,
      "Ġabituriyent": 4674,
      "ĠÃµrnini": 4675,
      "tirilishi": 4676,
      "Ġyetgan": 4677,
      "ĠReuters": 4678,
      "ĠDmitriy": 4679,
      "fsil": 4680,
      "ork": 4681,
      "Ġhalokat": 4682,
      "Ġurushda": 4683,
      "Ġuchrashuvda": 4684,
      "Ar": 4685,
      "ĠJon": 4686,
      "Ġvaziyatlar": 4687,
      "Ġqad": 4688,
      "Ġtakror": 4689,
      "ĠTer": 4690,
      "ĠEl": 4691,
      "Ġjavobgarlikka": 4692,
      "Ġsurishtiruv": 4693,
      "doni": 4694,
      "Ġaeroport": 4695,
      "Ġsayo": 4696,
      "Ġqarat": 4697,
      "Ġtarif": 4698,
      "Ġtortib": 4699,
      "Ġplatforma": 4700,
      "han": 4701,
      "ĠKatta": 4702,
      "Ġberadigan": 4703,
      "ray": 4704,
      "ĠÃµÇ§li": 4705,
      "Ġmuassasalari": 4706,
      "Ġtopshirish": 4707,
      "Ġkuchlarining": 4708,
      "poli": 4709,
      "Ġmadaniyat": 4710,
      "Ġyechim": 4711,
      "tor": 4712,
      "chka": 4713,
      "choq": 4714,
      "luÇ§": 4715,
      "Ġkuniga": 4716,
      "Ġmoliyalashtirish": 4717,
      "Ġozodlikdan": 4718,
      "ĠShahar": 4719,
      "rayotgan": 4720,
      "Ġetayotgan": 4721,
      "razi": 4722,
      "Ġok": 4723,
      "Ġxodimlar": 4724,
      "ĠAlbatta": 4725,
      "tom": 4726,
      "ĠMana": 4727,
      "lovchilar": 4728,
      "Ġzarbalar": 4729,
      "Ġterror": 4730,
      "Ġaviatsiya": 4731,
      "Ġbayonotida": 4732,
      "Ġishlaydi": 4733,
      "Ġ2014": 4734,
      "ĠyoÇ§adi": 4735,
      "Ġaniqlandi": 4736,
      "Ġyalpi": 4737,
      "yad": 4738,
      "Ġhamon": 4739,
      "Ġehtimoli": 4740,
      "Ġijaraga": 4741,
      "Ġxabardor": 4742,
      "shar": 4743,
      "Ġaytilishicha": 4744,
      "yapman": 4745,
      "ĠZap": 4746,
      "ĠÃµtadigan": 4747,
      "Ġsut": 4748,
      "Ġyakshanba": 4749,
      "Ġmashinasi": 4750,
      "Ġtajov": 4751,
      "Ġdoir": 4752,
      "Ġbevosita": 4753,
      "ĠTan": 4754,
      "ĠBuni": 4755,
      "ql": 4756,
      "ĠÃµnlab": 4757,
      "ĠAdliya": 4758,
      "ĠAQShda": 4759,
      "Ġkub": 4760,
      "ĠOy": 4761,
      "Ġqilingani": 4762,
      "ĠÃµqish": 4763,
      "ĠHiso": 4764,
      "Ġkuchlar": 4765,
      "ĠÃµxshash": 4766,
      "99": 4767,
      "Ġbila": 4768,
      "ĠDar": 4769,
      "diga": 4770,
      "Ġmuxlis": 4771,
      "Ġtekshirish": 4772,
      "ĠMoliya": 4773,
      "Ġyoni": 4774,
      "qaruv": 4775,
      "Ġolmas": 4776,
      "ĠSharq": 4777,
      "Ãķzbekneftgaz": 4778,
      "yiq": 4779,
      "ĠOl": 4780,
      "Ġbosqin": 4781,
      "ĠyÃµnalishda": 4782,
      "ĠboÇ§cha": 4783,
      "ĠTÃµÇ§ri": 4784,
      "Ġintellekt": 4785,
      "ĠKong": 4786,
      "ĠXavfsizlik": 4787,
      "ĠFor": 4788,
      "ĠbÃµlayotgan": 4789,
      "Ġxizmatining": 4790,
      "ĠOqibatda": 4791,
      "ĠDo": 4792,
      "Ġ37": 4793,
      "Ġkimyo": 4794,
      "kiy": 4795,
      "Ġolganda": 4796,
      "pta": 4797,
      "ĠMay": 4798,
      "ken": 4799,
      "Ġboshqarma": 4800,
      "ĠIIV": 4801,
      "Ġatigi": 4802,
      "Ġmissiya": 4803,
      "Ġfoizini": 4804,
      "Ġmaslahatchisi": 4805,
      "Ç§ilish": 4806,
      "piya": 4807,
      "Ġulushi": 4808,
      "zbon": 4809,
      "Ġxay": 4810,
      "toj": 4811,
      "ĠbÃµlishiga": 4812,
      "dasi": 4813,
      "tov": 4814,
      "ĠkÃµrsatdi": 4815,
      "Ġnatijalari": 4816,
      "grafi": 4817,
      "Ġgeneral": 4818,
      "Ġtr": 4819,
      "ĠkÃµprik": 4820,
      "ĠBÃµ": 4821,
      "ksiyasi": 4822,
      "Ġsarmoya": 4823,
      "Ġyigit": 4824,
      "Sa": 4825,
      "uvlar": 4826,
      "Ġsudga": 4827,
      "ĠKenga": 4828,
      "Ġimpor": 4829,
      "Ġpayshanba": 4830,
      "Ġhududidan": 4831,
      "Ġekologik": 4832,
      "ĠbÃµli": 4833,
      "ĠYuqori": 4834,
      "Ġmuta": 4835,
      "chester": 4836,
      "ln": 4837,
      "chak": 4838,
      "Ġtuzi": 4839,
      "Ġ34": 4840,
      "gini": 4841,
      "Ġbitim": 4842,
      "Ġsir": 4843,
      "Ġyetdi": 4844,
      "dia": 4845,
      "Ġjadal": 4846,
      "Ġqaroriga": 4847,
      "Ġsalomat": 4848,
      "sda": 4849,
      "vatsiya": 4850,
      "Ãµjayev": 4851,
      "Ġpu": 4852,
      "Ġdiz": 4853,
      "Ġ150": 4854,
      "Ġyanvardan": 4855,
      "ĠQuyi": 4856,
      "Ġyaqinida": 4857,
      "lit": 4858,
      "Ġ400": 4859,
      "ĠIslom": 4860,
      "Ġalyan": 4861,
      "Ġrossiyaliklar": 4862,
      "ĠMisr": 4863,
      "Ġdollari": 4864,
      "Ġnazora": 4865,
      "ĠHozirgi": 4866,
      "vay": 4867,
      "Ġqurilgan": 4868,
      "ĠDunyo": 4869,
      "Ġkamchilik": 4870,
      "muhi": 4871,
      "ĠIT": 4872,
      "Ġurushni": 4873,
      "Ġxavfsizligini": 4874,
      "Ġmuhtoj": 4875,
      "80": 4876,
      "din": 4877,
      "ĠQish": 4878,
      "ĠGol": 4879,
      "gich": 4880,
      "ĠMari": 4881,
      "Ġpake": 4882,
      "Ġsaqlanib": 4883,
      "Ġreytingi": 4884,
      "Ġ33": 4885,
      "men": 4886,
      "otor": 4887,
      "Ġpandemiya": 4888,
      "Ġinvest": 4889,
      "ĠqÃµriq": 4890,
      "Ġhisoblaydi": 4891,
      "Ġodamlarni": 4892,
      "Ġmehmonxona": 4893,
      "Ġhisobo": 4894,
      "eni": 4895,
      "ondon": 4896,
      "zarb": 4897,
      "Ġavlo": 4898,
      "27": 4899,
      "Ġaytgandi": 4900,
      "sozlik": 4901,
      "Ġdushman": 4902,
      "ĠÃµÇ§ir": 4903,
      "ĠPekin": 4904,
      "alu": 4905,
      "Ġkonferensiya": 4906,
      "Ġinsonlar": 4907,
      "Ġdeputat": 4908,
      "Ba": 4909,
      "iroz": 4910,
      "dirov": 4911,
      "ĠÃµzlari": 4912,
      "Ġmuammolarni": 4913,
      "ĠKanada": 4914,
      "ĠSoÇ§": 4915,
      "Ġingliz": 4916,
      "Ġmakta": 4917,
      "Ġkubo": 4918,
      "Ġqarash": 4919,
      "ĠsovÇ§a": 4920,
      "feren": 4921,
      "bosqich": 4922,
      "Ġsinf": 4923,
      "Ġboshchiligidagi": 4924,
      "drat": 4925,
      "ĠSay": 4926,
      "Ġsoxta": 4927,
      "ĠsÃµrab": 4928,
      "hoyat": 4929,
      "Ġpunk": 4930,
      "ĠMoldova": 4931,
      "24": 4932,
      "Ġkesib": 4933,
      "Ġnaq": 4934,
      "Ġchoralari": 4935,
      "kuror": 4936,
      "Ġkeladigan": 4937,
      "Ġmuvaffaq": 4938,
      "mos": 4939,
      "Ġpensiya": 4940,
      "Ġimzoladi": 4941,
      "Ġtrln": 4942,
      "Ġtahri": 4943,
      "Ç§ich": 4944,
      "zidan": 4945,
      "Ġsil": 4946,
      "Ġtizimida": 4947,
      "Real": 4948,
      "yab": 4949,
      "Ġqonunga": 4950,
      "Ġfarmoni": 4951,
      "Ġchiqarishni": 4952,
      "Ġchiqqa": 4953,
      "tiy": 4954,
      "Ġuzun": 4955,
      "Ġmodel": 4956,
      "Ġshikoyat": 4957,
      "ĠLondon": 4958,
      "ksimal": 4959,
      "Ġqama": 4960,
      "Ġinsho": 4961,
      "ĠAsosiy": 4962,
      "Ġkuchay": 4963,
      "qur": 4964,
      "ĠbÃµlishicha": 4965,
      "Ġnarxlar": 4966,
      "Al": 4967,
      "nim": 4968,
      "Ġtashish": 4969,
      "ĠÃµshanda": 4970,
      "ĠkÃµngil": 4971,
      "Ġtopgan": 4972,
      "Ġprezidentlik": 4973,
      "Ġsamarador": 4974,
      "Ġislohotlar": 4975,
      "raziliya": 4976,
      "ek": 4977,
      "Ġpuli": 4978,
      "Ġqarin": 4979,
      "Ġqobili": 4980,
      "Ġbloger": 4981,
      "Ġekspert": 4982,
      "maymiz": 4983,
      "Ġarafasida": 4984,
      "Ġbuyurtma": 4985,
      "ĠmablaÇ§lari": 4986,
      "Ġqahra": 4987,
      "Ġaslida": 4988,
      "Ġtarkibida": 4989,
      "Ġbajarish": 4990,
      "xia": 4991,
      "ĠKeyinchalik": 4992,
      "Ġmansabdor": 4993,
      "Ġavtoma": 4994,
      "ĠAnd": 4995,
      "Ġtexnologiyalar": 4996,
      "Ġpedago": 4997,
      "Ġqaraganda": 4998,
      "Ġzid": 4999,
      "Ġekspertiza": 5000,
      "ĠkÃµmir": 5001,
      "Ġkerakli": 5002,
      "Ġtasdiqlangan": 5003,
      "Ġimzolangan": 5004,
      "Ġyutuq": 5005,
      "ĠtoÇ§": 5006,
      "Ġtijorat": 5007,
      "ĠbÃµladigan": 5008,
      "Ġombor": 5009,
      "ĠMus": 5010,
      "piada": 5011,
      "Ġshimoli": 5012,
      "Ġsuvi": 5013,
      "Ġshakllantirish": 5014,
      "Ġquvur": 5015,
      "ĠqÃµnÇ§i": 5016,
      "wit": 5017,
      "ĠQoraboÇ§": 5018,
      "Ġissiqlik": 5019,
      "Ġpara": 5020,
      "Ġasoslangan": 5021,
      "Ġmamlakatga": 5022,
      "Ġrekord": 5023,
      "Li": 5024,
      "TH": 5025,
      "ĠSS": 5026,
      "ĠkÃµrgaz": 5027,
      "Ġmeros": 5028,
      "Ġjarohati": 5029,
      "elsi": 5030,
      "Ġkorxonalar": 5031,
      "Ġkvar": 5032,
      "Ġkino": 5033,
      "ĠÃµrga": 5034,
      "Ġemasligini": 5035,
      "miyati": 5036,
      "loniya": 5037,
      "siyosiy": 5038,
      "hli": 5039,
      "kala": 5040,
      "radigan": 5041,
      "Ġkelajakda": 5042,
      "uto": 5043,
      "Ġhamja": 5044,
      "Ġolgani": 5045,
      "Ġnamu": 5046,
      "Ġyotqi": 5047,
      "flos": 5048,
      "Ġtani": 5049,
      "saddi": 5050,
      "Ġdavrda": 5051,
      "Ġakademiya": 5052,
      "Ġyaxshilash": 5053,
      "Ġshakllan": 5054,
      "Ġmuallif": 5055,
      "ope": 5056,
      "Ġdolzarb": 5057,
      "Ġ2016": 5058,
      "Ġushlangan": 5059,
      "kiv": 5060,
      "Ġbilish": 5061,
      "derlandiya": 5062,
      "ĠPokiston": 5063,
      "Ġcheklovlar": 5064,
      "ila": 5065,
      "Ġtort": 5066,
      "ĠsoliÇ§i": 5067,
      "ĠkÃµrini": 5068,
      "Ġcheklangan": 5069,
      "Ġchop": 5070,
      "sand": 5071,
      "Ġkeltirilgan": 5072,
      "ilon": 5073,
      "Ġbizni": 5074,
      "orijj": 5075,
      "Ġjoylashtirish": 5076,
      "Ġgazeta": 5077,
      "Ġtarqaldi": 5078,
      "shat": 5079,
      "Ġtov": 5080,
      "Ġqadr": 5081,
      "Ġvazifasi": 5082,
      "Ġquvva": 5083,
      "satsiya": 5084,
      "yotiga": 5085,
      "ĠRasmiy": 5086,
      "Ġharorati": 5087,
      "ĠHay": 5088,
      "ĠÃµrni": 5089,
      "liyev": 5090,
      "ĠHukumat": 5091,
      "Ġkonser": 5092,
      "Ġmasalan": 5093,
      "ologiya": 5094,
      "ĠUm": 5095,
      "Ġraqa": 5096,
      "Ġtadbirlar": 5097,
      "Ġfoizni": 5098,
      "ĠÃµtmay": 5099,
      "ĠXu": 5100,
      "Ġahamiyatga": 5101,
      "yun": 5102,
      "Ġorgani": 5103,
      "Ġkerakligi": 5104,
      "Ġfirib": 5105,
      "Ġrusumli": 5106,
      "chining": 5107,
      "yoki": 5108,
      "Ġholatga": 5109,
      "ĠÃµrganib": 5110,
      "gistika": 5111,
      "ahar": 5112,
      "Ġekspertlar": 5113,
      "Ġulkan": 5114,
      "SJ": 5115,
      "ziz": 5116,
      "sav": 5117,
      "HK": 5118,
      "Ġfinal": 5119,
      "Ġpre": 5120,
      "lashda": 5121,
      "sov": 5122,
      "Ġqiyinchilik": 5123,
      "Ġminnat": 5124,
      "witter": 5125,
      "oyib": 5126,
      "ĠAg": 5127,
      "enziya": 5128,
      "Ġmobay": 5129,
      "Ġsektor": 5130,
      "ĠZaporijj": 5131,
      "shiy": 5132,
      "Ġinti": 5133,
      "Ġfoydali": 5134,
      "Ġoilaviy": 5135,
      "ĠYTH": 5136,
      "Ġsababi": 5137,
      "ĠHolat": 5138,
      "Ġhaqiqat": 5139,
      "ĠqÃµshib": 5140,
      "Ġdavlatning": 5141,
      "tez": 5142,
      "nizatsiya": 5143,
      "tadbirlari": 5144,
      "Ġqaytar": 5145,
      "Ġortiqcha": 5146,
      "Ġajoyib": 5147,
      "Ġmavsumda": 5148,
      "Ġqal": 5149,
      "Ġqidiruv": 5150,
      "Ġyakunida": 5151,
      "Ġkg": 5152,
      "tash": 5153,
      "Ġpoytaxti": 5154,
      "Ġmobaynida": 5155,
      "ON": 5156,
      "To": 5157,
      "Ġmaksimal": 5158,
      "bel": 5159,
      "Ġkiritgan": 5160,
      "ĠAvva": 5161,
      "entina": 5162,
      "lashini": 5163,
      "ual": 5164,
      "ramiz": 5165,
      "sey": 5166,
      "Ġzim": 5167,
      "Ġanglatadi": 5168,
      "Ġhududlari": 5169,
      "ĠbÃµlsak": 5170,
      "Ġyaratilgan": 5171,
      "ĠqÃµzÇ§atilgan": 5172,
      "Ġsonini": 5173,
      "ĠParij": 5174,
      "Ġyakuniy": 5175,
      "ĠbÃµsha": 5176,
      "ĠbÃµlyapti": 5177,
      "Ġtezroq": 5178,
      "Ġmunosabatlar": 5179,
      "Ġkadrlar": 5180,
      "silo": 5181,
      "Ġqochib": 5182,
      "Ġtakomillashtirish": 5183,
      "Ġbizda": 5184,
      "tepa": 5185,
      "Ġtarmoqlari": 5186,
      "Ġyoqil": 5187,
      "ĠYosh": 5188,
      "format": 5189,
      "Ġtopa": 5190,
      "kidlandi": 5191,
      "ĠÇ§arbdan": 5192,
      "Ġsayohat": 5193,
      "Ġyetmagan": 5194,
      "Ġborasidagi": 5195,
      "ĠSamarqandda": 5196,
      "Ġsavolga": 5197,
      "?\"": 5198,
      "od": 5199,
      "ĠXarkiv": 5200,
      "ĠZaporijjya": 5201,
      "doy": 5202,
      "Ġnarxlari": 5203,
      "Man": 5204,
      "sun": 5205,
      "ĠÃµsishi": 5206,
      "ĠTwitter": 5207,
      "Ġjasa": 5208,
      "ĠBarcha": 5209,
      "ĠqÃµnÇ§iroq": 5210,
      "FA": 5211,
      "urat": 5212,
      "ĠÃµlimi": 5213,
      "Ġtup": 5214,
      "lasha": 5215,
      "Ġtakliflar": 5216,
      "Ġvaqtinchalik": 5217,
      "lub": 5218,
      "Ġgumanitar": 5219,
      "ĠtÃµpni": 5220,
      "ĠEnergetika": 5221,
      "Ġjoyiga": 5222,
      "Ġprezidentining": 5223,
      "ĠkambaÇ§al": 5224,
      "Ġbayram": 5225,
      "savv": 5226,
      "Ġqurollar": 5227,
      "Ġtomonlar": 5228,
      "ferendu": 5229,
      "kologiya": 5230,
      "ĠÃµtar": 5231,
      "ĠCher": 5232,
      "Men": 5233,
      "yam": 5234,
      "Ġrahbarining": 5235,
      "Ġelchisi": 5236,
      "ĠQonunchilik": 5237,
      "atto": 5238,
      "ĠbÃµlganlar": 5239,
      "ĠGaz": 5240,
      "ĠCo": 5241,
      "yn": 5242,
      "Ġemasligi": 5243,
      "Ġsamolyoti": 5244,
      "ĠAt": 5245,
      "Ġishtirokchi": 5246,
      "Ġquyidagicha": 5247,
      "Ġiqtisod": 5248,
      "ĠtÃµxtatib": 5249,
      "lament": 5250,
      "Ġsakki": 5251,
      "Ġmasji": 5252,
      "Ġprofessional": 5253,
      "pon": 5254,
      "Ġgoli": 5255,
      "Ġdarajaga": 5256,
      "Ġuzat": 5257,
      "ĠShtatlar": 5258,
      "ĠQizil": 5259,
      "ĠUluÇ§": 5260,
      "ĠTra": 5261,
      "ĠKeyingi": 5262,
      "bin": 5263,
      "ĠOdam": 5264,
      "ĠyÃµqligini": 5265,
      "Ġboshla": 5266,
      "Ġjad": 5267,
      "Ġettirish": 5268,
      "ĠSoÇ§liqni": 5269,
      "tdan": 5270,
      "lashishi": 5271,
      "Ġtushirish": 5272,
      "Ġuchragan": 5273,
      "Ġtashabbusi": 5274,
      "Ġqilinib": 5275,
      "Ġhiko": 5276,
      "toni": 5277,
      "Ġoyidan": 5278,
      "Ġmuallifi": 5279,
      "kum": 5280,
      "Ġyashagan": 5281,
      "Ġixtiyo": 5282,
      "rtinchi": 5283,
      "ĠEk": 5284,
      "ĠHarbiy": 5285,
      "Ġqayerda": 5286,
      "gen": 5287,
      "ĠBah": 5288,
      "Ġkanali": 5289,
      "Ġkelgani": 5290,
      "Ġzarbasi": 5291,
      "Ç§oq": 5292,
      "yuro": 5293,
      "ĠyoÇ§ishi": 5294,
      "qizlar": 5295,
      "ĠMahkamasining": 5296,
      "lishini": 5297,
      "Ġoshiradi": 5298,
      "Ġdiniy": 5299,
      "Ġhayvon": 5300,
      "up": 5301,
      "Ġrejasi": 5302,
      "qq": 5303,
      "Ġetishni": 5304,
      "Ġichimlik": 5305,
      "Ġyubordi": 5306,
      "Ġfoydalan": 5307,
      "anba": 5308,
      "ĠsÃµmni": 5309,
      "selona": 5310,
      "dil": 5311,
      "Ġsnar": 5312,
      "Ġprokuror": 5313,
      "Ġkishini": 5314,
      "Ġistalgan": 5315,
      "ĠoÇ§ri": 5316,
      "Ġmikro": 5317,
      "ĠNyu": 5318,
      "ĠÃµrinni": 5319,
      "dga": 5320,
      "gle": 5321,
      "ziyat": 5322,
      "Ç§oz": 5323,
      "Ġpos": 5324,
      "Ġaytilmoqda": 5325,
      "tuvchilar": 5326,
      "uldu": 5327,
      "Ġamerikalik": 5328,
      "ĠKX": 5329,
      "ĠShHT": 5330,
      "Ġbordi": 5331,
      "Ġaholini": 5332,
      "Ġmasalasini": 5333,
      "Ġshundaki": 5334,
      "uga": 5335,
      "maslikka": 5336,
      "Ġjoyga": 5337,
      "Ġtizimiga": 5338,
      "ĠQarshi": 5339,
      "let": 5340,
      "rilma": 5341,
      "Ġmaosh": 5342,
      "atr": 5343,
      "Ġfuqarolarning": 5344,
      "Ġpenal": 5345,
      "qayev": 5346,
      "Ġnuf": 5347,
      "Ġuchib": 5348,
      "ĠbaÇ§ishlangan": 5349,
      "onalar": 5350,
      "Ġsovrin": 5351,
      "Ġsuhbatda": 5352,
      "Ġsafarbarlik": 5353,
      "bud": 5354,
      "ngizga": 5355,
      "duq": 5356,
      "Ġrejalashtir": 5357,
      "Ġmusul": 5358,
      "ĠGu": 5359,
      "Ġkompaniyasining": 5360,
      "veradi": 5361,
      "ĠÃµzgartirib": 5362,
      "Ġyarat": 5363,
      "Ġtafsilo": 5364,
      "chiga": 5365,
      "ĠBor": 5366,
      "ĠkÃµrishi": 5367,
      "Ġmezbon": 5368,
      "Ġqolgani": 5369,
      "Ġfoydalanib": 5370,
      "ibori": 5371,
      "ĠIttifoqining": 5372,
      "ĠTayvan": 5373,
      "Ġyozib": 5374,
      "Ġtarkibiga": 5375,
      "cho": 5376,
      "Ġmagist": 5377,
      "ĠbÃµlar": 5378,
      "Ġstandart": 5379,
      "if": 5380,
      "tol": 5381,
      "ensatsiya": 5382,
      "Ġhujjatlarni": 5383,
      "Ġoshkor": 5384,
      "Ġostidagi": 5385,
      "Ġlitsenziya": 5386,
      "Ġnamuna": 5387,
      "kl": 5388,
      "Ġkal": 5389,
      "Ġsudya": 5390,
      "hem": 5391,
      "Ġmening": 5392,
      "urilish": 5393,
      "yeva": 5394,
      "ĠÃķyin": 5395,
      "Ġqozo": 5396,
      "Ġodamlarning": 5397,
      "ĠAvto": 5398,
      "qaldi": 5399,
      "jab": 5400,
      "Ġqaytib": 5401,
      "Ġajratish": 5402,
      "Ġmoddalar": 5403,
      "ĠFi": 5404,
      "parat": 5405,
      "ĠsoÇ§lom": 5406,
      "37": 5407,
      "28": 5408,
      "ĠYevropada": 5409,
      "verpul": 5410,
      "Ġadvokat": 5411,
      "nay": 5412,
      "pana": 5413,
      "Ġfax": 5414,
      "dorlari": 5415,
      "Ġaloqalar": 5416,
      "Ġtajovuz": 5417,
      "Ġtasdiqlandi": 5418,
      "ĠIqtiso": 5419,
      "iloyat": 5420,
      "Ġmasalasida": 5421,
      "Ġdronlar": 5422,
      "oda": 5423,
      "ĠShol": 5424,
      "Ġkuzatilishi": 5425,
      "ĠTÃµqayev": 5426,
      "ĠyolÇ§on": 5427,
      "lining": 5428,
      "rilmagan": 5429,
      "ĠSav": 5430,
      "Ġbuyu": 5431,
      "Ġreklama": 5432,
      "ĠPort": 5433,
      "Ġtarqat": 5434,
      "Ġruh": 5435,
      "Ġishini": 5436,
      "qaldiroq": 5437,
      "Ġxur": 5438,
      "Ġ75": 5439,
      "ĠNega": 5440,
      "mashyo": 5441,
      "ĠGur": 5442,
      "Ġkechik": 5443,
      "Ġmonit": 5444,
      "Ġyordami": 5445,
      "Ġqiruvchi": 5446,
      "suski": 5447,
      "ĠSher": 5448,
      "ĠRossiyadagi": 5449,
      "Ġlab": 5450,
      "maqaldiroq": 5451,
      "Ġkay": 5452,
      "korlik": 5453,
      "Ġoshirildi": 5454,
      "valniy": 5455,
      "onat": 5456,
      "Ġsmart": 5457,
      "lova": 5458,
      "Ġmuqa": 5459,
      "Ġmuxolifat": 5460,
      "aroÇ§": 5461,
      "Ġchiqishga": 5462,
      "Ġborayotgani": 5463,
      "Ġbozorida": 5464,
      "Ġyashirin": 5465,
      "Ġorzu": 5466,
      "Ġbirining": 5467,
      "Ġhuquqni": 5468,
      "Ġyakuniga": 5469,
      "savvur": 5470,
      "Ġben": 5471,
      "ĠIqtisodiy": 5472,
      "Ġaloqalarni": 5473,
      "ĠyoqilÇ§i": 5474,
      "Ġbunda": 5475,
      "doshi": 5476,
      "Ġau": 5477,
      "ĠtÃµs": 5478,
      "senal": 5479,
      "Ġxususiya": 5480,
      "Ġtortish": 5481,
      "uliyat": 5482,
      "tse": 5483,
      "Ġiflos": 5484,
      "mizdan": 5485,
      "Ġortib": 5486,
      "lion": 5487,
      "ĠBlo": 5488,
      "Ġoshirdi": 5489,
      "Ġimkoniyatlar": 5490,
      "ota": 5491,
      "Ġyutqa": 5492,
      "Ġavtot": 5493,
      "shimcha": 5494,
      "Ġsohi": 5495,
      "Ġqisman": 5496,
      "tilyapti": 5497,
      "Ġkamroq": 5498,
      "kashenko": 5499,
      "Ġhuquqlarini": 5500,
      "ĠInson": 5501,
      "dernizatsiya": 5502,
      "Ġhududidagi": 5503,
      "Ġochilgan": 5504,
      "ĠyÃµlida": 5505,
      "Ġtelegram": 5506,
      "ĠMajlis": 5507,
      "tadigan": 5508,
      "ĠÃµtayotgan": 5509,
      "ĠTimes": 5510,
      "ĠMat": 5511,
      "Ġyum": 5512,
      "Ġshahriga": 5513,
      "Ġprognoz": 5514,
      "Ġmutlaqo": 5515,
      "Ġqilishadi": 5516,
      "Ġpol": 5517,
      "Ġreys": 5518,
      "Ġ38": 5519,
      "ĠOlma": 5520,
      "Ġtir": 5521,
      "Ġarab": 5522,
      "Ġbyuro": 5523,
      "kal": 5524,
      "ĠShunga": 5525,
      "Ġegasi": 5526,
      "rilganini": 5527,
      "Ġqilinadigan": 5528,
      "az": 5529,
      "chli": 5530,
      "langanini": 5531,
      "Ġavtomo": 5532,
      "ĠAynan": 5533,
      "filak": 5534,
      "lingan": 5535,
      "Ġkayfi": 5536,
      "Ġoz": 5537,
      "Ġstadi": 5538,
      "Ġhamkas": 5539,
      "Ġnimalar": 5540,
      "Ġfondi": 5541,
      "ĠyonilÇ§i": 5542,
      "yob": 5543,
      "ĠBryus": 5544,
      "Ġbatafsil": 5545,
      "liklarini": 5546,
      "ĠMotor": 5547,
      "ĠUy": 5548,
      "Ġdehqon": 5549,
      "Ġaylanadi": 5550,
      "Ġyondash": 5551,
      "Ġlavozimidan": 5552,
      "ĠChempi": 5553,
      "lashtiradi": 5554,
      "Ġnaqd": 5555,
      "nining": 5556,
      "yaroÇ§": 5557,
      "ĠNima": 5558,
      "Ġchin": 5559,
      "Ġmini": 5560,
      "orod": 5561,
      "Ġdarax": 5562,
      "ĠqÃµllani": 5563,
      "Ġbuyum": 5564,
      "Ġbarava": 5565,
      "ĠyiÇ§ilishida": 5566,
      "Ġbriga": 5567,
      "ĠAP": 5568,
      "ĠHatto": 5569,
      "ĠLukashenko": 5570,
      "Ġshifoxonaga": 5571,
      "Ġfoto": 5572,
      "ring": 5573,
      "Ġhisoblash": 5574,
      "Ġimzolandi": 5575,
      "ĠTashkil": 5576,
      "Ġidoralari": 5577,
      "Ġaksariyati": 5578,
      "roh": 5579,
      "rovi": 5580,
      "ĠNavalniy": 5581,
      "ĠAyrim": 5582,
      "rativ": 5583,
      "lisher": 5584,
      "Ġmunosib": 5585,
      "tall": 5586,
      "struksiya": 5587,
      "Ġinshoot": 5588,
      "pen": 5589,
      "Ġqarshilik": 5590,
      "Ġqilaman": 5591,
      "ĠUluÇ§bek": 5592,
      "ĠLit": 5593,
      "Ġdarajasida": 5594,
      "Ġmomaqaldiroq": 5595,
      "Ġmodernizatsiya": 5596,
      "Ġvazirligiga": 5597,
      "sariya": 5598,
      "ĠGermaniyaning": 5599,
      "Ġqarindosh": 5600,
      "elin": 5601,
      "Ġbuzilishi": 5602,
      "Ġsaytida": 5603,
      "Ġzavodi": 5604,
      "Ġavtomashina": 5605,
      "veyt": 5606,
      "Ġagentlik": 5607,
      "ĠNiderlandiya": 5608,
      "orda": 5609,
      "uqu": 5610,
      "Ġnihoyat": 5611,
      "Ġ55": 5612,
      "Ġoyiga": 5613,
      "ola": 5614,
      "Ġkungi": 5615,
      "Ġfoizgacha": 5616,
      "Ġuyda": 5617,
      "Ġtushirilgan": 5618,
      "oroj": 5619,
      "Ġyashil": 5620,
      "ĠQishloq": 5621,
      "elekt": 5622,
      "Ġkiyim": 5623,
      "Ġniyatida": 5624,
      "qurun": 5625,
      "Auto": 5626,
      "eter": 5627,
      "ĠYev": 5628,
      "ĠXHK": 5629,
      "brÃµ": 5630,
      "Ġkorxonasi": 5631,
      "Ġkengashining": 5632,
      "qarshi": 5633,
      "Ġsekin": 5634,
      "Ġjurnalistlar": 5635,
      "Ġsanoati": 5636,
      "kim": 5637,
      "Ġturishi": 5638,
      "Ġushlandi": 5639,
      "ĠMahal": 5640,
      "Ãµsh": 5641,
      "Ġkva": 5642,
      "ydigan": 5643,
      "ĠViloyat": 5644,
      "jiston": 5645,
      "Ġisbot": 5646,
      "Ġxarajatlari": 5647,
      "ĠAleksey": 5648,
      "lyut": 5649,
      "Ġreal": 5650,
      "ĠÃµylab": 5651,
      "Ġhuquqini": 5652,
      "Ġyurgan": 5653,
      "andi": 5654,
      "Ġonasi": 5655,
      "sev": 5656,
      "transport": 5657,
      "Ġdengi": 5658,
      "Ġgarov": 5659,
      "Ġhisoblangan": 5660,
      "Ġmamlakatdagi": 5661,
      "ĠtÃµrtta": 5662,
      "ĠAbdura": 5663,
      "Ġmexanizm": 5664,
      "diri": 5665,
      "zit": 5666,
      "ktura": 5667,
      "Ġnomzo": 5668,
      "ĠrÃµyxatiga": 5669,
      "lyatsiya": 5670,
      "gentina": 5671,
      "Ġpla": 5672,
      "ĠPoli": 5673,
      "ĠbÃµlmasligi": 5674,
      "Ġfaqatgina": 5675,
      "Ġmutasaddi": 5676,
      "ressi": 5677,
      "Ġsara": 5678,
      "bosh": 5679,
      "Ġzaif": 5680,
      "minist": 5681,
      "Ġfevra": 5682,
      "ĠBerlin": 5683,
      "Yu": 5684,
      "libon": 5685,
      "Ġaytiladi": 5686,
      "Ġqildik": 5687,
      "ĠÃµtkazishga": 5688,
      "Ġkengash": 5689,
      "ĠGermaniyada": 5690,
      "Ġeksporti": 5691,
      "Ġkompleks": 5692,
      "Ġqotil": 5693,
      "tÃµzon": 5694,
      "irof": 5695,
      "RI": 5696,
      "Ġana": 5697,
      "Ġtirik": 5698,
      "Ġ600": 5699,
      "Ġnafaqa": 5700,
      "ukus": 5701,
      "Ġfarzandi": 5702,
      "tanbul": 5703,
      "Ġegallagan": 5704,
      "60": 5705,
      "Ġolayotgan": 5706,
      "Ġtayan": 5707,
      "kidlanishicha": 5708,
      "Ġdirektor": 5709,
      "Ġliniya": 5710,
      "Ġlaborat": 5711,
      "Is": 5712,
      "mada": 5713,
      "Ġchiqil": 5714,
      "Ġmutaxassislari": 5715,
      "Ġnuqtayi": 5716,
      "Ġdemokratik": 5717,
      "Ġintegratsiya": 5718,
      "shahar": 5719,
      "ningiz": 5720,
      "ĠShveyt": 5721,
      "ĠbÃµlmadi": 5722,
      "Ġ194": 5723,
      "Ġhajmini": 5724,
      "ĠyÃµnalishini": 5725,
      "Ġustiga": 5726,
      "Ġtalon": 5727,
      "bali": 5728,
      "stona": 5729,
      "tses": 5730,
      "ĠkÃµchib": 5731,
      "Ġqamrab": 5732,
      "ĠkÃµchmas": 5733,
      "ĠÃµtkazadi": 5734,
      "ĠIstanbul": 5735,
      "Ġkelma": 5736,
      "Ġgra": 5737,
      "jia": 5738,
      "Ġtovarlar": 5739,
      "ĠBryussel": 5740,
      "kratiya": 5741,
      "Ġqas": 5742,
      "vatsion": 5743,
      "linika": 5744,
      "xob": 5745,
      "Ġbarobarga": 5746,
      "Ġularda": 5747,
      "ĠyÃµlak": 5748,
      "Ġmamlakatni": 5749,
      "sinf": 5750,
      "kir": 5751,
      "Ġegalik": 5752,
      "Ġkeltirgan": 5753,
      "qinlik": 5754,
      "ĠyÃµllari": 5755,
      "Ġdarhol": 5756,
      "Ġprokurori": 5757,
      "Ġtuzish": 5758,
      "ĠtÃµlab": 5759,
      "Ġchar": 5760,
      "ĠCha": 5761,
      "Ġtexnologik": 5762,
      "qÃµ": 5763,
      "ping": 5764,
      "guncha": 5765,
      "ktabr": 5766,
      "Ġqatnashgan": 5767,
      "ĠAslida": 5768,
      "kanalida": 5769,
      "ras": 5770,
      "ĠUsmon": 5771,
      "ĠReklama": 5772,
      "ĠkÃµpaytirish": 5773,
      "kini": 5774,
      "ĠBun": 5775,
      "ĠAlisher": 5776,
      "Ġyozilgan": 5777,
      "Ġoldiga": 5778,
      "Ġmahbus": 5779,
      "vin": 5780,
      "ĠFV": 5781,
      "Ġmedal": 5782,
      "Ġchiqiladi": 5783,
      "Ġvazirining": 5784,
      "Ġpoytaxt": 5785,
      "kund": 5786,
      "ĠIsroilga": 5787,
      "qÃµr": 5788,
      "Ġqilyapti": 5789,
      "Ġkirit": 5790,
      "ĠNew": 5791,
      "Ġsakkiz": 5792,
      "Ġem": 5793,
      "Ġteja": 5794,
      "Ġbergani": 5795,
      "Ġfalastin": 5796,
      "ĠMoskvaga": 5797,
      "ĠzÃµravonlik": 5798,
      "Ġotish": 5799,
      "Ġboshqalar": 5800,
      "Ġdon": 5801,
      "Ġaql": 5802,
      "Ġtilida": 5803,
      "zildi": 5804,
      "Ġetgani": 5805,
      "ĠilÇ§or": 5806,
      "ruq": 5807,
      "ĠMask": 5808,
      "xonaga": 5809,
      "ĠqÃµmondoni": 5810,
      "Ġrol": 5811,
      "Ġyuldu": 5812,
      "Ġborilgan": 5813,
      "Ġ44": 5814,
      "ĠQodirov": 5815,
      "ĠFederatsiyasi": 5816,
      "Ġmonitori": 5817,
      "ĠNash": 5818,
      "linib": 5819,
      "Ġketgani": 5820,
      "Ġkvartira": 5821,
      "ĠGi": 5822,
      "Ġdviga": 5823,
      "Ġuchuvchisiz": 5824,
      "ĠBlin": 5825,
      "ĠyÃµqot": 5826,
      "Ġparcha": 5827,
      "Ġqilishini": 5828,
      "ĠmablaÇ§lar": 5829,
      "ĠIIBB": 5830,
      "Ġxursand": 5831,
      "op": 5832,
      "Ġboshlash": 5833,
      "Ġsuver": 5834,
      "daqiqa": 5835,
      "Ġada": 5836,
      "ĠqoÇ§oz": 5837,
      "kidlab": 5838,
      "Ġfaoliyatiga": 5839,
      "ĠzÃµr": 5840,
      "ĠSoliq": 5841,
      "ĠYÃµ": 5842,
      "Ġyaqinda": 5843,
      "Ġkuchayti": 5844,
      "dorilar": 5845,
      "boyev": 5846,
      "bernat": 5847,
      "Ġayta": 5848,
      "larimizga": 5849,
      "Ġbomba": 5850,
      "rang": 5851,
      "ĠÃµsim": 5852,
      "Ġboshpana": 5853,
      "Ġmunosabatda": 5854,
      "Ġetishicha": 5855,
      "Ġoshirib": 5856,
      "Ġbirja": 5857,
      "ĠÃµrmon": 5858,
      "ĠQozoÇ§istonda": 5859,
      "Ġkasallik": 5860,
      "Ġbosqichda": 5861,
      "Ġanjumanida": 5862,
      "Ġoldidan": 5863,
      "Ġhaftada": 5864,
      "mul": 5865,
      "bora": 5866,
      "Ġvaziyatga": 5867,
      "Ġbergandi": 5868,
      "Ġmuddatda": 5869,
      "Ġtarqatish": 5870,
      "Ġparlamenti": 5871,
      "Ġqola": 5872,
      "Ġsiyosatchi": 5873,
      "ĠIroq": 5874,
      "Ġqilishgan": 5875,
      "Ġqiziqish": 5876,
      "ĠBen": 5877,
      "Ġshov": 5878,
      "Ġbosqichma": 5879,
      "Ġmarkazlari": 5880,
      "ĠSavdo": 5881,
      "ligining": 5882,
      "Ġtepa": 5883,
      "Ġoshirgan": 5884,
      "ĠAQShga": 5885,
      "Ġoqibatlari": 5886,
      "anaviy": 5887,
      "Ġder": 5888,
      "Ġyonib": 5889,
      "Ġavvalo": 5890,
      "ble": 5891,
      "Ġishlaydigan": 5892,
      "Ġsahifa": 5893,
      "ĠMakron": 5894,
      "ĠJy": 5895,
      "ruziya": 5896,
      "Ġqarama": 5897,
      "ĠHodisa": 5898,
      "Ġchoralarini": 5899,
      "Ġqiymat": 5900,
      "Ġqurbonlar": 5901,
      "Kning": 5902,
      "mil": 5903,
      "Ġhov": 5904,
      "ĠFo": 5905,
      "Ġinvestitsiyalar": 5906,
      "Ġson": 5907,
      "ĠFuqaro": 5908,
      "xonada": 5909,
      "Ġtartibini": 5910,
      "timiz": 5911,
      "ĠLat": 5912,
      "vardiya": 5913,
      "ĠÇ§alla": 5914,
      "Ġshartnomasi": 5915,
      "Ġkuzatib": 5916,
      "Ġtabiat": 5917,
      "Ġhokimining": 5918,
      "Ġkechqurun": 5919,
      "Ãµst": 5920,
      "Ġmuqo": 5921,
      "Ġbirik": 5922,
      "sekund": 5923,
      "ĠXabar": 5924,
      "shid": 5925,
      "Ġkirdi": 5926,
      "ĠGap": 5927,
      "ĠShveytsariya": 5928,
      "Te": 5929,
      "ĠÃķzi": 5930,
      "Inter": 5931,
      "Ġorol": 5932,
      "Ġuyga": 5933,
      "rilishini": 5934,
      "ĠtÃµxtab": 5935,
      "Ġqamoqqa": 5936,
      "Ġyopiq": 5937,
      "Ġvoyaga": 5938,
      "Ġsohasi": 5939,
      "Chelsi": 5940,
      "ĠNashr": 5941,
      "Ġekspor": 5942,
      "ĠyÃµnalishlari": 5943,
      "Ġmaydonda": 5944,
      "yuter": 5945,
      "Ġstar": 5946,
      "Ġmeva": 5947,
      "lashtiriladi": 5948,
      "Ġfarmon": 5949,
      "Ġafzal": 5950,
      "Ġviloyatidagi": 5951,
      "sena": 5952,
      "Ġmaydonida": 5953,
      "Ġfederal": 5954,
      "Ġhikoya": 5955,
      "90": 5956,
      "lidagi": 5957,
      "Ġyod": 5958,
      "ĠÃµyinlari": 5959,
      "hshat": 5960,
      "Ġavariya": 5961,
      "Ġtayyorlangan": 5962,
      "Ġkoope": 5963,
      "Ġoydan": 5964,
      "Ġasoschisi": 5965,
      "gidromet": 5966,
      "ĠSin": 5967,
      "niqli": 5968,
      "Ġkampaniya": 5969,
      "DH": 5970,
      "Ġuzilish": 5971,
      "ĠÃµqitish": 5972,
      "tilishini": 5973,
      "Ġshahrining": 5974,
      "Ġsavollar": 5975,
      "Ġostiga": 5976,
      "Ġyaqinidagi": 5977,
      "ĠBlinken": 5978,
      "TB": 5979,
      "Ġsharoitida": 5980,
      "ĠHisob": 5981,
      "ĠBraziliya": 5982,
      "ensi": 5983,
      "Ġoqim": 5984,
      "Ġkelgusi": 5985,
      "ĠShols": 5986,
      "Ġtab": 5987,
      "Ġxomashyo": 5988,
      "Ġzahar": 5989,
      "Ġkishiga": 5990,
      "Ġmuhandi": 5991,
      "Ġhukmron": 5992,
      "log": 5993,
      "uvga": 5994,
      "avqulodda": 5995,
      "Ġekst": 5996,
      "ĠtÃµsqinlik": 5997,
      "Ġyerdan": 5998,
      "Ġyuqoridagi": 5999,
      "ĠrÃµyxati": 6000,
      "Ġdalillar": 6001,
      "ĠLitva": 6002,
      "Dunyo": 6003,
      "qulay": 6004,
      "Be": 6005,
      "ĠSal": 6006,
      "Ġvertol": 6007,
      "murodov": 6008,
      "chin": 6009,
      "Ġjinoyatlar": 6010,
      "Ġmahsulotlarni": 6011,
      "ĠBizning": 6012,
      "ĠAholi": 6013,
      "yak": 6014,
      "Ġoshadi": 6015,
      "novi": 6016,
      "Ġtashvi": 6017,
      "ĠsÃµzlarini": 6018,
      "Ġmilliondan": 6019,
      "ĠtÃµl": 6020,
      "Ġqiyna": 6021,
      "lami": 6022,
      "Ġqilinayotgan": 6023,
      "ĠYun": 6024,
      "komissiya": 6025,
      "uksion": 6026,
      "dra": 6027,
      "upol": 6028,
      "roÇ§i": 6029,
      "Ġradi": 6030,
      "Ġtaqiqlangan": 6031,
      "Ġhisobida": 6032,
      "ĠMotors": 6033,
      "ĠGe": 6034,
      "Ġtopildi": 6035,
      "uzli": 6036,
      "ĠyiÇ§ilishda": 6037,
      "Ġsafida": 6038,
      "Ġshaharda": 6039,
      "Ġkorxonalari": 6040,
      "Ġbuzgan": 6041,
      "Ġnutqi": 6042,
      "qÃµrÇ§on": 6043,
      "slar": 6044,
      "Ġdarajasini": 6045,
      "Ġlogistika": 6046,
      "Ġsohada": 6047,
      "Ġrahbarlik": 6048,
      "Ġsifati": 6049,
      "Ġbinosi": 6050,
      "ĠÃµrtoÇ§i": 6051,
      "Ġsutka": 6052,
      "nis": 6053,
      "kib": 6054,
      "ĠGo": 6055,
      "Ġxotira": 6056,
      "Ġhujumga": 6057,
      "Ġpasayishi": 6058,
      "ilonzor": 6059,
      "chini": 6060,
      "ĠKri": 6061,
      "Ġshaxslarning": 6062,
      "Ġxodimlarining": 6063,
      "Ġmuhojir": 6064,
      "Ġhokimiyati": 6065,
      "Ġkursi": 6066,
      "ĠYiÇ§ilish": 6067,
      "biriga": 6068,
      "Ġoldinga": 6069,
      "Ġsanksiyalarni": 6070,
      "Ġtril": 6071,
      "Ġof": 6072,
      "Ġotasi": 6073,
      "nomani": 6074,
      "Ġbuzish": 6075,
      "vid": 6076,
      "ĠYevrokomissiya": 6077,
      "Ġpasay": 6078,
      "ĠÃµtkazilmoqda": 6079,
      "bosar": 6080,
      "zara": 6081,
      "Ġchipta": 6082,
      "Ġdavlatlarning": 6083,
      "uquqiy": 6084,
      "AA": 6085,
      "ĠNukus": 6086,
      "inch": 6087,
      "ĠJam": 6088,
      "tari": 6089,
      "ĠYan": 6090,
      "Ġbolalarni": 6091,
      "Ġshoxob": 6092,
      "Ġdeputatlari": 6093,
      "raliya": 6094,
      "Ġoyoq": 6095,
      "ĠGro": 6096,
      "Ġ195": 6097,
      "Ġklaster": 6098,
      "Ġkosmik": 6099,
      "Ġoke": 6100,
      "Ġshun": 6101,
      "ĠNar": 6102,
      "Ġ48": 6103,
      "Ġxolos": 6104,
      "Ġtayyorligini": 6105,
      "eoro": 6106,
      "ĠtÃµrtinchi": 6107,
      "Ġqilmoqchi": 6108,
      "ĠFavqulodda": 6109,
      "Ġnoqulay": 6110,
      "ĠToshkentdagi": 6111,
      "Ġtadqiqotlar": 6112,
      "tlarini": 6113,
      "Ġhollarda": 6114,
      "Ġsammiti": 6115,
      "latilgan": 6116,
      "zolyut": 6117,
      "Ġyuzlab": 6118,
      "Ġguvohnoma": 6119,
      "Ye": 6120,
      "ĠÃµzim": 6121,
      "entagon": 6122,
      "Ġchorak": 6123,
      "Ġkompensatsiya": 6124,
      "Ġ2000": 6125,
      "Ġsheriklik": 6126,
      "ĠYevge": 6127,
      "Ġurgan": 6128,
      "ĠbuÇ§": 6129,
      "ĠqishloÇ§i": 6130,
      "himoya": 6131,
      "Ġegalladi": 6132,
      "Ġaksariyat": 6133,
      "ĠobrÃµ": 6134,
      "Ġgapirdi": 6135,
      "trakt": 6136,
      "ĠÃµrinbosar": 6137,
      "Ġajratiladi": 6138,
      "esti": 6139,
      "ĠMDH": 6140,
      "ĠKeyinroq": 6141,
      "Ġogohlantirish": 6142,
      "maga": 6143,
      "Ġaytildi": 6144,
      "fof": 6145,
      "Ġkimga": 6146,
      "qima": 6147,
      "ĠPentagon": 6148,
      "pik": 6149,
      "Ġhisobda": 6150,
      "lamchi": 6151,
      "Ġsuhbatlashdi": 6152,
      "Ġbildirish": 6153,
      "Ġtozalash": 6154,
      "Ġpoyezd": 6155,
      "Ne": 6156,
      "ĠkÃµradi": 6157,
      "ĠTurkiyaning": 6158,
      "Ġuchish": 6159,
      "ĠkÃµrinish": 6160,
      "soat": 6161,
      "lishiga": 6162,
      "Ġshaxsan": 6163,
      "ishiy": 6164,
      "ĠBirlashgan": 6165,
      "ĠAmerikaning": 6166,
      "Ġsuratga": 6167,
      "Ġmarosimi": 6168,
      "ĠÃµyini": 6169,
      "Ġelchixonasi": 6170,
      "Ġavlod": 6171,
      "unar": 6172,
      "Ġ(\"": 6173,
      "Ġgen": 6174,
      "Ġboshqacha": 6175,
      "Ġekologiya": 6176,
      "lilar": 6177,
      "Ġashyo": 6178,
      "ĠqÃµya": 6179,
      "Ġsaf": 6180,
      "ĠYil": 6181,
      "ĠIm": 6182,
      "ĠJin": 6183,
      "Ġfutbolchilar": 6184,
      "Ġxatti": 6185,
      "Ġetilmoqda": 6186,
      "Ġmalakali": 6187,
      "ĠMixa": 6188,
      "ĠqÃµzÇ§atilib": 6189,
      "Ġzimmasiga": 6190,
      "Ġkans": 6191,
      "Ġtashlash": 6192,
      "Ġharaka": 6193,
      "ĠyÃµllar": 6194,
      "ĠxÃµjalik": 6195,
      "Ġmanfaatdor": 6196,
      "Ġjanubi": 6197,
      "ST": 6198,
      "gal": 6199,
      "book": 6200,
      "Ġikkala": 6201,
      "jonov": 6202,
      "kori": 6203,
      "tifikatsiya": 6204,
      "ĠButun": 6205,
      "Ġdarajagacha": 6206,
      "Ġnafardan": 6207,
      "Ġjanglar": 6208,
      "Ġmusulmon": 6209,
      "21": 6210,
      "fan": 6211,
      "ksa": 6212,
      "vaqti": 6213,
      "Ġtadbirda": 6214,
      "Ġistisno": 6215,
      "Ġchaqa": 6216,
      "Ġshaxsga": 6217,
      "Ġmisol": 6218,
      "Ġortda": 6219,
      "toq": 6220,
      "ĠVal": 6221,
      "Ġmarkaziga": 6222,
      "ĠFederatsiya": 6223,
      "Ġelchixona": 6224,
      "Ġminnatdor": 6225,
      "eterburg": 6226,
      "An": 6227,
      "xÃµjayev": 6228,
      "baho": 6229,
      "Ġqiling": 6230,
      "Ġishlayotgan": 6231,
      "Ġoshirilmoqda": 6232,
      "Ġtezda": 6233,
      "Ġprofilak": 6234,
      "ffus": 6235,
      "Ġtrillion": 6236,
      "ĠPoy": 6237,
      "ĠOldi": 6238,
      "vegiya": 6239,
      "ĠAndrey": 6240,
      "uquq": 6241,
      "Ġbelgilash": 6242,
      "Ġuylar": 6243,
      "Ġtopshirildi": 6244,
      "Ġaytganda": 6245,
      "Ġnomidagi": 6246,
      "Arsenal": 6247,
      "rilish": 6248,
      "ays": 6249,
      "lumotni": 6250,
      "Ġnashriga": 6251,
      "Ġamaliyoti": 6252,
      "Ġdiplomati": 6253,
      "Ġdahshat": 6254,
      "Ġqilmaydi": 6255,
      "sper": 6256,
      "Ġqaytishi": 6257,
      "Ġshtab": 6258,
      "Ġasar": 6259,
      "Ġbudjeti": 6260,
      "ĠKengashi": 6261,
      "Hu": 6262,
      "Ġtasavvur": 6263,
      "ĠbÃµlganda": 6264,
      "Ġpost": 6265,
      "klaratsiya": 6266,
      "ci": 6267,
      "ĠAsa": 6268,
      "Ġetuvchi": 6269,
      "Ġyaxshiroq": 6270,
      "Ġkimdir": 6271,
      "Ġovo": 6272,
      "Ġvaz": 6273,
      "Ġombori": 6274,
      "Ġsamolyotlar": 6275,
      "Ġimkoniyatiga": 6276,
      "Ġyetarlicha": 6277,
      "Ġqutqa": 6278,
      "rigi": 6279,
      "Ġsifatini": 6280,
      "ĠÃµqituvchilar": 6281,
      "Ġtaqdimo": 6282,
      "ĠUlardan": 6283,
      "ĠDil": 6284,
      "Ġbermadi": 6285,
      "Ġrivojlantirishga": 6286,
      "Ġerishdi": 6287,
      "ĠboshlanÇ§ich": 6288,
      "noda": 6289,
      "ĠXÃµsh": 6290,
      "Ġ65": 6291,
      "Ġxaridor": 6292,
      "ĠYevgeniy": 6293,
      "Ġdala": 6294,
      "Ġtut": 6295,
      "Ġqilsa": 6296,
      "Ġharakatlanish": 6297,
      "Ġdastlab": 6298,
      "ĠXitoyga": 6299,
      "tartib": 6300,
      "ĠIsroilning": 6301,
      "Ġ1000": 6302,
      "Ġerishgan": 6303,
      "Ġehtimoliy": 6304,
      "Ãķzgidromet": 6305,
      "ĠUzAuto": 6306,
      "Ġtelekanali": 6307,
      "ĠMahalliy": 6308,
      "Pa": 6309,
      "Ġzir": 6310,
      "Ġvazifalar": 6311,
      "Ġetilgani": 6312,
      "Ġqilmagan": 6313,
      "ĠGruziya": 6314,
      "Ġ2015": 6315,
      "Ġnufuzli": 6316,
      "Ġahvoli": 6317,
      "vol": 6318,
      "voni": 6319,
      "kidlaydi": 6320,
      "ĠTabi": 6321,
      "larimizning": 6322,
      "Ġelektromobil": 6323,
      "bÃµyi": 6324,
      "ĠMariupol": 6325,
      "ĠAna": 6326,
      "Ġ47": 6327,
      "Ġtopil": 6328,
      "Ġkesimida": 6329,
      "arovon": 6330,
      "dud": 6331,
      "ĠOra": 6332,
      "Ġreferendu": 6333,
      "Ġchegi": 6334,
      "Ġkiritildi": 6335,
      "Ġiltimo": 6336,
      "Ġkelaja": 6337,
      "Ġsahifasida": 6338,
      "jniy": 6339,
      "ĠRu": 6340,
      "ĠPes": 6341,
      "ĠGar": 6342,
      "Ġnef": 6343,
      "ĠrÃµ": 6344,
      "Ġyaxlit": 6345,
      "Ġtalablariga": 6346,
      "ĠÇ¦arbiy": 6347,
      "Ġyetakchilari": 6348,
      "Ġtopib": 6349,
      "Vt": 6350,
      "Ġlarda": 6351,
      "etti": 6352,
      "qarli": 6353,
      "mila": 6354,
      "ĠYH": 6355,
      "ĠOxirgi": 6356,
      "ĠChempionlar": 6357,
      "ĠLatviya": 6358,
      "hor": 6359,
      "ĠAx": 6360,
      "shab": 6361,
      "Ġholatni": 6362,
      "Ġsharoitda": 6363,
      "Ġalmashtirish": 6364,
      "Ġdizay": 6365,
      "ĠqÃµyishi": 6366,
      "Ġtobora": 6367,
      "Ġtamoyil": 6368,
      "Ġmaktabi": 6369,
      "ĠMixail": 6370,
      "Ġoshirilayotgan": 6371,
      "ĠKari": 6372,
      "Ġerishilgan": 6373,
      "Ġhuquqiga": 6374,
      "Ġekipa": 6375,
      "DR": 6376,
      "Ġtra": 6377,
      "Ġfir": 6378,
      "ĠOila": 6379,
      "Ġshartnomalar": 6380,
      "Ġjarayonini": 6381,
      "Ġshaxmat": 6382,
      "Ġnorma": 6383,
      "Ġreyting": 6384,
      "Ġinnovatsiya": 6385,
      "sli": 6386,
      "Ġepi": 6387,
      "Ġkelmaydi": 6388,
      "Ġquduq": 6389,
      "Ġinso": 6390,
      "Ġochib": 6391,
      "Ġmunosabatlari": 6392,
      "Ġyakunlari": 6393,
      "Ġqochqin": 6394,
      "ĠraÇ§batlantirish": 6395,
      "FY": 6396,
      "raman": 6397,
      "ĠChilonzor": 6398,
      "Ġprezidentning": 6399,
      "Ġoblast": 6400,
      "erlar": 6401,
      "Ġfina": 6402,
      "Ġbirlash": 6403,
      "Ġqonunni": 6404,
      "ĠInve": 6405,
      "Ġfunksiya": 6406,
      "Ġoktabr": 6407,
      "losi": 6408,
      "Ġoshirishi": 6409,
      "Ġissiqxona": 6410,
      "Ġadminist": 6411,
      "Ġkvadrat": 6412,
      "Ġifo": 6413,
      "ĠMada": 6414,
      "ĠkÃµrsatishi": 6415,
      "ĠkÃµrsatma": 6416,
      "Ġmunosabatlarni": 6417,
      "Ġshtabi": 6418,
      "ddam": 6419,
      "tiyor": 6420,
      "sizmi": 6421,
      "Ġchap": 6422,
      "Ġbuyruq": 6423,
      "ĠyiÇ§ish": 6424,
      "Ġchiqardi": 6425,
      "ĠLiga": 6426,
      "alitsiya": 6427,
      "Ġmajlisida": 6428,
      "ĠGurjiston": 6429,
      "Ġtaniqli": 6430,
      "Ġmulo": 6431,
      "ĠAmir": 6432,
      "Ġ39": 6433,
      "Ġhimoyachi": 6434,
      "atida": 6435,
      "Ġcheklash": 6436,
      "Ġjanub": 6437,
      "bbi": 6438,
      "Ġshanba": 6439,
      "Ġyasa": 6440,
      "Mi": 6441,
      "ĠBal": 6442,
      "Ġsari": 6443,
      "Ġyori": 6444,
      "ĠHech": 6445,
      "Ġzarbalari": 6446,
      "Ġimkoniyatlari": 6447,
      "hum": 6448,
      "dina": 6449,
      "Ġchiqargan": 6450,
      "Ġziddi": 6451,
      "Ġtilga": 6452,
      "Ġqilishdan": 6453,
      "Ġfoydalanishni": 6454,
      "Ġtergovga": 6455,
      "lolat": 6456,
      "Ġsodda": 6457,
      "Ġdavriga": 6458,
      "Ġloyihalarini": 6459,
      "ĠAyniqsa": 6460,
      "Ġmuoma": 6461,
      "ĠyÃµla": 6462,
      "ngida": 6463,
      "Ġundi": 6464,
      "Ġumr": 6465,
      "ĠGollar": 6466,
      "ĠPeskov": 6467,
      "Ġketmoqda": 6468,
      "parvarlik": 6469,
      "fir": 6470,
      "rus": 6471,
      "rining": 6472,
      "dit": 6473,
      "diyot": 6474,
      "Ġtaga": 6475,
      "Ġatom": 6476,
      "Ġsenat": 6477,
      "ĠqÃµshimchalar": 6478,
      "Ġnarsalar": 6479,
      "Ġtizimli": 6480,
      "ĠbÃµlishga": 6481,
      "linch": 6482,
      "Ġhujjatlari": 6483,
      "Ġmuqobil": 6484,
      "ĠÃµtishga": 6485,
      "ĠSov": 6486,
      "Ġturda": 6487,
      "eline": 6488,
      "Ġpsi": 6489,
      "ĠqÃµyadi": 6490,
      "Ġchiqaradi": 6491,
      "zolyutsiya": 6492,
      "26": 6493,
      "mova": 6494,
      "Ġ120": 6495,
      "ĠsÃµrash": 6496,
      "movchilik": 6497,
      "Barselona": 6498,
      "Ġfoydasiga": 6499,
      "Ġoluvchi": 6500,
      "ĠDemak": 6501,
      "Ġobektlari": 6502,
      "ĠBloom": 6503,
      "Ġvazirlari": 6504,
      "Ġberishda": 6505,
      "Ġidorasi": 6506,
      "senariy": 6507,
      "Ġjin": 6508,
      "ĠqÃµshilgan": 6509,
      "Shi": 6510,
      "maganini": 6511,
      "ĠkÃµchasi": 6512,
      "Ġdalolat": 6513,
      "ted": 6514,
      "ĠsÃµmgacha": 6515,
      "Ġishtirokchilari": 6516,
      "Ġgubernat": 6517,
      "Ġmuvaffaqiyatsiz": 6518,
      "prom": 6519,
      "Ġfront": 6520,
      "Ġjabrlangan": 6521,
      "Ġquvvati": 6522,
      "Ġmina": 6523,
      "inlaydi": 6524,
      "Ġoshiq": 6525,
      "Ġjanjal": 6526,
      "39": 6527,
      "ĠMes": 6528,
      "Ġoyna": 6529,
      "Ġxarajatlar": 6530,
      "Ġahvol": 6531,
      "Ç§da": 6532,
      "qomat": 6533,
      "bri": 6534,
      "Ġjos": 6535,
      "ĠToshkentga": 6536,
      "Ġ700": 6537,
      "Ġdoirasidagi": 6538,
      "ksiz": 6539,
      "Ġnodavlat": 6540,
      "xiya": 6541,
      "medov": 6542,
      "Ġistiqomat": 6543,
      "Ġzo": 6544,
      "Ġbiladi": 6545,
      "bilar": 6546,
      "Ġkarto": 6547,
      "rali": 6548,
      "Ġfarovon": 6549,
      "ĠMutaxassis": 6550,
      "Ġyaralangan": 6551,
      "ĠHozircha": 6552,
      "Ġdiplomat": 6553,
      "Ġtender": 6554,
      "GB": 6555,
      "toroj": 6556,
      "Ġhisobni": 6557,
      "Ġqarashli": 6558,
      "ĠRespublikasining": 6559,
      "ĠoraliÇ§i": 6560,
      "stansiya": 6561,
      "ugaliya": 6562,
      "Ġqizil": 6563,
      "Ġchiziq": 6564,
      "Ġtashkilo": 6565,
      "Ġnatijalariga": 6566,
      "Ġuchrashdi": 6567,
      "Manchester": 6568,
      "ms": 6569,
      "uso": 6570,
      "Ġbun": 6571,
      "Ġfoydalanishi": 6572,
      "Ġkeyinroq": 6573,
      "HM": 6574,
      "ĠAli": 6575,
      "Ġtilini": 6576,
      "Ġreye": 6577,
      "ĠIttifoqiga": 6578,
      "ĠUndan": 6579,
      "Ġterrori": 6580,
      "Ġdelegatsiyasi": 6581,
      "Gaz": 6582,
      "Ġoro": 6583,
      "ĠUkrainadan": 6584,
      "Ġ78": 6585,
      "Ġbelgilanadi": 6586,
      "Ġoblastida": 6587,
      "id": 6588,
      "Ġayi": 6589,
      "Ġfoydalana": 6590,
      "Ġyashab": 6591,
      "fil": 6592,
      "ĠAyol": 6593,
      "33": 6594,
      "Ho": 6595,
      "lashgani": 6596,
      "ĠXuddi": 6597,
      "Ġkerakki": 6598,
      "Ġhaydovchisi": 6599,
      "Ġbazaviy": 6600,
      "ĠDastlabki": 6601,
      "Ġnazaridan": 6602,
      "Ġshoxobcha": 6603,
      "ĠVazirlik": 6604,
      "Ġtransformat": 6605,
      "drid": 6606,
      "Ġqilinmagan": 6607,
      "ĠyÃµllanma": 6608,
      "sincha": 6609,
      "Ġtexnikalar": 6610,
      "Ġshaffof": 6611,
      "monov": 6612,
      "ĠTurkiyada": 6613,
      "Ġyarimhimoya": 6614,
      "Ġmigratsiya": 6615,
      "qini": 6616,
      "Ġketib": 6617,
      "inlangan": 6618,
      "kidlash": 6619,
      "ĠTez": 6620,
      "Ġbildirib": 6621,
      "Ġtarafdori": 6622,
      "ransuz": 6623,
      "ĠAvstraliya": 6624,
      "ĠAgent": 6625,
      "ulla": 6626,
      "Ġaylanishi": 6627,
      "Ġaybladi": 6628,
      "cebook": 6629,
      "Ġfotos": 6630,
      "Ġpenalti": 6631,
      "dara": 6632,
      "Ġseriya": 6633,
      "Ġyerdagi": 6634,
      "Ġfuqarolarga": 6635,
      "Ġhujumlar": 6636,
      "Ġqarorini": 6637,
      "Ġsizga": 6638,
      "mdagi": 6639,
      "sotsi": 6640,
      "Ġram": 6641,
      "Ġarmiyasining": 6642,
      "Ġgiyoh": 6643,
      "ĠtÃµldirish": 6644,
      "AL": 6645,
      "York": 6646,
      "Ġuri": 6647,
      "Ġqurib": 6648,
      "Ġrey": 6649,
      "ĠJÃµra": 6650,
      "Ġ2025": 6651,
      "stagram": 6652,
      "ĠZo": 6653,
      "yansk": 6654,
      "ĠMusta": 6655,
      "Ġolo": 6656,
      "Ġobek": 6657,
      "Ġbosqichida": 6658,
      "bob": 6659,
      "Ġqaytgan": 6660,
      "Ġguruhlar": 6661,
      "Ġkompyuter": 6662,
      "ĠBank": 6663,
      "Ġlaboratoriya": 6664,
      "uni": 6665,
      "Ġssenariy": 6666,
      "mining": 6667,
      "Ġkoalitsiya": 6668,
      "Ġgazni": 6669,
      "ĠkÃµrsatmoqda": 6670,
      "Ġtexnologiyalari": 6671,
      "ĠÃķrta": 6672,
      "ĠBloomberg": 6673,
      "Ka": 6674,
      "uro": 6675,
      "lasi": 6676,
      "ĠMFY": 6677,
      "Ġsig": 6678,
      "inlashga": 6679,
      "lagandi": 6680,
      "Ġkengay": 6681,
      "Ġketma": 6682,
      "Ġyetishtirish": 6683,
      "Ġziddiyat": 6684,
      "Tur": 6685,
      "allu": 6686,
      "ergo": 6687,
      "Ġvositalarini": 6688,
      "ĠHamma": 6689,
      "Ġchempionati": 6690,
      "ĠchiziÇ§i": 6691,
      "qqol": 6692,
      "Ġsmartfon": 6693,
      "ngina": 6694,
      "Ġjoni": 6695,
      "Ġradio": 6696,
      "Ġbirorta": 6697,
      "ĠStol": 6698,
      "Ġfiliali": 6699,
      "kol": 6700,
      "Ġdeklaratsiya": 6701,
      "Ġkutilayotgan": 6702,
      "shayotgan": 6703,
      "diyev": 6704,
      "Ġharakatlarni": 6705,
      "texnika": 6706,
      "latib": 6707,
      "Ç§un": 6708,
      "roy": 6709,
      "Ġbeshta": 6710,
      "Ġkelingan": 6711,
      "Ġrejalashtirmoqda": 6712,
      "ĠJinping": 6713,
      "nta": 6714,
      "Ġtutadi": 6715,
      "Ġgvardiya": 6716,
      "Ġolimpiada": 6717,
      "Ġbema": 6718,
      "Ġkoloniya": 6719,
      "Ġqismiga": 6720,
      "Ġqilganini": 6721,
      "lmay": 6722,
      "Ġdavlatlarga": 6723,
      "Ġxizmatlarini": 6724,
      "ĠÃµtkaziladigan": 6725,
      "Ġqadriyat": 6726,
      "Ġ57": 6727,
      "Ġqarorlar": 6728,
      "Ġboradagi": 6729,
      "Ġyarmida": 6730,
      "shka": 6731,
      "Ġedim": 6732,
      "ĠSuv": 6733,
      "Ġaylanma": 6734,
      "Ġballi": 6735,
      "ĠMahkamasi": 6736,
      "Ġkonsul": 6737,
      "Ġvertolyot": 6738,
      "ĠqÃµshilish": 6739,
      "Ġtayyorladi": 6740,
      "tartibot": 6741,
      "29": 6742,
      "II": 6743,
      "Ġfransuz": 6744,
      "Ġ46": 6745,
      "Ġberishini": 6746,
      "ĠÃµlcha": 6747,
      "lansa": 6748,
      "Ġishora": 6749,
      "Ġtahli": 6750,
      "Ġfarqli": 6751,
      "kirov": 6752,
      "Ġmaishiy": 6753,
      "Ġbiti": 6754,
      "Ġbermagan": 6755,
      "ĠJurnali": 6756,
      "Ġdunyoga": 6757,
      "olog": 6758,
      "ĠSuper": 6759,
      "Ġshoshi": 6760,
      "Ġtransporti": 6761,
      "Si": 6762,
      "Ġop": 6763,
      "ulyat": 6764,
      "Ġdavlatlarda": 6765,
      "ĠDXX": 6766,
      "unyod": 6767,
      "Ġtasdiqlash": 6768,
      "Ġalmashin": 6769,
      "Ġtalabi": 6770,
      "ĠÃµtgach": 6771,
      "Ġortga": 6772,
      "Ġajratib": 6773,
      "Ġoxiriga": 6774,
      "Ġtun": 6775,
      "ilov": 6776,
      "zilib": 6777,
      "ĠyÃµlovchilar": 6778,
      "ĠYon": 6779,
      "Ġmartabali": 6780,
      "Ġgiyohvan": 6781,
      "Ġ56": 6782,
      "sant": 6783,
      "Ġbenzin": 6784,
      "kun": 6785,
      "latish": 6786,
      "ĠUr": 6787,
      "Ġloyihalari": 6788,
      "Ġolingani": 6789,
      "Ġziyorat": 6790,
      "Ġeslat": 6791,
      "shoq": 6792,
      "izmat": 6793,
      "ĠIb": 6794,
      "Ġrivojlanishi": 6795,
      "Ġimtiyozli": 6796,
      ");": 6797,
      "ĠArab": 6798,
      "tenberg": 6799,
      "Ġjihozlangan": 6800,
      "ĠÃµsmir": 6801,
      "Ġyoshgacha": 6802,
      "Ġoperat": 6803,
      "Ġhodisasi": 6804,
      "Ġkelgusida": 6805,
      "200": 6806,
      "enit": 6807,
      "yar": 6808,
      "ĠAES": 6809,
      "Ġyaqqol": 6810,
      "sizlar": 6811,
      "Ġyoshda": 6812,
      "AN": 6813,
      "ĠkÃµtar": 6814,
      "ĠRonal": 6815,
      "ripov": 6816,
      "ĠÃµtir": 6817,
      "Ġodamlarga": 6818,
      "Ġkuzatish": 6819,
      "ĠGroup": 6820,
      "qimachilik": 6821,
      "giga": 6822,
      "Ġoyining": 6823,
      "Ġrivojlangan": 6824,
      "ĠBizda": 6825,
      "Ġmiqdordagi": 6826,
      "Ġkaltak": 6827,
      "Ġdengizi": 6828,
      "eral": 6829,
      "ĠKGB": 6830,
      "ote": 6831,
      "Ġ800": 6832,
      "Ġtushuntirish": 6833,
      "Ġzirhli": 6834,
      "ĠShunda": 6835,
      "Ġ2030": 6836,
      "Ġavtomat": 6837,
      "Ġ250": 6838,
      "ĠgÃµyoki": 6839,
      "Ġdepartament": 6840,
      "Ġifoda": 6841,
      "atiga": 6842,
      "Ġ*": 6843,
      "lang": 6844,
      "lamagan": 6845,
      "Ġkvo": 6846,
      "moqchiman": 6847,
      "Ġimkoniyatlarini": 6848,
      "Ġchaqaloq": 6849,
      "sar": 6850,
      "Ġpora": 6851,
      "vosti": 6852,
      "Ġharakatlarini": 6853,
      "Ġtaqsim": 6854,
      "Ġkonse": 6855,
      "ullar": 6856,
      "Ġfojia": 6857,
      "Ġmamlakatlarda": 6858,
      "Ġsinovdan": 6859,
      "Ġyotqizilgan": 6860,
      "kada": 6861,
      "leri": 6862,
      "ĠJCh": 6863,
      "ĠEkologiya": 6864,
      "Ġinfratuzil": 6865,
      "Ġqatorida": 6866,
      "dri": 6867,
      "Ġtal": 6868,
      "ĠqÃµshini": 6869,
      "Ġtaqchil": 6870,
      "Ġgeosiyosiy": 6871,
      "ĠAPL": 6872,
      "Ġflo": 6873,
      "Ġ49": 6874,
      "Yangi": 6875,
      "ways": 6876,
      "Ġakt": 6877,
      "Ġberilma": 6878,
      "ĠkÃµzdan": 6879,
      "Ġokru": 6880,
      "QS": 6881,
      "mom": 6882,
      "Ġbuzib": 6883,
      "ĠYevropaning": 6884,
      "Ġoblastidagi": 6885,
      "Ġjadva": 6886,
      "nita": 6887,
      "sitasi": 6888,
      "Ġvositasi": 6889,
      "lashtirilishi": 6890,
      "Ġpaytlarda": 6891,
      "ĠQaror": 6892,
      "Ġtanaffus": 6893,
      "ĠÃµÇ§il": 6894,
      "sotsiatsiya": 6895,
      "ĠStoltenberg": 6896,
      "chinchi": 6897,
      "ĠTransport": 6898,
      "otsi": 6899,
      "manda": 6900,
      "Ġkompaniyaning": 6901,
      "tilganini": 6902,
      "Ġhujumchi": 6903,
      "Ġtopshiri": 6904,
      "Ġchaqiruv": 6905,
      "Ġboshiga": 6906,
      "Ġqoli": 6907,
      "Ġot": 6908,
      "ligicha": 6909,
      "ĠkÃµchasida": 6910,
      "Ġmonitoring": 6911,
      "ĠSiti": 6912,
      "shinchi": 6913,
      "Ġkutish": 6914,
      "ĠQurilish": 6915,
      "masdi": 6916,
      "ĠMav": 6917,
      "ellyatsiya": 6918,
      "Ġyoshga": 6919,
      "ĠBeeline": 6920,
      "Ġtushuncha": 6921,
      "ĠArgentina": 6922,
      "ĠkÃµrinadi": 6923,
      "Ġpiyodalar": 6924,
      "Ġdvigatel": 6925,
      "niki": 6926,
      "midagi": 6927,
      "pak": 6928,
      "Ġilm": 6929,
      "Ġpod": 6930,
      "Ġruxsatnoma": 6931,
      "ed": 6932,
      "ĠÃµli": 6933,
      "ĠNav": 6934,
      "Ġogohlantirdi": 6935,
      "lmoqda": 6936,
      "Ġavtomatik": 6937,
      "Ġoilasi": 6938,
      "Ġidoralar": 6939,
      "Ãµrinni": 6940,
      "Ġveb": 6941,
      "Ġbrigada": 6942,
      "45": 6943,
      "Yo": 6944,
      "korlar": 6945,
      "ĠLav": 6946,
      "Ġyangilik": 6947,
      "Ġnomli": 6948,
      "Ġavvaliga": 6949,
      "gorod": 6950,
      "ĠGul": 6951,
      "Ġgaze": 6952,
      "ĠÃµquvchilar": 6953,
      "konstruksiya": 6954,
      "ĠtÃµqnashuv": 6955,
      "Ġkorrupsiyaga": 6956,
      "Ġkutmoqda": 6957,
      "38": 6958,
      "pur": 6959,
      "rantlar": 6960,
      "Ġvaqtning": 6961,
      "Ġqaysidir": 6962,
      "Ġiloji": 6963,
      "OV": 6964,
      "Ġbut": 6965,
      "ĠVil": 6966,
      "Ġqatnov": 6967,
      "Ġbolalarning": 6968,
      "ĠbÃµlinmalari": 6969,
      "Ġqutqar": 6970,
      "ĠSerbiya": 6971,
      "ĠtarÇ§ib": 6972,
      "rilyapti": 6973,
      "ĠBori": 6974,
      "bok": 6975,
      "foga": 6976,
      "ĠkÃµtarilgan": 6977,
      "ĠBMTning": 6978,
      "Ġmadaniya": 6979,
      "Ġmajmuasi": 6980,
      "Ġsohalarda": 6981,
      "Ġbinoan": 6982,
      "Ġrespublikaning": 6983,
      "Ġbozoriga": 6984,
      "Ġuyiga": 6985,
      "Ġtat": 6986,
      "des": 6987,
      "ĠKur": 6988,
      "vis": 6989,
      "ulton": 6990,
      "Ġnon": 6991,
      "Ġanne": 6992,
      "ĠMeni": 6993,
      "ĠJamoa": 6994,
      "998": 6995,
      "ĠkÃµma": 6996,
      "Ġmuammosi": 6997,
      "ĠOsiyoda": 6998,
      "Ġuyushmasi": 6999,
      "ĠNorvegiya": 7000,
      "Ġixtisoslashtirilgan": 7001,
      "ĠDaniya": 7002,
      "Ġerkaklar": 7003,
      "Ġtabrik": 7004,
      "Ġtatbiq": 7005,
      "Ġomon": 7006,
      "dessa": 7007,
      "ĠSiyo": 7008,
      "ĠQud": 7009,
      "Ġdarajasiga": 7010,
      "Ġmaqsadga": 7011,
      "Liverpul": 7012,
      "Ġjosus": 7013,
      "final": 7014,
      "krat": 7015,
      "kali": 7016,
      "Ġboriladi": 7017,
      "Ġishbilar": 7018,
      "ĠkÃµchirish": 7019,
      "Ġprofessor": 7020,
      "ĠÃķzbekistondan": 7021,
      "ĠÃµqib": 7022,
      "ĠtÃµqqiz": 7023,
      "ĠqÃµmondonligi": 7024,
      "ĠkÃµrik": 7025,
      "Ġrezolyutsiya": 7026,
      "rishini": 7027,
      "stoniya": 7028,
      "ĠJamoat": 7029,
      "Tolibon": 7030,
      "ppe": 7031,
      "Ġberishdi": 7032,
      "ĠSaba": 7033,
      "Ġbinolar": 7034,
      "qulov": 7035,
      "Ġminimal": 7036,
      "tlarning": 7037,
      "ĠOna": 7038,
      "ĠJye": 7039,
      "Ġagentligining": 7040,
      "ĠyÃµqotgan": 7041,
      "ĠFacebook": 7042,
      "Ġsnaryad": 7043,
      "Agar": 7044,
      "Ġsaro": 7045,
      "Ġxoli": 7046,
      "ĠBAA": 7047,
      "ĠTs": 7048,
      "ĠXi": 7049,
      "itti": 7050,
      "itoyda": 7051,
      "ĠYevropaga": 7052,
      "ĠRespublikaning": 7053,
      "ĠÃµzgartirishlar": 7054,
      "XB": 7055,
      "mur": 7056,
      "rar": 7057,
      "yashil": 7058,
      "Ġyonida": 7059,
      "Ġturk": 7060,
      "Ġyordamchisi": 7061,
      "Ġhududlarni": 7062,
      "Ġisroil": 7063,
      "Ġchiqarishga": 7064,
      "Ġchaqirgan": 7065,
      "ĠVoqea": 7066,
      "tinga": 7067,
      "Ġhayotini": 7068,
      "Ġprin": 7069,
      "ĠKra": 7070,
      "Ġqimmatbaho": 7071,
      "Ġruhiy": 7072,
      "Ġgazetasi": 7073,
      "Ġyuvi": 7074,
      "Ġsafa": 7075,
      "ĠGES": 7076,
      "Ġtezligi": 7077,
      "essiya": 7078,
      "Ġyuritish": 7079,
      "ĠPoytax": 7080,
      "co": 7081,
      "Ġgar": 7082,
      "ressiya": 7083,
      "Ġxodimlariga": 7084,
      "Ġqarorni": 7085,
      "Ġjarimaga": 7086,
      "Ġyuboradi": 7087,
      "Ġgapirib": 7088,
      "ĠbÃµlinma": 7089,
      "Ġshifokorlar": 7090,
      "ĠqÃµli": 7091,
      "pard": 7092,
      "Ġinnovatsion": 7093,
      "matsev": 7094,
      "Ġetishda": 7095,
      "Ġmaktablar": 7096,
      "Ġimkonsiz": 7097,
      "Ġresurslari": 7098,
      "Ġinqiro": 7099,
      "ĠKongress": 7100,
      "arder": 7101,
      "doq": 7102,
      "Ġchempioni": 7103,
      "Ġsammitida": 7104,
      "alujniy": 7105,
      "mang": 7106,
      "Ġbilib": 7107,
      "Ġmajlis": 7108,
      "Ġmajburi": 7109,
      "ĠUlarga": 7110,
      "randu": 7111,
      "Ġloyihani": 7112,
      "Ġprotses": 7113,
      "Ġisitish": 7114,
      "shu": 7115,
      "Ġchiqariladi": 7116,
      "ĠkÃµtarildi": 7117,
      "Ġsalohiyatini": 7118,
      "xen": 7119,
      "ĠXitoyda": 7120,
      "ĠTar": 7121,
      "Ġsavdosi": 7122,
      "Ġdarvozabon": 7123,
      "ĠQurbon": 7124,
      "ish": 7125,
      "ĠXorij": 7126,
      "Ġyoshdan": 7127,
      "Ġbozorda": 7128,
      "balt": 7129,
      "skaya": 7130,
      "ĠUniversi": 7131,
      "ĠUchrashuvda": 7132,
      "Ġtahrir": 7133,
      "taba": 7134,
      "morandu": 7135,
      "Ġkeli": 7136,
      "Ġdaf": 7137,
      "lashtirdi": 7138,
      "Ġbel": 7139,
      "incha": 7140,
      "Ġkiritib": 7141,
      "park": 7142,
      "TE": 7143,
      "agi": 7144,
      "Ġsen": 7145,
      "natsiya": 7146,
      "luksiz": 7147,
      "Ġqodir": 7148,
      "ĠNur": 7149,
      "Ġmuqaddam": 7150,
      "eorologiya": 7151,
      "Ġmuomala": 7152,
      "Ġegalari": 7153,
      "hom": 7154,
      "Ġqaramasdan": 7155,
      "Ġtomonga": 7156,
      "Ġerishildi": 7157,
      "ĠqÃµyilishi": 7158,
      "Ġsuper": 7159,
      "Ġqaytish": 7160,
      "Ġjoylashtirilgan": 7161,
      "ĠLeo": 7162,
      "Ġshogi": 7163,
      "ĠbÃµlimda": 7164,
      "Ġtirban": 7165,
      "hrat": 7166,
      "obod": 7167,
      "naviy": 7168,
      "ĠÃµsib": 7169,
      "ayyan": 7170,
      "Ġishlat": 7171,
      "Ġmanzi": 7172,
      "Ġdurang": 7173,
      "Ġhaydovchilik": 7174,
      "Ġbajara": 7175,
      "len": 7176,
      "ĠkÃµnik": 7177,
      "ĠEstoniya": 7178,
      "Ġnafarga": 7179,
      "Ġofisi": 7180,
      "Ġinvestor": 7181,
      "irini": 7182,
      "matov": 7183,
      "Ġqoidalarini": 7184,
      "ĠViktor": 7185,
      "ej": 7186,
      "lasa": 7187,
      "Ġcheki": 7188,
      "Ġqoldirdi": 7189,
      "Ġhayrat": 7190,
      "Ġshaklda": 7191,
      "Ġoperatsiyasi": 7192,
      "zavo": 7193,
      "Ġqanaqa": 7194,
      "irchiq": 7195,
      "ĠZalujniy": 7196,
      "Ġstansiyasi": 7197,
      "Ġplastik": 7198,
      "PSJ": 7199,
      "sen": 7200,
      "Ġuzatish": 7201,
      "Ġhakam": 7202,
      "rot": 7203,
      "ĠElekt": 7204,
      "mlagan": 7205,
      "Ġaholisining": 7206,
      "Ġbolaning": 7207,
      "Ġhaqorat": 7208,
      "Ġdegandi": 7209,
      "Ġqilinishini": 7210,
      "IS": 7211,
      "PX": 7212,
      "Ġbitiruvchi": 7213,
      "Ġkana": 7214,
      "Ġdavlatlarining": 7215,
      "Ġsui": 7216,
      "Ġdiqqat": 7217,
      "Ġvaqtlarda": 7218,
      "ĠNiko": 7219,
      "Ġstansiyalari": 7220,
      "sharo": 7221,
      "rix": 7222,
      "chuk": 7223,
      "Ġkat": 7224,
      "Ġurdi": 7225,
      "qay": 7226,
      "Ġnimani": 7227,
      "foq": 7228,
      "lumotlari": 7229,
      "ĠMoskvada": 7230,
      "Ġomillar": 7231,
      "ĠbuÇ§doy": 7232,
      "ongi": 7233,
      "mand": 7234,
      "Ġyetishi": 7235,
      "Ġmashinalari": 7236,
      "Ġjoiz": 7237,
      "ĠtÃµlovlar": 7238,
      "Ġqoidabuzar": 7239,
      "Ġtarixida": 7240,
      "Ġhaqiqa": 7241,
      "Ġbax": 7242,
      "Ġnatijasi": 7243,
      "Ġekanligi": 7244,
      "Ġzarurligini": 7245,
      "Ġmuassasalarida": 7246,
      "Ġeshik": 7247,
      "Dav": 7248,
      "vob": 7249,
      "Ġvaqtdan": 7250,
      "Ġassotsiatsiya": 7251,
      "Ġishlatish": 7252,
      "Ġpedagog": 7253,
      "Ġfotosurat": 7254,
      "Ġhomiy": 7255,
      "Ġdia": 7256,
      "ĠÃµringa": 7257,
      "Ġbirini": 7258,
      "Ġmaktabda": 7259,
      "Ġuzluksiz": 7260,
      "Ġyevroga": 7261,
      "Ġversiya": 7262,
      "ragi": 7263,
      "yoz": 7264,
      "onasi": 7265,
      "lumotga": 7266,
      "Ġochishni": 7267,
      "Ġmaktabgacha": 7268,
      "Ġtizimlarini": 7269,
      "Ġquyidagilar": 7270,
      "Ġdaraxtlar": 7271,
      "ĠYiÇ§ilishda": 7272,
      "Ġtadan": 7273,
      "Ġaylantirish": 7274,
      "Ġbaliq": 7275,
      "xonalar": 7276,
      "gohi": 7277,
      "kommunikatsiya": 7278,
      "Ġchetlab": 7279,
      "dira": 7280,
      "munal": 7281,
      "lanishga": 7282,
      "Ġapparat": 7283,
      "Ġsalohiyati": 7284,
      "Ġdahshatli": 7285,
      "ĠRonaldu": 7286,
      "ĠtuÇ§i": 7287,
      "Ġjarayonlari": 7288,
      "32": 7289,
      "pora": 7290,
      "tamiz": 7291,
      "ĠTah": 7292,
      "Ġbermaydi": 7293,
      "Ġavj": 7294,
      "matsevtika": 7295,
      "Ġmaz": 7296,
      "Ġtartibsiz": 7297,
      "Tu": 7298,
      "Ġjanubiy": 7299,
      "Ġkirishga": 7300,
      "Ġkunida": 7301,
      "Ġyanva": 7302,
      "ĠyÃµnalishlarda": 7303,
      "oze": 7304,
      "ĠTermiz": 7305,
      "ĠkÃµrgazma": 7306,
      "Ġ77": 7307,
      "Ġichidagi": 7308,
      "Ġyakka": 7309,
      "Ġjazosiga": 7310,
      "Ġforum": 7311,
      "Ġnogironligi": 7312,
      "rod": 7313,
      "Ġberiladigan": 7314,
      "ĠqÃµshil": 7315,
      "ĠYHXB": 7316,
      "boli": 7317,
      "Ġuza": 7318,
      "ald": 7319,
      "Ġdavolash": 7320,
      "Ġsamolyotlari": 7321,
      "shishi": 7322,
      "Ġniko": 7323,
      "Ġhuju": 7324,
      "Ġsharh": 7325,
      "Ġmarotaba": 7326,
      "Ġkvota": 7327,
      "oygu": 7328,
      "Ġkiber": 7329,
      "Ġoshirishni": 7330,
      "Ġoblastining": 7331,
      "Ġyollanma": 7332,
      "ĠIqtisodiyot": 7333,
      "nitariya": 7334,
      "Mar": 7335,
      "demik": 7336,
      "Ġishoni": 7337,
      "ĠQan": 7338,
      "ĠQQS": 7339,
      "Ġrekonstruksiya": 7340,
      "Ġquvuri": 7341,
      "Ġrivoji": 7342,
      "fera": 7343,
      "Ġdevor": 7344,
      "Ġkoman": 7345,
      "Ġkeltiradi": 7346,
      "ĠbÃµlishdi": 7347,
      "Ġmanfaatlarini": 7348,
      "Ġahamiyati": 7349,
      "hil": 7350,
      "Ġyurak": 7351,
      "ĠGre": 7352,
      "Ġetishini": 7353,
      "ĠJahongi": 7354,
      "Ġshikastlangan": 7355,
      "ĠkÃµrilgan": 7356,
      "urgiya": 7357,
      "Ġyengi": 7358,
      "Ġpasport": 7359,
      "ĠÃµtkazishni": 7360,
      "Ġtariqasida": 7361,
      "Ġkubogi": 7362,
      "ĠOradan": 7363,
      "huquqiy": 7364,
      "psi": 7365,
      "tion": 7366,
      "Ġekin": 7367,
      "Ġkemasi": 7368,
      "Ġborilayotgan": 7369,
      "ĠAm": 7370,
      "Ġqildim": 7371,
      "Ġqiynoq": 7372,
      "moddasiga": 7373,
      "Ġprinsi": 7374,
      "xl": 7375,
      "Ġsel": 7376,
      "Ġurini": 7377,
      "lanyapti": 7378,
      "Ġnoyob": 7379,
      "ĠTomonlar": 7380,
      "Ġdaromadi": 7381,
      "Ġkuzatuv": 7382,
      "xit": 7383,
      "Ġtashlangan": 7384,
      "ĠCN": 7385,
      "Ġetgandi": 7386,
      "Ġtopshirilgan": 7387,
      "Ġraqami": 7388,
      "em": 7389,
      "Ãµt": 7390,
      "ĠoÇ§": 7391,
      "olchilar": 7392,
      "ĠTex": 7393,
      "ĠSherzod": 7394,
      "Ġtuzatish": 7395,
      "kup": 7396,
      "ĠÃµrtalarida": 7397,
      "Ġanti": 7398,
      "ChL": 7399,
      "Ġsudining": 7400,
      "Ġrazvedkasi": 7401,
      "Ġolinadigan": 7402,
      "Va": 7403,
      "shida": 7404,
      "ĠUchinchi": 7405,
      "soniya": 7406,
      "ĠShoygu": 7407,
      "ĠXon": 7408,
      "Ġxotini": 7409,
      "Ġmasalani": 7410,
      "Ġjamoalar": 7411,
      "Ġmashinalar": 7412,
      "Ġjarohatlari": 7413,
      "Ġmillionlab": 7414,
      "ĠQuyida": 7415,
      "Ġfiribgarlik": 7416,
      "ĠJahongir": 7417,
      "ĠÃķqi": 7418,
      "vard": 7419,
      "Ġshimoliy": 7420,
      "Ġmaktabga": 7421,
      "Ġsiyosatini": 7422,
      "ĠgÃµsht": 7423,
      "ĠmashÇ§ulot": 7424,
      "ĠAirways": 7425,
      "Ġvatandosh": 7426,
      "Ġmuhandis": 7427,
      "lita": 7428,
      "Ġtaallu": 7429,
      "ĠÃµlar": 7430,
      "Ġsohasiga": 7431,
      "Ġchorasi": 7432,
      "Ġmehmonlar": 7433,
      "Ġchorva": 7434,
      "ittifoq": 7435,
      "xov": 7436,
      "qasi": 7437,
      "Ġtutish": 7438,
      "vili": 7439,
      "ĠPay": 7440,
      "ĠÃµylayman": 7441,
      "Ġhokimlik": 7442,
      "ĠZelenskiyning": 7443,
      "ĠÃµyinida": 7444,
      "Ġchempionatida": 7445,
      "ĠOrtiq": 7446,
      "Ġ42": 7447,
      "Ġ2010": 7448,
      "Ġaskarlar": 7449,
      "ĠOdessa": 7450,
      "Ġmayda": 7451,
      "Ġoliygoh": 7452,
      "Ġishtirokidagi": 7453,
      "Ġshogird": 7454,
      "Ġtaalluqli": 7455,
      "Ġkri": 7456,
      "Ġopa": 7457,
      "Ġkasalliklar": 7458,
      "Ġotib": 7459,
      "Ġochilishi": 7460,
      "Ġbayonotda": 7461,
      "Ġjabrlanuvchi": 7462,
      "Ġorti": 7463,
      "Ġvitse": 7464,
      "Ġberayotgan": 7465,
      "Ġkapital": 7466,
      "Ġyulduz": 7467,
      "ĠÃµlaroq": 7468,
      "Ġxizmatga": 7469,
      "Ġxorijda": 7470,
      "Ġertaga": 7471,
      "Ġmigrant": 7472,
      "ĠLavrov": 7473,
      "chenko": 7474,
      "chasiga": 7475,
      "Ġishona": 7476,
      "ĠKel": 7477,
      "xtakor": 7478,
      "Ġpaket": 7479,
      "Ġchegarasi": 7480,
      "Ġtekshir": 7481,
      "Ġdavlatlardan": 7482,
      "Ġturlari": 7483,
      "ĠtÃµxtatishga": 7484,
      "Ġchaqir": 7485,
      "Ġmanbalari": 7486,
      "Ġuchrashuvlar": 7487,
      "uliston": 7488,
      "Ġtajribasi": 7489,
      "Ġolinib": 7490,
      "Ġyorqin": 7491,
      "Ġtopdi": 7492,
      "Ġkelishuvi": 7493,
      "Ġchekka": 7494,
      "Ġapre": 7495,
      "ĠbÃµlishni": 7496,
      "Ġayo": 7497,
      "mita": 7498,
      "Ġqit": 7499,
      "Ġkeltirdi": 7500,
      "Ġhamjamiyat": 7501,
      "ĠFer": 7502,
      "Ġyetadi": 7503,
      "Ġholatlarda": 7504,
      "rojaat": 7505,
      "Ġjarohatlangan": 7506,
      "ĠKXDR": 7507,
      "Fa": 7508,
      "Ġekra": 7509,
      "Ġesla": 7510,
      "urar": 7511,
      "Ġtashuvchi": 7512,
      "chilikka": 7513,
      "Ġ54": 7514,
      "Ġshaharning": 7515,
      "Ġkishining": 7516,
      "Ġdasturlari": 7517,
      "ĠOdamlar": 7518,
      "rohlik": 7519,
      "Ġkonsepsiya": 7520,
      "Ġtom": 7521,
      "Ġ43": 7522,
      "Ġtanlash": 7523,
      "ĠMirzo": 7524,
      "Ġmintaqadagi": 7525,
      "ĠDonald": 7526,
      "Ġshoshilinch": 7527,
      "ĠchÃµl": 7528,
      "Ġerisha": 7529,
      "Ġholatini": 7530,
      "Peterburg": 7531,
      "Ġketilgan": 7532,
      "Ġdaxl": 7533,
      "Ġyotoq": 7534,
      "ĠÃµrnida": 7535,
      "Ġoshirishda": 7536,
      "Ġkunduz": 7537,
      "Ġistagan": 7538,
      "Ġyashaydi": 7539,
      "Ġprofilaktika": 7540,
      "Davlat": 7541,
      "Ha": 7542,
      "Ġusu": 7543,
      "ĠMba": 7544,
      "Ġtarji": 7545,
      "Ġtadbirlari": 7546,
      "Ġyozda": 7547,
      "rganch": 7548,
      "ĠMisol": 7549,
      "2024": 7550,
      "Ġtarixidagi": 7551,
      "Ġsamaradorligini": 7552,
      "ĠAbdurah": 7553,
      "Ġurilgan": 7554,
      "ĠAniq": 7555,
      "ĠqÃµpol": 7556,
      "rishiga": 7557,
      "Ġtizimidagi": 7558,
      "Ġyakunlandi": 7559,
      "Ġovqatlanish": 7560,
      "Ġtaqdiri": 7561,
      "Ġhaqiqatan": 7562,
      "shgan": 7563,
      "rasi": 7564,
      "Ġishlashga": 7565,
      "ĠInstagram": 7566,
      "Ġtortdi": 7567,
      "Ġkommunal": 7568,
      "Ġetishdi": 7569,
      "ĠYevropadagi": 7570,
      "Ġmukofoti": 7571,
      "Ġyodgor": 7572,
      "Ġashyoviy": 7573,
      "ĠMbappe": 7574,
      "preziden": 7575,
      "nipro": 7576,
      "ĠSerge": 7577,
      "ĠTosh": 7578,
      "Ġindek": 7579,
      "Ġqarzi": 7580,
      "Ġolishdi": 7581,
      "Ġislo": 7582,
      "Ġisyon": 7583,
      "Ġshimol": 7584,
      "Ġviloyatlari": 7585,
      "lanayotgani": 7586,
      "ĠbÃµlajak": 7587,
      "ĠBelgiya": 7588,
      "Ġodatda": 7589,
      "Ġfaxriy": 7590,
      "Ġbosi": 7591,
      "ĠPat": 7592,
      "Ġnomiga": 7593,
      "fikatsiya": 7594,
      "Ġasossiz": 7595,
      "ĠQÃµqon": 7596,
      "Ġerkinligi": 7597,
      "ĠyolÇ§iz": 7598,
      "Ġxayriya": 7599,
      "ĠEksper": 7600,
      "Ġbemalol": 7601,
      "Bo": 7602,
      "Ġlib": 7603,
      "zoda": 7604,
      "boz": 7605,
      "Ġetilayotgan": 7606,
      "limni": 7607,
      "Ġapellyatsiya": 7608,
      "ĠkÃµtariladi": 7609,
      "Ġyuboriladi": 7610,
      "ĠFederal": 7611,
      "!\"": 7612,
      "hron": 7613,
      "kalav": 7614,
      "bardi": 7615,
      "Ġajralib": 7616,
      "Ġaralash": 7617,
      "Ġmavsumida": 7618,
      "ĠSardor": 7619,
      "gnit": 7620,
      "ij": 7621,
      "jiz": 7622,
      "stri": 7623,
      "Ġdasturini": 7624,
      "Ġbayra": 7625,
      "Ġyoshida": 7626,
      "daqiqada": 7627,
      "Ġboshqara": 7628,
      "ĠChirchiq": 7629,
      "Ġuzr": 7630,
      "Ġmaqsadli": 7631,
      "Ġimporti": 7632,
      "Ġsalomatligi": 7633,
      "Bavariya": 7634,
      "Ġpunkti": 7635,
      "Ġsignal": 7636,
      "vensiya": 7637,
      "Ġfakt": 7638,
      "Ġmamlakatimiz": 7639,
      "Ġaktivlarini": 7640,
      "ĠOtabek": 7641,
      "all": 7642,
      "Ġortida": 7643,
      "stal": 7644,
      "Ġxizmatchi": 7645,
      "ĠVakil": 7646,
      "ĠMahalla": 7647,
      "ĠqÃµrqi": 7648,
      "hna": 7649,
      "uy": 7650,
      "Ġishlovchi": 7651,
      "Ġdavla": 7652,
      "lgacha": 7653,
      "boni": 7654,
      "lashtirildi": 7655,
      "Ġbuyru": 7656,
      "ĠAfsuski": 7657,
      "Ġsxe": 7658,
      "ĠToy": 7659,
      "kinchisi": 7660,
      "ĠOrol": 7661,
      "ĠDnipro": 7662,
      "Ġsharqiy": 7663,
      "Ġpulni": 7664,
      "tilishiga": 7665,
      "Ġtushuntirdi": 7666,
      "Ġmanfaatli": 7667,
      "tub": 7668,
      "ĠPi": 7669,
      "Ġetilib": 7670,
      "Ġmetall": 7671,
      "ĠYevroittifoq": 7672,
      "Ġdollariga": 7673,
      "Ġfuqarolarni": 7674,
      "Ġmuvofiqlashtirish": 7675,
      "ĠÃµldirish": 7676,
      "Ġpsix": 7677,
      "rad": 7678,
      "Ġmusi": 7679,
      "ĠIz": 7680,
      "ĠIgor": 7681,
      "ydin": 7682,
      "ĠFutbol": 7683,
      "Ġnomini": 7684,
      "Ġhududlarga": 7685,
      "Ġsabablari": 7686,
      "Ġtartibida": 7687,
      "ĠIkkinchidan": 7688,
      "Ġolamiz": 7689,
      "Ġqahramon": 7690,
      "ĠYusu": 7691,
      "ĠYPX": 7692,
      "Ġqutu": 7693,
      "ĠPutinga": 7694,
      "Ġdemokratiya": 7695,
      "Ġyondashuv": 7696,
      "ĠboÇ§i": 7697,
      "dol": 7698,
      "maslikni": 7699,
      "Ġmemorandu": 7700,
      "Ġkiritiladi": 7701,
      "Ġmarosi": 7702,
      "Ġvakolatli": 7703,
      "lovakiya": 7704,
      "ĠYunuso": 7705,
      "ĠTabiiy": 7706,
      "Ġichka": 7707,
      "Ġurushdan": 7708,
      "Ġyetakchilik": 7709,
      "Ġsavollarga": 7710,
      "Ġuyida": 7711,
      "Ġrejimi": 7712,
      "ĠBorrel": 7713,
      "off": 7714,
      "Ç§ol": 7715,
      "lovga": 7716,
      "limga": 7717,
      "Ġsayti": 7718,
      "Ġsharoitlar": 7719,
      "ĠBaxtiyor": 7720,
      "Ġtarafdorlari": 7721,
      "Ġmuayyan": 7722,
      "Ġraisining": 7723,
      "Ġnamoyishlar": 7724,
      "ĠTuman": 7725,
      "parast": 7726,
      "buds": 7727,
      "ĠÃµzlashtirish": 7728,
      "Ġhojat": 7729,
      "Ġkommunikatsiya": 7730,
      "ĠyÃµlda": 7731,
      "Ġamaldor": 7732,
      "Ġyurt": 7733,
      "Ġberilishini": 7734,
      "ĠSankt": 7735,
      "ĠJamshid": 7736,
      "ĠÃµtirgan": 7737,
      "ĠIS": 7738,
      "Ġkito": 7739,
      "him": 7740,
      "Ġ64": 7741,
      "Ġdisp": 7742,
      "Ġketyapti": 7743,
      "ĠChexiya": 7744,
      "Gazprom": 7745,
      "mn": 7746,
      "kanal": 7747,
      "ganim": 7748,
      "Ġemasdi": 7749,
      "ĠyÃµllagan": 7750,
      "Ġolinmagan": 7751,
      "Ġnatijada": 7752,
      "Ġqilayotgani": 7753,
      "Shimoliy": 7754,
      "xshi": 7755,
      "Ġtad": 7756,
      "kuni": 7757,
      "ĠVar": 7758,
      "Ġyaratadi": 7759,
      "Ġ2008": 7760,
      "ĠPrezidentning": 7761,
      "Ġmuvoza": 7762,
      "biyi": 7763,
      "ĠShay": 7764,
      "tibos": 7765,
      "kovich": 7766,
      "masidan": 7767,
      "Ġrejasini": 7768,
      "Ġxorijga": 7769,
      "Ġyurti": 7770,
      "Ġpanel": 7771,
      "Ġyashaydigan": 7772,
      "qilo": 7773,
      "Ġterma": 7774,
      "Ġvagon": 7775,
      "Ġimp": 7776,
      "Ġparva": 7777,
      "ĠjamÇ§arma": 7778,
      "ĠoraliÇ§ida": 7779,
      "Ġuchradi": 7780,
      "sizligi": 7781,
      "ĠbÃµldim": 7782,
      "Ġshaxslarni": 7783,
      "Ġhamkorlikning": 7784,
      "ĠBritaniyaning": 7785,
      "moliddin": 7786,
      "nayted": 7787,
      "Ġiyu": 7788,
      "Ġmao": 7789,
      "Ġqilar": 7790,
      "Ġhududga": 7791,
      "Ġsaylovi": 7792,
      "ĠÃµyinni": 7793,
      "Ġkengayti": 7794,
      "Ġochildi": 7795,
      "Ġmintaqada": 7796,
      "Ġqiziqarli": 7797,
      "Ġyutqaz": 7798,
      "Ġkansleri": 7799,
      "\")": 7800,
      "Xalq": 7801,
      "lich": 7802,
      "ĠBHM": 7803,
      "Ġtushunish": 7804,
      "Ġintizo": 7805,
      "ser": 7806,
      "Ġux": 7807,
      "Ġpat": 7808,
      "Ġtub": 7809,
      "ĠQolgan": 7810,
      "Ġhududini": 7811,
      "ĠYoki": 7812,
      "Ġmurabbiyi": 7813,
      "Ġhisobotida": 7814,
      "Ġqobiliyati": 7815,
      "bayev": 7816,
      "Ġbeshinchi": 7817,
      "Ġboshdan": 7818,
      "Ġboshlashi": 7819,
      "hod": 7820,
      "Ġtaktik": 7821,
      "Ġqarorga": 7822,
      "Ġchaqiriq": 7823,
      "Ġkuzatiladi": 7824,
      "Ġbrend": 7825,
      "ĠKarimov": 7826,
      "Ġbori": 7827,
      "Ġtutilmoqda": 7828,
      "ĠNATOning": 7829,
      "Ġdeputati": 7830,
      "ĠmashÇ§ulotlar": 7831,
      "Ġberilgani": 7832,
      "34": 7833,
      "zer": 7834,
      "mayotgan": 7835,
      "Ġrang": 7836,
      "ĠRossiyalik": 7837,
      "Ġedik": 7838,
      "Ġchiqarishi": 7839,
      "Ġ85": 7840,
      "Ġyuqorida": 7841,
      "Ġmuammolari": 7842,
      "ĠsoÇ§liÇ§i": 7843,
      "Ġsektorida": 7844,
      "lanmaydi": 7845,
      "Ġpley": 7846,
      "Ġorde": 7847,
      "Ġpullarni": 7848,
      "Ġmusodara": 7849,
      "ĠAvtomobil": 7850,
      "ĠYonÇ§in": 7851,
      "Ġnikoh": 7852,
      "tani": 7853,
      "Ġsudda": 7854,
      "ovga": 7855,
      "ĠLya": 7856,
      "Ġaloqasi": 7857,
      "Ġmavjudligi": 7858,
      "Ġfilm": 7859,
      "Ġchindan": 7860,
      "aniq": 7861,
      "shlar": 7862,
      "latlar": 7863,
      "Ġmumkinki": 7864,
      "matika": 7865,
      "ĠqÃµllangan": 7866,
      "masin": 7867,
      "Ġzarurligi": 7868,
      "ĠsÃµray": 7869,
      "Ġchempionat": 7870,
      "Za": 7871,
      "Ġyurita": 7872,
      "ĠJoze": 7873,
      "Ġolishda": 7874,
      "Ġtaqiqlash": 7875,
      "Ġeshit": 7876,
      "hudiy": 7877,
      "mosfera": 7878,
      "ĠYoshlar": 7879,
      "kredi": 7880,
      "lyu": 7881,
      "Ġfut": 7882,
      "Ġbormi": 7883,
      "Ġjoylar": 7884,
      "Ġrejalari": 7885,
      "Ġmuddatini": 7886,
      "Ġqoidalari": 7887,
      "ĠEndilikda": 7888,
      "Ġmagistratura": 7889,
      "Ġoyo": 7890,
      "Ġ67": 7891,
      "ĠKorrupsiya": 7892,
      "Ġpaytgacha": 7893,
      "ani": 7894,
      "mmoni": 7895,
      "Ġam": 7896,
      "ĠBoy": 7897,
      "otten": 7898,
      "ĠGlobal": 7899,
      "Ġsohaga": 7900,
      "Ġalmashish": 7901,
      "Ġoqibatlarini": 7902,
      "ĠVide": 7903,
      "ĠPortugaliya": 7904,
      "sdagi": 7905,
      "ĠbÃµlmish": 7906,
      "Ġhududdagi": 7907,
      "Ġmuddatidan": 7908,
      "Ġberamiz": 7909,
      "Ġadliya": 7910,
      "Ġkamayishi": 7911,
      "yultirilgan": 7912,
      "ĠGidromet": 7913,
      "Ġyoqi": 7914,
      "ĠÃµyinlar": 7915,
      "Ġxizmatiga": 7916,
      "ĠkÃµtarilishi": 7917,
      "Ġiqtibos": 7918,
      "Ġavtomobili": 7919,
      "ĠCNN": 7920,
      "vto": 7921,
      "ladim": 7922,
      "Ġberishdan": 7923,
      "Ġtanlab": 7924,
      "Ġarman": 7925,
      "ĠAnqara": 7926,
      "Ġnomidan": 7927,
      "ĠYou": 7928,
      "siv": 7929,
      "arru": 7930,
      "ĠAmal": 7931,
      "Ġ58": 7932,
      "Ġyaqinlari": 7933,
      "Ġtasarru": 7934,
      "ĠÃµrtoq": 7935,
      "Ġsentabrdan": 7936,
      "ĠJonson": 7937,
      "ĠAvvaliga": 7938,
      "kda": 7939,
      "pr": 7940,
      "Ġtera": 7941,
      "Ġmezon": 7942,
      "Ġtalablar": 7943,
      "Ġmuammoni": 7944,
      "Ġraqamlar": 7945,
      "Ġaerodro": 7946,
      "Ġtashkilotining": 7947,
      "Ġnishonga": 7948,
      "ĠkÃµpayib": 7949,
      "gunga": 7950,
      "Ġurish": 7951,
      "rom": 7952,
      "ĠUrganch": 7953,
      "Ġhomila": 7954,
      "Ġreg": 7955,
      "Ġmeri": 7956,
      "Ġxotir": 7957,
      "ĠyÃµldosh": 7958,
      "Ġoqimi": 7959,
      "Ġoldinroq": 7960,
      "Ġkuchayib": 7961,
      "ĠtÃµplangan": 7962,
      "Ġlitr": 7963,
      "ĠBelgorod": 7964,
      "grafik": 7965,
      "ĠUlarni": 7966,
      "Ġvodiy": 7967,
      "ĠkÃµtarib": 7968,
      "ĠAbdulla": 7969,
      "ĠOldin": 7970,
      "losipe": 7971,
      "sharoit": 7972,
      "gariya": 7973,
      "mazon": 7974,
      "ĠKos": 7975,
      "Ġkunning": 7976,
      "sub": 7977,
      "ĠSuhbat": 7978,
      "ĠBolalar": 7979,
      "Ġtranspor": 7980,
      "ĠSababi": 7981,
      "Ġlif": 7982,
      "Ġbron": 7983,
      "Ġketishga": 7984,
      "Ġbekat": 7985,
      "Ġtashkilotga": 7986,
      "Ġfarzandlari": 7987,
      "ĠmaÇ§lubiyatga": 7988,
      "char": 7989,
      "Ġmilliarder": 7990,
      "ĠÃµzgartish": 7991,
      "Ġshakar": 7992,
      "Ġimzolagan": 7993,
      "ĠNexia": 7994,
      "Ġrossiyaliklarning": 7995,
      "ĠShifo": 7996,
      "Ġsuratlar": 7997,
      "ĠÃµtildi": 7998,
      "ĠÃķzbek": 7999,
      "Ġmahkum": 8000,
      "teti": 8001,
      "ngizda": 8002,
      "Ġbandi": 8003,
      "Ġkont": 8004,
      "ĠRober": 8005,
      "Ġbuyurgan": 8006,
      "Ġsaroyi": 8007,
      "taga": 8008,
      "vori": 8009,
      "Ġyang": 8010,
      "ĠtÃµqimachilik": 8011,
      "ets": 8012,
      "paganda": 8013,
      "Ġetilmagan": 8014,
      "Ġmasalalarni": 8015,
      "Ġkuzatilmoqda": 8016,
      "Ġqoidalariga": 8017,
      "Ġuyushma": 8018,
      "Ġxarajatlarini": 8019,
      "Ġsuratlari": 8020,
      "Ġsilji": 8021,
      "Ġavtotransport": 8022,
      "bardimon": 8023,
      "ĠtÃµxtatdi": 8024,
      "Ġtunda": 8025,
      "Ġmazm": 8026,
      "ĠqÃµliga": 8027,
      "bov": 8028,
      "Ġjazoni": 8029,
      "Ġixtisoslashgan": 8030,
      "Ġpulini": 8031,
      "Ġakademiyasi": 8032,
      "zona": 8033,
      "Ġting": 8034,
      "ĠJor": 8035,
      "bop": 8036,
      "ĠbÃµldik": 8037,
      "Ġzaxiralari": 8038,
      "Ġkimyoviy": 8039,
      "foni": 8040,
      "ĠYak": 8041,
      "Ġbolalarga": 8042,
      "Ġishlamoqda": 8043,
      "texnik": 8044,
      "Ġterrorizm": 8045,
      "Ġtashi": 8046,
      "tanya": 8047,
      "ĠqÃµymaslik": 8048,
      "qot": 8049,
      "lamaydi": 8050,
      "rosti": 8051,
      "anda": 8052,
      "Ġmaskan": 8053,
      "Ġqilishimiz": 8054,
      "ĠmablaÇ§larini": 8055,
      "Ġinfe": 8056,
      "Ġfilial": 8057,
      "Ġishbilarmon": 8058,
      "OR": 8059,
      "Ġsotilgan": 8060,
      "Ġbirdam": 8061,
      "Ġ41": 8062,
      "quvvatlashga": 8063,
      "Ġvazifalarni": 8064,
      "Ġberilgandi": 8065,
      "Ġlavozimini": 8066,
      "Ġpozitsiyasi": 8067,
      "Ġtelekanal": 8068,
      "ĠtarÇ§ibot": 8069,
      "aydi": 8070,
      "Ġboshliq": 8071,
      "Ġtalablari": 8072,
      "Ġtopshirgan": 8073,
      "boyeva": 8074,
      "Ġmaqomini": 8075,
      "Ġsonli": 8076,
      "ĠVakillar": 8077,
      "ue": 8078,
      "raga": 8079,
      "raha": 8080,
      "Ġxitoy": 8081,
      "Ġkuzatildi": 8082,
      "ĠyÃµnalishlar": 8083,
      "Ġmasofaga": 8084,
      "Ġdeputatlar": 8085,
      "ĠBolgariya": 8086,
      "Ġminnatdorchilik": 8087,
      "ĠBoris": 8088,
      "Ġoydin": 8089,
      "qir": 8090,
      "Ġyahudiy": 8091,
      "ĠMer": 8092,
      "ĠOle": 8093,
      "Ġgul": 8094,
      "Ġqishki": 8095,
      "Ġqoplash": 8096,
      "Ġinfratuzilmasini": 8097,
      "muhitni": 8098,
      "com": 8099,
      "ei": 8100,
      "Ġbrifi": 8101,
      "Ġofat": 8102,
      "aho": 8103,
      "Ġkafe": 8104,
      "ĠkÃµpincha": 8105,
      "Ġhaqli": 8106,
      "Ġpullar": 8107,
      "Ġshaklida": 8108,
      "Ġmahallasida": 8109,
      "Ġobektlar": 8110,
      "Ġqarzdor": 8111,
      "ĠyÃµqotishlar": 8112,
      "yum": 8113,
      "tilayotgani": 8114,
      "Ġtahsil": 8115,
      "Ġruslar": 8116,
      "ĠEronning": 8117,
      "Ġboshlanganini": 8118,
      "Ġmoddasi": 8119,
      "Ġustunlik": 8120,
      "harakatlari": 8121,
      "Ġistiqbollari": 8122,
      "ĠMon": 8123,
      "Ġishlariga": 8124,
      "Ġqilishning": 8125,
      "ĠGor": 8126,
      "zilgani": 8127,
      "Ġqatlam": 8128,
      "Ġtanta": 8129,
      "Ġyerni": 8130,
      "Ġagentligiga": 8131,
      "ĠQozoÇ§istonning": 8132,
      "Ġyetkazgan": 8133,
      "layapti": 8134,
      "lashmoqda": 8135,
      "vit": 8136,
      "ĠQK": 8137,
      "parlament": 8138,
      "kammal": 8139,
      "ĠkÃµpayishi": 8140,
      "ĠGidrometeorologiya": 8141,
      "Ġtutilishi": 8142,
      "Ġyaratib": 8143,
      "ĠBoku": 8144,
      "Ġinsonparvarlik": 8145,
      "ĠurÇ§u": 8146,
      "qqa": 8147,
      "dab": 8148,
      "rosa": 8149,
      "urizm": 8150,
      "Ġjamoaga": 8151,
      "Ġ2012": 8152,
      "Ġfikriga": 8153,
      "Ġayolning": 8154,
      "Ġdekabrda": 8155,
      "ĠNetanya": 8156,
      "Ġbeqaror": 8157,
      "jahon": 8158,
      "Ġsharti": 8159,
      "Ġkeltir": 8160,
      "Ġbanklar": 8161,
      "Ġoperator": 8162,
      "Ġmanbalariga": 8163,
      "Ġxavotirda": 8164,
      "Ġuringan": 8165,
      "Ġolishadi": 8166,
      "ĠÃµtkaza": 8167,
      "lashtirishi": 8168,
      "Ġtushirildi": 8169,
      "Ġhavola": 8170,
      "ĠKamoliddin": 8171,
      "ĠRajab": 8172,
      "ĠMed": 8173,
      "Ġbosqichga": 8174,
      "Ġpozitsiyasini": 8175,
      "ĠCobalt": 8176,
      "yivka": 8177,
      "Ġxon": 8178,
      "ĠAziz": 8179,
      "vide": 8180,
      "Ġqulab": 8181,
      "Ġrasmiylashtirish": 8182,
      "Ġraketalari": 8183,
      "ĠbÃµlimiga": 8184,
      "royli": 8185,
      "langanidan": 8186,
      "Ġbolani": 8187,
      "Ġkutub": 8188,
      "lumotlarini": 8189,
      "Ġmamlakatdan": 8190,
      "ĠkÃµrsatuvchi": 8191,
      "quvvatladi": 8192,
      "ĠBirinchidan": 8193,
      "opoliya": 8194,
      "ĠAxborot": 8195,
      "Ġazo": 8196,
      "Ġvaksi": 8197,
      "Ġudda": 8198,
      "moÇ§ida": 8199,
      "ĠKol": 8200,
      "evning": 8201,
      "Ġbakalav": 8202,
      "uriyat": 8203,
      "Ġfoizlik": 8204,
      "Ġbelgilanmoqda": 8205,
      "ĠTehron": 8206,
      "Ġetadigan": 8207,
      "Ġmaydoniga": 8208,
      "Ġbuyurdi": 8209,
      "Ġkolle": 8210,
      "Bir": 8211,
      "lanuvchilar": 8212,
      "ĠsÃµroq": 8213,
      "Ġsuyultirilgan": 8214,
      "Ġbarham": 8215,
      "Ġ74": 8216,
      "Ġkuchlarini": 8217,
      "Ġijrosi": 8218,
      "ĠÃµzbekistonliklar": 8219,
      "ĠAvstriya": 8220,
      "Ġstadion": 8221,
      "Yevro": 8222,
      "ps": 8223,
      "Ġchiqishni": 8224,
      "Ġchegarasini": 8225,
      "Ġatagan": 8226,
      "Ġmuzey": 8227,
      "Ġaytishdi": 8228,
      "ĠTadbirda": 8229,
      "ĠYaqinda": 8230,
      "Ġaeroporti": 8231,
      "ĠJyey": 8232,
      "ĠqÃµlida": 8233,
      "Ġbelgisi": 8234,
      "Ġ86": 8235,
      "Ġyashayotgan": 8236,
      "Ġ2006": 8237,
      "Ġkomis": 8238,
      "Ġhujjatlarini": 8239,
      "Ġendilikda": 8240,
      "Ġportali": 8241,
      "xite": 8242,
      "hay": 8243,
      "suv": 8244,
      "shuv": 8245,
      "ĠSev": 8246,
      "enov": 8247,
      "Ġqilishlari": 8248,
      "ĠSam": 8249,
      "ĠÇ§oli": 8250,
      "Ġkompaniyasiga": 8251,
      "Ġassam": 8252,
      "Ġmasofadan": 8253,
      "Ġshafqat": 8254,
      "Ġintellektual": 8255,
      "ĠAgentlik": 8256,
      "ottenhem": 8257,
      "-,": 8258,
      "jum": 8259,
      "xÃµr": 8260,
      "Ġir": 8261,
      "Ġqiyo": 8262,
      "niye": 8263,
      "Ġshaharni": 8264,
      "ĠNazarboy": 8265,
      "Ġqoldir": 8266,
      "Ġassamble": 8267,
      "At": 8268,
      "Ġoxir": 8269,
      "Ġoshishiga": 8270,
      "Shu": 8271,
      "qonli": 8272,
      "ĠÃµquvchilari": 8273,
      "Ġtuproq": 8274,
      "Ġhamkasb": 8275,
      "Ġhovli": 8276,
      "ĠÃµyindan": 8277,
      "Ġmaktablarda": 8278,
      "Ġxorijlik": 8279,
      "Ġrahbarlarining": 8280,
      "Ġmanbalar": 8281,
      "Ġsizning": 8282,
      "ĠyÃµlining": 8283,
      "Ġaytmoqda": 8284,
      "Ġnormal": 8285,
      "Ġkonstitutsiyaviy": 8286,
      "Ġinnovatsiyalar": 8287,
      "ĠMustaqil": 8288,
      "ĠLeopard": 8289,
      "ca": 8290,
      "xud": 8291,
      "Ġkeksa": 8292,
      "otensi": 8293,
      "ĠkÃµrsatishga": 8294,
      "Ġchiqarilishi": 8295,
      "Ġolmasligi": 8296,
      "Ġmiqdoridagi": 8297,
      "Ġqatnashish": 8298,
      "Ġligasi": 8299,
      "Ġsumma": 8300,
      "Ãµlat": 8301,
      "Ġboks": 8302,
      "Ġyoqa": 8303,
      "Ġfaoliyatida": 8304,
      "Ġetiladigan": 8305,
      "Ġimtiyozlar": 8306,
      "Ġnutq": 8307,
      "eziya": 8308,
      "tnoma": 8309,
      "Ġsat": 8310,
      "Ġeslatib": 8311,
      "Ġtutuvchi": 8312,
      "Ġyillarga": 8313,
      "Ġdavlatdan": 8314,
      "qatnov": 8315,
      "Ġkonte": 8316,
      "Ġrasmiylar": 8317,
      "Ġnazoratga": 8318,
      "ford": 8319,
      "Ġchorraha": 8320,
      "Ġplatformasi": 8321,
      "Ġvayr": 8322,
      "kr": 8323,
      "uch": 8324,
      "dastr": 8325,
      "Ġkutilgan": 8326,
      "ktu": 8327,
      "ĠShuhrat": 8328,
      "Ġuslu": 8329,
      "ĠAfÇ§onistonda": 8330,
      "Ġkayfiyat": 8331,
      "Tube": 8332,
      "Ġkomissari": 8333,
      "KA": 8334,
      "tara": 8335,
      "mali": 8336,
      "orva": 8337,
      "Ġtashxi": 8338,
      "Ġolgandi": 8339,
      "ĠMuzokara": 8340,
      "Ġappara": 8341,
      "Ġ1990": 8342,
      "Ġinspektor": 8343,
      "Ġbombardimon": 8344,
      "pikeri": 8345,
      "rayotgani": 8346,
      "ĠaÇ§da": 8347,
      "Ġbunaqa": 8348,
      "Ġsodiq": 8349,
      "Ġsohil": 8350,
      "Ġmumkinmi": 8351,
      "ĠMas": 8352,
      "eyn": 8353,
      "Ġorganlariga": 8354,
      "Ġinspeksiyasi": 8355,
      "Ġnomzodini": 8356,
      "mah": 8357,
      "madim": 8358,
      "Ġbosimi": 8359,
      "ĠPav": 8360,
      "molyot": 8361,
      "Ġmansub": 8362,
      "Ġboshqargan": 8363,
      "Ġuzilishlar": 8364,
      "xalq": 8365,
      "ĠyÃµlini": 8366,
      "Ġyurib": 8367,
      "ĠkÃµrdi": 8368,
      "Ġ68": 8369,
      "Ġatmosfera": 8370,
      "Ġsaylovlar": 8371,
      "Ġolishini": 8372,
      "Ġbazasi": 8373,
      "ĠAbdullayev": 8374,
      "Ġtaom": 8375,
      "qacha": 8376,
      "ligidagi": 8377,
      "usxa": 8378,
      "tishini": 8379,
      "hone": 8380,
      "sekin": 8381,
      "Ġtashkilotiga": 8382,
      "est": 8383,
      "laf": 8384,
      "Ġmamn": 8385,
      "ĠkÃµzi": 8386,
      "jam": 8387,
      "Ġtanlovi": 8388,
      "ĠTurkiy": 8389,
      "Ġforumi": 8390,
      "Ġturistik": 8391,
      "Ġistiqbolli": 8392,
      "Ġbrendi": 8393,
      "ĠXudo": 8394,
      "loni": 8395,
      "Ġrafi": 8396,
      "Ġsim": 8397,
      "Ġdoimo": 8398,
      "Ġzan": 8399,
      "Ġmanfaatlari": 8400,
      "Ġtermi": 8401,
      "ĠPrigojinning": 8402,
      "Ġkamayib": 8403,
      "ĠFVV": 8404,
      "Ġmukammal": 8405,
      "urnal": 8406,
      "iyonat": 8407,
      "Ġmasalada": 8408,
      "Ġnafas": 8409,
      "Ġochil": 8410,
      "Ġaskarlari": 8411,
      "ĠInvestitsiya": 8412,
      "kot": 8413,
      "Ġauksion": 8414,
      "ĠVol": 8415,
      "ĠEm": 8416,
      "Ġtanklar": 8417,
      "Ġpropaganda": 8418,
      "Ġmuammolarga": 8419,
      "Ġxususiylashtirish": 8420,
      "ksika": 8421,
      "storan": 8422,
      "Ġmukofotini": 8423,
      "Ġpaketini": 8424,
      "Ġgubernatori": 8425,
      "DXR": 8426,
      "Ġoso": 8427,
      "nayotgani": 8428,
      "kiliy": 8429,
      "Ġborishga": 8430,
      "Ġ59": 8431,
      "ĠÃµrinlari": 8432,
      "Ġbemorlar": 8433,
      "Ġvelosipe": 8434,
      "ĠInternet": 8435,
      "eng": 8436,
      "raqam": 8437,
      "Ġosmon": 8438,
      "Ġyillardan": 8439,
      "ĠTinch": 8440,
      "ĠRos": 8441,
      "ĠbÃµlmagani": 8442,
      "ĠbÃµlsangiz": 8443,
      "Ġkelishilgan": 8444,
      "Ġaksincha": 8445,
      "ĠAnna": 8446,
      "Ġjangchilari": 8447,
      "Ġkamaygan": 8448,
      "ĠBaydenning": 8449,
      "Ġchegirma": 8450,
      "mun": 8451,
      "Ġspikeri": 8452,
      "ĠkÃµrishga": 8453,
      "baki": 8454,
      "Ġsazo": 8455,
      "bodon": 8456,
      "Ġxohi": 8457,
      "ĠKam": 8458,
      "ĠBozor": 8459,
      "Ġnarxining": 8460,
      "ĠrÃµyxatini": 8461,
      "ĠYÃµldosh": 8462,
      "Ġchiqqani": 8463,
      "36": 8464,
      "mativ": 8465,
      "Ġvazirlar": 8466,
      "Ġsohalarida": 8467,
      "Ġtashqarida": 8468,
      "ĠtÃµxtatilgan": 8469,
      "ĠbÃµlishgan": 8470,
      "ĠkÃµtarish": 8471,
      "ĠSobiq": 8472,
      "ĠÃµldirilgan": 8473,
      "Ġbajaruvchi": 8474,
      "ulyator": 8475,
      "55": 8476,
      "Ġtutgan": 8477,
      "Ġsol": 8478,
      "Ġ76": 8479,
      "Ġtarmoqlar": 8480,
      "Ġjurnalistlarga": 8481,
      "ĠTadbirkor": 8482,
      "Ġadolatli": 8483,
      "kiga": 8484,
      "birini": 8485,
      "ĠMaro": 8486,
      "ĠÃµzlarining": 8487,
      "Ġkelishini": 8488,
      "Ç§och": 8489,
      "Ġtushunib": 8490,
      "ĠqishloÇ§ida": 8491,
      "Ġekipaj": 8492,
      "Ġjinsiy": 8493,
      "ĠSergeli": 8494,
      "ĠYunusobod": 8495,
      "zmi": 8496,
      "ĠÃµtilgan": 8497,
      "Ġkunlarida": 8498,
      "Ġberilmagan": 8499,
      "Ġtranzit": 8500,
      "sual": 8501,
      "Azov": 8502,
      "ĠAzi": 8503,
      "Ġboryapti": 8504,
      "Ġfoydalanadi": 8505,
      "Ġkelyapti": 8506,
      "uruh": 8507,
      "eys": 8508,
      "Ġmillionga": 8509,
      "Ġzenit": 8510,
      "ĠQÃµmita": 8511,
      "Ġdollargacha": 8512,
      "kÃµp": 8513,
      "ĠTashkilot": 8514,
      "Ġharakatini": 8515,
      "shabbus": 8516,
      "Ġqishda": 8517,
      "Ġ52": 8518,
      "Ġkombi": 8519,
      "Ġchiqmoqda": 8520,
      "Ġnatijalar": 8521,
      "Ġvirus": 8522,
      "Ġviloyatlar": 8523,
      "Ġfutbolchisi": 8524,
      "SST": 8525,
      "Ġqoplab": 8526,
      "Ġgapirish": 8527,
      "Ġokkup": 8528,
      "Ġgarovga": 8529,
      "Ġtayanch": 8530,
      "ĠÃµlimiga": 8531,
      "licha": 8532,
      "ĠuyÇ§o": 8533,
      "Ġ97": 8534,
      "iborga": 8535,
      "Ġmanbasi": 8536,
      "Ġmanfaatlariga": 8537,
      "ĠbÃµlayotgani": 8538,
      "Ġfond": 8539,
      "ĠburÇ§i": 8540,
      "Ġtenden": 8541,
      "Ġpunktlari": 8542,
      "mokratik": 8543,
      "Ġyoxud": 8544,
      "Ġinqilo": 8545,
      "ĠSavol": 8546,
      "Ġyordamni": 8547,
      "Ġismi": 8548,
      "Ġshartnomani": 8549,
      "ĠEntoni": 8550,
      "Ġyarmi": 8551,
      "Ġtamomlagan": 8552,
      "Ġinspektori": 8553,
      "grafiya": 8554,
      "Ġkelajagi": 8555,
      "Ġsazovor": 8556,
      "omi": 8557,
      "tori": 8558,
      "ardim": 8559,
      "nglar": 8560,
      "lantika": 8561,
      "zak": 8562,
      "Ġkurashi": 8563,
      "Ġolimlar": 8564,
      "Ġxaritasi": 8565,
      "Ġekstre": 8566,
      "Paxtakor": 8567,
      "kalar": 8568,
      "Ġtashlandi": 8569,
      "Ġnusxa": 8570,
      "Ġgran": 8571,
      "Ġsez": 8572,
      "Ġ900": 8573,
      "Ġtopilib": 8574,
      "Ġqamoqxona": 8575,
      "Ġqismlari": 8576,
      "national": 8577,
      "Hozir": 8578,
      "ĠYouTube": 8579,
      "Ġeri": 8580,
      "ShT": 8581,
      "Ġshaharlar": 8582,
      "Ġkelganini": 8583,
      "ĠQosim": 8584,
      "Ġyanvarda": 8585,
      "Ġmuassasasi": 8586,
      "ĠkÃµrilmagan": 8587,
      "Ġfanlar": 8588,
      "Ġinternetda": 8589,
      "Ġqayerga": 8590,
      "ĠMessi": 8591,
      "lev": 8592,
      "Ġefir": 8593,
      "Ġbirgina": 8594,
      "Ġkomil": 8595,
      "ĠYevroparlament": 8596,
      "Ġqaratish": 8597,
      "Ġ2011": 8598,
      "uminiya": 8599,
      "Ġyozish": 8600,
      "Ġmasofada": 8601,
      "Ġfermerlar": 8602,
      "brida": 8603,
      "kni": 8604,
      "tay": 8605,
      "ĠApp": 8606,
      "Ġtuza": 8607,
      "Ġtungi": 8608,
      "erina": 8609,
      "Ġ71": 8610,
      "Ġfuqaroning": 8611,
      "Ġsohasini": 8612,
      "Ġ99": 8613,
      "Ġvaziyatdan": 8614,
      "iborli": 8615,
      "ĠkÃµchaga": 8616,
      "Ġ1991": 8617,
      "Ġsayyohlar": 8618,
      "Ġqaratdi": 8619,
      "milliy": 8620,
      "OVID": 8621,
      "Ġaziyat": 8622,
      "chilardan": 8623,
      "ullayev": 8624,
      "ĠDey": 8625,
      "ĠToÇ§li": 8626,
      "Ġmahallasi": 8627,
      "Ġavtobuslar": 8628,
      "Ġakademik": 8629,
      "ĠStatistika": 8630,
      "Ġmamlakatlarga": 8631,
      "ĠYakka": 8632,
      "Ġloyihasida": 8633,
      "Ġsabablarga": 8634,
      "Ġolqish": 8635,
      "Ġkelishmovchilik": 8636,
      "Ġqolmaydi": 8637,
      "Ġiyuldan": 8638,
      "Ġoktyabrdan": 8639,
      "Ġnarxini": 8640,
      "Ġerkinlik": 8641,
      "ĠMenimcha": 8642,
      "Qo": 8643,
      "ÃµÇ§li": 8644,
      "Ġqaytdi": 8645,
      "Ġtaksi": 8646,
      "Ġshaxsning": 8647,
      "Ġrejalashtirgan": 8648,
      "Ġtadbirkorlarga": 8649,
      "riddin": 8650,
      "Ġapreldan": 8651,
      "Ġbildiradi": 8652,
      "ĠLyay": 8653,
      "rbosh": 8654,
      "taroq": 8655,
      "una": 8656,
      "gin": 8657,
      "ĠÃµrab": 8658,
      "Ġxala": 8659,
      "leti": 8660,
      "Ġkiritilishi": 8661,
      "Ġmaqsadda": 8662,
      "Ġrespublikada": 8663,
      "Ġtaqiqlanadi": 8664,
      "ĠgÃµsh": 8665,
      "ĠKonstitutsiyaviy": 8666,
      "SB": 8667,
      "feri": 8668,
      "Ġugle": 8669,
      "Ġmoy": 8670,
      "uvchan": 8671,
      "Ġkasa": 8672,
      "ĠOm": 8673,
      "Ġyordamga": 8674,
      "Ġgaplar": 8675,
      "ĠTemur": 8676,
      "ĠMirziyoyevning": 8677,
      "ĠKÃµr": 8678,
      "Ġjarayonda": 8679,
      "Ġqurilmalar": 8680,
      "ĠGarchi": 8681,
      "ĠTas": 8682,
      "ĠDne": 8683,
      "ĠMaq": 8684,
      "Ġoldidagi": 8685,
      "doneziya": 8686,
      "Ġrivojlan": 8687,
      "Ġ2013": 8688,
      "Ġfevraldan": 8689,
      "Ãµrinda": 8690,
      "ĠtÃµqnashuvi": 8691,
      "yÃµÇ§i": 8692,
      "Ġvariant": 8693,
      "Ġxiyonat": 8694,
      "Ġishlay": 8695,
      "ĠRuminiya": 8696,
      "ĠtÃµy": 8697,
      "Ġgrant": 8698,
      "Ġshaharga": 8699,
      "Ġnatijalarini": 8700,
      "Ġqolganini": 8701,
      "Ġorasidan": 8702,
      "Ġboshqaruvidagi": 8703,
      "Ġqamrov": 8704,
      "ĠMI": 8705,
      "ĠtÃµlovi": 8706,
      "Ġqolayotgan": 8707,
      "Ġishonchi": 8708,
      "ĠkÃµrsatkichi": 8709,
      "Ġjoyidan": 8710,
      "Ġqizlar": 8711,
      "Ġpotensi": 8712,
      "soy": 8713,
      "zori": 8714,
      "ĠIr": 8715,
      "Ġxarita": 8716,
      "Ġbalan": 8717,
      "Ġyerosti": 8718,
      "Ġqurollari": 8719,
      "ĠkÃµrsatkichlari": 8720,
      "Ġetamiz": 8721,
      "ĠqÃµmitasining": 8722,
      "ĠSovet": 8723,
      "gol": 8724,
      "Ġsul": 8725,
      "kani": 8726,
      "Ġchiroyli": 8727,
      "Ġshunaqa": 8728,
      "Ġunchalik": 8729,
      "Ġchoralarni": 8730,
      "Ġhujjatlariga": 8731,
      "Ġtasdiqlagan": 8732,
      "ĠMehnat": 8733,
      "ĠBalki": 8734,
      "daniga": 8735,
      "Ġsinga": 8736,
      "Ġkungacha": 8737,
      "Ġmasalalarini": 8738,
      "Ġ95": 8739,
      "ĠtÃµxtalib": 8740,
      "Ġenergiyasini": 8741,
      "ĠqÃµshinlarining": 8742,
      "Ġiltimos": 8743,
      "Ġballistik": 8744,
      "aga": 8745,
      "laganini": 8746,
      "dirib": 8747,
      "Ġsvet": 8748,
      "Ġraqi": 8749,
      "Ġinkor": 8750,
      "Ġ51": 8751,
      "Ġmedia": 8752,
      "ĠÃµtkazishi": 8753,
      "Ġtopshirdi": 8754,
      "ĠQÃµshimcha": 8755,
      "ĠyÃµnalishidagi": 8756,
      "Ġdeyilgan": 8757,
      "ĠÃµchirish": 8758,
      "yektlari": 8759,
      "Siti": 8760,
      "ĠLyayyen": 8761,
      "lad": 8762,
      "ĠÃµtirib": 8763,
      "Ġkechki": 8764,
      "Ġniyat": 8765,
      "ĠbÃµlsin": 8766,
      "ĠÃµzidan": 8767,
      "Ġzararli": 8768,
      "Ġqaratildi": 8769,
      "ĠTalaba": 8770,
      "Ġkonvensiya": 8771,
      "Ġshartlari": 8772,
      "ĠBek": 8773,
      "ĠJavob": 8774,
      "Ġbudjetdan": 8775,
      "yillarda": 8776,
      "lashtiruvchi": 8777,
      "ĠtÃµlaqonli": 8778,
      "ĠDastlab": 8779,
      "Ġyumsha": 8780,
      "Phone": 8781,
      "Ġabon": 8782,
      "ĠAp": 8783,
      "ĠYar": 8784,
      "ĠHuquq": 8785,
      "ĠÃµtuvchi": 8786,
      "Ġolganini": 8787,
      "Ġtumanlarida": 8788,
      "Ġaviaqatnov": 8789,
      "ĠToyyib": 8790,
      "31": 8791,
      "oqibat": 8792,
      "ty": 8793,
      "ĠÃµÇ§i": 8794,
      "Ġtovon": 8795,
      "jini": 8796,
      "Ġjamoaning": 8797,
      "Ġhujumni": 8798,
      "Ġegallash": 8799,
      "Ġyakuni": 8800,
      "ĠShahri": 8801,
      "dat": 8802,
      "yini": 8803,
      "yotida": 8804,
      "Ġyilligi": 8805,
      "Ġmiya": 8806,
      "Ġdavlatda": 8807,
      "Ġolishgan": 8808,
      "ĠtÃµxtat": 8809,
      "Ġorganlarining": 8810,
      "ĠyÃµqolgan": 8811,
      "Ġkarra": 8812,
      "Ġkurashda": 8813,
      "Ġsanaladi": 8814,
      "tÃµzonlar": 8815,
      "gapur": 8816,
      "ĠBil": 8817,
      "Ġberganini": 8818,
      "Ġgazi": 8819,
      "Ġjoylarida": 8820,
      "lashiga": 8821,
      "Ġbanklari": 8822,
      "Ġmuzokaralarni": 8823,
      "ĠsÃµralgan": 8824,
      "ĠQashqadaryoda": 8825,
      "ĠyÃµnaltiriladi": 8826,
      "ĠMaktabgacha": 8827,
      "Ġhuquqbuzarlik": 8828,
      "Ġtalqin": 8829,
      "ĠKul": 8830,
      "Ġxasta": 8831,
      "Ġorganlar": 8832,
      "Ġxulosaga": 8833,
      "Ġqismlar": 8834,
      "ĠkÃµrinib": 8835,
      "Ġvaksina": 8836,
      "idov": 8837,
      "Ġtashkiliy": 8838,
      "ĠMartin": 8839,
      "Ġhukumatining": 8840,
      "ĠÇ§alabaga": 8841,
      "Ġhukmi": 8842,
      "Ġijod": 8843,
      "Ġkasbiy": 8844,
      "Ġmalakasini": 8845,
      "ĠDubay": 8846,
      "Ġuskunalar": 8847,
      "jye": 8848,
      "shta": 8849,
      "Ġkori": 8850,
      "Ġhav": 8851,
      "ganimda": 8852,
      "Ġnaf": 8853,
      "ĠQizi": 8854,
      "ĠOlaf": 8855,
      "ĠYaIM": 8856,
      "Ġsevi": 8857,
      "Ġmunosabatlarini": 8858,
      "Ġvakillarining": 8859,
      "ĠkÃµchada": 8860,
      "ARS": 8861,
      "ĠkÃµmaklashish": 8862,
      "rasmiy": 8863,
      "sovo": 8864,
      "ĠPer": 8865,
      "ĠJST": 8866,
      "ĠkÃµpi": 8867,
      "utbu": 8868,
      "Ġoldik": 8869,
      "magandi": 8870,
      "Ġislom": 8871,
      "Ġyaratishga": 8872,
      "ĠkÃµrsatmalar": 8873,
      "Ġukrainlar": 8874,
      "Ġaviakompaniyasi": 8875,
      "Ġshunchalik": 8876,
      "EL": 8877,
      "Ġshidda": 8878,
      "Ġoyga": 8879,
      "ĠtÃµplagan": 8880,
      "Ġmashq": 8881,
      "ĠMillatlar": 8882,
      "Ġxalqiga": 8883,
      "ĠTib": 8884,
      "Ġpaketi": 8885,
      "gir": 8886,
      "ĠkÃµpchiligi": 8887,
      "ĠGer": 8888,
      "ĠCOVID": 8889,
      "Ġhududlardagi": 8890,
      "Ġnimadir": 8891,
      "Ġchaqirish": 8892,
      "Ġhaligacha": 8893,
      "ĠkÃµrishni": 8894,
      "Ġsanab": 8895,
      "ĠUmumiy": 8896,
      "Ġtaklifini": 8897,
      "larimni": 8898,
      "ĠiPhone": 8899,
      "ziv": 8900,
      "movich": 8901,
      "Ġqizim": 8902,
      "Ġhududni": 8903,
      "Ġtanqisligi": 8904,
      "Ġuzunligi": 8905,
      "cetti": 8906,
      "ngni": 8907,
      "Ġsahna": 8908,
      "Ġratifikatsiya": 8909,
      "ĠVen": 8910,
      "ksiyalar": 8911,
      "Ġmuhimi": 8912,
      "Ġqilishingiz": 8913,
      "ĠYeChL": 8914,
      "Ġqatorda": 8915,
      "Ġkutilmagan": 8916,
      "ĠÃµynagan": 8917,
      "Ġislohotlarni": 8918,
      "Ġvazn": 8919,
      "Ġtutash": 8920,
      "quvvatlaydi": 8921,
      "Ġaloqalarini": 8922,
      "ĠshuÇ§ullanuvchi": 8923,
      "ĠMinsk": 8924,
      "bbimov": 8925,
      "Ġayirbosh": 8926,
[...]
