{
  "version": "1.0",
  "truncation": null,
  "padding": null,
  "added_tokens": [
    {
      "id": 0,
      "content": "[PAD]",
      "single_word": false,
      "lstrip": false,
      "rstrip": false,
      "normalized": false,
      "special": true
    },
    {
      "id": 1,
      "content": "[UNK]",
      "single_word": false,
      "lstrip": false,
      "rstrip": false,
      "normalized": false,
      "special": true
    },
    {
      "id": 2,
      "content": "[START]",
      "single_word": false,
      "lstrip": false,
      "rstrip": false,
      "normalized": false,
      "special": true
    },
    {
      "id": 3,
      "content": "[END]",
      "single_word": false,
      "lstrip": false,
      "rstrip": false,
      "normalized": false,
      "special": true
    }
  ],
  "normalizer": null,
  "pre_tokenizer": {
    "type": "ByteLevel",
    "add_prefix_space": true,
    "trim_offsets": true,
    "use_regex": true
  },
  "post_processor": null,
  "decoder": null,
  "model": {
    "type": "BPE",
    "dropout": null,
    "unk_token": null,
    "continuing_subword_prefix": null,
    "end_of_word_suffix": null,
    "fuse_unk": false,
    "byte_fallback": false,
    "vocab": {
      "[PAD]": 0,
      "[UNK]": 1,
      "[START]": 2,
      "[END]": 3,
      "!": 4,
      "\"": 5,
      "#": 6,
      "$": 7,
      "%": 8,
      "&": 9,
      "'": 10,
      "(": 11,
      ")": 12,
      "*": 13,
      "+": 14,
      ",": 15,
      "-": 16,
      ".": 17,
      "/": 18,
      "0": 19,
      "1": 20,
      "2": 21,
      "3": 22,
      "4": 23,
      "5": 24,
      "6": 25,
      "7": 26,
      "8": 27,
      "9": 28,
      ":": 29,
      ";": 30,
      "<": 31,
      "=": 32,
      ">": 33,
      "?": 34,
      "@": 35,
      "A": 36,
      "B": 37,
      "C": 38,
      "D": 39,
      "E": 40,
      "F": 41,
      "G": 42,
      "H": 43,
      "I": 44,
      "J": 45,
      "K": 46,
      "L": 47,
      "M": 48,
      "N": 49,
      "O": 50,
      "P": 51,
      "Q": 52,
      "R": 53,
      "S": 54,
      "T": 55,
      "U": 56,
      "V": 57,
      "W": 58,
      "X": 59,
      "Y": 60,
      "Z": 61,
      "[": 62,
      "\\": 63,
      "]": 64,
      "^": 65,
      "_": 66,
      "a": 67,
      "b": 68,
      "c": 69,
      "d": 70,
      "e": 71,
      "f": 72,
      "g": 73,
      "h": 74,
      "i": 75,
      "j": 76,
      "k": 77,
      "l": 78,
      "m": 79,
      "n": 80,
      "o": 81,
      "p": 82,
      "q": 83,
      "r": 84,
      "s": 85,
      "t": 86,
      "u": 87,
      "v": 88,
      "w": 89,
      "x": 90,
      "y": 91,
      "z": 92,
      "{": 93,
      "|": 94,
      "}": 95,
      "~": 96,
      "¢": 97,
      "£": 98,
      "¤": 99,
      "¥": 100,
      "§": 101,
      "«": 102,
      "¬": 103,
      "°": 104,
      "±": 105,
      "»": 106,
      "¼": 107,
      "½": 108,
      "Â": 109,
      "Ã": 110,
      "Ä": 111,
      "Å": 112,
      "Î": 113,
      "â": 114,
      "Ċ": 115,
      "Ġ": 116,
      "Ģ": 117,
      "Ĥ": 118,
      "Ħ": 119,
      "Ī": 120,
      "ī": 121,
      "İ": 122,
      "ı": 123,
      "ķ": 124,
      "ĸ": 125,
      "ļ": 126,
      "ŀ": 127,
      "Ł": 128,
      "la": 129,
      "sh": 130,
      "da": 131,
      "ni": 132,
      "ga": 133,
      "ri": 134,
      "li": 135,
      "Åı": 136,
      "Ġb": 137,
      "ti": 138,
      "di": 139,
      "ch": 140,
      "ma": 141,
      "Ġt": 142,
      "si": 143,
      "lar": 144,
      "Ġk": 145,
      "ar": 146,
      "Ġq": 147,
      "ya": 148,
      "ng": 149,
      "gan": 150,
      "ra": 151,
      "on": 152,
      "Ġh": 153,
      "va": 154,
      "Ġy": 155,
      "il": 156,
      "lari": 157,
      "ning": 158,
      "Ġo": 159,
      "shi": 160,
      "gi": 161,
      "Ġs": 162,
      "Ġa": 163,
      "Ġva": 164,
      "ta": 165,
      "Ġm": 166,
      "Ġi": 167,
      "Ġe": 168,
      "Ġu": 169,
      "or": 170,
      "Ġma": 171,
      "chi": 172,
      "Ġta": 173,
      "dan": 174,
      "ĠÅı": 175,
      "zi": 176,
      "ki": 177,
      "na": 178,
      "ka": 179,
      "mo": 180,
      "mi": 181,
      "un": 182,
      "Ġbi": 183,
      "lan": 184,
      "sa": 185,
      "ĠbÅı": 186,
      "Ġha": 187,
      "lik": 188,
      "cha": 189,
      "ÄŁ": 190,
      "er": 191,
      "at": 192,
      "ro": 193,
      "qi": 194,
      "Ġj": 195,
      "lo": 196,
      "Ġqi": 197,
      "yi": 198,
      "de": 199,
      "Ġbo": 200,
      "yo": 201,
      "Ġx": 202,
      "st": 203,
      "Ġmu": 204,
      "Ġke": 205,
      "Ġf": 206,
      "ĠB": 207,
      "lgan": 208,
      "ĠkÅı": 209,
      "dagi": 210,
      "qa": 211,
      "ur": 212,
      "ĠS": 213,
      "ĠA": 214,
      "Ġsh": 215,
      "bi": 216,
      "Ġp": 217,
      "rish": 218,
      "vo": 219,
      "lash": 220,
      "Ġda": 221,
      "ĠM": 222,
      "siya": 223,
      "ay": 224,
      "uv": 225,
      "Ġya": 226,
      "no": 227,
      "Ġham": 228,
      "Ġbilan": 229,
      "en": 230,
      "Ġ2": 231,
      "Ġish": 232,
      "ba": 233,
      "Ġuch": 234,
      "ladi": 235,
      "Ġqili": 236,
      "ligi": 237,
      "Ġ1": 238,
      "ĠT": 239,
      "do": 240,
      "re": 241,
      "so": 242,
      "Ġtu": 243,
      "an": 244,
      "Ġbe": 245,
      "Ġyil": 246,
      "ston": 247,
      "al": 248,
      "ara": 249,
      "Ġbu": 250,
      "Ġso": 251,
      "lab": 252,
      "Ġsa": 253,
      "ldi": 254,
      "Ġuchun": 255,
      "larni": 256,
      "ĠqÅı": 257,
      "Ġbosh": 258,
      "be": 259,
      "Ġde": 260,
      "lib": 261,
      "iz": 262,
      "ĠU": 263,
      "Åİ": 264,
      "Â«": 265,
      "Â»": 266,
      "ĠR": 267,
      "Ġku": 268,
      "gani": 269,
      "ĠÂ«": 270,
      "tgan": 271,
      "moq": 272,
      "lat": 273,
      "Ġto": 274,
      "vi": 275,
      "Ġyo": 276,
      "to": 277,
      "ja": 278,
      "zo": 279,
      "ĠtÅı": 280,
      "lu": 281,
      "Ġna": 282,
      "ona": 283,
      "sida": 284,
      "aro": 285,
      "Ġ-": 286,
      "ĠÅİ": 287,
      "bo": 288,
      "ĠK": 289,
      "Ġhu": 290,
      "Ġtash": 291,
      "ÄŁi": 292,
      "tish": 293,
      "lishi": 294,
      "za": 295,
      "Ġra": 296,
      "Ġja": 297,
      "yat": 298,
      "Ġki": 299,
      "ul": 300,
      "Ġchi": 301,
      "Ġbir": 302,
      "zbe": 303,
      "kiston": 304,
      "lish": 305,
      "Ġho": 306,
      "Ġyu": 307,
      "ĠyÅı": 308,
      "Ġ\"": 309,
      "ĠI": 310,
      "larga": 311,
      "larini": 312,
      "kin": 313,
      "moqda": 314,
      "ah": 315,
      "Ġte": 316,
      "miz": 317,
      "ĠSh": 318,
      "Ġ20": 319,
      "zbekiston": 320,
      "Ġqil": 321,
      "larning": 322,
      "Ġay": 323,
      "et": 324,
      "ĠY": 325,
      "fa": 326,
      "oy": 327,
      "oli": 328,
      "tib": 329,
      "us": 330,
      "ĠÅİzbekiston": 331,
      "ĠBu": 332,
      "ot": 333,
      "Ġch": 334,
      "ko": 335,
      "sp": 336,
      "Ġxa": 337,
      "Ġqo": 338,
      "kat": 339,
      "ĠQ": 340,
      "niya": 341,
      "ha": 342,
      "mp": 343,
      "os": 344,
      "le": 345,
      "ngi": 346,
      "Ġka": 347,
      "ĠÅız": 348,
      "lani": 349,
      "Ġmi": 350,
      "ĠsÅı": 351,
      "tida": 352,
      "lma": 353,
      "Ġvazi": 354,
      "Ġqa": 355,
      "langan": 356,
      "ĠP": 357,
      "vlat": 358,
      "ĠbÅıyi": 359,
      "ĠÅıt": 360,
      "ĠO": 361,
      "ĠbÅıyicha": 362,
      "uri": 363,
      "rat": 364,
      "uvchi": 365,
      "ĠbÅılgan": 366,
      "tirish": 367,
      "kil": 368,
      "ent": 369,
      "Ġtar": 370,
      "Ġhi": 371,
      "ev": 372,
      "Ġ(": 373,
      "ir": 374,
      "lariga": 375,
      "Ġsi": 376,
      "rin": 377,
      "Ġn": 378,
      "rib": 379,
      "ud": 380,
      "Ġin": 381,
      "larda": 382,
      "uq": 383,
      "ĠX": 384,
      "ydi": 385,
      "ĠD": 386,
      "Ġko": 387,
      "Ġor": 388,
      "ĠH": 389,
      "ĠN": 390,
      "Ġqilish": 391,
      "mat": 392,
      "lga": 393,
      "kor": 394,
      "kazi": 395,
      "um": 396,
      "ĠÅır": 397,
      "Ġdo": 398,
      "man": 399,
      "yin": 400,
      "Ġti": 401,
      "ori": 402,
      "ĠJ": 403,
      "Ġre": 404,
      "Ġeti": 405,
      "Ġdavlat": 406,
      "bar": 407,
      "kt": 408,
      "ub": 409,
      "roq": 410,
      "Ġber": 411,
      "sti": 412,
      "yot": 413,
      "Ġg": 414,
      "Ġ3": 415,
      "Ġfa": 416,
      "ĠF": 417,
      "den": 418,
      "moni": 419,
      "liy": 420,
      "yati": 421,
      "Ġtashkil": 422,
      "hi": 423,
      "ĠMa": 424,
      "siz": 425,
      "bu": 426,
      "Ġshu": 427,
      "yotgan": 428,
      "iy": 429,
      "Ġhaqi": 430,
      "dir": 431,
      "Ġav": 432,
      "Ġno": 433,
      "ĠE": 434,
      "osh": 435,
      "ilo": 436,
      "lov": 437,
      "biy": 438,
      "fi": 439,
      "ziden": 440,
      "ĠkÅır": 441,
      "Ġmum": 442,
      "Ġmumkin": 443,
      "rilgan": 444,
      "reziden": 445,
      "mas": 446,
      "ut": 447,
      "Ġqay": 448,
      "sini": 449,
      "ĠkÅıra": 450,
      "day": 451,
      "ndi": 452,
      "Ġama": 453,
      "Ġoshi": 454,
      "Ġqar": 455,
      "mon": 456,
      "rak": 457,
      "Ġshah": 458,
      "ĠkÅıp": 459,
      "ĠG": 460,
      "Ġkuni": 461,
      "Ġv": 462,
      "ossiya": 463,
      "00": 464,
      "Sh": 465,
      "Ġtomoni": 466,
      "siga": 467,
      "nadi": 468,
      "Ġmar": 469,
      "sha": 470,
      "ort": 471,
      "ĠV": 472,
      "ol": 473,
      "ĠRossiya": 474,
      "Ġhiso": 475,
      "bat": 476,
      "Ġaso": 477,
      "ku": 478,
      "dek": 479,
      "Ġhar": 480,
      "'m": 481,
      "dim": 482,
      "liq": 483,
      "lardan": 484,
      "zar": 485,
      "lum": 486,
      "Ġtomonidan": 487,
      "Ġ201": 488,
      "mla": 489,
      "xona": 490,
      "Ġtur": 491,
      "Ġbor": 492,
      "ÄŁri": 493,
      "dam": 494,
      "lim": 495,
      "Ġesa": 496,
      "Ġolib": 497,
      "Ġba": 498,
      "Ġdeb": 499,
      "radi": 500,
      "miy": 501,
      "ĠL": 502,
      "lika": 503,
      "Ġme": 504,
      "Ġsha": 505,
      "ngan": 506,
      "mu": 507,
      "ublika": 508,
      "spublika": 509,
      "ĠbÅılib": 510,
      "Ġik": 511,
      "du": 512,
      "Ġkun": 513,
      "Ġim": 514,
      "Ġvaq": 515,
      "Ġmah": 516,
      "larida": 517,
      "Ġbar": 518,
      "ov": 519,
      "Ġxiz": 520,
      "qar": 521,
      "ĠkÅırsa": 522,
      "Ġ5": 523,
      "in": 524,
      "Ġdavo": 525,
      "ran": 526,
      "ilgan": 527,
      "mida": 528,
      "ĠRe": 529,
      "Ġyangi": 530,
      "ĠShu": 531,
      "dda": 532,
      "gar": 533,
      "lumo": 534,
      "QSh": 535,
      "aniya": 536,
      "Ġxabar": 537,
      "tadi": 538,
      "Ġ4": 539,
      "Ġni": 540,
      "Ġboshqa": 541,
      "ĠAQSh": 542,
      "ru": 543,
      "Ġyi": 544,
      "ligini": 545,
      "tilgan": 546,
      "br": 547,
      "Ġqu": 548,
      "Ġfo": 549,
      "kaz": 550,
      "Ġmamla": 551,
      "Ġlo": 552,
      "dor": 553,
      "ĠÅızi": 554,
      "Ġega": 555,
      "Ġhaqida": 556,
      "Ġmil": 557,
      "Ġpreziden": 558,
      "te": 559,
      "mati": 560,
      "Ġye": 561,
      "Ġvilo": 562,
      "sining": 563,
      "tir": 564,
      "viy": 565,
      "Ġkerak": 566,
      "ĠbÅıl": 567,
      "shicha": 568,
      "ĠC": 569,
      "Ġji": 570,
      "larining": 571,
      "siy": 572,
      "lumot": 573,
      "Ġhamda": 574,
      "ĠtÅıÄŁri": 575,
      "Ġxo": 576,
      "tan": 577,
      "diy": 578,
      "Ġga": 579,
      "bir": 580,
      "kent": 581,
      "Ġolish": 582,
      "chilik": 583,
      "Ġvazir": 584,
      "nga": 585,
      "Ġberi": 586,
      "Ġoldi": 587,
      "Ġjoy": 588,
      "niq": 589,
      "Ġche": 590,
      "tsiya": 591,
      "landi": 592,
      "Ġming": 593,
      "fo": 594,
      "mmo": 595,
      "rida": 596,
      "su": 597,
      "yu": 598,
      "mpaniya": 599,
      "ora": 600,
      "qat": 601,
      "Ġqildi": 602,
      "alq": 603,
      "Ġjamo": 604,
      "shbu": 605,
      "oshkent": 606,
      "tdi": 607,
      "Ġd": 608,
      "zir": 609,
      "mani": 610,
      "Ġmamlakat": 611,
      "Ġchiqi": 612,
      "bor": 613,
      "Ġrah": 614,
      "oyda": 615,
      "Ġhisob": 616,
      "sidagi": 617,
      "Ġeng": 618,
      "ĠRespublika": 619,
      "as": 620,
      "Ġamalga": 621,
      "lanadi": 622,
      "xs": 623,
      "Ġishlab": 624,
      "Ġfoyda": 625,
      "ĠToshkent": 626,
      "Ġetish": 627,
      "Ġchiqa": 628,
      "Ġtop": 629,
      "dbir": 630,
      "yor": 631,
      "qin": 632,
      "Ġyilda": 633,
      "ĠyÅıl": 634,
      "ningdek": 635,
      "Ġikki": 636,
      "Ġsu": 637,
      "ina": 638,
      "Ġoli": 639,
      "Ġhuj": 640,
      "ĠYa": 641,
      "Ġkor": 642,
      "ho": 643,
      "Ġqilgan": 644,
      "ĠSa": 645,
      "lgi": 646,
      "dar": 647,
      "Ġyet": 648,
      "Ġdol": 649,
      "sta": 650,
      "Ġmaq": 651,
      "Ġij": 652,
      "unday": 653,
      "Ġedi": 654,
      "far": 655,
      "kra": 656,
      "uqaro": 657,
      "gacha": 658,
      "bul": 659,
      "Ġri": 660,
      "xi": 661,
      "Ġkiri": 662,
      "lanish": 663,
      "lda": 664,
      "ron": 665,
      "Ġyana": 666,
      "tin": 667,
      "lay": 668,
      "Ġmo": 669,
      "ji": 670,
      "Ġqat": 671,
      "Ġvo": 672,
      "masi": 673,
      "Ġ6": 674,
      "eri": 675,
      "es": 676,
      "Ġqan": 677,
      "Ġuning": 678,
      "giya": 679,
      "rash": 680,
      "Ġyoki": 681,
      "yiha": 682,
      "ĠyÅıq": 683,
      "Ġsay": 684,
      "Ġaniq": 685,
      "Ġqarshi": 686,
      "Ġfaoli": 687,
      "Ġyosh": 688,
      "pa": 689,
      "Ġavto": 690,
      "ĠbÅıldi": 691,
      "Ġfuqaro": 692,
      "tini": 693,
      "Ġsaba": 694,
      "tiro": 695,
      "son": 696,
      "Ġml": 697,
      "layotgan": 698,
      "zim": 699,
      "ĠÅırta": 700,
      "ganini": 701,
      "ĠbÅıladi": 702,
      "Ġdara": 703,
      "Ġbarcha": 704,
      "ĠTa": 705,
      "lmoqda": 706,
      "Ġjamoa": 707,
      "undan": 708,
      "bari": 709,
      "ĠÅıtkazi": 710,
      "Ġchiq": 711,
      "Ġxizmat": 712,
      "el": 713,
      "Ġkompaniya": 714,
      "Ġhara": 715,
      "20": 716,
      "Ġkishi": 717,
      "ĠÅırin": 718,
      "Ġ7": 719,
      "tiri": 720,
      "Ġyer": 721,
      "Ġne": 722,
      "Ġmasa": 723,
      "jat": 724,
      "lagan": 725,
      "laridan": 726,
      "qti": 727,
      "Ġah": 728,
      "Ġmav": 729,
      "Ġzar": 730,
      "Ġdi": 731,
      "evro": 732,
      "tda": 733,
      "Ġholat": 734,
      "ildi": 735,
      "Ġishtiro": 736,
      "Ġemas": 737,
      "Ġyor": 738,
      "Ġr": 739,
      "gu": 740,
      "ĠqÅıl": 741,
      "kid": 742,
      "ngiz": 743,
      "Ġqara": 744,
      "Ġloyiha": 745,
      "Ġbiz": 746,
      "Ġqabul": 747,
      "Ġsabab": 748,
      "tija": 749,
      "rinchi": 750,
      "Ġil": 751,
      "Ġrivo": 752,
      "Ġfoiz": 753,
      "lashtirish": 754,
      "Ġorqa": 755,
      "Ġqis": 756,
      "Ġberish": 757,
      "ĠbÅılishi": 758,
      "Ġdaraja": 759,
      "ĠÅıtkaz": 760,
      "Ġnar": 761,
      "Ġbelgi": 762,
      "Ġqon": 763,
      "Ġqilingan": 764,
      "Ġmay": 765,
      "lot": 766,
      "Ġtaq": 767,
      "Ġxalq": 768,
      "ĠÄŁ": 769,
      "Ġmasala": 770,
      "var": 771,
      "Ġtan": 772,
      "kta": 773,
      "sidan": 774,
      "Ġhaq": 775,
      "Ġvazirligi": 776,
      "pi": 777,
      "tiga": 778,
      "rasida": 779,
      "kraina": 780,
      "san": 781,
      "Ġmilli": 782,
      "Ġeka": 783,
      "atta": 784,
      "Ġrivoj": 785,
      "Ġmaqsa": 786,
      "Ġquri": 787,
      "Ġushbu": 788,
      "Ġuni": 789,
      "ĠRespublikasi": 790,
      "niy": 791,
      "yap": 792,
      "Ġshahar": 793,
      "lon": 794,
      "korlik": 795,
      "ve": 796,
      "Ġsoha": 797,
      "Ġtay": 798,
      "Ġorqali": 799,
      "don": 800,
      "ĠsÅıng": 801,
      "Ġnafar": 802,
      "Ġpa": 803,
      "qtiso": 804,
      "Ġtayyor": 805,
      "chilar": 806,
      "xshi": 807,
      "Ġprezidenti": 808,
      "vat": 809,
      "Ġza": 810,
      "Ġman": 811,
      "Ġpay": 812,
      "magan": 813,
      "oni": 814,
      "Ġharbiy": 815,
      "vf": 816,
      "xta": 817,
      "Ġuy": 818,
      "Ġshar": 819,
      "shini": 820,
      "ĠNa": 821,
      "Ġ19": 822,
      "Ġ8": 823,
      "timo": 824,
      "ĠbÅılma": 825,
      "ĠDa": 826,
      "ĠbÅılsa": 827,
      "oriy": 828,
      "Ġhuq": 829,
      "ĠsÅım": 830,
      "ĠUkraina": 831,
      "\",": 832,
      "Ġfi": 833,
      "kli": 834,
      "lantirish": 835,
      "bol": 836,
      "Ġharakat": 837,
      "ksiya": 838,
      "Ġmun": 839,
      "Ġnatija": 840,
      "lekt": 841,
      "zimi": 842,
      "Ġalo": 843,
      "Ġrahbari": 844,
      "Ġpro": 845,
      "Ġyaxshi": 846,
      "Ġkatta": 847,
      "val": 848,
      "Ġaholi": 849,
      "Ġshi": 850,
      "Ġkeyin": 851,
      "Ġkel": 852,
      "rini": 853,
      "ĠqÅıshi": 854,
      "Ġban": 855,
      "Ġtadbir": 856,
      "ter": 857,
      "Ġtush": 858,
      "Ġyilning": 859,
      "ito": 860,
      "Ġpar": 861,
      "Ġbirinchi": 862,
      "Ġ10": 863,
      "Ġhoki": 864,
      "Ġimko": 865,
      "loq": 866,
      "Ġdoi": 867,
      "ĠÅıyin": 868,
      "ĠCh": 869,
      "mar": 870,
      "tirilgan": 871,
      "ĠTur": 872,
      "rim": 873,
      "vir": 874,
      "Ġsifa": 875,
      "dida": 876,
      "hat": 877,
      "Ġdast": 878,
      "Ġet": 879,
      "Ġkuch": 880,
      "Ġxavf": 881,
      "ĠboÄŁ": 882,
      "Ġyuq": 883,
      "lashi": 884,
      "bil": 885,
      "ladigan": 886,
      "Ġtumani": 887,
      "Ġishtirok": 888,
      "Ġqanday": 889,
      "ĠÅıtgan": 890,
      "liklar": 891,
      "Ġyaqin": 892,
      "laydi": 893,
      "nat": 894,
      "itoy": 895,
      "Ġoshirish": 896,
      "Ġtex": 897,
      "tasi": 898,
      "quv": 899,
      "Ġolgan": 900,
      "yish": 901,
      "erg": 902,
      "mpi": 903,
      "Ġberdi": 904,
      "Ġdavomida": 905,
      "riga": 906,
      "Ġmaj": 907,
      "tiq": 908,
      "unyo": 909,
      "Ġ9": 910,
      "Ġsaq": 911,
      "may": 912,
      "ver": 913,
      "ey": 914,
      "Ġxodim": 915,
      "Ġmahsu": 916,
      "rik": 917,
      "liya": 918,
      "Ġtas": 919,
      "Ġqilib": 920,
      "Ġhaqda": 921,
      "Ġshaxs": 922,
      "nida": 923,
      "tax": 924,
      "uvi": 925,
      "Ġmuno": 926,
      "ĠMu": 927,
      "Ġishlar": 928,
      "lanishi": 929,
      "ĠqÅıy": 930,
      "Ġis": 931,
      "Ġhuku": 932,
      "Ġju": 933,
      "Åıy": 934,
      "ĠyÅına": 935,
      "Ġyordam": 936,
      "Ġtalab": 937,
      "sport": 938,
      "nini": 939,
      "Ġoy": 940,
      "Ġboshqar": 941,
      "utbol": 942,
      "'t": 943,
      "ĠYevro": 944,
      "Ġbergan": 945,
      "noma": 946,
      "Ġjavo": 947,
      "Ġcha": 948,
      "po": 949,
      "uru": 950,
      "Ġviloyati": 951,
      "Ġ202": 952,
      "qan": 953,
      "Ġqayta": 954,
      "riya": 955,
      "Ġtashqa": 956,
      "chisi": 957,
      "Ġhud": 958,
      "ĠBi": 959,
      "Ġichi": 960,
      "Ġhudud": 961,
      "yapti": 962,
      "Ġbuy": 963,
      "Ġqonun": 964,
      "Ġyuqori": 965,
      "kur": 966,
      "Ġmeh": 967,
      "lashgan": 968,
      "ĠXitoy": 969,
      "ĠsÅız": 970,
      "maydi": 971,
      "Ġkon": 972,
      "Ġreja": 973,
      "Ġtakli": 974,
      "Ġfaoliyati": 975,
      "Ġshart": 976,
      "Ġyara": 977,
      "Ġetilgan": 978,
      "Ġhudu": 979,
      "Ġmahsulot": 980,
      "Ġoi": 981,
      "rishi": 982,
      "vdo": 983,
      "Ġbola": 984,
      "Ġras": 985,
      "laba": 986,
      "lida": 987,
      "ech": 988,
      "Ġtez": 989,
      "Ġoyi": 990,
      "Ġelekt": 991,
      "Ġjoriy": 992,
      "Ġhujjat": 993,
      "Ġetgan": 994,
      "Ġodam": 995,
      "Ġchora": 996,
      "Ġek": 997,
      "Ġxalqaro": 998,
      "usu": 999,
      "ĠQo": 1000,
      "yev": 1001,
      "Ġvaziri": 1002,
      "Ġse": 1003,
      "ĠVa": 1004,
      "Ġiqtiso": 1005,
      "erma": 1006,
      "Ġmuho": 1007,
      "moya": 1008,
      "Ġtashqari": 1009,
      "Ġholda": 1010,
      "Ġfutbol": 1011,
      "ĠZ": 1012,
      "Ġmln": 1013,
      "ĠÅıqi": 1014,
      "Ġun": 1015,
      "Ġuchrash": 1016,
      "Â»,": 1017,
      "shga": 1018,
      "rol": 1019,
      "Ġqiladi": 1020,
      "Ġmarkazi": 1021,
      "xbor": 1022,
      "shda": 1023,
      "Ġmua": 1024,
      "mir": 1025,
      "rd": 1026,
      "Ġqaror": 1027,
      "Ġmunosa": 1028,
      "Ġsifatida": 1029,
      "logiya": 1030,
      "liga": 1031,
      "Ġnis": 1032,
      "Ġmas": 1033,
      "Ġhamkorlik": 1034,
      "bla": 1035,
      "Ġmiq": 1036,
      "Ġyuza": 1037,
      "Ġbiri": 1038,
      "Ġbah": 1039,
      "Ġbirga": 1040,
      "Ġqilindi": 1041,
      "xborot": 1042,
      "virus": 1043,
      "Ġnisba": 1044,
      "Ġjuda": 1045,
      "diq": 1046,
      "Ġjavob": 1047,
      "Ġguru": 1048,
      "ratsiya": 1049,
      "jon": 1050,
      "Ġqayd": 1051,
      "Ġular": 1052,
      "ĠrÅıy": 1053,
      "Ġdavom": 1054,
      "timoiy": 1055,
      "Ġmudda": 1056,
      "ktab": 1057,
      "Ġsavdo": 1058,
      "Ġmahal": 1059,
      "Ġpul": 1060,
      "lanib": 1061,
      "ĠShuningdek": 1062,
      "Ġiy": 1063,
      "Ġaj": 1064,
      "Ġag": 1065,
      "xa": 1066,
      "Ġtashkilot": 1067,
      "Ġnisbatan": 1068,
      "noyat": 1069,
      "Ġan": 1070,
      "Ġshuningdek": 1071,
      "Ġsud": 1072,
      "Ġasosiy": 1073,
      "oliya": 1074,
      "Ġdav": 1075,
      "Ġtizimi": 1076,
      "qo": 1077,
      "Ġularning": 1078,
      "ĠMar": 1079,
      "Ġmuammo": 1080,
      "Ġmuhi": 1081,
      "Ġla": 1082,
      "Ġmillion": 1083,
      "tlar": 1084,
      "Ġkam": 1085,
      "Ġkelib": 1086,
      "shli": 1087,
      "lam": 1088,
      "likda": 1089,
      "hon": 1090,
      "ĠKa": 1091,
      "ĠHo": 1092,
      "zil": 1093,
      "mol": 1094,
      "sal": 1095,
      "Ġtaklif": 1096,
      "kiya": 1097,
      "mcha": 1098,
      "ĠAv": 1099,
      "ĠYevropa": 1100,
      "Ġbil": 1101,
      "Ġ15": 1102,
      "adi": 1103,
      "Ġar": 1104,
      "port": 1105,
      "ĠkÅırsat": 1106,
      "go": 1107,
      "Ġfar": 1108,
      "ke": 1109,
      "Ġolma": 1110,
      "sari": 1111,
      "Ġkelgan": 1112,
      "Ġprezident": 1113,
      "ksi": 1114,
      "Ġtele": 1115,
      "Ġfik": 1116,
      "Ġol": 1117,
      "ÄŁiston": 1118,
      "yotgani": 1119,
      "Ġxizmati": 1120,
      "zkur": 1121,
      "sita": 1122,
      "Ġshahri": 1123,
      "ĠIn": 1124,
      "tishi": 1125,
      "Ġdunyo": 1126,
      "Ġortiq": 1127,
      "Ġvaziyat": 1128,
      "Ġhozir": 1129,
      "Ġviloyat": 1130,
      "kama": 1131,
      "Ġrivojlantirish": 1132,
      "Ġsuv": 1133,
      "Ġtuman": 1134,
      "Ġsiyo": 1135,
      "Ġas": 1136,
      "mobil": 1137,
      "Ġvaqt": 1138,
      "Ġtushi": 1139,
      "lovchi": 1140,
      "Ġgaz": 1141,
      "Ġxavfsiz": 1142,
      "Ġkenga": 1143,
      "Ġer": 1144,
      "qiq": 1145,
      "zod": 1146,
      "ĠUning": 1147,
      "Ġoshiri": 1148,
      "nali": 1149,
      "orij": 1150,
      "roja": 1151,
      "Ġkabi": 1152,
      "jud": 1153,
      "Ġaxborot": 1154,
      "ĠBundan": 1155,
      "Ġkelish": 1156,
      "ayon": 1157,
      "ks": 1158,
      "ĠHa": 1159,
      "av": 1160,
      "Ġsoni": 1161,
      "Ġetdi": 1162,
      "Ġrasmiy": 1163,
      "Ġchiqarish": 1164,
      "is": 1165,
      "Åıl": 1166,
      "zm": 1167,
      "ĠÅİzbekistonda": 1168,
      "Ġtran": 1169,
      "kinchi": 1170,
      "larimiz": 1171,
      "shina": 1172,
      "Ġdollar": 1173,
      "Ġberadi": 1174,
      "mma": 1175,
      "Ġochi": 1176,
      "Ġayti": 1177,
      "ssiya": 1178,
      "Ġtomon": 1179,
      "Ġhech": 1180,
      "xsus": 1181,
      "lini": 1182,
      "tori": 1183,
      "ĠTurkiya": 1184,
      "Ġijtimoiy": 1185,
      "Åıja": 1186,
      "tibi": 1187,
      "likka": 1188,
      "Ġtegi": 1189,
      "Ġtib": 1190,
      "niga": 1191,
      "ĠtÅıxta": 1192,
      "Ġtari": 1193,
      "Ġagent": 1194,
      "Ġhimoya": 1195,
      "Ġoqi": 1196,
      "chki": 1197,
      "ÄŁir": 1198,
      "ĠKor": 1199,
      "lin": 1200,
      "ddiy": 1201,
      "mini": 1202,
      "Ġekan": 1203,
      "yabr": 1204,
      "om": 1205,
      "Ġtah": 1206,
      "ziyo": 1207,
      "dov": 1208,
      "ĠÅıta": 1209,
      "ĠPreziden": 1210,
      "Ġtasdiq": 1211,
      "Ġbora": 1212,
      "Ġ<": 1213,
      "shni": 1214,
      "ĠtÅıÄŁrisida": 1215,
      "uriy": 1216,
      "Ġtaqdim": 1217,
      "Ġqadar": 1218,
      "Ġjami": 1219,
      "Ġqilini": 1220,
      "Ġmavjud": 1221,
      "pe": 1222,
      "rab": 1223,
      "ĠIs": 1224,
      "yol": 1225,
      "Ġnazo": 1226,
      "miya": 1227,
      "Ġmarta": 1228,
      "Ġhuquq": 1229,
      "Ġtegishli": 1230,
      "Ġmuroja": 1231,
      "Ġmaktab": 1232,
      "Ġro": 1233,
      "niyat": 1234,
      "Ġtopshi": 1235,
      "tar": 1236,
      "sat": 1237,
      "ĠDavlat": 1238,
      "Ġmabla": 1239,
      "Ġsoat": 1240,
      "oro": 1241,
      "stit": 1242,
      "ĠboÄŁliq": 1243,
      "nov": 1244,
      "ĠTo": 1245,
      "ral": 1246,
      "Ġolingan": 1247,
      "url": 1248,
      "ĠAy": 1249,
      "ladan": 1250,
      "tak": 1251,
      "tining": 1252,
      "Ġkorxona": 1253,
      "onavirus": 1254,
      "Ġmaxsus": 1255,
      "zor": 1256,
      "ĠÅıy": 1257,
      "ye": 1258,
      "nan": 1259,
      "Ġyuri": 1260,
      "ĠxÅıja": 1261,
      "ĠÅırinbo": 1262,
      "Ġxorij": 1263,
      "Ġqoldi": 1264,
      "rov": 1265,
      "Ġvosita": 1266,
      "ĠqÅıshimcha": 1267,
      "Ġkasal": 1268,
      "Ġdar": 1269,
      "Ġyetkazi": 1270,
      "Ġmuhim": 1271,
      "eya": 1272,
      "unga": 1273,
      "Ġnafa": 1274,
      "Ġyak": 1275,
      "Ġaloqa": 1276,
      "Ġavtomobil": 1277,
      "assi": 1278,
      "Ġkim": 1279,
      "Ġvi": 1280,
      "Ġbos": 1281,
      "ĠmablaÄŁ": 1282,
      "Ġqaro": 1283,
      "timiz": 1284,
      "Ġ12": 1285,
      "arli": 1286,
      "Ġfoydalanish": 1287,
      "Ġasosida": 1288,
      "Ġfaqat": 1289,
      "Ġhay": 1290,
      "dik": 1291,
      "ĠTra": 1292,
      "qon": 1293,
      "ĠBiz": 1294,
      "Ġturli": 1295,
      "kon": 1296,
      "Ġvakil": 1297,
      "lama": 1298,
      "Ġvazifa": 1299,
      "Ġumu": 1300,
      "ĠBe": 1301,
      "meri": 1302,
      "Ġnav": 1303,
      "ĠÅıtdi": 1304,
      "ĠyiÄŁi": 1305,
      "ura": 1306,
      "shan": 1307,
      "Ġmoliya": 1308,
      "Ġetadi": 1309,
      "Ġmat": 1310,
      "Ġmunosabat": 1311,
      "assa": 1312,
      "inlash": 1313,
      "sion": 1314,
      "likni": 1315,
      "umladan": 1316,
      "Ġmusta": 1317,
      "Ġlavo": 1318,
      "Ġnecha": 1319,
      "'s": 1320,
      "Ġmilliy": 1321,
      "Ġmaqsadida": 1322,
      "Ġqish": 1323,
      "Ġnom": 1324,
      "limi": 1325,
      "Ġjinoyat": 1326,
      "Ġoila": 1327,
      "Ġqolgan": 1328,
      "Ġ11": 1329,
      "unda": 1330,
      "Ġajra": 1331,
      "taxassi": 1332,
      "Ġkar": 1333,
      "tidan": 1334,
      "Ġmurojaat": 1335,
      "lashtirilgan": 1336,
      "Ġshunday": 1337,
      "ĠBo": 1338,
      "Ġhalo": 1339,
      "Ġyoz": 1340,
      "Ġasos": 1341,
      "qiy": 1342,
      "assasa": 1343,
      "ĠqÅımi": 1344,
      "ĠMir": 1345,
      "ste": 1346,
      "Ġbal": 1347,
      "siyo": 1348,
      "Ġinson": 1349,
      "Ġchek": 1350,
      "ea": 1351,
      "ĠbÅılish": 1352,
      "ĠqÅıllab": 1353,
      "Ġmuassasa": 1354,
      "lgani": 1355,
      "Ġtartib": 1356,
      "Ġsodir": 1357,
      "ĠÅızgar": 1358,
      "Ġorgan": 1359,
      "ner": 1360,
      "moqchi": 1361,
      "ft": 1362,
      "shiga": 1363,
      "nal": 1364,
      "atsiya": 1365,
      "Ġbunday": 1366,
      "merika": 1367,
      "quvvat": 1368,
      "se": 1369,
      "rgan": 1370,
      "lanuvchi": 1371,
      "tildi": 1372,
      "Ġbino": 1373,
      "Ġhokimi": 1374,
      "Ġchiqish": 1375,
      "Ġap": 1376,
      "biq": 1377,
      "it": 1378,
      "tirib": 1379,
      "ĠTramp": 1380,
      "Ġrahbar": 1381,
      "Ġyan": 1382,
      "Ġbildir": 1383,
      "Ġishlari": 1384,
      "Ġmajb": 1385,
      "Ġkoronavirus": 1386,
      "Ġyuzasidan": 1387,
      "Ġagentligi": 1388,
      "ayli": 1389,
      "etr": 1390,
      "rif": 1391,
      "ĠÄŁa": 1392,
      "ĠKe": 1393,
      "taxassis": 1394,
      "Ġtarmoq": 1395,
      "ĠqÅılga": 1396,
      "Ġ200": 1397,
      "Ġat": 1398,
      "ĠUshbu": 1399,
      "Ġmlrd": 1400,
      "Ġuchrashuv": 1401,
      "ĠTe": 1402,
      "Ġbank": 1403,
      "Ġshahrida": 1404,
      "ĠÅırna": 1405,
      "ĠJa": 1406,
      "Ġchempi": 1407,
      "lishini": 1408,
      "Ġtexno": 1409,
      "versi": 1410,
      "Ġtuf": 1411,
      "ard": 1412,
      "Ġayol": 1413,
      "ĠÅırinbosari": 1414,
      "zon": 1415,
      "ĠKo": 1416,
      "zoÄŁiston": 1417,
      "),": 1418,
      "hida": 1419,
      "zda": 1420,
      "batida": 1421,
      "Ġyuk": 1422,
      "enta": 1423,
      "ĠÅıq": 1424,
      "mov": 1425,
      "yib": 1426,
      "Ġtufayli": 1427,
      "ĠtÅıp": 1428,
      "Ġosh": 1429,
      "Ġyildan": 1430,
      "ĠLe": 1431,
      "riy": 1432,
      "Ġyuz": 1433,
      "Ġ30": 1434,
      "tun": 1435,
      "Ġeh": 1436,
      "Ġhujum": 1437,
      "buot": 1438,
      "Ġsar": 1439,
      "Ġxusu": 1440,
      "Ġmashina": 1441,
      "ĠAf": 1442,
      "Ġichida": 1443,
      "Ġhisoblanadi": 1444,
      "ĠAmmo": 1445,
      "Ġyubo": 1446,
      "lashga": 1447,
      "voz": 1448,
      "gara": 1449,
      "Ġsport": 1450,
      "Ġklu": 1451,
      "par": 1452,
      "Ġpoy": 1453,
      "gun": 1454,
      "ĠBa": 1455,
      "Ġvaqtida": 1456,
      "anu": 1457,
      "Ġus": 1458,
      "ton": 1459,
      "..": 1460,
      "Ġunga": 1461,
      "Ġpo": 1462,
      "Ġru": 1463,
      "rita": 1464,
      "Ġdegan": 1465,
      "Ġbelgilangan": 1466,
      "Ġyanada": 1467,
      "ĠkÅırib": 1468,
      "Ġsaylov": 1469,
      "liÄŁi": 1470,
      "nik": 1471,
      "Ġavval": 1472,
      "ĠRa": 1473,
      "Ġhaqidagi": 1474,
      "ĠAb": 1475,
      "Ġbosqi": 1476,
      "ibor": 1477,
      "ÄŁa": 1478,
      "Ġetildi": 1479,
      "gik": 1480,
      "Ġz": 1481,
      "qea": 1482,
      "ĠÅırtasida": 1483,
      "Ġmuhokama": 1484,
      "zoq": 1485,
      "ĠÅıtkazish": 1486,
      "Ġshifo": 1487,
      "Ġhisobi": 1488,
      "mara": 1489,
      "Ġoch": 1490,
      "Ġyerda": 1491,
      "Ġ14": 1492,
      "Ġsaqlash": 1493,
      "Ġnash": 1494,
      "Ġoldin": 1495,
      "Ġuru": 1496,
      "ulo": 1497,
      "Ġmuvo": 1498,
      "ĠBosh": 1499,
      "Ġqilin": 1500,
      "Ġimzo": 1501,
      "ĠkÅıcha": 1502,
      "Ġyetak": 1503,
      "lishicha": 1504,
      "tifo": 1505,
      "Ġgap": 1506,
      "lashtiri": 1507,
      "Ġ18": 1508,
      "Ġtarqa": 1509,
      "Ġnima": 1510,
      "Ġnamo": 1511,
      "vishda": 1512,
      "Ġjo": 1513,
      "ram": 1514,
      "Ġikkinchi": 1515,
      "marqan": 1516,
      "Ġ16": 1517,
      "tiya": 1518,
      "ĠKoreya": 1519,
      "Ġmatbuot": 1520,
      "ĠtÅıÄŁrisidagi": 1521,
      "kam": 1522,
      "ĠQozoÄŁiston": 1523,
      "tirgan": 1524,
      "Ġhokim": 1525,
      "ĠyÅınalish": 1526,
      "Ġguruh": 1527,
      "Ġuz": 1528,
      "Ġberilgan": 1529,
      "Ġayb": 1530,
      "Ġmen": 1531,
      "Ġyanvar": 1532,
      "fon": 1533,
      "ĠII": 1534,
      "fta": 1535,
      "Äŀ": 1536,
      "Ġdoirasida": 1537,
      "ĠMah": 1538,
      "Ġravishda": 1539,
      "Ġjoylashgan": 1540,
      "Ġsoliq": 1541,
      "Ġal": 1542,
      "ero": 1543,
      "Ġtizim": 1544,
      "fiq": 1545,
      "izi": 1546,
      "Ġmin": 1547,
      "Ġmux": 1548,
      "Ġbaho": 1549,
      "Ġmaydon": 1550,
      "Ġrespublika": 1551,
      "Ġhavo": 1552,
      "Ġqurol": 1553,
      "Ġsamol": 1554,
      "Ġkuza": 1555,
      "ligiga": 1556,
      "Ġtashqi": 1557,
      "Ġhukumati": 1558,
      "ĠHozir": 1559,
      "tiyo": 1560,
      "zbek": 1561,
      "Ġ25": 1562,
      "Ġkompaniyasi": 1563,
      "Ġelektr": 1564,
      "Ġfaoliyat": 1565,
      "bon": 1566,
      "yan": 1567,
      "Ġmutaxassis": 1568,
      "Ġ13": 1569,
      "Ġnazorat": 1570,
      "ĠkÅıproq": 1571,
      "Ġoyida": 1572,
      "Ġsamara": 1573,
      "shish": 1574,
      "tiladi": 1575,
      "ĠSo": 1576,
      "Ġmuvofiq": 1577,
      "ida": 1578,
      "Ġchegara": 1579,
      "Ġiste": 1580,
      "tuvchi": 1581,
      "diya": 1582,
      "Ġyili": 1583,
      "chilari": 1584,
      "me": 1585,
      "sla": 1586,
      "daryo": 1587,
      "Ġinve": 1588,
      "Ġetib": 1589,
      "jo": 1590,
      "Ġhuqu": 1591,
      "ĠÅırgani": 1592,
      "Ġnarsa": 1593,
      "Ġsov": 1594,
      "kl": 1595,
      "'d": 1596,
      "Ġmiqdo": 1597,
      "Ġtarki": 1598,
      "ĠSamarqan": 1599,
      "Ġhal": 1600,
      "ss": 1601,
      "lmagan": 1602,
      "unki": 1603,
      "Ġzarur": 1604,
      "Ch": 1605,
      "ritaniya": 1606,
      "Ġqator": 1607,
      "ttifo": 1608,
      "lom": 1609,
      "rid": 1610,
      "mil": 1611,
      "Ġel": 1612,
      "tika": 1613,
      "Ġhalok": 1614,
      "ĠÅızga": 1615,
      "faa": 1616,
      "Ġsavo": 1617,
      "ĠMe": 1618,
      "ermaniya": 1619,
      "Ġyirik": 1620,
      "Ġchiqib": 1621,
      "fot": 1622,
      "Ġuniversi": 1623,
      "Ġsababli": 1624,
      "Ġmehnat": 1625,
      "ĠBiroq": 1626,
      "Ġjahon": 1627,
      "rdi": 1628,
      "ĠÄŁalaba": 1629,
      "Ġinter": 1630,
      "Ġishon": 1631,
      "Ġhukumat": 1632,
      "ĠOsiyo": 1633,
      "Ġdeya": 1634,
      "Ġtexnologiya": 1635,
      "ĠPu": 1636,
      "qil": 1637,
      "Ġishga": 1638,
      "Ġammo": 1639,
      "Ġmahalliy": 1640,
      "Ġumumiy": 1641,
      "Ġista": 1642,
      "Ġkunda": 1643,
      "ĠXalq": 1644,
      "gina": 1645,
      "Ġlozim": 1646,
      "madi": 1647,
      "Ġmuddat": 1648,
      "Ġcho": 1649,
      "kshi": 1650,
      "Ġtayin": 1651,
      "Ġmazkur": 1652,
      "ĠDe": 1653,
      "uriya": 1654,
      "ktori": 1655,
      "Ġxodimlari": 1656,
      "Ġqizi": 1657,
      "ĠÅıtkazilgan": 1658,
      "deo": 1659,
      "Ġyakun": 1660,
      "ĠAl": 1661,
      "Ġmaqsad": 1662,
      "Ġdeka": 1663,
      "Ġdedi": 1664,
      "bus": 1665,
      "Ġsan": 1666,
      "loh": 1667,
      "Ġyoshli": 1668,
      "Ġ100": 1669,
      "Ġchaqi": 1670,
      "ĠÄŀ": 1671,
      "ĠMi": 1672,
      "ski": 1673,
      "dro": 1674,
      "kaziy": 1675,
      "Ġquyi": 1676,
      "Ġhafta": 1677,
      "Ġsharo": 1678,
      "ĠtÅıliq": 1679,
      "Ġbori": 1680,
      "Ġqilinadi": 1681,
      "min": 1682,
      "Ġjara": 1683,
      "Ġmash": 1684,
      "Ġfoizi": 1685,
      "xon": 1686,
      "ĠAn": 1687,
      "shadi": 1688,
      "Ġfoizga": 1689,
      "Ġiqtisodiy": 1690,
      "Ġamal": 1691,
      "dora": 1692,
      "chalik": 1693,
      "Ġvoqea": 1694,
      "Ġqila": 1695,
      "Ġilk": 1696,
      "Ġuchi": 1697,
      "lati": 1698,
      "tiv": 1699,
      "ĠbÅılmagan": 1700,
      "ĠGermaniya": 1701,
      "Ġ2020": 1702,
      "mor": 1703,
      "Ġjarayo": 1704,
      "Ġyasha": 1705,
      "ĠtÅılov": 1706,
      "Ġ17": 1707,
      "Ġalohida": 1708,
      "dofaa": 1709,
      "Ġqiy": 1710,
      "ĠsoÄŁ": 1711,
      "Ġapre": 1712,
      "dosh": 1713,
      "uniy": 1714,
      "Ġjumladan": 1715,
      "Åır": 1716,
      "Ġbutun": 1717,
      "ĠVazir": 1718,
      "Ġ2018": 1719,
      "Ġ2019": 1720,
      "Ġrai": 1721,
      "Ġqismi": 1722,
      "yingi": 1723,
      "tishga": 1724,
      "Ġvaqtda": 1725,
      "Ġegal": 1726,
      "ĠUlar": 1727,
      "Ġtani": 1728,
      "Ġichki": 1729,
      "xir": 1730,
      "lardagi": 1731,
      "Ġqishloq": 1732,
      "rishga": 1733,
      "Ġaytgan": 1734,
      "xat": 1735,
      "Ġqur": 1736,
      "nash": 1737,
      "Ġchiqar": 1738,
      "Ġyon": 1739,
      "im": 1740,
      "ĠMirziyo": 1741,
      "Ġatro": 1742,
      "Ġularni": 1743,
      "Ġyur": 1744,
      "Ġxona": 1745,
      "Ġoladi": 1746,
      "mad": 1747,
      "Ġshartnoma": 1748,
      "Ġkeng": 1749,
      "Ġsobiq": 1750,
      "Ġhaj": 1751,
      "Ġetiladi": 1752,
      "ĠBritaniya": 1753,
      "Ġyetkazib": 1754,
      "sk": 1755,
      "der": 1756,
      "ĠMarkaziy": 1757,
      "yoti": 1758,
      "araf": 1759,
      "biyot": 1760,
      "Ġeksp": 1761,
      "Ġ2017": 1762,
      "Ġraqa": 1763,
      "gust": 1764,
      "rildi": 1765,
      "Ġmilliard": 1766,
      "Ġoliy": 1767,
      "Ġvakillari": 1768,
      "Ġyash": 1769,
      "sib": 1770,
      "ĠEron": 1771,
      "bot": 1772,
      "ffa": 1773,
      "bek": 1774,
      "gungi": 1775,
      "noat": 1776,
      "Ġmuva": 1777,
      "riq": 1778,
      "Ġidora": 1779,
      "Ġturib": 1780,
      "Ġnavbat": 1781,
      "Ġuzoq": 1782,
      "Ġtekshi": 1783,
      "Ġqilmoqda": 1784,
      "Ġsotib": 1785,
      "alb": 1786,
      "oq": 1787,
      "zu": 1788,
      "Ġfikr": 1789,
      "chik": 1790,
      "ĠMirziyoyev": 1791,
      "ĠkÅırsatki": 1792,
      "fat": 1793,
      "ĠFran": 1794,
      "Ġfutbolchi": 1795,
      "ĠsÅızlariga": 1796,
      "Ġtaj": 1797,
      "Ġmart": 1798,
      "ĠShav": 1799,
      "ÄŁin": 1800,
      "Ġimkoniyat": 1801,
      "sim": 1802,
      "ĠPrezident": 1803,
      "Ġpoli": 1804,
      "ĠBir": 1805,
      "Ġboshlab": 1806,
      "ĠShavkat": 1807,
      "Ġmuvaffa": 1808,
      "lana": 1809,
      "Ġxat": 1810,
      "mona": 1811,
      "fe": 1812,
      "Ġli": 1813,
      "ĠFar": 1814,
      "demiya": 1815,
      "Ġtor": 1816,
      "kva": 1817,
      "ĠSuriya": 1818,
      "Ġdu": 1819,
      "ĠSamarqand": 1820,
      "shida": 1821,
      "ish": 1822,
      "Ġiyul": 1823,
      "dr": 1824,
      "siq": 1825,
      "Ġijro": 1826,
      "dqiq": 1827,
      "Ġavi": 1828,
      "ktor": 1829,
      "ĠdÅı": 1830,
      "Ġinstit": 1831,
      "Ġkuti": 1832,
      "lis": 1833,
      "ergov": 1834,
      "Ġturi": 1835,
      "urnali": 1836,
      "ĠFa": 1837,
      "ĠqÅımitasi": 1838,
      "zan": 1839,
      "Ġtartibi": 1840,
      "ĠÅırtasidagi": 1841,
      "Ġjalb": 1842,
      "ĠtuÄŁ": 1843,
      "shma": 1844,
      "Ġjaro": 1845,
      "ĠHu": 1846,
      "nes": 1847,
      "nergiya": 1848,
      "Ġshta": 1849,
      "ĠoÄŁir": 1850,
      "Ġhududi": 1851,
      "Ġ0": 1852,
      "Ġbildi": 1853,
      "Ġdire": 1854,
      "Ġsiz": 1855,
      "Ġtadbirkor": 1856,
      "ziya": 1857,
      "ĠkÅırsatish": 1858,
      "ĠbÅılgani": 1859,
      "von": 1860,
      "ÄŁoni": 1861,
      "Ġjamoasi": 1862,
      "Ġjazo": 1863,
      "Ġjamoat": 1864,
      "Ġpaydo": 1865,
      "ĠQay": 1866,
      "Ġnomi": 1867,
      "ĠsÅınggi": 1868,
      "missiya": 1869,
      "Ġavgust": 1870,
      "Ġkelishi": 1871,
      "Ġnoyabr": 1872,
      "Ġibo": 1873,
      "Ġqilishi": 1874,
      "Ġdekabr": 1875,
      "onal": 1876,
      "Ġfaoliyatini": 1877,
      "Ġbermoqda": 1878,
      "Ġak": 1879,
      "Ġnamoyish": 1880,
      "ĠPutin": 1881,
      "Ġfaol": 1882,
      "Ġqarori": 1883,
      "ĠAvval": 1884,
      "kara": 1885,
      "Ġenergiya": 1886,
      "Ġorasida": 1887,
      "enti": 1888,
      "Ġoqibatida": 1889,
      "zib": 1890,
      "riba": 1891,
      "slatib": 1892,
      "Ġqoida": 1893,
      "tik": 1894,
      "Ġkeladi": 1895,
      "nchi": 1896,
      "Ġnarx": 1897,
      "stitsiya": 1898,
      "jal": 1899,
      "monaviy": 1900,
      "ĠIk": 1901,
      "Ġvaki": 1902,
      "bod": 1903,
      "Ġbayon": 1904,
      "Ġgol": 1905,
      "Ġomma": 1906,
      "Ġjar": 1907,
      "Ġnatijasida": 1908,
      "dqiqot": 1909,
      "Ġpartiya": 1910,
      "sil": 1911,
      "ts": 1912,
      "Ġshax": 1913,
      "Ġilmiy": 1914,
      "ĠxÅıjaligi": 1915,
      "ĠLekin": 1916,
      "Ġsenta": 1917,
      "Ġiqtisodi": 1918,
      "Ġbozor": 1919,
      "kan": 1920,
      "ĠkÅıta": 1921,
      "lil": 1922,
      "ĠYe": 1923,
      "Ġ24": 1924,
      "ĠMen": 1925,
      "taqa": 1926,
      "Ġxorijiy": 1927,
      "Ġketgan": 1928,
      "zokara": 1929,
      "Ġnarxi": 1930,
      "qiqa": 1931,
      "roz": 1932,
      "ĠÅıquv": 1933,
      "ĠHi": 1934,
      "uvchilar": 1935,
      "Ġquv": 1936,
      "garlik": 1937,
      "ino": 1938,
      "ĠAr": 1939,
      "ĠAmerika": 1940,
      "ĠkÅıplab": 1941,
      "Ġquyidagi": 1942,
      "ĠOliy": 1943,
      "ĠYangi": 1944,
      "Ġle": 1945,
      "nika": 1946,
      "ror": 1947,
      "Ġkirish": 1948,
      "Ġchet": 1949,
      "Ġraisi": 1950,
      "Ġaytdi": 1951,
      "ĠÄŁo": 1952,
      "Ġqurilish": 1953,
      "yotganini": 1954,
      "tira": 1955,
      "Ġtalaba": 1956,
      "Ġbalki": 1957,
      "anubiy": 1958,
      "tiradi": 1959,
      "Ġqilishga": 1960,
      "Ġchiqqan": 1961,
      "Ġdastur": 1962,
      "ĠkÅırish": 1963,
      "pu": 1964,
      "ĠKu": 1965,
      "ĠAgar": 1966,
      "Ġtik": 1967,
      "ĠSu": 1968,
      "Ġkomp": 1969,
      "Ġtibbiy": 1970,
      "oskva": 1971,
      "Ġ50": 1972,
      "MT": 1973,
      "Ġerish": 1974,
      "ÄŁizi": 1975,
      "yiladi": 1976,
      "ddi": 1977,
      "Ġfev": 1978,
      "Ġmanba": 1979,
      "Ġtabi": 1980,
      "ĠLi": 1981,
      "ÄŁiziston": 1982,
      "Ġtashrif": 1983,
      "Ġozod": 1984,
      "tam": 1985,
      "Ġaytishicha": 1986,
      "hbat": 1987,
      "Ġope": 1988,
      "tal": 1989,
      "Ġzarar": 1990,
      "Ġtajriba": 1991,
      "Ġasosan": 1992,
      "ĠXa": 1993,
      "for": 1994,
      "nda": 1995,
      "ÄŁoniston": 1996,
      "Ġket": 1997,
      "tilishi": 1998,
      "Ġshakl": 1999,
      "logik": 2000,
      "Ġsamolyot": 2001,
      "Ġvakili": 2002,
      "Ġust": 2003,
      "ĠyÅılga": 2004,
      "Ġnazar": 2005,
      "Ġvideo": 2006,
      "Ġrey": 2007,
      "ĠNi": 2008,
      "ede": 2009,
      "disa": 2010,
      "zlar": 2011,
      "ĠÅızaro": 2012,
      "liqni": 2013,
      "Ġpaytda": 2014,
      "ĠÅızining": 2015,
      "Ġjoyi": 2016,
      "Ġboshqarmasi": 2017,
      "net": 2018,
      "Ġjang": 2019,
      "Ġ21": 2020,
      "Ġdasturi": 2021,
      "yuk": 2022,
      "kov": 2023,
      "Ġ22": 2024,
      "Ġsentabr": 2025,
      "Ġisti": 2026,
      "Ġport": 2027,
      "Ġishi": 2028,
      "yatida": 2029,
      "Ġzamonaviy": 2030,
      "fer": 2031,
      "ganidan": 2032,
      "ĠÅıtamiz": 2033,
      "gona": 2034,
      "Ġtushun": 2035,
      "biya": 2036,
      "ĠSe": 2037,
      "uli": 2038,
      "ĠkÅırsatkich": 2039,
      "irÄŁiziston": 2040,
      "Ġbaja": 2041,
      "ĠrÅıyxat": 2042,
      "Ġkuchli": 2043,
      "Ġter": 2044,
      "Ġsho": 2045,
      "Ġproku": 2046,
      "sin": 2047,
      "Ġmintaqa": 2048,
      "Ġos": 2049,
      "goh": 2050,
      "Ġkeyingi": 2051,
      "Ġayrim": 2052,
      "ĠMoskva": 2053,
      "Ġrux": 2054,
      "Ġimkoniya": 2055,
      "Ġora": 2056,
      "ĠAvvalroq": 2057,
      "Ġstan": 2058,
      "ĠÅısha": 2059,
      "ÄŁida": 2060,
      "urs": 2061,
      "ratura": 2062,
      "Ġtransport": 2063,
      "ne": 2064,
      "ĠShi": 2065,
      "ĠqÅıyish": 2066,
      "Ġ2016": 2067,
      "Ġkelishuv": 2068,
      "Ġyevro": 2069,
      "Ġmahalla": 2070,
      "ĠAfÄŁoniston": 2071,
      "mni": 2072,
      "Ġyillarda": 2073,
      "Ġmuzokara": 2074,
      "ssa": 2075,
      "ĠbÅıy": 2076,
      "Ġ23": 2077,
      "Ġhududida": 2078,
      "ĠÅıtadi": 2079,
      "ĠQÅı": 2080,
      "ĠMil": 2081,
      "mer": 2082,
      "ÄŁul": 2083,
      "Ġxavfsizlik": 2084,
      "Ġmada": 2085,
      "Ġjurnali": 2086,
      "Ġbozo": 2087,
      "Ġishla": 2088,
      "ĠNe": 2089,
      "Ġmehmon": 2090,
      "Ġuchra": 2091,
      "Ġterma": 2092,
      "Ġbekor": 2093,
      "tlari": 2094,
      "ĠEslatib": 2095,
      "ĠQirÄŁiziston": 2096,
      "Ġkeldi": 2097,
      "Ġishlash": 2098,
      "Ġkucha": 2099,
      "dj": 2100,
      "ÄŁona": 2101,
      "rilishi": 2102,
      "ĠkÅız": 2103,
      "tayotgan": 2104,
      "Ġtax": 2105,
      "Ġkurash": 2106,
      "Ġbemor": 2107,
      "tadbir": 2108,
      ").": 2109,
      "Ġmos": 2110,
      "Ġiborat": 2111,
      "malar": 2112,
      "Ġalma": 2113,
      "poniya": 2114,
      "ttifoqi": 2115,
      "ytirish": 2116,
      "ene": 2117,
      "Ġmaro": 2118,
      "19": 2119,
      "Ġara": 2120,
      "Ġtaqiq": 2121,
      "Ġteng": 2122,
      "Ġge": 2123,
      "Ġtibbiyot": 2124,
      "gari": 2125,
      "ngil": 2126,
      "Ġtarkibi": 2127,
      "ĠBMT": 2128,
      "Ġdaro": 2129,
      "lumotlar": 2130,
      "Ġbolalar": 2131,
      "Ġbuyon": 2132,
      "ĠPa": 2133,
      "tta": 2134,
      "shanba": 2135,
      "Ġtin": 2136,
      "Ġmarkaz": 2137,
      "Ġ2021": 2138,
      "bekt": 2139,
      "qib": 2140,
      "Ġturgan": 2141,
      "ĠFransiya": 2142,
      "ĠyÅıqo": 2143,
      "stik": 2144,
      "000": 2145,
      "ĠshuÄŁul": 2146,
      "Ġbiroq": 2147,
      "Ġyillik": 2148,
      "Ġruxsat": 2149,
      "Ġinvestitsiya": 2150,
      "mda": 2151,
      "katsiya": 2152,
      "mak": 2153,
      "ĠQa": 2154,
      "kidla": 2155,
      "mli": 2156,
      "Ġzarba": 2157,
      "Ġusti": 2158,
      "Ġtumanida": 2159,
      "liklari": 2160,
      "Ġkecha": 2161,
      "Ġlekin": 2162,
      "Ġishtiroki": 2163,
      "tob": 2164,
      "ĠtÅır": 2165,
      "Ġsavol": 2166,
      "Ġyarim": 2167,
      "puta": 2168,
      "Ġijo": 2169,
      "Ġix": 2170,
      "Ġjarayon": 2171,
      "ĠQayd": 2172,
      "Ġkomissiya": 2173,
      "Ġmul": 2174,
      "laja": 2175,
      "Ġuniversite": 2176,
      "Ġjarohat": 2177,
      "ĠVazirlar": 2178,
      "Ġuyu": 2179,
      "mal": 2180,
      "ÄŁu": 2181,
      "Ġobekt": 2182,
      "ĠJanubiy": 2183,
      "chiligi": 2184,
      "Ġhuquqi": 2185,
      "Ġmudofaa": 2186,
      "Ġpolitsiya": 2187,
      "Ġizo": 2188,
      "Ġaprel": 2189,
      "Ġyaratish": 2190,
      "ziga": 2191,
      "Ġhaydov": 2192,
      "Åıljal": 2193,
      "chon": 2194,
      "Ġxara": 2195,
      "Ġdarajada": 2196,
      "Ġovoz": 2197,
      "lanmoqda": 2198,
      "modda": 2199,
      "Ġbuyur": 2200,
      "Ġqiluvchi": 2201,
      "Ġsuhbat": 2202,
      "ĠboshliÄŁi": 2203,
      "tirdi": 2204,
      "ĠTash": 2205,
      "Ġochiq": 2206,
      "ĠÅıziga": 2207,
      "ensiya": 2208,
      "kati": 2209,
      "Ġmetr": 2210,
      "ĠQora": 2211,
      "Ġmurab": 2212,
      "ĠHar": 2213,
      "ÄŁo": 2214,
      "riladi": 2215,
      "Ġdavlatlar": 2216,
      "Ġtuga": 2217,
      "klar": 2218,
      "Ġboj": 2219,
      "Ġdey": 2220,
      "Ġ2022": 2221,
      "van": 2222,
      "keta": 2223,
      "Ġamali": 2224,
      "Ġsiyosiy": 2225,
      "Ġsta": 2226,
      "ĠsÅıra": 2227,
      "ziq": 2228,
      "roil": 2229,
      "Ġendi": 2230,
      "Ġpoytax": 2231,
      "Ġqilishicha": 2232,
      "Ġqurilma": 2233,
      "Ġolishi": 2234,
      "Ġorganlari": 2235,
      "ĠYaponiya": 2236,
      "Ġst": 2237,
      "Ġmustah": 2238,
      "bay": 2239,
      "faat": 2240,
      "Ġoxi": 2241,
      "ĠMazkur": 2242,
      "uz": 2243,
      "Ġularga": 2244,
      "Ġlavozimi": 2245,
      "redi": 2246,
      "ĠmÅıljal": 2247,
      "ĠÅıtish": 2248,
      "ÄŁar": 2249,
      "ĠKÅı": 2250,
      "ting": 2251,
      "ster": 2252,
      "ĠRossiyaning": 2253,
      "xo": 2254,
      "Ġqiyin": 2255,
      "Ġnashri": 2256,
      "xirgi": 2257,
      "Ġota": 2258,
      "Ġtergov": 2259,
      "Ġgi": 2260,
      "Ġkengashi": 2261,
      "ĠqÅıyilgan": 2262,
      "Ġmanfaat": 2263,
      "Ġaytib": 2264,
      "Ġaynan": 2265,
      "sak": 2266,
      "Ġfarzan": 2267,
      "ĠPo": 2268,
      "ĠSi": 2269,
      "Ġodamlar": 2270,
      "Ġberildi": 2271,
      "Ġmuvaffaqi": 2272,
      "AV": 2273,
      "Ġjiddiy": 2274,
      "Ġboshladi": 2275,
      "Ġ27": 2276,
      "lanishicha": 2277,
      "Ġavva": 2278,
      "Ġbildirdi": 2279,
      "Ġishonch": 2280,
      "Ġborish": 2281,
      "Ġsalo": 2282,
      "baqa": 2283,
      "Ġiyun": 2284,
      "sho": 2285,
      "Ġbosqich": 2286,
      "Ġvafot": 2287,
      "Ġneft": 2288,
      "ĠAyni": 2289,
      "Ġjam": 2290,
      "jikiston": 2291,
      "gaz": 2292,
      "ĠGa": 2293,
      "ĠW": 2294,
      "Ġkura": 2295,
      "Ġdirektori": 2296,
      "Ġton": 2297,
      "Ġhodisa": 2298,
      "Ġxarid": 2299,
      "Ġmaydo": 2300,
      "labki": 2301,
      "ĠNo": 2302,
      "Ġpe": 2303,
      "Ġbaza": 2304,
      "Ġyaku": 2305,
      "ndijon": 2306,
      "ĠyÅıli": 2307,
      "Ġklub": 2308,
      ".\"": 2309,
      "Ġtinch": 2310,
      "Ġgu": 2311,
      "Ġqulay": 2312,
      "Ġeshi": 2313,
      "Ġbiznes": 2314,
      "Ġkes": 2315,
      "oti": 2316,
      "sum": 2317,
      "ĠbÅılimi": 2318,
      "ĠrÅıyxa": 2319,
      "Ġtonna": 2320,
      "Ġekanini": 2321,
      "moliy": 2322,
      "lashdi": 2323,
      "ĠkÅırini": 2324,
      "Ġloyihasi": 2325,
      "miga": 2326,
      "Ġavia": 2327,
      "udiya": 2328,
      "ĠÅİzbekistonning": 2329,
      "moniy": 2330,
      "Ġ199": 2331,
      "ĠÅızini": 2332,
      "Ġhali": 2333,
      "Ġush": 2334,
      "Ġkunlari": 2335,
      "erge": 2336,
      "Ġdeputa": 2337,
      "Ġparlam": 2338,
      "Ġyilga": 2339,
      "Ġ26": 2340,
      "gandi": 2341,
      "Ġtabiiy": 2342,
      "Ġyetish": 2343,
      "Ġchiqdi": 2344,
      "Ġmustahkam": 2345,
      "ÄŁon": 2346,
      "Ġpi": 2347,
      "Ġkotibi": 2348,
      "gram": 2349,
      "Ġdeydi": 2350,
      "Ġuyi": 2351,
      "nib": 2352,
      "Ġostida": 2353,
      "Ġraketa": 2354,
      "kidlashicha": 2355,
      "Ġkechi": 2356,
      "batta": 2357,
      "he": 2358,
      "Ġborasida": 2359,
      "Ġmuvaffaqiyat": 2360,
      "riza": 2361,
      "Ġdeyiladi": 2362,
      "Ġviloyatida": 2363,
      "Ġguruhi": 2364,
      "pp": 2365,
      "Ġchempiona": 2366,
      "psiya": 2367,
      "vich": 2368,
      "ce": 2369,
      "Ġmodda": 2370,
      "kar": 2371,
      "sizlik": 2372,
      "Ġmuso": 2373,
      "Ġkeskin": 2374,
      "ĠOAV": 2375,
      "yoh": 2376,
      "ab": 2377,
      "ĠAQShning": 2378,
      "gach": 2379,
      "Ġommaviy": 2380,
      "Ġsal": 2381,
      "tÅı": 2382,
      "Ġshaxslar": 2383,
      "Ġunda": 2384,
      "Ġaero": 2385,
      "ĠIsroil": 2386,
      "Ġkichik": 2387,
      "Ġkiritish": 2388,
      "ju": 2389,
      "Ġ28": 2390,
      "sul": 2391,
      "Ġbesh": 2392,
      "sofa": 2393,
      "lmaydi": 2394,
      "Ġsinov": 2395,
      "Ġetmoqda": 2396,
      "masdan": 2397,
      "Ġmuh": 2398,
      "Ġeva": 2399,
      "Ġprokuratura": 2400,
      "ĠTojikiston": 2401,
      "Ġyorda": 2402,
      "kasi": 2403,
      "land": 2404,
      "Ġdan": 2405,
      "tov": 2406,
      "Ġboy": 2407,
      "201": 2408,
      "Ġyozi": 2409,
      "Ġvako": 2410,
      "qonuniy": 2411,
      "Ġtav": 2412,
      "ĠÅın": 2413,
      "Ġhamma": 2414,
      "Ġul": 2415,
      "masligi": 2416,
      "Ġhayot": 2417,
      "ĠÅİz": 2418,
      "Ġmasalalari": 2419,
      "Ġaksiya": 2420,
      "Ġxususiy": 2421,
      "ĠÅıquvchi": 2422,
      "Ġatrofi": 2423,
      "miyat": 2424,
      "sb": 2425,
      "Ġmuloq": 2426,
      "mmat": 2427,
      "qaror": 2428,
      "Ġxarajat": 2429,
      "ban": 2430,
      "ÄŁlu": 2431,
      "til": 2432,
      "ĠÅızbek": 2433,
      "ridan": 2434,
      "ĠEndi": 2435,
      "Ġbudj": 2436,
      "Ġyilgi": 2437,
      "Ġqilinishi": 2438,
      "ĠRo": 2439,
      "Ġfina": 2440,
      "rifi": 2441,
      "Ġmasofa": 2442,
      "Ġtayyorlash": 2443,
      "Ġerkin": 2444,
      "ndiston": 2445,
      "Ġiz": 2446,
      "Ġtadqiqot": 2447,
      "Ġsohasida": 2448,
      "Ġ2015": 2449,
      "Åİzbekiston": 2450,
      "langani": 2451,
      "Ġyar": 2452,
      "Ġmavsum": 2453,
      "zadi": 2454,
      "Ġisloh": 2455,
      "Ġsafar": 2456,
      "Ġetilishicha": 2457,
      "Ġshifoxona": 2458,
      "Ġdollarga": 2459,
      "ĠXalqaro": 2460,
      "ĠIIB": 2461,
      "Ġsarf": 2462,
      "ĠtuÄŁilgan": 2463,
      "ĠbÅılmaydi": 2464,
      "Ġeksport": 2465,
      "Ġ40": 2466,
      "mga": 2467,
      "lumotlariga": 2468,
      "qqi": 2469,
      "mart": 2470,
      "Ġketdi": 2471,
      "Ġancha": 2472,
      "Ġmingdan": 2473,
      "lak": 2474,
      "Ġinstitu": 2475,
      "Ġtarzda": 2476,
      "maslik": 2477,
      "Ġizoh": 2478,
      "Ġelektron": 2479,
      "Ġjari": 2480,
      "bati": 2481,
      "Ġmiqdor": 2482,
      "Ġeksper": 2483,
      "Ġjurnalist": 2484,
      "Ġvositalari": 2485,
      "ĠÅıtib": 2486,
      "Ġbirgalikda": 2487,
      "Ġoid": 2488,
      "Ġjihat": 2489,
      "Ġhuz": 2490,
      "ĠMilliy": 2491,
      "Ġbojxona": 2492,
      "Ġqimmat": 2493,
      "dal": 2494,
      "Ġmasla": 2495,
      "Ġdaromad": 2496,
      "Ġberiladi": 2497,
      "Ġmustaqil": 2498,
      "ĠbÅıylab": 2499,
      "ratsiyasi": 2500,
      "Åırin": 2501,
      "uter": 2502,
      "xoro": 2503,
      "Ġsamarali": 2504,
      "Ġum": 2505,
      "mmu": 2506,
      "rati": 2507,
      "Ġfor": 2508,
      "Ġmaqo": 2509,
      "laridagi": 2510,
      "Ġrus": 2511,
      "ĠAndijon": 2512,
      "lanma": 2513,
      "Ġpan": 2514,
      "Ġmiqdori": 2515,
      "Ġhuzuri": 2516,
      "laka": 2517,
      "ĠÅİzbekistonga": 2518,
      "Ġariza": 2519,
      "por": 2520,
      "Ġsurat": 2521,
      "ĠShundan": 2522,
      "Ġkirib": 2523,
      "ĠÅızgarish": 2524,
      "likdan": 2525,
      "Ġfuqarolar": 2526,
      "rate": 2527,
      "ĠQon": 2528,
      "ĠAbdu": 2529,
      "Ġissiq": 2530,
      "Ġolindi": 2531,
      "ktabr": 2532,
      "Ġinf": 2533,
      "Ġyubor": 2534,
      "Ġfevral": 2535,
      "Ġkodek": 2536,
      "Ġyetib": 2537,
      "Ġser": 2538,
      "Bu": 2539,
      "ĠChunki": 2540,
      "ĠyÅınalishi": 2541,
      "Ġmoliyaviy": 2542,
      "30": 2543,
      "Ġdoimiy": 2544,
      "ĠYo": 2545,
      "Ġtushgan": 2546,
      "Ġpala": 2547,
      "ĠÅısi": 2548,
      "tet": 2549,
      "skiy": 2550,
      "Ġziyo": 2551,
      "Ġundan": 2552,
      "ĠmaÄŁlu": 2553,
      "ID": 2554,
      "Ġsanksiya": 2555,
      "layotgani": 2556,
      "Ġsharoi": 2557,
      "ĠFarÄŁona": 2558,
      "Ġmaslahat": 2559,
      "Ġyagona": 2560,
      "...": 2561,
      "ĠKon": 2562,
      "ĠÅıqituvchi": 2563,
      "ĠSÅı": 2564,
      "yoq": 2565,
      "ĠQu": 2566,
      "Ġqancha": 2567,
      "ĠmÅıljallangan": 2568,
      "Ġuyush": 2569,
      "Ġtuz": 2570,
      "Ġkamay": 2571,
      "ĠBugun": 2572,
      "ĠJah": 2573,
      "Ġyetakchi": 2574,
      "tga": 2575,
      "ati": 2576,
      "Ġtavsiya": 2577,
      "Ġklubi": 2578,
      "ĠUnda": 2579,
      "Ġyetkaz": 2580,
      "Ġshahridagi": 2581,
      "Ġayni": 2582,
      "Ġtovar": 2583,
      "Ġaf": 2584,
      "Ġdaqiqa": 2585,
      "Ġtashab": 2586,
      "Ġâ": 2587,
      "AT": 2588,
      "Ġinternet": 2589,
      "quvvatlash": 2590,
      "Ġpasa": 2591,
      "Ġsub": 2592,
      "Ġnoqonuniy": 2593,
      "Ġnomzod": 2594,
      "Ġoktabr": 2595,
      "ovchi": 2596,
      "Ġbera": 2597,
      "ĠHindiston": 2598,
      "Ġyuzaga": 2599,
      "Ġfikri": 2600,
      "50": 2601,
      "ali": 2602,
      "ĠLo": 2603,
      "per": 2604,
      "ĠBuyuk": 2605,
      "Ġaka": 2606,
      "malari": 2607,
      "ÅıÄŁ": 2608,
      "kidlanishicha": 2609,
      "landiya": 2610,
      "qal": 2611,
      "Ġnazarda": 2612,
      "Ġnafari": 2613,
      "Ġmahsulotlari": 2614,
      "Ġtexnika": 2615,
      "yon": 2616,
      "Ġtelefon": 2617,
      "mush": 2618,
      "Ġqolish": 2619,
      "tsi": 2620,
      "ulosa": 2621,
      "Ġmusobaqa": 2622,
      "Ġtomonlama": 2623,
      "sga": 2624,
      "ĠUch": 2625,
      "Ġmajbur": 2626,
      "maniston": 2627,
      "Ġurush": 2628,
      "Ġtizimini": 2629,
      "enko": 2630,
      "Ġxabari": 2631,
      "dlar": 2632,
      "Ġbay": 2633,
      "kka": 2634,
      "Ġimp": 2635,
      "Ġikkita": 2636,
      "zat": 2637,
      "ĠSaudiya": 2638,
      "ĠÅıyna": 2639,
      "ĠBunday": 2640,
      "Ġdori": 2641,
      "ĠTÅı": 2642,
      "yishi": 2643,
      "ze": 2644,
      "shqa": 2645,
      "Ġqilinishicha": 2646,
      "Ġbanki": 2647,
      "Ġaha": 2648,
      "Ġjis": 2649,
      "ovqat": 2650,
      "Ġoldini": 2651,
      "Ġjan": 2652,
      "Ġtutilgan": 2653,
      "Ġmalaka": 2654,
      "Ġqurish": 2655,
      "qish": 2656,
      "zatsiya": 2657,
      "Ġona": 2658,
      "Ġmuloqot": 2659,
      "Ġbitta": 2660,
      "Ġsanoat": 2661,
      "ĠXusu": 2662,
      "Ġkredi": 2663,
      "Ġkm": 2664,
      "taliya": 2665,
      "moÄŁi": 2666,
      "Ġmamlakatda": 2667,
      "Ġ29": 2668,
      "log": 2669,
      "sab": 2670,
      "Ġbugungi": 2671,
      "lingan": 2672,
      "uncha": 2673,
      "ĠjamÄŁar": 2674,
      "metr": 2675,
      "ada": 2676,
      "Ġmate": 2677,
      "mizda": 2678,
      "Ġkilo": 2679,
      "Ġjarima": 2680,
      "ĠJi": 2681,
      "Ġbuni": 2682,
      "Ġpast": 2683,
      "mid": 2684,
      "Ġyoshlar": 2685,
      "komil": 2686,
      "Ġsana": 2687,
      "Ġsifat": 2688,
      "Ġturibdi": 2689,
      "Ġqiymati": 2690,
      "Ġnuq": 2691,
      "Ģ¢": 2692,
      "ĠMasa": 2693,
      "ĠVladi": 2694,
      "Ġkamida": 2695,
      "Ġmavzu": 2696,
      "ÄŁish": 2697,
      "vor": 2698,
      "shon": 2699,
      "Ġtanqi": 2700,
      "Ġaniqlangan": 2701,
      "Ġtakomil": 2702,
      "ĠkÅıchi": 2703,
      "Ġsiyosat": 2704,
      "ĠyÅılovchi": 2705,
      "ĠBuxoro": 2706,
      "ĠjÅı": 2707,
      "Ġtahlil": 2708,
      "Ġborib": 2709,
      "fes": 2710,
      "ĠMo": 2711,
      "Ġbuzi": 2712,
      "Ġdavr": 2713,
      "hur": 2714,
      "Ġkelayotgan": 2715,
      "ngli": 2716,
      "Ġyashovchi": 2717,
      "Ġhajmi": 2718,
      "Ġxil": 2719,
      "mlar": 2720,
      "ĠâĢ¢": 2721,
      "Ġyetarli": 2722,
      "mua": 2723,
      "ush": 2724,
      "voh": 2725,
      "Ġekani": 2726,
      "Ġkech": 2727,
      "qulo": 2728,
      "Ġtadbirkorlik": 2729,
      "Ġtarix": 2730,
      "Ġdip": 2731,
      "Ġstrate": 2732,
      "Ġrossiya": 2733,
      "ĠShimoliy": 2734,
      "Ġehtimo": 2735,
      "ber": 2736,
      "yatini": 2737,
      "Ġon": 2738,
      "Ġyopi": 2739,
      "lishiga": 2740,
      "Ġtexnik": 2741,
      "Ġfan": 2742,
      "Ġarmiya": 2743,
      "Ġbarqaror": 2744,
      "ĠAra": 2745,
      "ĠChe": 2746,
      "Ġtrans": 2747,
      "ganda": 2748,
      "enga": 2749,
      "Ġjamiyat": 2750,
      "taraf": 2751,
      "ruv": 2752,
      "ren": 2753,
      "Ġborada": 2754,
      "Ġberuvchi": 2755,
      "qalpo": 2756,
      "Ġqiz": 2757,
      "tto": 2758,
      "Ġoziq": 2759,
      "Ġxulosa": 2760,
      "ĠyonÄŁin": 2761,
      "ĠÅızgartirish": 2762,
      "Ġnafaqat": 2763,
      "rial": 2764,
      "Ġoshiriladi": 2765,
      "utsiya": 2766,
      "stoni": 2767,
      "ĠgÅı": 2768,
      "Ġhola": 2769,
      "Ġqop": 2770,
      "ĠÅıtkazildi": 2771,
      "Ġdeyarli": 2772,
      "Ġoxirgi": 2773,
      "sel": 2774,
      "Ġ31": 2775,
      "SS": 2776,
      "xira": 2777,
      "qtisodiy": 2778,
      "Ġsiyosa": 2779,
      "Ġrahbarlari": 2780,
      "Re": 2781,
      "Ġtanish": 2782,
      "Ġiqtisodiyot": 2783,
      "spaniya": 2784,
      "Ġyechi": 2785,
      "lashtir": 2786,
      "ĠMaj": 2787,
      "ransport": 2788,
      "Ġmurabbiy": 2789,
      "ĠkÅıri": 2790,
      "Ġishchi": 2791,
      "Ġhuzuridagi": 2792,
      "joy": 2793,
      "ĠVladimir": 2794,
      "biri": 2795,
      "Ġvaqtin": 2796,
      "ĠToshkentda": 2797,
      "Ġhatto": 2798,
      "ĠÅırganish": 2799,
      "Ġchiqarilgan": 2800,
      "Ġbiror": 2801,
      "Ġtark": 2802,
      "Ġmuko": 2803,
      "ligida": 2804,
      "ana": 2805,
      "pul": 2806,
      "larus": 2807,
      "Ġkuchlari": 2808,
      "Ġqaratilgan": 2809,
      "alqi": 2810,
      "katimiz": 2811,
      "ĠMasalan": 2812,
      "Ġislohot": 2813,
      "Ġtaqdir": 2814,
      "Ġvakolat": 2815,
      "Ġkaran": 2816,
      "xt": 2817,
      "lumotlarga": 2818,
      "ĠTadbir": 2819,
      "Ġhamkor": 2820,
      "ĠUnga": 2821,
      "voza": 2822,
      "Ġbosqichi": 2823,
      "layn": 2824,
      "likning": 2825,
      "zarbo": 2826,
      "ĠUlarning": 2827,
      "Ġqut": 2828,
      "Ġqilishni": 2829,
      "Ġshifokor": 2830,
      "Ġilo": 2831,
      "Ġtopi": 2832,
      "Ġxabariga": 2833,
      "Ġqaysi": 2834,
      "Ġzi": 2835,
      "Ġbormoqda": 2836,
      "che": 2837,
      "Ġholatda": 2838,
      "kidladi": 2839,
      "ermer": 2840,
      "lega": 2841,
      "Ġteleka": 2842,
      "ifa": 2843,
      "stika": 2844,
      "ksina": 2845,
      "dul": 2846,
      "ĠBirinchi": 2847,
      "Ġbaj": 2848,
      "Ġrejalashtirilgan": 2849,
      "onald": 2850,
      "Ġxizmatlari": 2851,
      "era": 2852,
      "Ġberishi": 2853,
      "qulodda": 2854,
      "Ġuchinchi": 2855,
      "Ġov": 2856,
      "Ġnavbatdagi": 2857,
      "lovi": 2858,
      "Ġjismoniy": 2859,
      "Ġsudi": 2860,
      "ĠAng": 2861,
      "Ġkiritilgan": 2862,
      "Ġbundan": 2863,
      "ĠAh": 2864,
      "Ġchunki": 2865,
      "buzar": 2866,
      "Ġtara": 2867,
      "Ġulu": 2868,
      "rupsiya": 2869,
      "Ġalmash": 2870,
      "Ġlavozim": 2871,
      "Ġfoydalanuvchi": 2872,
      "Ġzaxira": 2873,
      "Ġtarbiya": 2874,
      "uk": 2875,
      "Ġshaxsiy": 2876,
      "Ġerta": 2877,
      "Ġbartaraf": 2878,
      "alli": 2879,
      "Ġbunga": 2880,
      "Ġnor": 2881,
      "Ġtushib": 2882,
      "ĠJahon": 2883,
      "zilma": 2884,
      "zolari": 2885,
      "qalpoÄŁiston": 2886,
      "Ġosti": 2887,
      "voiy": 2888,
      "Ġmajmua": 2889,
      "Ġochko": 2890,
      "ok": 2891,
      "Ġtil": 2892,
      "Ġjino": 2893,
      "Ġreji": 2894,
      "ĠXususan": 2895,
      "ĠbÅılim": 2896,
      "ĠÅızida": 2897,
      "ĠAs": 2898,
      "bal": 2899,
      "Ġtuzi": 2900,
      "ĠSan": 2901,
      "Ġyomon": 2902,
      "Ġhisobga": 2903,
      "ĠNaman": 2904,
      "Ġtarixi": 2905,
      "ardi": 2906,
      "Ġhuk": 2907,
      "ress": 2908,
      "zimida": 2909,
      "Ġ60": 2910,
      "Â».": 2911,
      "Ġata": 2912,
      "faza": 2913,
      "Ġturadi": 2914,
      "Ġjiho": 2915,
      "ĠShar": 2916,
      "Ġtest": 2917,
      "Ġdastlabki": 2918,
      "lajak": 2919,
      "10": 2920,
      "ĠArabi": 2921,
      "ĠÅıÄŁ": 2922,
      "bos": 2923,
      "Ġmuammolar": 2924,
      "ĠZa": 2925,
      "Ġhujjatlar": 2926,
      "Ġtemir": 2927,
      "ĠtÅıq": 2928,
      "ĠMan": 2929,
      "ĠEr": 2930,
      "Ġzavo": 2931,
      "spe": 2932,
      "rakt": 2933,
      "Ġmunosabati": 2934,
      "Ġolishga": 2935,
      "ĠÅızbekiston": 2936,
      "ĠBar": 2937,
      "Ġrad": 2938,
      "ĠkÅızda": 2939,
      "Ġtoifa": 2940,
      "ĠVi": 2941,
      "Ġdona": 2942,
      "Ġmuhofaza": 2943,
      "stan": 2944,
      "Ġvaqti": 2945,
      "Ġxodi": 2946,
      "digan": 2947,
      "Ġholati": 2948,
      "ĠItaliya": 2949,
      "Ġqisqa": 2950,
      "lanadigan": 2951,
      "Ġimkon": 2952,
      "lmas": 2953,
      "Ġqachon": 2954,
      "Ġustidan": 2955,
      "Ġuniversiteti": 2956,
      "niqsa": 2957,
      "ĠQoraqalpoÄŁiston": 2958,
      "limpi": 2959,
      "Ġband": 2960,
      "shidan": 2961,
      "orlar": 2962,
      "orozi": 2963,
      "Ġfikricha": 2964,
      "rum": 2965,
      "umi": 2966,
      "Ġyengil": 2967,
      "ĠqÅımita": 2968,
      "ĠQonun": 2969,
      "Ġdarvoza": 2970,
      "Ġucha": 2971,
      "Ġoperatsiya": 2972,
      "nerge": 2973,
      "ĠBuning": 2974,
      "mizni": 2975,
      "lanmagan": 2976,
      "bili": 2977,
      "Ġsaqlab": 2978,
      "bur": 2979,
      "Ġkitob": 2980,
      "ĠÅİtgan": 2981,
      "ĠIspaniya": 2982,
      "Ġerka": 2983,
      "Ġqisqar": 2984,
      "Ġxonadon": 2985,
      "Ġxalqi": 2986,
      "Ġagar": 2987,
      "zini": 2988,
      "partam": 2989,
      "Ġevaziga": 2990,
      "Ġyordamida": 2991,
      "ĠÅırtacha": 2992,
      "ĠTele": 2993,
      "Ġvaksina": 2994,
      "ĠIkkinchi": 2995,
      "Ġharakati": 2996,
      "ĠkÅımak": 2997,
      "Ġogoh": 2998,
      "Ġbugun": 2999,
      "ĠArabistoni": 3000,
      "ĠqÅısh": 3001,
      "Ġtezkor": 3002,
      "Ġturni": 3003,
      "Ġtartibda": 3004,
      "ĠkÅıpay": 3005,
      "Ġoltin": 3006,
      "Ġprofes": 3007,
      "Ġ000": 3008,
      "ĠDonald": 3009,
      "ĠKeyin": 3010,
      "ĠsoÄŁliqni": 3011,
      "tatsiya": 3012,
      "Ġkutilmoqda": 3013,
      "Ġqir": 3014,
      "Ġfil": 3015,
      "ĠqÅız": 3016,
      "legatsiya": 3017,
      "ĠIttifoqi": 3018,
      "Ġamaliyot": 3019,
      "Ġerishi": 3020,
      "Ġboshlagan": 3021,
      "ĠJinoyat": 3022,
      "mik": 3023,
      "Ġetilishi": 3024,
      "Ġnorozi": 3025,
      "lanayotgan": 3026,
      "Ġberib": 3027,
      "zal": 3028,
      "mmi": 3029,
      "Ġmulk": 3030,
      "Ġetishi": 3031,
      "ÄŁulot": 3032,
      "ĠÄŁolib": 3033,
      "qobat": 3034,
      "Ġyuridik": 3035,
      "tel": 3036,
      "Ġyut": 3037,
      "Ġehtiyo": 3038,
      "sos": 3039,
      "Ġmode": 3040,
      "ĠPe": 3041,
      "Ġyaqi": 3042,
      "Ġguvoh": 3043,
      "Ġhokimligi": 3044,
      "tilmoqda": 3045,
      "Ġkur": 3046,
      "Ġahvo": 3047,
      "ĠchÅı": 3048,
      "lashib": 3049,
      "uddi": 3050,
      "Ġoq": 3051,
      "Ġyadro": 3052,
      "Ġparlament": 3053,
      "ĠÅıyinda": 3054,
      "Ġ500": 3055,
      "ĠBelarus": 3056,
      "Ġaks": 3057,
      "mizga": 3058,
      "Ġhozirgi": 3059,
      "Ġbahs": 3060,
      "Ġfon": 3061,
      "kro": 3062,
      "bit": 3063,
      "Ġelchi": 3064,
      "Ġboshqaruvi": 3065,
      "ĠÅıldi": 3066,
      "Ġchempion": 3067,
      "Ġsharoit": 3068,
      "ĠchoÄŁida": 3069,
      "iza": 3070,
      "ĠtarmoÄŁi": 3071,
      "qu": 3072,
      "chta": 3073,
      "qul": 3074,
      "kompaniya": 3075,
      "Ġtahdi": 3076,
      "Biz": 3077,
      "los": 3078,
      "Ġsmart": 3079,
      "matik": 3080,
      "ĠUkrainaga": 3081,
      "ĠÅırniga": 3082,
      "ĠbaÄŁish": 3083,
      "ĠÅıtkaziladi": 3084,
      "mmuni": 3085,
      "Ġqatnash": 3086,
      "ATO": 3087,
      "Ġolin": 3088,
      "Ġtashrifi": 3089,
      "Ġqilgandi": 3090,
      "Ġdavlatlari": 3091,
      "Ġaytish": 3092,
      "dini": 3093,
      "Ġketish": 3094,
      "Ġfermer": 3095,
      "tex": 3096,
      "Ġtariqa": 3097,
      "lashni": 3098,
      "Ġharo": 3099,
      "ĠÅıx": 3100,
      "uqur": 3101,
      "ĠJoriy": 3102,
      "Ġdavrida": 3103,
      "Ġkir": 3104,
      "Ġqarz": 3105,
      "ĠAJ": 3106,
      "Ġnuqta": 3107,
      "Ġdiplo": 3108,
      "ĠJo": 3109,
      "Ġqaramay": 3110,
      "Ġtakomillashtirish": 3111,
      "Ġfun": 3112,
      "Ġ2023": 3113,
      "arakat": 3114,
      "kash": 3115,
      "202": 3116,
      "kuna": 3117,
      "ĠbÅıla": 3118,
      "Ġmuzokaralar": 3119,
      "eriya": 3120,
      "sto": 3121,
      "ĠNavoiy": 3122,
      "Ġkasb": 3123,
      "tifi": 3124,
      "ril": 3125,
      "ĠBay": 3126,
      "ĠSÅıng": 3127,
      "shqadaryo": 3128,
      "Ġang": 3129,
      "Ġhamkorlikni": 3130,
      "Ġolim": 3131,
      "vyu": 3132,
      "Ġimkonini": 3133,
      "Ġanju": 3134,
      "ĠTi": 3135,
      "umli": 3136,
      "Ġdelegatsiya": 3137,
      "Ġuchrashuvi": 3138,
      "Ġfarq": 3139,
      "Ġtashkiloti": 3140,
      "Ġimtiyo": 3141,
      "tÅıÄŁri": 3142,
      "ĠNamangan": 3143,
      "shib": 3144,
      "ĠÅıyi": 3145,
      "moddasi": 3146,
      "Ġkengaytirish": 3147,
      "ĠLu": 3148,
      "laydigan": 3149,
      "ĠShah": 3150,
      "Ġboradi": 3151,
      "Ġres": 3152,
      "Ġkurashish": 3153,
      "Ġbuning": 3154,
      "Ġboshlangan": 3155,
      "tu": 3156,
      "Ġjinoiy": 3157,
      "Ġrossiyalik": 3158,
      "tur": 3159,
      "Ġfarzand": 3160,
      "Ġboshqarish": 3161,
      "ez": 3162,
      "Ġaniqlash": 3163,
      "Ġbaro": 3164,
      "Ġhaydovchi": 3165,
      "ĠRossiyaga": 3166,
      "Ġpor": 3167,
      "ktyabr": 3168,
      "Ġdoir": 3169,
      "gra": 3170,
      "Ġraqobat": 3171,
      "Ġchuqur": 3172,
      "Ġxato": 3173,
      "Ġterror": 3174,
      "ĠNATO": 3175,
      "Ġjamoatchilik": 3176,
      "zida": 3177,
      "Ġyilgacha": 3178,
      "ĠNatija": 3179,
      "ĠtÅırt": 3180,
      "nergetika": 3181,
      "zax": 3182,
      "ĠIslom": 3183,
      "Ġqora": 3184,
      "Ġilgari": 3185,
      "ĠkÅırsatilgan": 3186,
      "umon": 3187,
      "lumotlarni": 3188,
      "Ġvirus": 3189,
      "masiga": 3190,
      "ser": 3191,
      "Ġbara": 3192,
      "Bar": 3193,
      "Ġpun": 3194,
      "Ġtashkilotlar": 3195,
      "Ġsur": 3196,
      "ngizni": 3197,
      "Ġholatlari": 3198,
      "Ġpandemiya": 3199,
      "Ġketishi": 3200,
      "Ġbozori": 3201,
      "Ġixti": 3202,
      "Ġtoza": 3203,
      "Ġmashhur": 3204,
      "Ġkasallik": 3205,
      "ĠMahkama": 3206,
      "Ġmajburiy": 3207,
      "Ġamerika": 3208,
      "ĠAle": 3209,
      "Ġavtobus": 3210,
      "Ġsheri": 3211,
      "ĠVo": 3212,
      "ĠQashqadaryo": 3213,
      "ChJ": 3214,
      "ĠBugungi": 3215,
      "Ġmaterial": 3216,
      "Ġtili": 3217,
      "Ġstansiya": 3218,
      "Ġmamlakatimiz": 3219,
      "ratu": 3220,
      "ĠKi": 3221,
      "Ġjihoz": 3222,
      "nada": 3223,
      "arb": 3224,
      "Ġhududiy": 3225,
      "ĠMamla": 3226,
      "Ġjarayoni": 3227,
      "ĠÅİzbekistondagi": 3228,
      "ĠAd": 3229,
      "Ġyillar": 3230,
      "ĠMChJ": 3231,
      "ĠjÅına": 3232,
      "iyev": 3233,
      "Ġavvalroq": 3234,
      "ÅıÄŁan": 3235,
      "ĠHozirda": 3236,
      "ĠErd": 3237,
      "stra": 3238,
      "Ġchiqaruvchi": 3239,
      "mlik": 3240,
      "ler": 3241,
      "nish": 3242,
      "ĠIsh": 3243,
      "Ġahamiyat": 3244,
      "ĠBunda": 3245,
      "Ġmahrum": 3246,
      "tiriladi": 3247,
      "hifa": 3248,
      "Ġinspe": 3249,
      "Ġmuz": 3250,
      "ment": 3251,
      "shing": 3252,
      "Ġdepartam": 3253,
      "Ġyashi": 3254,
      "Ġsohasidagi": 3255,
      "Ġqamoq": 3256,
      "Ġyigi": 3257,
      "Ġkadr": 3258,
      "Ġjavobgar": 3259,
      "Ġulardan": 3260,
      "Ġhis": 3261,
      "Ġad": 3262,
      "ĠBer": 3263,
      "Ġresurs": 3264,
      "ĠDast": 3265,
      "Ġturdagi": 3266,
      "Ġdars": 3267,
      "Real": 3268,
      "Ġcheklov": 3269,
      "Ġqilayotgan": 3270,
      "ĠSho": 3271,
      "Ġetishga": 3272,
      "Ġsolish": 3273,
      "ker": 3274,
      "Ġgapi": 3275,
      "alla": 3276,
      "\".": 3277,
      "ĠRossiyada": 3278,
      "Ġonlayn": 3279,
      "Ġintervyu": 3280,
      "Ġimkoniyati": 3281,
      "Ġjabr": 3282,
      "ĠyÅınal": 3283,
      "Ġjoylarda": 3284,
      "Ġkarantin": 3285,
      "ĠQar": 3286,
      "Ġishtirokida": 3287,
      "ĠmashÄŁulot": 3288,
      "Ġbayonot": 3289,
      "ĠErdÅıÄŁan": 3290,
      "shanda": 3291,
      "stru": 3292,
      "ĠUni": 3293,
      "Ġqilingandi": 3294,
      "izzax": 3295,
      "Ġinstituti": 3296,
      "dorlik": 3297,
      "Ġtayyorgarlik": 3298,
      "Ġrozi": 3299,
      "ĠqÅızÄŁa": 3300,
      "lashadi": 3301,
      "Ġoddiy": 3302,
      "yil": 3303,
      "Ġchor": 3304,
      "Ġ70": 3305,
      "Ġstandar": 3306,
      "ĠChi": 3307,
      "Ġmig": 3308,
      "ĠÅırnatilgan": 3309,
      "Ġxos": 3310,
      "Ġqurilishi": 3311,
      "Ġijobiy": 3312,
      "Ġsahifa": 3313,
      "Ġbois": 3314,
      "ganida": 3315,
      "xonasi": 3316,
      "Ġolmaydi": 3317,
      "ĠqÅıshin": 3318,
      "Ġrekor": 3319,
      "viya": 3320,
      "FA": 3321,
      "tni": 3322,
      "ĠOq": 3323,
      "ĠTashqi": 3324,
      "ĠbÅılar": 3325,
      "ĠThe": 3326,
      "Ġtekshiruv": 3327,
      "dori": 3328,
      "ĠKÅıp": 3329,
      "Ġxodimi": 3330,
      "ĠtÅıla": 3331,
      "Ġtaxmi": 3332,
      "Ġparvoz": 3333,
      "gon": 3334,
      "Ġayt": 3335,
      "Ġhozirda": 3336,
      "Ġrahbariyati": 3337,
      "ĠHuj": 3338,
      "Ġdarajasi": 3339,
      "Ġbuz": 3340,
      "Ġoda": 3341,
      "Ġqoladi": 3342,
      "Ġmualli": 3343,
      "yapmiz": 3344,
      "ĠJumladan": 3345,
      "Ġinfratu": 3346,
      "lararo": 3347,
      "uriyati": 3348,
      "gor": 3349,
      "Ġxizmatlar": 3350,
      "Ġkelmoqda": 3351,
      "stitutsiya": 3352,
      "ĠOlimpi": 3353,
      "tihon": 3354,
      "sam": 3355,
      "ff": 3356,
      "Ġob": 3357,
      "Ġvazirlik": 3358,
      "Ġkuzat": 3359,
      "ĠFede": 3360,
      "Ġyol": 3361,
      "Ġyashash": 3362,
      "Ġraqib": 3363,
      "Ġola": 3364,
      "ĠÅızbekistonlik": 3365,
      "ĠTu": 3366,
      "Ġmijo": 3367,
      "Ġkundu": 3368,
      "Ġau": 3369,
      "Ġ2014": 3370,
      "Ġmarkaziy": 3371,
      "Ġbildirgan": 3372,
      "gida": 3373,
      "lashuv": 3374,
      "kamasi": 3375,
      "ĠqÅıshma": 3376,
      "Ġuchast": 3377,
      "Ġsotish": 3378,
      "Ġkechasi": 3379,
      "ÄŁur": 3380,
      "Ġkg": 3381,
      "orti": 3382,
      "jorat": 3383,
      "Ġberishicha": 3384,
      "kidlab": 3385,
      "Ġbiti": 3386,
      "Ġqavat": 3387,
      "Ġdam": 3388,
      "ĠÅıs": 3389,
      "mmunikatsiya": 3390,
      "Ġsayyoh": 3391,
      "Ġfoydalani": 3392,
      "zin": 3393,
      "atar": 3394,
      "mayapti": 3395,
      "Ġshuncha": 3396,
      "ĠYer": 3397,
      "Ġbizning": 3398,
      "ĠYu": 3399,
      "ĠIroq": 3400,
      "havo": 3401,
      "iro": 3402,
      "ĠKompaniya": 3403,
      "Ġmasalasi": 3404,
      "Ġistiq": 3405,
      "ĠPol": 3406,
      "Ġoktyabr": 3407,
      "Ġqatna": 3408,
      "Ġmuassasalari": 3409,
      "Ġsalohi": 3410,
      "ĠqÅıshni": 3411,
      "Ġamaliy": 3412,
      "Ġhuquqiy": 3413,
      "sonli": 3414,
      "Ġatrofida": 3415,
      "hqon": 3416,
      "hamma": 3417,
      "ĠÅıtkazib": 3418,
      "tiruvchi": 3419,
      "Ġmoddiy": 3420,
      "Ġnizo": 3421,
      "Ġkorrupsiya": 3422,
      "ĠqÅıygan": 3423,
      "ĠKenga": 3424,
      "ĠtÅıldi": 3425,
      "ĠYaqin": 3426,
      "Ġqurbon": 3427,
      "Ġgaze": 3428,
      "ĠNatijada": 3429,
      "tirildi": 3430,
      "Ġfav": 3431,
      "urxon": 3432,
      "maydigan": 3433,
      "Ġfede": 3434,
      "Ġmamlakatning": 3435,
      "Ġsin": 3436,
      "ĠÅıchi": 3437,
      "Ġturar": 3438,
      "Ġboshlandi": 3439,
      "ĠyiÄŁilish": 3440,
      "Ġbudjet": 3441,
      "yekt": 3442,
      "ĠEng": 3443,
      "ĠqÅıydi": 3444,
      "ket": 3445,
      "Ġkol": 3446,
      "Ġchiqishi": 3447,
      "Ġhozircha": 3448,
      "ĠLa": 3449,
      "Ġijara": 3450,
      "mokra": 3451,
      "Ġnoma": 3452,
      "Ġtaraf": 3453,
      "chilarning": 3454,
      "Ġatrof": 3455,
      "ĠNor": 3456,
      "ĠKar": 3457,
      "transport": 3458,
      "Ġarzon": 3459,
      "Ġ35": 3460,
      "ĠKim": 3461,
      "Ġqurolli": 3462,
      "Ġkredit": 3463,
      "ĠtÅılash": 3464,
      "ĠÅıxsha": 3465,
      "ShID": 3466,
      "Ġchoralar": 3467,
      "lashish": 3468,
      "jy": 3469,
      "dio": 3470,
      "qara": 3471,
      "yt": 3472,
      "Ġmexa": 3473,
      "Ġishlarini": 3474,
      "ĠqÅıyi": 3475,
      "12": 3476,
      "Ġaytilgan": 3477,
      "ĠÅılim": 3478,
      "Ġdengiz": 3479,
      "toriya": 3480,
      "ĠSoÄŁ": 3481,
      "Ġgumon": 3482,
      "ĠyiÄŁilishi": 3483,
      "ĠJizzax": 3484,
      "Ġoylik": 3485,
      "Ġbaland": 3486,
      "Ġjarayonida": 3487,
      "Ġbilim": 3488,
      "Ġalbatta": 3489,
      "Ġpayt": 3490,
      "ĠAbdul": 3491,
      "Ġturnir": 3492,
      "ĠDi": 3493,
      "Ġxavfsizligi": 3494,
      "shington": 3495,
      "Ġmarosi": 3496,
      "Ġeta": 3497,
      "iqtisodiy": 3498,
      "Ġxari": 3499,
      "ĠrÅıyxatdan": 3500,
      "lobal": 3501,
      "zitsiya": 3502,
      "ĠqÅır": 3503,
      "tidagi": 3504,
      "jaro": 3505,
      "Ġhol": 3506,
      "ĠsÅımlik": 3507,
      "Ġaholisi": 3508,
      "Ġnishon": 3509,
      "Ġhib": 3510,
      "Ġayollar": 3511,
      "Ġoldida": 3512,
      "Ġmiqdorida": 3513,
      "Ġavvalgi": 3514,
      "Ġborgan": 3515,
      "Ġaniqlandi": 3516,
      "tma": 3517,
      "Ġpaxta": 3518,
      "Ġnamu": 3519,
      "pol": 3520,
      "Ġishlagan": 3521,
      "ĠRespublikasining": 3522,
      "Ġturizm": 3523,
      "mizning": 3524,
      "Ġkafo": 3525,
      "ĠAQShda": 3526,
      "ĠIchki": 3527,
      "Ġmobil": 3528,
      "Ġhuquqlari": 3529,
      "ĠtÅıqnash": 3530,
      "shyo": 3531,
      "zam": 3532,
      "Ġraqam": 3533,
      "ĠkÅıpchilik": 3534,
      "Ġmasalalar": 3535,
      "feksiya": 3536,
      "ligidan": 3537,
      "Ġtaraqqi": 3538,
      "Ġmana": 3539,
      "nayotgan": 3540,
      "Ġqarab": 3541,
      "riyb": 3542,
      "Ġboshqaruv": 3543,
      "Ġkoronavirusga": 3544,
      "Ġsovuq": 3545,
      "Ġmuxbiri": 3546,
      "Ġtaqdi": 3547,
      "Ġhayo": 3548,
      "Ġnavbatida": 3549,
      "bini": 3550,
      "IV": 3551,
      "mish": 3552,
      "Ġoshirilgan": 3553,
      "rashuv": 3554,
      "Ġehtiyoj": 3555,
      "ayev": 3556,
      "Ġnashr": 3557,
      "Ġumuman": 3558,
      "Ġeko": 3559,
      "Ġaksari": 3560,
      "Ġ300": 3561,
      "ĠÄŁoya": 3562,
      "Ġorgani": 3563,
      "ĠSiz": 3564,
      "Ġkilometr": 3565,
      "Ġimtihon": 3566,
      "ĠIShID": 3567,
      "Ġovqat": 3568,
      "ĠbÅılmas": 3569,
      "Ġrivojlanish": 3570,
      "ĠSha": 3571,
      "Ġoson": 3572,
      "Ġqozon": 3573,
      "Ġturmush": 3574,
      "tadbirlar": 3575,
      "Ġtahdid": 3576,
      "Ġinno": 3577,
      "oya": 3578,
      "Ġfavqulodda": 3579,
      "harakat": 3580,
      "selona": 3581,
      "rika": 3582,
      "Ġ80": 3583,
      "Ġ90": 3584,
      "Ġuniversitet": 3585,
      "Ġfili": 3586,
      "ubha": 3587,
      "Ġtayinlandi": 3588,
      "Ġkomple": 3589,
      "ĠÅıtkazdi": 3590,
      "ktar": 3591,
      "Ġmumkinligini": 3592,
      "Ġxoh": 3593,
      "Ġuskuna": 3594,
      "Ġsalbiy": 3595,
      "Ġlits": 3596,
      "Ġboshida": 3597,
      "Ġes": 3598,
      "ĠÅıl": 3599,
      "Ġsammi": 3600,
      "Ġver": 3601,
      "Ġhokimiyat": 3602,
      "rori": 3603,
      "Ġmuxlis": 3604,
      "ĠPrezidenti": 3605,
      "lanishiga": 3606,
      "Ġ+": 3607,
      "Ġtanqid": 3608,
      "ĠKiyev": 3609,
      "etro": 3610,
      "monlar": 3611,
      "Ma": 3612,
      "ĠSay": 3613,
      "Ġportlash": 3614,
      "Ġmaydoni": 3615,
      "Ġumid": 3616,
      "Ġviloyatining": 3617,
      "Ġmahsulotlar": 3618,
      "Ġtartibga": 3619,
      "ĠbÅılin": 3620,
      "uriyat": 3621,
      "mosha": 3622,
      "Ġbarobar": 3623,
      "Ġolinadi": 3624,
      "ĠTurk": 3625,
      "ĠMuhamma": 3626,
      "Ġharakatlari": 3627,
      "Ġqonuniy": 3628,
      "Ġgektar": 3629,
      "Ġhisobida": 3630,
      "Ġurini": 3631,
      "Ġgapir": 3632,
      "nÄŁi": 3633,
      "Ġmaqola": 3634,
      "kki": 3635,
      "Ġaylandi": 3636,
      "Ġjon": 3637,
      "Ġbarpo": 3638,
      "toq": 3639,
      "Ġziyod": 3640,
      "ĠAngliya": 3641,
      "Ġmiqdorda": 3642,
      "ĠYana": 3643,
      "Ġmuvaffaqiyatli": 3644,
      "Ġhissa": 3645,
      "ĠJamo": 3646,
      "Ġbiroz": 3647,
      "ĠsÅımdan": 3648,
      "Ġtasvir": 3649,
      "ĠÄŀa": 3650,
      "Ġtanlov": 3651,
      "Ġholatlar": 3652,
      "Ġsot": 3653,
      "Ġaylan": 3654,
      "sol": 3655,
      "razi": 3656,
      "ĠPro": 3657,
      "Ġmuddati": 3658,
      "Ġtushu": 3659,
      "tor": 3660,
      "Ġtamo": 3661,
      "Ġhukm": 3662,
      "Ġqilishdi": 3663,
      "ĠRi": 3664,
      "chasi": 3665,
      "Ġve": 3666,
      "lamoqda": 3667,
      "Ġboshlan": 3668,
      "Ġustun": 3669,
      "ĠUchrashuv": 3670,
      "klama": 3671,
      "Ġ198": 3672,
      "ĠSoÄŁliqni": 3673,
      "Ġekanligini": 3674,
      "lyu": 3675,
      "Ġmojaro": 3676,
      "ĠdÅıkon": 3677,
      "Ġixtisos": 3678,
      "rakka": 3679,
      "Ġkelgu": 3680,
      "ĠÅıtishi": 3681,
      "ĠIIV": 3682,
      "Ġtaxminan": 3683,
      "Ġilova": 3684,
      "Ġoqibat": 3685,
      "ĠÅıtka": 3686,
      "dri": 3687,
      "Ġsmartfon": 3688,
      "zlik": 3689,
      "Ya": 3690,
      "Ġimport": 3691,
      "Ġyetdi": 3692,
      "ved": 3693,
      "Ġuchastka": 3694,
      "zosi": 3695,
      "Ġhamkorlikda": 3696,
      "ĠMoliya": 3697,
      "ilmoqda": 3698,
      "ĠÅırinda": 3699,
      "Ġqariyb": 3700,
      "Ġmobay": 3701,
      "ĠInter": 3702,
      "Ġhosil": 3703,
      "Ġmehmonxona": 3704,
      "Ġborilmoqda": 3705,
      "ĠShuning": 3706,
      "Ġvaziyatni": 3707,
      "Ġkeltirib": 3708,
      "chiq": 3709,
      "ibo": 3710,
      "Ġliga": 3711,
      "Ġsurish": 3712,
      "ĠBan": 3713,
      "irlash": 3714,
      "Ġborayotgan": 3715,
      "uvor": 3716,
      "Ġmexani": 3717,
      "Ġtumanidagi": 3718,
      "ĠXo": 3719,
      "nishi": 3720,
      "Ġsun": 3721,
      "Ġmobaynida": 3722,
      "ĠRah": 3723,
      "Åıra": 3724,
      "choq": 3725,
      "Ġdoira": 3726,
      "Ġxay": 3727,
      "Ġaholining": 3728,
      "ttifoq": 3729,
      "ĠSurxon": 3730,
      "Ġkiriti": 3731,
      "sional": 3732,
      "ĠkÅırsatadi": 3733,
      "Ġhisobiga": 3734,
      "Ġtana": 3735,
      "vatsion": 3736,
      "Ġboks": 3737,
      "Ġustida": 3738,
      "Ġyuborish": 3739,
      "Ġhisobidan": 3740,
      "Ġelektro": 3741,
      "layman": 3742,
      "Ġmuta": 3743,
      "Ġkiyi": 3744,
      "Ġsifatli": 3745,
      "Ġjihatdan": 3746,
      "ĠtÅıÄŁridan": 3747,
      "Ġdunyoning": 3748,
      "Ġkuchi": 3749,
      "mdan": 3750,
      "Ġdollarlik": 3751,
      "jir": 3752,
      "15": 3753,
      "Ġviza": 3754,
      "ĠMamlakat": 3755,
      "Ġpozitsiya": 3756,
      "Ġmaydonga": 3757,
      "Ġustuvor": 3758,
      "Ġrioya": 3759,
      "lumotiga": 3760,
      "vet": 3761,
      "Ġdoim": 3762,
      "Ġamaldagi": 3763,
      "Ġusul": 3764,
      "Ġkut": 3765,
      "Ġerkak": 3766,
      "nati": 3767,
      "ĠSurxondaryo": 3768,
      "Ġchiqadi": 3769,
      "rakkab": 3770,
      "ĠUmu": 3771,
      "ĠMahkamasining": 3772,
      "Ġbur": 3773,
      "Ġberishni": 3774,
      "ÄŁini": 3775,
      "ĠShunday": 3776,
      "Ġkodeksining": 3777,
      "Ġbajar": 3778,
      "Ġsherik": 3779,
      "Ġqam": 3780,
      "Ġnamuna": 3781,
      "ĠVe": 3782,
      "Ġbizga": 3783,
      "Ġoshirishga": 3784,
      "Ġinstitut": 3785,
      "Ġsara": 3786,
      "Ġittifoqi": 3787,
      "Ġfoto": 3788,
      "Ġbarchasi": 3789,
      "ĠBayden": 3790,
      "inoti": 3791,
      "tning": 3792,
      "ĠHujjat": 3793,
      "ĠmaÄŁlubi": 3794,
      "Ġkunlik": 3795,
      "ĠbÅılishini": 3796,
      "ĠXitoyning": 3797,
      "lidan": 3798,
      "Ġinqi": 3799,
      "Ġtaya": 3800,
      "Ġdehqon": 3801,
      "Ġmutaxassislar": 3802,
      "yadi": 3803,
      "ondon": 3804,
      "raziliya": 3805,
      "ten": 3806,
      "ska": 3807,
      "Ġshakli": 3808,
      "Ġkiritdi": 3809,
      "Ġtinchlik": 3810,
      "vka": 3811,
      "Ġhududlarda": 3812,
      "yjon": 3813,
      "Ġamerikalik": 3814,
      "Ġkema": 3815,
      "bida": 3816,
      "Ġfuqarolari": 3817,
      "Ġvaz": 3818,
      "zarboyjon": 3819,
      "ling": 3820,
      "saddi": 3821,
      "Ġqilgani": 3822,
      "masa": 3823,
      "Ġkolle": 3824,
      "Ġenergetika": 3825,
      "Ġtomosha": 3826,
      "ĠPar": 3827,
      "Ġtashabbus": 3828,
      "Ġqolmoqda": 3829,
      "Ġ32": 3830,
      "ĠkÅırgan": 3831,
      "Ġchiqarib": 3832,
      "Ġbelgilab": 3833,
      "ĠxÅıjalik": 3834,
      "Ġnega": 3835,
      "Ġmadaniy": 3836,
      "Ġtarmoqlarda": 3837,
      "ĠEl": 3838,
      "ilov": 3839,
      "Ġsezi": 3840,
      "AR": 3841,
      "Ġomil": 3842,
      "Ġsamarador": 3843,
      "ĠSud": 3844,
      "urmat": 3845,
      "Ġchiqilgan": 3846,
      "Ġino": 3847,
      "Ġqiladigan": 3848,
      "Ġsaytida": 3849,
      "tazam": 3850,
      "Ġqilinmoqda": 3851,
      "ĠMuhammad": 3852,
      "Ġmamlakatlar": 3853,
      "Ġketadi": 3854,
      "Ġsir": 3855,
      "pov": 3856,
      "Ġtashkilotlari": 3857,
      "batga": 3858,
      "Ġkafolat": 3859,
      "Ġhayoti": 3860,
      "Ġimtiyoz": 3861,
      "gur": 3862,
      "nidan": 3863,
      "ĠFi": 3864,
      "Ġturish": 3865,
      "Ġumum": 3866,
      "Ġtak": 3867,
      "ĠIkki": 3868,
      "Ġberishga": 3869,
      "ĠLondon": 3870,
      "Ġmustahkamlash": 3871,
      "ĠYeI": 3872,
      "Ġuchrashuvda": 3873,
      "ĠmablaÄŁlari": 3874,
      "book": 3875,
      "ĠIl": 3876,
      "Ġxavfli": 3877,
      "Ġmurakkab": 3878,
      "Ġishdan": 3879,
      "sor": 3880,
      "Ġshubha": 3881,
      "Ġhaqiqiy": 3882,
      "tali": 3883,
      "zila": 3884,
      "ĠGo": 3885,
      "rij": 3886,
      "Ġdollarni": 3887,
      "gich": 3888,
      "Ġusta": 3889,
      "ES": 3890,
      "Ġtaklifi": 3891,
      "tqi": 3892,
      "Åİz": 3893,
      "99": 3894,
      "taga": 3895,
      "Ġxususan": 3896,
      "ĠAir": 3897,
      "nomasi": 3898,
      "lanishini": 3899,
      "ĠGol": 3900,
      "Ġyetakchisi": 3901,
      "Ġaviakompaniya": 3902,
      "ork": 3903,
      "ahra": 3904,
      "Ġayniqsa": 3905,
      "Ġshundan": 3906,
      "Ġurib": 3907,
      "Ġmukofot": 3908,
      "Sa": 3909,
      "Ġqavatli": 3910,
      "ĠSir": 3911,
      "Ġmarkazida": 3912,
      "Ġtopish": 3913,
      "Ġpalatasi": 3914,
      "ĠSÅınggi": 3915,
      "Ġada": 3916,
      "Ġxuddi": 3917,
      "Ġbirida": 3918,
      "Ġlavozimiga": 3919,
      "ĠLoyiha": 3920,
      "Ġvazirligining": 3921,
      "Ġinobatga": 3922,
      "ĠVashington": 3923,
      "ĠFace": 3924,
      "ĠÅıtkazgan": 3925,
      "ĠbaÄŁishlangan": 3926,
      "Ġqadam": 3927,
      "Ġvoz": 3928,
      "lisi": 3929,
      "orazm": 3930,
      "ĠKari": 3931,
      "burg": 3932,
      "Ġmuntazam": 3933,
      "tse": 3934,
      "taf": 3935,
      "tirishi": 3936,
      "bituriy": 3937,
      "Ġsafi": 3938,
      "tirishga": 3939,
      "Ġpartiyasi": 3940,
      "Ġtasdiqlangan": 3941,
      "eni": 3942,
      "Ġavtoma": 3943,
      "dolat": 3944,
      "ziz": 3945,
      "Ġdunyodagi": 3946,
      "bituriyent": 3947,
      "Ġpre": 3948,
      "ĠÅİr": 3949,
      "ĠJon": 3950,
      "Barselona": 3951,
      "davlat": 3952,
      "har": 3953,
      "Ġhibsga": 3954,
      "Ġkunlarda": 3955,
      "elen": 3956,
      "Ġkuchay": 3957,
      "Ġmadaniyat": 3958,
      "Ġblo": 3959,
      "berg": 3960,
      "Ġboshlaydi": 3961,
      "ĠAg": 3962,
      "ĠqÅıyildi": 3963,
      "dlik": 3964,
      "sanoat": 3965,
      "Ġfuqarolik": 3966,
      "Ġinfeksiya": 3967,
      "Ġuchta": 3968,
      "Ġmuddatga": 3969,
      "zved": 3970,
      "slar": 3971,
      "gno": 3972,
      "Ġjangari": 3973,
      "Ġnatijalari": 3974,
      "Ġqilishda": 3975,
      "Ġdollari": 3976,
      "qis": 3977,
      "Ġtopshiriq": 3978,
      "ĠMis": 3979,
      "Ġfoydalanishga": 3980,
      "ĠPolsha": 3981,
      "Ġten": 3982,
      "luta": 3983,
      "Ġqiziq": 3984,
      "Ġkomissiyasi": 3985,
      "Ġchop": 3986,
      "ĠÅİsha": 3987,
      "Ġmumkinligi": 3988,
      "kumat": 3989,
      "Ġistiqbol": 3990,
      "Ġberilishi": 3991,
      "gir": 3992,
      "kala": 3993,
      "Ġishlarni": 3994,
      "Ġbepul": 3995,
      "tol": 3996,
      "Ġhisobot": 3997,
      "ĠdÅıst": 3998,
      "Ġenergiyasi": 3999,
      "vosita": 4000,
      "ĠFacebook": 4001,
      "Ġduch": 4002,
      "Ġpoyez": 4003,
      "Ġsano": 4004,
      "Ġoxirida": 4005,
      "Ġsertifi": 4006,
      "Ġqayer": 4007,
      "TM": 4008,
      "Ġchiqari": 4009,
      "ĠkÅırsatib": 4010,
      "ge": 4011,
      "Ġmoliyalashtirish": 4012,
      "ley": 4013,
      "Ġmasji": 4014,
      "ĠMajlis": 4015,
      "Ġyildagi": 4016,
      "yatsiya": 4017,
      "ĠtoÄŁ": 4018,
      "Ġtosh": 4019,
      "Ġtaxmin": 4020,
      "ĠkÅırgaz": 4021,
      "uf": 4022,
      "Ġqoch": 4023,
      "Ġkiradi": 4024,
      "Ġboshchiligi": 4025,
      "ĠjamÄŁarmasi": 4026,
      "hati": 4027,
      "Ġiliq": 4028,
      "Ġkelajak": 4029,
      "Ġbuyum": 4030,
      "ĠTurkmaniston": 4031,
      "Ġby": 4032,
      "huq": 4033,
      "ĠSar": 4034,
      "ferensiya": 4035,
      "Ġavlo": 4036,
      "Ġtopilgan": 4037,
      "mning": 4038,
      "Ġaeropor": 4039,
      "Ġeski": 4040,
      "enziya": 4041,
      "sangiz": 4042,
      "biga": 4043,
      "rigacha": 4044,
      "Ġorada": 4045,
      "Ġqonunchilik": 4046,
      "Ġittifoq": 4047,
      "tilib": 4048,
      "ÄŁurta": 4049,
      "chilarga": 4050,
      "Ġsanksiyalar": 4051,
      "Ġmedal": 4052,
      "liklarni": 4053,
      "Ġchiqindi": 4054,
      "Ġxavo": 4055,
      "Ġolti": 4056,
      "monov": 4057,
      "Ġshiko": 4058,
      "Ġbelgilandi": 4059,
      "Ġqor": 4060,
      "ĠqÅıllani": 4061,
      "Ġjamiyati": 4062,
      "ĠCo": 4063,
      "Ġasr": 4064,
      "Ġogohlan": 4065,
      "ĠOba": 4066,
      "AS": 4067,
      "tadbirlari": 4068,
      "Ġ36": 4069,
      "ĠsovÄŁa": 4070,
      "Ġmavsu": 4071,
      "sht": 4072,
      "arov": 4073,
      "Ġobla": 4074,
      "Ġchaqirdi": 4075,
      "ĠBunga": 4076,
      "ĠTrampning": 4077,
      "Ġtelekanali": 4078,
      "Ġem": 4079,
      "ĠFor": 4080,
      "diruv": 4081,
      "Ġkamchilik": 4082,
      "ĠZelen": 4083,
      "end": 4084,
      "Ġboshlanadi": 4085,
      "Ġyerga": 4086,
      "Ġquvvat": 4087,
      "Ġnechta": 4088,
      "ĠIj": 4089,
      "Ġqochi": 4090,
      "40": 4091,
      "Ġrub": 4092,
      "Ġanjumani": 4093,
      "Ġkunduzi": 4094,
      "Ġterakt": 4095,
      "Ġqaroriga": 4096,
      "Ġhududda": 4097,
      "ĠOzarboyjon": 4098,
      "Ġichiga": 4099,
      "ĠKX": 4100,
      "Ġtijorat": 4101,
      "tishni": 4102,
      "ĠMeh": 4103,
      "Ġqattiq": 4104,
      "ĠsÅımga": 4105,
      "Ġuzay": 4106,
      "ĠmaÄŁlubiyat": 4107,
      "Ġtomondan": 4108,
      "unar": 4109,
      "ĠTIV": 4110,
      "Ġxabarlar": 4111,
      "ĠXorazm": 4112,
      "Ġmuddatli": 4113,
      "ddin": 4114,
      "DR": 4115,
      "Ġsum": 4116,
      "onlar": 4117,
      "ganiga": 4118,
      "ĠZelenskiy": 4119,
      "Ġmol": 4120,
      "lashtirgan": 4121,
      "dago": 4122,
      "tinchi": 4123,
      "Ġkapi": 4124,
      "ĠbÅılmoqda": 4125,
      "sus": 4126,
      "Ġtala": 4127,
      "Ġkino": 4128,
      "ĠbÅılganini": 4129,
      "HT": 4130,
      "Ġchiqara": 4131,
      "ĠMudofaa": 4132,
      "nidagi": 4133,
      "mokratik": 4134,
      "Ġfaqatgina": 4135,
      "Ġrekord": 4136,
      "Ġkama": 4137,
      "Ġ45": 4138,
      "Ġtaraqqiyot": 4139,
      "Ġom": 4140,
      "viga": 4141,
      "ĠQur": 4142,
      "Ġtuzilgan": 4143,
      "Ġkamera": 4144,
      "Ġzona": 4145,
      "Ġolmas": 4146,
      "Ġdollardan": 4147,
      "ĠMes": 4148,
      "Ġkerakligini": 4149,
      "Ġxav": 4150,
      "Ġdunyoda": 4151,
      "ĠYi": 4152,
      "kul": 4153,
      "Ġoladigan": 4154,
      "mlari": 4155,
      "Ġstadi": 4156,
      "Ġmutasaddi": 4157,
      "ĠkÅırsatgan": 4158,
      "str": 4159,
      "Ġmansab": 4160,
      "Ġshunda": 4161,
      "ĠsÅırov": 4162,
      "liklarning": 4163,
      "chining": 4164,
      "straliya": 4165,
      "ngizga": 4166,
      "boyev": 4167,
      "Ġtarqat": 4168,
      "Ġqazib": 4169,
      "Ġmijoz": 4170,
      "Ġana": 4171,
      "Ġolimpi": 4172,
      "tingi": 4173,
      "Ġavtomashina": 4174,
      "eva": 4175,
      "ĠSenat": 4176,
      "Ġtahri": 4177,
      "mÄŁir": 4178,
      "Ġoshdi": 4179,
      "stin": 4180,
      "ĠyiÄŁ": 4181,
      "ĠÅıtkazilishi": 4182,
      "Na": 4183,
      "yosh": 4184,
      "ĠNyu": 4185,
      "Ġdepartamenti": 4186,
      "Ġqilamiz": 4187,
      "Ġortidan": 4188,
      "Ġvaqtincha": 4189,
      "fiy": 4190,
      "giron": 4191,
      "ĠMay": 4192,
      "Ġholatiga": 4193,
      "sno": 4194,
      "daqiqa": 4195,
      "say": 4196,
      "Ġtadbirkorlar": 4197,
      "lub": 4198,
      "lashda": 4199,
      "ĠRus": 4200,
      "ĠMak": 4201,
      "tafsil": 4202,
      "laver": 4203,
      "ĠTer": 4204,
      "ngliz": 4205,
      "Ġtarixiy": 4206,
      "Ġ33": 4207,
      "Ġoshib": 4208,
      "ĠFo": 4209,
      "sad": 4210,
      "Ġxavfi": 4211,
      "ĠÅızgarishlar": 4212,
      "Åız": 4213,
      "Ġrazved": 4214,
      "ĠApp": 4215,
      "Ġjoiz": 4216,
      "Ġkelishib": 4217,
      "ĠSirdaryo": 4218,
      "yuter": 4219,
      "Ġxavotir": 4220,
      "Ġkiritgan": 4221,
      "ÄŁbat": 4222,
      "ĠbÅısh": 4223,
      "Ġstati": 4224,
      "ĠqÅıyil": 4225,
      "ĠtarÄŁi": 4226,
      "Ġpiyo": 4227,
      "latfor": 4228,
      "Ġyashay": 4229,
      "tli": 4230,
      "Ġbajarish": 4231,
      "Ġishni": 4232,
      "Ġoshirilishi": 4233,
      "zarb": 4234,
      "ishloq": 4235,
      "ÄŁiz": 4236,
      "ĠmaÄŁlub": 4237,
      "ĠbÅılgandi": 4238,
      "Ġkarta": 4239,
      "Ġqatori": 4240,
      "ĠÅırnini": 4241,
      "larli": 4242,
      "Ġinsho": 4243,
      "ĠAlbatta": 4244,
      "Ġakademiya": 4245,
      "qli": 4246,
      "ĠqÅımon": 4247,
      "filak": 4248,
      "Ġloyihalar": 4249,
      "Ġmahsulotlarini": 4250,
      "Ġolmagan": 4251,
      "Ġrasman": 4252,
      "ĠJy": 4253,
      "Ġoshgan": 4254,
      "Ġinfratuzilma": 4255,
      "ono": 4256,
      "Ġfuqarolarning": 4257,
      "ĠDu": 4258,
      "Ġmusul": 4259,
      "ĠXabar": 4260,
      "Ġkuchaytirish": 4261,
      "Ġqolib": 4262,
      "uqori": 4263,
      "Ġoshir": 4264,
      "Ġshahrining": 4265,
      "luÄŁ": 4266,
      "ĠrÅıyxatga": 4267,
      "Ġtarkib": 4268,
      "ĠraÄŁbat": 4269,
      "Ġkutib": 4270,
      "ĠÅıÄŁir": 4271,
      "Ġshakllantirish": 4272,
      "ddan": 4273,
      "Ġ197": 4274,
      "lining": 4275,
      "Ġstrategiya": 4276,
      "Ġtalabalar": 4277,
      "Ġsent": 4278,
      "atr": 4279,
      "Ġpalata": 4280,
      "Ġmodel": 4281,
      "yÅı": 4282,
      "ĠDo": 4283,
      "tiruv": 4284,
      "ĠsuÄŁurta": 4285,
      "Åİzbek": 4286,
      "Ġboshqarma": 4287,
      "ĠPokiston": 4288,
      "ÄŁor": 4289,
      "Ġfuqarosi": 4290,
      "chester": 4291,
      "Ġqismini": 4292,
      "Ġtashabbu": 4293,
      "tiyot": 4294,
      "Ġyaratilgan": 4295,
      "Ġaeroport": 4296,
      "Ġgeo": 4297,
      "Ġmenga": 4298,
      "Ġglobal": 4299,
      "ĠTan": 4300,
      "ĠQatar": 4301,
      "ĠObama": 4302,
      "Ġtopgan": 4303,
      "Ġyozadi": 4304,
      "Ġhududlarida": 4305,
      "ĠÅırnatish": 4306,
      "likdagi": 4307,
      "ĠAdliya": 4308,
      "Ġinvest": 4309,
      "masligini": 4310,
      "Toshkent": 4311,
      "Ġpoytaxti": 4312,
      "shar": 4313,
      "sning": 4314,
      "ĠHam": 4315,
      "Åıj": 4316,
      "tr": 4317,
      "Ġborishi": 4318,
      "Ġabituriyent": 4319,
      "Ġmeva": 4320,
      "oyib": 4321,
      "Ġvazifasini": 4322,
      "Ġlitsenziya": 4323,
      "Ġdolzarb": 4324,
      "Ġgene": 4325,
      "Ġharakatlar": 4326,
      "pro": 4327,
      "Ġkishini": 4328,
      "ĠÅıtadigan": 4329,
      "rian": 4330,
      "Ġkunga": 4331,
      "Ġyaxshilash": 4332,
      "Ġtayinlangan": 4333,
      "ĠHukumat": 4334,
      "Ġofi": 4335,
      "ÄŁiga": 4336,
      "Ġqaraganda": 4337,
      "tilayotgan": 4338,
      "rey": 4339,
      "gle": 4340,
      "ksan": 4341,
      "Ġulkan": 4342,
      "ĠÄŀarb": 4343,
      "lmadi": 4344,
      "Ġtushdi": 4345,
      "qomat": 4346,
      "ĠDunyo": 4347,
      "Ġchiqildi": 4348,
      "Ġkirgan": 4349,
      "Ġvaluta": 4350,
      "Ġtaqdirda": 4351,
      "vay": 4352,
      "Ġreytingi": 4353,
      "Ġbevosita": 4354,
      "Ġtarkibida": 4355,
      "Ġayblov": 4356,
      "ĠÅırganib": 4357,
      "Ġasoslangan": 4358,
      "Ġajoyib": 4359,
      "Ġmakta": 4360,
      "Ġmingga": 4361,
      "ĠShta": 4362,
      "yur": 4363,
      "ĠTelegram": 4364,
      "Ġichimlik": 4365,
      "Ġishonchli": 4366,
      "Ġfevra": 4367,
      "AA": 4368,
      "Ġtushadi": 4369,
      "Ġajratilgan": 4370,
      "struksiya": 4371,
      "Ġmajburiyat": 4372,
      "iyo": 4373,
      "ĠYosh": 4374,
      "Ġaloqador": 4375,
      "uqiy": 4376,
      "In": 4377,
      "kitob": 4378,
      "Ġdiz": 4379,
      "ndan": 4380,
      "Ġistiqomat": 4381,
      "Ġxodimlar": 4382,
      "Ġyuborilgan": 4383,
      "Ġqismida": 4384,
      "ĠBraziliya": 4385,
      "Ġimkoni": 4386,
      "barida": 4387,
      "ĠMisr": 4388,
      "Ġkesi": 4389,
      "Ġtadbirlar": 4390,
      "Ġmuvaffaq": 4391,
      "rilib": 4392,
      "Ġrea": 4393,
      "Ġqilishgan": 4394,
      "ĠyomÄŁir": 4395,
      "lashtirib": 4396,
      "Ġstrategik": 4397,
      "Ġmuo": 4398,
      "Ġnaza": 4399,
      "Ġiqti": 4400,
      "Ġtizimida": 4401,
      "Ġloyihasini": 4402,
      "Ġyiliga": 4403,
      "Ġvatan": 4404,
      "ĠMus": 4405,
      "Ġmetro": 4406,
      "chka": 4407,
      "ĠqÅıyib": 4408,
      "Ġmaqsadi": 4409,
      "Ġkuniga": 4410,
      "ovar": 4411,
      "Ġbaholash": 4412,
      "ĠOl": 4413,
      "chan": 4414,
      "toj": 4415,
      "Pa": 4416,
      "ela": 4417,
      "Ġjoyida": 4418,
      "zatish": 4419,
      "ĠÅırgan": 4420,
      "Ġhududiga": 4421,
      "Ġshimo": 4422,
      "Ġehtiyot": 4423,
      "taba": 4424,
      "Ġmuhojir": 4425,
      "Ġsezilarli": 4426,
      "ĠKengashi": 4427,
      "Ġbudje": 4428,
      "yus": 4429,
      "ĠbÅılmasa": 4430,
      "Ġaholiga": 4431,
      "bogi": 4432,
      "Ġhujjatlarni": 4433,
      "men": 4434,
      "Ġkla": 4435,
      "Ġeki": 4436,
      "ĠSer": 4437,
      "yÅıl": 4438,
      "ĠÅıqishga": 4439,
      "Ġbuyurtma": 4440,
      "ĠÅısish": 4441,
      "Ġharbiylar": 4442,
      "Ġkimyo": 4443,
      "uldu": 4444,
      "25": 4445,
      "nÄŁiroq": 4446,
      "ĠApple": 4447,
      "Ġqishlo": 4448,
      "ĠqoÄŁo": 4449,
      "11": 4450,
      "lagani": 4451,
      "ergey": 4452,
      "Ġqolishi": 4453,
      "Ġ37": 4454,
      "Ġchempionati": 4455,
      "Ġkurs": 4456,
      "erlar": 4457,
      "shuv": 4458,
      "met": 4459,
      "ĠOta": 4460,
      "Ġegallab": 4461,
      "Ġyozishicha": 4462,
      "Ġbren": 4463,
      "Ġxabarda": 4464,
      "Ġjavobgarlik": 4465,
      "Ġ400": 4466,
      "ĠyÅıllari": 4467,
      "hu": 4468,
      "Ġtopshirish": 4469,
      "Ġfinal": 4470,
      "Ġplatfor": 4471,
      "rant": 4472,
      "Ġmiqyo": 4473,
      "Ġvalyu": 4474,
      "ĠKXDR": 4475,
      "vid": 4476,
      "ei": 4477,
      "lovchilar": 4478,
      "Ġshikoyat": 4479,
      "Ġur": 4480,
      "Ġkompaniyalari": 4481,
      "Ġdarajadagi": 4482,
      "ĠqÅıllash": 4483,
      "yaga": 4484,
      "ĠAvstraliya": 4485,
      "Ġhisobo": 4486,
      "Ġtexnologiyalari": 4487,
      "jab": 4488,
      "qismi": 4489,
      "ĠSergey": 4490,
      "id": 4491,
      "Ġfoydali": 4492,
      "Ġerishish": 4493,
      "ĠbÅılishiga": 4494,
      "Ġkeltirilgan": 4495,
      "ĠAleksan": 4496,
      "ĠBelgi": 4497,
      "shin": 4498,
      "lashuvi": 4499,
      "Ġsalomat": 4500,
      "Ġmintaqaviy": 4501,
      "Ġrusumli": 4502,
      "kidlash": 4503,
      "Ġbyud": 4504,
      "tilgani": 4505,
      "dil": 4506,
      "Ġarmiyasi": 4507,
      "Ġmuhtoj": 4508,
      "siyasi": 4509,
      "ĠRonal": 4510,
      "zbeki": 4511,
      "ĠÅıqish": 4512,
      "Ġundi": 4513,
      "Ġbosib": 4514,
      "bosqi": 4515,
      "jye": 4516,
      "ĠYÅıl": 4517,
      "Ġmeni": 4518,
      "Ġyurgan": 4519,
      "Ġraqamli": 4520,
      "ĠQuyi": 4521,
      "ĠXitoyda": 4522,
      "Ġchiqqa": 4523,
      "Ġrejalashtiri": 4524,
      "Ġpunkt": 4525,
      "Ġsut": 4526,
      "ydir": 4527,
      "rator": 4528,
      "dorlar": 4529,
      "Ġfoizdan": 4530,
      "Ġbayram": 4531,
      "ĠBah": 4532,
      "ĠMat": 4533,
      "60": 4534,
      "Ġborligi": 4535,
      "Ġzim": 4536,
      "Ġhurmat": 4537,
      "Ġavtomobillar": 4538,
      "naqa": 4539,
      "lgach": 4540,
      "irof": 4541,
      "Ġ34": 4542,
      "ĠAvto": 4543,
      "ĠHozirgi": 4544,
      "ĠÅılimi": 4545,
      "laversa": 4546,
      "Ġkundan": 4547,
      "ĠkÅıch": 4548,
      "ĠqÅıriq": 4549,
      "magani": 4550,
      "Ġmunosib": 4551,
      "shr": 4552,
      "Ġfoizni": 4553,
      "ĠKanada": 4554,
      "lyatsiya": 4555,
      "ĠQonunchilik": 4556,
      "ĠBoshqa": 4557,
      "Ġtasdiqlandi": 4558,
      "Ġaloqalar": 4559,
      "pta": 4560,
      "ĠNew": 4561,
      "Ġmut": 4562,
      "Ġyum": 4563,
      "Ġnaq": 4564,
      "ĠParij": 4565,
      "Ġolishni": 4566,
      "Ġmanzil": 4567,
      "ĠSin": 4568,
      "Ġtexnologiyalar": 4569,
      "Man": 4570,
      "lol": 4571,
      "mis": 4572,
      "ĠtÅısiq": 4573,
      "Ġkorxonalar": 4574,
      "ĠAfrika": 4575,
      "Ġyaqinida": 4576,
      "Ġkuchga": 4577,
      "sda": 4578,
      "ĠBarcha": 4579,
      "variya": 4580,
      "Ġrais": 4581,
      "Ġyoq": 4582,
      "Ġoshiradi": 4583,
      "ĠkÅıpa": 4584,
      "Ġzil": 4585,
      "Ġyutuq": 4586,
      "Ġbosim": 4587,
      "Ġkerakli": 4588,
      "zbon": 4589,
      "Ġshuni": 4590,
      "Ġshaxslarga": 4591,
      "Ġjoylashtirish": 4592,
      "mit": 4593,
      "Ġfondi": 4594,
      "medov": 4595,
      "Ġmuddatda": 4596,
      "ĠQÅıshma": 4597,
      "ĠMahkamasi": 4598,
      "Ġelchisi": 4599,
      "Ġinqiroz": 4600,
      "Ġushlab": 4601,
      "andi": 4602,
      "Ġmarotaba": 4603,
      "Ġsayo": 4604,
      "ĠBola": 4605,
      "Ġyonda": 4606,
      "unyod": 4607,
      "Ġfutbolchilar": 4608,
      "ĠÅİyin": 4609,
      "Ġpensiya": 4610,
      "ĠsÅımni": 4611,
      "Ġishtirokchi": 4612,
      "zoda": 4613,
      "Ġlab": 4614,
      "ĠKarimov": 4615,
      "Ġakt": 4616,
      "Ġkonser": 4617,
      "laymiz": 4618,
      "lisher": 4619,
      "Ġyetkazish": 4620,
      "Ġnomidagi": 4621,
      "Ġiq": 4622,
      "Ġchoralari": 4623,
      "Ġnazorati": 4624,
      "ĠÅİshanda": 4625,
      "Ġnogiron": 4626,
      "Ġsababi": 4627,
      "Ġmuxoli": 4628,
      "Ġ150": 4629,
      "ĠsoÄŁlom": 4630,
      "Ġhuquqbuzar": 4631,
      "muro": 4632,
      "ĠOlimpiada": 4633,
      "Ġjoyda": 4634,
      "ĠGu": 4635,
      "dga": 4636,
      "cho": 4637,
      "Ġdiniy": 4638,
      "larimizni": 4639,
      "Ġinnovatsion": 4640,
      "Ġuzun": 4641,
      "bank": 4642,
      "18": 4643,
      "Ġyarat": 4644,
      "bin": 4645,
      "ĠLiga": 4646,
      "ĠqÅınÄŁiroq": 4647,
      "Ġingliz": 4648,
      "Ġmuammolarni": 4649,
      "Ġolmay": 4650,
      "Ġsuratga": 4651,
      "Ġmaosh": 4652,
      "vetsiya": 4653,
      "otor": 4654,
      "Ġaytilishicha": 4655,
      "sar": 4656,
      "tiladigan": 4657,
      "Ġmavsumda": 4658,
      "Ġboshidan": 4659,
      "ĠbÅılishicha": 4660,
      "ĠÅırni": 4661,
      "ĠOlma": 4662,
      "Ġsarmoya": 4663,
      "layev": 4664,
      "Ġdavri": 4665,
      "Ġkarto": 4666,
      "Ġyetgan": 4667,
      "Ġbilish": 4668,
      "stlar": 4669,
      "Ġjoylashtiri": 4670,
      "ologik": 4671,
      "bel": 4672,
      "qqat": 4673,
      "ĠArmaniston": 4674,
      "ĠÅıyinlari": 4675,
      "Ġpedago": 4676,
      "ĠTim": 4677,
      "Ġolmadi": 4678,
      "Ġimzoladi": 4679,
      "ql": 4680,
      "Ġislohotlar": 4681,
      "Ġnut": 4682,
      "Ġyuborgan": 4683,
      "Ġsovrin": 4684,
      "Ġkompyuter": 4685,
      "16": 4686,
      "tishini": 4687,
      "Ġulgur": 4688,
      "Ġprezidentlik": 4689,
      "Ġdeputat": 4690,
      "Ġkompaniyalar": 4691,
      "ĠYuqori": 4692,
      "Ġnuf": 4693,
      "Ġminnat": 4694,
      "Ġxotira": 4695,
      "grafi": 4696,
      "Ġvaqtinchalik": 4697,
      "Ġjad": 4698,
      "ĠkÅılam": 4699,
      "Ġkompaniyasining": 4700,
      "Ġprezidentining": 4701,
      "Ġpla": 4702,
      "ĠSam": 4703,
      "Ġtransp": 4704,
      "ĠChempi": 4705,
      "vin": 4706,
      "Ġ38": 4707,
      "ĠMana": 4708,
      "ĠnotÅıÄŁri": 4709,
      "ĠBax": 4710,
      "ĠbÅılganlar": 4711,
      "Ġloyihalarni": 4712,
      "yab": 4713,
      "Ġprofessional": 4714,
      "Ġreklama": 4715,
      "Ġinsonlar": 4716,
      "Ġkiritildi": 4717,
      "oliq": 4718,
      "Ġborasidagi": 4719,
      "ĠÅıxshash": 4720,
      "uters": 4721,
      "Ġstandart": 4722,
      "Ġtashkilo": 4723,
      "Ġshamol": 4724,
      "nita": 4725,
      "ĠAli": 4726,
      "Li": 4727,
      "yiq": 4728,
      "Ġchorak": 4729,
      "yohvan": 4730,
      "ningiz": 4731,
      "Ġqurilgan": 4732,
      "IA": 4733,
      "ĠAlisher": 4734,
      "Ġchiqarishni": 4735,
      "roli": 4736,
      "Ġqaytarib": 4737,
      "ĠÅıtkazadi": 4738,
      "Ġtaf": 4739,
      "ĠReuters": 4740,
      "huquqiy": 4741,
      "Ġbila": 4742,
      "Ġqanchalik": 4743,
      "chil": 4744,
      "Ġyurtimiz": 4745,
      "Ġinshoot": 4746,
      "rang": 4747,
      "roh": 4748,
      "Da": 4749,
      "Ġyop": 4750,
      "Ġberadigan": 4751,
      "ĠRonaldu": 4752,
      "Ġfoydalangan": 4753,
      "ĠMer": 4754,
      "Ġnavbatda": 4755,
      "Ġintervyusida": 4756,
      "ĠmablaÄŁlar": 4757,
      "Ġshunga": 4758,
      "tra": 4759,
      "kum": 4760,
      "Ġlavozimida": 4761,
      "Ġsuvi": 4762,
      "Ġprofilak": 4763,
      "Ġulushi": 4764,
      "unos": 4765,
      "Ġimkoniyatini": 4766,
      "Ġepi": 4767,
      "ĠbÅısha": 4768,
      "Ġtekshirish": 4769,
      "Ġboshchiligidagi": 4770,
      "Ġtab": 4771,
      "Ġreyting": 4772,
      "kÅı": 4773,
      "shiy": 4774,
      "Ġprokuraturasi": 4775,
      "entina": 4776,
      "Ar": 4777,
      "manitar": 4778,
      "Ġniya": 4779,
      "Ġxabardor": 4780,
      "Ġmoni": 4781,
      "Ġtransfer": 4782,
      "Ġmuqa": 4783,
      "Ġhammasi": 4784,
      "Ġcheklangan": 4785,
      "Ġyal": 4786,
      "urilish": 4787,
      "Ġmamlakatlari": 4788,
      "Ġhaqiqat": 4789,
      "Ġekanligi": 4790,
      "inot": 4791,
      "Rossiya": 4792,
      "Ġsamolyoti": 4793,
      "Ġxususiya": 4794,
      "ĠXu": 4795,
      "vfsizlik": 4796,
      "ĠMin": 4797,
      "tirmoqda": 4798,
      "Ġfarmoni": 4799,
      "Ġegallagan": 4800,
      "gen": 4801,
      "rayotgan": 4802,
      "ĠOr": 4803,
      "ĠÅısim": 4804,
      "Ġdavolash": 4805,
      "mada": 4806,
      "atsiyasi": 4807,
      "Ġeksperti": 4808,
      "ĠDar": 4809,
      "DH": 4810,
      "Ġvarian": 4811,
      "17": 4812,
      "xe": 4813,
      "ĠTergov": 4814,
      "Ġtarqalgan": 4815,
      "dagilar": 4816,
      "Ġshunchaki": 4817,
      "ĠÅırinni": 4818,
      "Ġortiqcha": 4819,
      "Ġpiyoda": 4820,
      "Ġkengay": 4821,
      "Ġnomzo": 4822,
      "ĠUluÄŁ": 4823,
      "liyev": 4824,
      "linika": 4825,
      "Ġketa": 4826,
      "Ġyotqi": 4827,
      "Ġkelishuvga": 4828,
      "ssi": 4829,
      "Ġdron": 4830,
      "nitariya": 4831,
      "taj": 4832,
      "sariya": 4833,
      "Ġshakllan": 4834,
      "oratoriya": 4835,
      "ĠUy": 4836,
      "ÅırÄŁon": 4837,
      "ĠOlim": 4838,
      "aroq": 4839,
      "Ġminglab": 4840,
      "Ġmingta": 4841,
      "uga": 4842,
      "Ġmini": 4843,
      "Ġyetkazilgan": 4844,
      "liklarga": 4845,
      "ĠMaktab": 4846,
      "IM": 4847,
      "od": 4848,
      "ĠKom": 4849,
      "lasi": 4850,
      "Me": 4851,
      "ĠDon": 4852,
      "Ġmutla": 4853,
      "biyi": 4854,
      "rem": 4855,
      "Ġbutunlay": 4856,
      "Ġfaoliyatiga": 4857,
      "Ġvalyuta": 4858,
      "Ġdalil": 4859,
      "Ġtr": 4860,
      "Ġoylarida": 4861,
      "Ġshaf": 4862,
      "Ġmarosimi": 4863,
      "Ġisi": 4864,
      "ĠFuqaro": 4865,
      "tiy": 4866,
      "Ġprogno": 4867,
      "zbekistan": 4868,
      "Ġrejalashtir": 4869,
      "ĠUmuman": 4870,
      "nizatsiya": 4871,
      "ham": 4872,
      "Ġvazirining": 4873,
      "Ġball": 4874,
      "Ġhujjatlari": 4875,
      "Ġkompleks": 4876,
      "Ġfax": 4877,
      "ĠNashr": 4878,
      "Ġjadal": 4879,
      "nis": 4880,
      "Ġmikro": 4881,
      "yuro": 4882,
      "Ġpuli": 4883,
      "ĠyÅılida": 4884,
      "Ġmurabbiyi": 4885,
      "garchilik": 4886,
      "Ġaksi": 4887,
      "ĠAleksandr": 4888,
      "Ġkadrlar": 4889,
      "Åırinni": 4890,
      "gini": 4891,
      "Ġtopildi": 4892,
      "Ġoyda": 4893,
      "Ġaskar": 4894,
      "ligining": 4895,
      "Ġpaytida": 4896,
      "lganini": 4897,
      "layotganini": 4898,
      "22": 4899,
      "sozlik": 4900,
      "qibat": 4901,
      "Ġbiriga": 4902,
      "Ġxavfsizligini": 4903,
      "yob": 4904,
      "Ġfunksiya": 4905,
      "kto": 4906,
      "ĠUs": 4907,
      "Ġmuallif": 4908,
      "Ġyurish": 4909,
      "Ġaylangan": 4910,
      "Ġchalingan": 4911,
      "Ġqal": 4912,
      "ĠShvetsiya": 4913,
      "ĠsÅırab": 4914,
      "Ġarafa": 4915,
      "Ġqolgani": 4916,
      "Ġchempioni": 4917,
      "bÅı": 4918,
      "chilarni": 4919,
      "parvar": 4920,
      "Ġqud": 4921,
      "Ġishlaydi": 4922,
      "Ġqiziqish": 4923,
      "Ġketayotgan": 4924,
      "ngda": 4925,
      "lastin": 4926,
      "Ġshaxslarning": 4927,
      "ek": 4928,
      "tadigan": 4929,
      "ĠÅızlari": 4930,
      "Ġdaryo": 4931,
      "Ġok": 4932,
      "Ġishini": 4933,
      "Ġbayono": 4934,
      "am": 4935,
      "Ġxabarida": 4936,
      "bosqich": 4937,
      "Ġqarin": 4938,
      "Ġuzi": 4939,
      "Ġgazeta": 4940,
      "sun": 4941,
      "chini": 4942,
      "Ġuchuvchi": 4943,
      "Ġkishiga": 4944,
      "Ġnazora": 4945,
      "ĠMDH": 4946,
      "yasi": 4947,
      "Ġalla": 4948,
      "Ġkeladigan": 4949,
      "Ġpu": 4950,
      "ĠIjtimoiy": 4951,
      "Ġavlod": 4952,
      "Ġadolat": 4953,
      "Ġtat": 4954,
      "qachon": 4955,
      "shunos": 4956,
      "Ġ2013": 4957,
      "ln": 4958,
      "zov": 4959,
      "gist": 4960,
      "Ġvazifasi": 4961,
      "liklarini": 4962,
      "Ġqaytarish": 4963,
      "hol": 4964,
      "ĠPor": 4965,
      "ĠPoli": 4966,
      "Ġrazvedka": 4967,
      "Ġtashabbusi": 4968,
      "ĠÅıÄŁli": 4969,
      "Ġoilaviy": 4970,
      "Ġnarsani": 4971,
      "ahar": 4972,
      "lokat": 4973,
      "Ġkeyinchalik": 4974,
      "Ġkorxonasi": 4975,
      "ĠBAA": 4976,
      "Ġtakliflar": 4977,
      "Ġsiyosati": 4978,
      "Ġtatbiq": 4979,
      "Ġoshirilayotgan": 4980,
      "Ġyori": 4981,
      "Ġbildirish": 4982,
      "nay": 4983,
      "zavo": 4984,
      "Ġhakam": 4985,
      "ÄŁal": 4986,
      "Ġuyda": 4987,
      "loniya": 4988,
      "Ġfoizini": 4989,
      "Ġaktiv": 4990,
      "ĠYun": 4991,
      "Ġlaboratoriya": 4992,
      "ĠJu": 4993,
      "lsa": 4994,
      "ĠyoÄŁ": 4995,
      "Ġsektor": 4996,
      "Ġxotin": 4997,
      "York": 4998,
      "Ġmansabdor": 4999,
      "Ġshifoxonaga": 5000,
      "Ġtarmoqlari": 5001,
      "Ġqochqin": 5002,
      "ĠSharq": 5003,
      "Ġkonferensiya": 5004,
      "24": 5005,
      "tirilishi": 5006,
      "Ġurushi": 5007,
      "para": 5008,
      "Ġsertifikat": 5009,
      "yeva": 5010,
      "ĠQishloq": 5011,
      "Ġhisobda": 5012,
      "larim": 5013,
      "ĠsoliÄŁi": 5014,
      "Ġqayt": 5015,
      "Ġbatafsil": 5016,
      "Ġmutaxassislari": 5017,
      "Ġzilzila": 5018,
      "Ġimzolangan": 5019,
      "Ne": 5020,
      "Ġamalda": 5021,
      "Ġetishni": 5022,
      "Ġinti": 5023,
      "ĠUkrainaning": 5024,
      "Ġkeltirgan": 5025,
      "Ġsudga": 5026,
      "Ġidoralar": 5027,
      "Ġsonini": 5028,
      "ĠBÅı": 5029,
      "ĠAk": 5030,
      "Ġkamaytirish": 5031,
      "ĠPort": 5032,
      "Ġetayotgan": 5033,
      "Ġnafardan": 5034,
      "Ġxayriya": 5035,
      "ĠOTM": 5036,
      "din": 5037,
      "To": 5038,
      "Ġstavka": 5039,
      "Ġxur": 5040,
      "mayman": 5041,
      "ĠÅılcha": 5042,
      "ĠyÅıqligi": 5043,
      "Ġ48": 5044,
      "ĠBr": 5045,
      "Ġnafarga": 5046,
      "ĠyÅınalishida": 5047,
      "Ġmusulmon": 5048,
      "ÄŁilish": 5049,
      "iloyat": 5050,
      "sov": 5051,
      "sav": 5052,
      "Ġinte": 5053,
      "ktura": 5054,
      "Ġborligini": 5055,
      "Ġyakuniy": 5056,
      "Ġurinish": 5057,
      "ĠbÅılsak": 5058,
      "ĠkÅıchasi": 5059,
      "sand": 5060,
      "Ġquvva": 5061,
      "Ġ75": 5062,
      "Ġsaqlanib": 5063,
      "ĠHay": 5064,
      "Ġsohada": 5065,
      "Ġahamiyatga": 5066,
      "Ġegasi": 5067,
      "Ġvazn": 5068,
      "Ġmalakali": 5069,
      "Ġharorat": 5070,
      "Ġsinf": 5071,
      "Ġmer": 5072,
      "ĠÅırga": 5073,
      "Ġaybdor": 5074,
      "fan": 5075,
      "Ġboshlanishi": 5076,
      "Ġallaqachon": 5077,
      "kun": 5078,
      "poli": 5079,
      "Ġetilmoqda": 5080,
      "usxa": 5081,
      "vosti": 5082,
      "Ġtiklash": 5083,
      "Ġyakuniga": 5084,
      "Ġdiplomatik": 5085,
      "Ġkonsul": 5086,
      "ĠFaqat": 5087,
      "ĠUluÄŁbek": 5088,
      "inlaydi": 5089,
      "Ġozodlikdan": 5090,
      "Ġgiyohvan": 5091,
      "ĠyÅınalishlari": 5092,
      "Ġidoralari": 5093,
      "Ġsotuv": 5094,
      "ĠTay": 5095,
      "gratsiya": 5096,
      "Ġdarajasini": 5097,
      "Ġmamlakatga": 5098,
      "Ġbirja": 5099,
      "ologiya": 5100,
      "mul": 5101,
      "mos": 5102,
      "eys": 5103,
      "nining": 5104,
      "ĠkÅırsatdi": 5105,
      "Men": 5106,
      "Ġarafasida": 5107,
      "Ġavtomo": 5108,
      "Åıravon": 5109,
      "Ġtasdiqladi": 5110,
      "35": 5111,
      "Ġmarkazlari": 5112,
      "ĠEk": 5113,
      "Ġmetal": 5114,
      "mativ": 5115,
      "Ġrubl": 5116,
      "ĠRas": 5117,
      "Ġmunosabatlar": 5118,
      "Ġaholini": 5119,
      "ĠAgent": 5120,
      "Ġfut": 5121,
      "ilon": 5122,
      "Ġmezbon": 5123,
      "Ġnorozilik": 5124,
      "ĠKatta": 5125,
      "ĠQi": 5126,
      "ĠKonstitutsiya": 5127,
      "Ġqamrab": 5128,
      "Ġaslida": 5129,
      "Ġdavla": 5130,
      "Ġtrln": 5131,
      "Ġtizimiga": 5132,
      "lmay": 5133,
      "Ġbari": 5134,
      "ĠrÅıyxati": 5135,
      "Ġyuldu": 5136,
      "Ġsayohat": 5137,
      "Ġqidiruv": 5138,
      "Ġqarat": 5139,
      "ĠAvva": 5140,
      "ĠAxborot": 5141,
      "ĠUz": 5142,
      "Ġpara": 5143,
      "Ġkirishi": 5144,
      "Ġnafaqa": 5145,
      "Ġtaqdimo": 5146,
      "mazon": 5147,
      "oda": 5148,
      "Ġaylanib": 5149,
      "Ġkommunikatsiya": 5150,
      "maga": 5151,
      "Ġhuquqni": 5152,
      "ci": 5153,
      "Ta": 5154,
      "Ġhayvon": 5155,
      "Ġsifatini": 5156,
      "Ġtartibini": 5157,
      "kim": 5158,
      "Ġisbot": 5159,
      "Ġurin": 5160,
      "Ġhaftada": 5161,
      "Ġinspeksiya": 5162,
      "Ġjangovar": 5163,
      "noq": 5164,
      "vatsiya": 5165,
      "Ġnusxa": 5166,
      "Ġsurishtiruv": 5167,
      "ĠAQShga": 5168,
      "Ġshundaki": 5169,
      "Ġiqtisodiyo": 5170,
      "ĠÅıtayotgan": 5171,
      "ĠtÅıqnashuv": 5172,
      "naviy": 5173,
      "Ġyigit": 5174,
      "Ba": 5175,
      "savv": 5176,
      "BC": 5177,
      "ĠkÅıngil": 5178,
      "Ġbaliq": 5179,
      "Ġhollarda": 5180,
      "Ġqiymat": 5181,
      "Ġmusi": 5182,
      "demi": 5183,
      "drid": 5184,
      "ulton": 5185,
      "Ġekspertiza": 5186,
      "AM": 5187,
      "iri": 5188,
      "Ġrahbarining": 5189,
      "Ġyadroviy": 5190,
      "ray": 5191,
      "Ġpoytaxt": 5192,
      "XX": 5193,
      "ksimal": 5194,
      "dernizatsiya": 5195,
      "Ġqiyinchilik": 5196,
      "Manchester": 5197,
      "ĠFI": 5198,
      "Ġmamlakatdagi": 5199,
      "tigi": 5200,
      "Ka": 5201,
      "Ġbirlash": 5202,
      "Ġnaqd": 5203,
      "Ġtortib": 5204,
      "gentina": 5205,
      "Ġyuritish": 5206,
      "lya": 5207,
      "lidagi": 5208,
      "Ġoldingi": 5209,
      "Ġhokimiyati": 5210,
      "Ġetuvchi": 5211,
      "Ġhuquqini": 5212,
      "baho": 5213,
      "Ġmillat": 5214,
      "Ġ55": 5215,
      "ĠShahar": 5216,
      "ĠbÅılardi": 5217,
      "Ġyetti": 5218,
      "ĠBuni": 5219,
      "pon": 5220,
      "esti": 5221,
      "rilgani": 5222,
      "Ġqilinib": 5223,
      "ksika": 5224,
      "dia": 5225,
      "Ġxodimlarining": 5226,
      "Ġtalablariga": 5227,
      "Ġvide": 5228,
      "Va": 5229,
      "ĠsÅıragan": 5230,
      "Ġistalgan": 5231,
      "Ġmukofo": 5232,
      "ĠAna": 5233,
      "ĠbÅıladigan": 5234,
      "Ġrivojlantirishga": 5235,
      "Ġyurt": 5236,
      "ĠqÅıyiladi": 5237,
      "Ġmonitori": 5238,
      "Ġtarif": 5239,
      "Ġtayyorlangan": 5240,
      "Ġqozo": 5241,
      "Ġochish": 5242,
      "Ġoblasti": 5243,
      "45": 5244,
      "Ġvaziyatlar": 5245,
      "tom": 5246,
      "ĠViloyat": 5247,
      "hor": 5248,
      "qÅırÄŁon": 5249,
      "mom": 5250,
      "Ġhamka": 5251,
      "jonov": 5252,
      "Ġblok": 5253,
      "zilgan": 5254,
      "Ġniqo": 5255,
      "shidagi": 5256,
      "Ġegalladi": 5257,
      "ĠsÅıradi": 5258,
      "yn": 5259,
      "Ġbom": 5260,
      "veyt": 5261,
      "Ġajratish": 5262,
      "Ġsentyabr": 5263,
      "Ġborilgan": 5264,
      "lashtirishga": 5265,
      "Ġmaktabgacha": 5266,
      "Ġtashish": 5267,
      "Ġshuning": 5268,
      "Ġbordi": 5269,
      "langanlar": 5270,
      "foga": 5271,
      "ĠÅıylab": 5272,
      "chiga": 5273,
      "Ġqisqartirish": 5274,
      "texnika": 5275,
      "Ġmodernizatsiya": 5276,
      "Ġdaraxt": 5277,
      "ĠyÅınalishda": 5278,
      "veytsariya": 5279,
      "II": 5280,
      "ĠÅıtkaziladigan": 5281,
      "Ġstar": 5282,
      "miyati": 5283,
      "sotsi": 5284,
      "Ġmashinasi": 5285,
      "Ġdengi": 5286,
      "ogle": 5287,
      "vit": 5288,
      "Ġbosi": 5289,
      "Ġmaydonida": 5290,
      "Ġmexanizm": 5291,
      "Ġfirib": 5292,
      "2018": 5293,
      "Ġdizay": 5294,
      "Ġmening": 5295,
      "Ġniho": 5296,
      "Ġqism": 5297,
      "zara": 5298,
      "vokat": 5299,
      "ruziya": 5300,
      "Ġoldindan": 5301,
      "Ġolgani": 5302,
      "Ġgacha": 5303,
      "yun": 5304,
      "Ġvay": 5305,
      "daydir": 5306,
      "Ġoxirigacha": 5307,
      "Ġdeyish": 5308,
      "Ġfoydalanib": 5309,
      "Ġqahra": 5310,
      "lardi": 5311,
      "Ġyozgan": 5312,
      "Ġbozorida": 5313,
      "kal": 5314,
      "ÄŁoq": 5315,
      "ĠUkrainadagi": 5316,
      "ĠzÅıravon": 5317,
      "ĠPekin": 5318,
      "Ġkengash": 5319,
      "eter": 5320,
      "Ġhisoblangan": 5321,
      "hone": 5322,
      "80": 5323,
      "ova": 5324,
      "Ġorzu": 5325,
      "preziden": 5326,
      "ksa": 5327,
      "ÄŁich": 5328,
      "Ġqobili": 5329,
      "Ġqilingani": 5330,
      "Ġvaziyatda": 5331,
      "lyapti": 5332,
      "Ġmuhandi": 5333,
      "orat": 5334,
      "Ġbyuro": 5335,
      "Ġpenal": 5336,
      "ly": 5337,
      "enesu": 5338,
      "Ġjoyiga": 5339,
      "Ġ39": 5340,
      "Ġmunosabatlari": 5341,
      "Ġstatistika": 5342,
      "Ġdavrda": 5343,
      "SSR": 5344,
      "Ġberilgandi": 5345,
      "fir": 5346,
      "ĠbÅılayotgan": 5347,
      "Ġbaravar": 5348,
      "suski": 5349,
      "ktiv": 5350,
      "Ġseriya": 5351,
      "Ġboshqalar": 5352,
      "Ġtarkibiga": 5353,
      "ĠkÅılamli": 5354,
      "Ġkishilar": 5355,
      "Ġhokimining": 5356,
      "ĠyÅıqotish": 5357,
      "13": 5358,
      "zidan": 5359,
      "Ġsifati": 5360,
      "Ġtakror": 5361,
      "alliy": 5362,
      "Ġtayanib": 5363,
      "Ġqiling": 5364,
      "Ġqilinayotgan": 5365,
      "yov": 5366,
      "uliyat": 5367,
      "ksion": 5368,
      "Ġfran": 5369,
      "ĠGul": 5370,
      "ziyat": 5371,
      "Åıjayev": 5372,
      "Ġjoizki": 5373,
      "ĠTs": 5374,
      "Ġnatijalariga": 5375,
      "anaviy": 5376,
      "Ġixtiyo": 5377,
      "ishiy": 5378,
      "ĠEndilikda": 5379,
      "14": 5380,
      "Ġsayti": 5381,
      "shahar": 5382,
      "Ġdirektor": 5383,
      "Ġzimmasiga": 5384,
      "Ġtuzil": 5385,
      "Ġhujumi": 5386,
      "Ġqadr": 5387,
      "dorlari": 5388,
      "Ġtov": 5389,
      "boÄŁ": 5390,
      "Ġchar": 5391,
      "Ġshahriga": 5392,
      "ĠÅızgarishi": 5393,
      "matov": 5394,
      "Ġdia": 5395,
      "ĠQodi": 5396,
      "Ġaniqlik": 5397,
      "ĠZo": 5398,
      "Ġyetmagan": 5399,
      "ĠGre": 5400,
      "Ġmoddalar": 5401,
      "ĠShunga": 5402,
      "up": 5403,
      "Ġtomonlar": 5404,
      "ĠÅıtkazishga": 5405,
      "Ġnomli": 5406,
      "nim": 5407,
      "Ġqano": 5408,
      "Ġdeputatlari": 5409,
      "Ġekologik": 5410,
      "bob": 5411,
      "Ġjurnalistlar": 5412,
      "muhi": 5413,
      "Ġustiga": 5414,
      "inlangan": 5415,
      "ĠbÅılishdi": 5416,
      "ĠInve": 5417,
      "Ġmajli": 5418,
      "Ġtort": 5419,
      "chak": 5420,
      "ĠkÅıprik": 5421,
      "ĠilÄŁor": 5422,
      "pen": 5423,
      "Ġatigi": 5424,
      "xonaga": 5425,
      "mand": 5426,
      "tilmagan": 5427,
      "Ġ42": 5428,
      "Ġishlashi": 5429,
      "Ġmahsulo": 5430,
      "Ġmuassasalarida": 5431,
      "ĠoÄŁri": 5432,
      "ĠShveytsariya": 5433,
      "uso": 5434,
      "Ġetishicha": 5435,
      "Ġholatga": 5436,
      "Ġdelegatsiyasi": 5437,
      "ĠChempionlar": 5438,
      "las": 5439,
      "orda": 5440,
      "bilar": 5441,
      "Ġbizni": 5442,
      "Ġyalpi": 5443,
      "Ġyoqil": 5444,
      "ĠOxirgi": 5445,
      "Ġloyihalari": 5446,
      "Ġ196": 5447,
      "ĠGoogle": 5448,
      "Ġkerakki": 5449,
      "ĠtÅıxtatish": 5450,
      "Ġkorxonalari": 5451,
      "Ġtub": 5452,
      "ĠQiz": 5453,
      "kidlagan": 5454,
      "Ġoshirgan": 5455,
      "kidlandi": 5456,
      "Ġjazosi": 5457,
      "Ġoshirildi": 5458,
      "uzli": 5459,
      "Ġehtimoli": 5460,
      "Ġsohi": 5461,
      "ĠGi": 5462,
      "Ġxursand": 5463,
      "Ġmaslahatchisi": 5464,
      "doshi": 5465,
      "savvur": 5466,
      "konstruksiya": 5467,
      "Ġquyosh": 5468,
      "parat": 5469,
      "Ġarxi": 5470,
      "Ġbarava": 5471,
      "Ġruhi": 5472,
      "ĠSSSR": 5473,
      "Ġoldidan": 5474,
      "Ġkos": 5475,
      "Ġiqlim": 5476,
      "Ġpasay": 5477,
      "ĠTurkiyaning": 5478,
      "tanbul": 5479,
      "Ġjavobgarlikka": 5480,
      "let": 5481,
      "bosh": 5482,
      "Ġkishining": 5483,
      "tepa": 5484,
      "Ġjadva": 5485,
      "ĠFutbol": 5486,
      "Ġodamlarni": 5487,
      "Ġinvestitsiyalar": 5488,
      "stona": 5489,
      "Ġetilgani": 5490,
      "XR": 5491,
      "Ġokru": 5492,
      "Ġshifokorlar": 5493,
      "ĠkÅıchmas": 5494,
      "Ġyurak": 5495,
      "ĠFIFA": 5496,
      "Ġyozib": 5497,
      "Ġtashlab": 5498,
      "kommunikatsiya": 5499,
      "ĠMessi": 5500,
      "ĠIstanbul": 5501,
      "qizlar": 5502,
      "lament": 5503,
      "ĠTuri": 5504,
      "kir": 5505,
      "Ġfarzandi": 5506,
      "Ġbinoan": 5507,
      "200": 5508,
      "enesuela": 5509,
      "korlar": 5510,
      "Ġturk": 5511,
      "Ġishtirokchilari": 5512,
      "daqiqada": 5513,
      "ĠKrem": 5514,
      "Ġoshkor": 5515,
      "Ġavvalo": 5516,
      "Ġtuzish": 5517,
      "Ġbirik": 5518,
      "Ġkampaniya": 5519,
      "lasha": 5520,
      "Ġoz": 5521,
      "ĠOy": 5522,
      "mala": 5523,
      "Ġzavod": 5524,
      "ota": 5525,
      "ans": 5526,
      "Ġsavolga": 5527,
      "yul": 5528,
      "xtakor": 5529,
      "ĠAynan": 5530,
      "anda": 5531,
      "ON": 5532,
      "Ġanti": 5533,
      "Ġortda": 5534,
      "Ġqaytar": 5535,
      "kuror": 5536,
      "larimizning": 5537,
      "Ġtopshirildi": 5538,
      "ĠKeyingi": 5539,
      "Ġijaraga": 5540,
      "Ġot": 5541,
      "Ġqandaydir": 5542,
      "ĠManba": 5543,
      "Åıst": 5544,
      "Ġkuzatilgan": 5545,
      "Phone": 5546,
      "Ġviloyatlar": 5547,
      "Ġoshirilmoqda": 5548,
      "ĠNazarbo": 5549,
      "ĠToshkentdagi": 5550,
      "derlandiya": 5551,
      "Ġsizga": 5552,
      "Ġbitim": 5553,
      "ĠAholi": 5554,
      "onalar": 5555,
      "Ġkamroq": 5556,
      "Ġqilinadigan": 5557,
      "ĠSt": 5558,
      "TH": 5559,
      "ĠUzbekistan": 5560,
      "tash": 5561,
      "mali": 5562,
      "Ġturlari": 5563,
      "ĠOdam": 5564,
      "yam": 5565,
      "Ġ2012": 5566,
      "jyet": 5567,
      "Ġhududidan": 5568,
      "Ġpasport": 5569,
      "ĠÅısishi": 5570,
      "manda": 5571,
      "ĠCha": 5572,
      "Ġkay": 5573,
      "Ġqotil": 5574,
      "pur": 5575,
      "Ġolimlar": 5576,
      "Ġyashirin": 5577,
      "rining": 5578,
      "nalida": 5579,
      "ĠVoqea": 5580,
      "Ġreal": 5581,
      "Ġsohasi": 5582,
      "ĠIb": 5583,
      "Ġvazifalar": 5584,
      "Ġxolos": 5585,
      "Ġchiqiladi": 5586,
      "mur": 5587,
      "Ġkuzatib": 5588,
      "Ġehtimol": 5589,
      "Ġjanu": 5590,
      "ĠRF": 5591,
      "Ġevaku": 5592,
      "qarli": 5593,
      "Ye": 5594,
      "Ġmaktabi": 5595,
      "tez": 5596,
      "Ġchipta": 5597,
      "Ġ65": 5598,
      "Ġkuzatuv": 5599,
      "krain": 5600,
      "essiya": 5601,
      "ĠChen": 5602,
      "Ġtashvi": 5603,
      "Ġtizimlari": 5604,
      "Ġtasi": 5605,
      "2020": 5606,
      "Ġmasalasini": 5607,
      "Ġtadqiqotlar": 5608,
      "Ġemasligi": 5609,
      "Ġkonstitutsiya": 5610,
      "ĠtÅıxtatib": 5611,
      "Ġprofilaktika": 5612,
      "Ġ44": 5613,
      "Ġdegani": 5614,
      "Ġkanali": 5615,
      "Al": 5616,
      "OV": 5617,
      "ĠXavfsizlik": 5618,
      "ĠraÄŁbatlantirish": 5619,
      "Ġoluvchi": 5620,
      "Ġqidi": 5621,
      "ĠAnqara": 5622,
      "ĠkÅırik": 5623,
      "ĠAso": 5624,
      "Ġterrorchilik": 5625,
      "Ġviloyatidagi": 5626,
      "uy": 5627,
      "Ġsakki": 5628,
      "ĠboÄŁcha": 5629,
      "lang": 5630,
      "Ġlavozimidan": 5631,
      "ddam": 5632,
      "Ġsamaradorligini": 5633,
      "Ġmax": 5634,
      "Ġbelgilash": 5635,
      "ĠQolaversa": 5636,
      "Ġfarmon": 5637,
      "Ġoldinroq": 5638,
      "lav": 5639,
      "ĠButun": 5640,
      "Yu": 5641,
      "ĠÅİrta": 5642,
      "sharo": 5643,
      "Ġetishdi": 5644,
      "Ġyechim": 5645,
      "Ġharorati": 5646,
      "Ġularda": 5647,
      "Ġqaytib": 5648,
      "niqli": 5649,
      "ĠÅırto": 5650,
      "Ġaytilmoqda": 5651,
      "Ġhamon": 5652,
      "iroz": 5653,
      "Ġchiqishga": 5654,
      "Ġsharoitida": 5655,
      "Ġsahifasida": 5656,
      "Ġtilida": 5657,
      "ĠVal": 5658,
      "Ġelchixona": 5659,
      "roy": 5660,
      "rom": 5661,
      "Ġfir": 5662,
      "Ġimkoniyatlar": 5663,
      "ĠTÅıÄŁri": 5664,
      "Ġnufuzli": 5665,
      "dova": 5666,
      "ĠYÅı": 5667,
      "Ġolganda": 5668,
      "Ġchoralarini": 5669,
      "Ġyozmoqda": 5670,
      "ĠiPhone": 5671,
      "Ġrejalashtirmoqda": 5672,
      "ĠGruziya": 5673,
      "Ġhuquqlarini": 5674,
      "Ġyakunida": 5675,
      "lion": 5676,
      "Ġbizda": 5677,
      "ĠqÅıshinlari": 5678,
      "Ġsaro": 5679,
      "ĠRu": 5680,
      "Ġbunda": 5681,
      "novi": 5682,
      "larimizga": 5683,
      "ĠJam": 5684,
      "ĠrÅı": 5685,
      "ĠRossiyadan": 5686,
      "Ġtarqalishi": 5687,
      "ĠyiÄŁilishida": 5688,
      "Ġxatti": 5689,
      "ĠSuper": 5690,
      "tani": 5691,
      "Ġyubordi": 5692,
      "Ġkiyim": 5693,
      "Ġfutbo": 5694,
      "37": 5695,
      "Ġotish": 5696,
      "ydin": 5697,
      "mashyo": 5698,
      "ĠyoÄŁi": 5699,
      "ĠtÅılab": 5700,
      "Ġmisol": 5701,
      "ĠDmit": 5702,
      "Ġ2011": 5703,
      "Ġ600": 5704,
      "Ġjarayonini": 5705,
      "Ġaloqalarni": 5706,
      "ĠTimes": 5707,
      "ĠEn": 5708,
      "Ġyetishtirish": 5709,
      "ĠMada": 5710,
      "Ġchempionat": 5711,
      "Ġbelgilanadi": 5712,
      "ĠDil": 5713,
      "sev": 5714,
      "Ġqonunga": 5715,
      "Ġmajlis": 5716,
      "Ġvitse": 5717,
      "Ġbosqichda": 5718,
      "lashtiradi": 5719,
      "Ġolinishi": 5720,
      "ĠÅırinbosar": 5721,
      "Ġegalari": 5722,
      "Ġolishdi": 5723,
      "Ġpunk": 5724,
      "Ġsil": 5725,
      "Ġhududidagi": 5726,
      "Ġqaramasdan": 5727,
      "baÄŁal": 5728,
      "Ġmuallifi": 5729,
      "erna": 5730,
      "Shu": 5731,
      "Ġqilaman": 5732,
      "Ġoshishi": 5733,
      "Ġkanal": 5734,
      "Ġqilishadi": 5735,
      "Ġdavlatga": 5736,
      "ĠMeksika": 5737,
      "ugaliya": 5738,
      "Ġsoxta": 5739,
      "Ġshak": 5740,
      "Ġekspert": 5741,
      "ĠMusta": 5742,
      "lolat": 5743,
      "Ġuyida": 5744,
      "Ġzo": 5745,
      "Ġtaom": 5746,
      "ger": 5747,
      "Ġkayfi": 5748,
      "Ġhududlar": 5749,
      "ĠRespublikasida": 5750,
      "Ġqarindosh": 5751,
      "Ġmaydonda": 5752,
      "90": 5753,
      "Ġkursi": 5754,
      "ĠtÅırtinchi": 5755,
      "Ġxoli": 5756,
      "Ġuylar": 5757,
      "Ġmahsulotlarni": 5758,
      "Ġniqob": 5759,
      "Ġquruq": 5760,
      "bri": 5761,
      "ruq": 5762,
      "Ġtasdiqlash": 5763,
      "998": 5764,
      "ĠkÅırin": 5765,
      "ĠqÅıshib": 5766,
      "qasi": 5767,
      "Ġkompaniyaning": 5768,
      "Ġostiga": 5769,
      "Ġrekonstruksiya": 5770,
      "ayyan": 5771,
      "ĠYTH": 5772,
      "Ġettirish": 5773,
      "Ġharbiylari": 5774,
      "midan": 5775,
      "Ġjoylashtirilgan": 5776,
      "Ġyoshi": 5777,
      "Ġekst": 5778,
      "Ġbirining": 5779,
      "Ġmaksimal": 5780,
      "ĠNazarboyev": 5781,
      "sung": 5782,
      "ĠÅıtkazil": 5783,
      "Ġchempionatida": 5784,
      "Ġusu": 5785,
      "Ġqildik": 5786,
      "storan": 5787,
      "Ġhisoblash": 5788,
      "udlik": 5789,
      "ĠJye": 5790,
      "lashishi": 5791,
      "Ġqilishlari": 5792,
      "Ġcheklovlar": 5793,
      "Bo": 5794,
      "Ġimzolandi": 5795,
      "tellekt": 5796,
      "Ġevakuatsiya": 5797,
      "Ġzahar": 5798,
      "ĠÅıqitish": 5799,
      "Ġkvar": 5800,
      "ted": 5801,
      "hum": 5802,
      "ripov": 5803,
      "Ġekin": 5804,
      "ĠInson": 5805,
      "demik": 5806,
      "gal": 5807,
      "nar": 5808,
      "Ġpora": 5809,
      "Ġtexnologik": 5810,
      "ĠGe": 5811,
      "ĠKoronavirus": 5812,
      "Ġhalokat": 5813,
      "ĠAslida": 5814,
      "ĠMahalliy": 5815,
      "Ġuchragan": 5816,
      "Ġrivoji": 5817,
      "qol": 5818,
      "tsion": 5819,
      "Ġatadi": 5820,
      "Ġgeneral": 5821,
      "Ġben": 5822,
      "Ġ47": 5823,
      "Ġasoschisi": 5824,
      "ĠMutaxassis": 5825,
      "ĠyoqilÄŁi": 5826,
      "Ġjarohati": 5827,
      "ĠVenesuela": 5828,
      "Ġsodda": 5829,
      "Ġkal": 5830,
      "yora": 5831,
      "jia": 5832,
      "Ġshartnomasi": 5833,
      "ĠJamoa": 5834,
      "hunar": 5835,
      "Ġqoli": 5836,
      "ĠIqtiso": 5837,
      "Ġyakka": 5838,
      "Ġsinovdan": 5839,
      "ĠqoÄŁoz": 5840,
      "lÄŁi": 5841,
      "ĠGro": 5842,
      "ĠTurkiyada": 5843,
      "Ġsuper": 5844,
      "ĠkÅırsatma": 5845,
      "ĠÅıquvchilar": 5846,
      "Ġbildirib": 5847,
      "elekt": 5848,
      "ĠAP": 5849,
      "fof": 5850,
      "mizdan": 5851,
      "Ġqas": 5852,
      "Ġtushirish": 5853,
      "ĠQarshi": 5854,
      "Ġjoni": 5855,
      "Ġgra": 5856,
      "Ġkelin": 5857,
      "ĠBizning": 5858,
      "23": 5859,
      "Ġplastik": 5860,
      "ĠÅırmon": 5861,
      "ensa": 5862,
      "Ġemasligini": 5863,
      "Ġsafida": 5864,
      "Ġtuzilma": 5865,
      "Ġgoli": 5866,
      "ĠFin": 5867,
      "Ġdviga": 5868,
      "Ġorol": 5869,
      "Ġkelajakda": 5870,
      "Ġvazirligiga": 5871,
      "ĠÅıyini": 5872,
      "Ġprofessor": 5873,
      "Ġkeli": 5874,
      "ĠSamarqandda": 5875,
      "chli": 5876,
      "Ġhamja": 5877,
      "Ġjavoban": 5878,
      "rans": 5879,
      "ca": 5880,
      "qima": 5881,
      "Ġ43": 5882,
      "Ġtezroq": 5883,
      "Ġquvur": 5884,
      "Ġqarash": 5885,
      "ĠPutinning": 5886,
      "Ġdalolat": 5887,
      "atto": 5888,
      "Ġpsi": 5889,
      "ĠAbdura": 5890,
      "Ġzid": 5891,
      "Ġxaridor": 5892,
      "ĠXi": 5893,
      "ĠÅırtoq": 5894,
      "Ġilm": 5895,
      "latsiya": 5896,
      "Ġmissiya": 5897,
      "Ġmasalasida": 5898,
      "Ġkelaja": 5899,
      "Ġdurang": 5900,
      "Ġkerakligi": 5901,
      "yapman": 5902,
      "Ġmadaniya": 5903,
      "Ġiltimo": 5904,
      "maslikka": 5905,
      "Ġjamoalar": 5906,
      "Ġiyu": 5907,
      "jam": 5908,
      "dra": 5909,
      "ĠPrezidentining": 5910,
      "Ġtanta": 5911,
      "Ġbinosi": 5912,
      "tses": 5913,
      "ĠYiÄŁilish": 5914,
      "ĠqÅımondon": 5915,
      "Ġqilishini": 5916,
      "ĠGollar": 5917,
      "Ġharakatlanish": 5918,
      "Ġ57": 5919,
      "Ġmaishiy": 5920,
      "Ġmulki": 5921,
      "Ġkengashining": 5922,
      "Kning": 5923,
      "TB": 5924,
      "turi": 5925,
      "mova": 5926,
      "Ġoshirib": 5927,
      "Ġbel": 5928,
      "ĠUlardan": 5929,
      "ĠPer": 5930,
      "Ġhajmini": 5931,
      "diyot": 5932,
      "ĠYon": 5933,
      "eterburg": 5934,
      "Ġerishgan": 5935,
      "Ġbuyu": 5936,
      "Ġdemokratik": 5937,
      "tdan": 5938,
      "nator": 5939,
      "ĠLukash": 5940,
      "Ġolayotgan": 5941,
      "Ġsuri": 5942,
      "chin": 5943,
      "ĠTashkil": 5944,
      "ĠShHT": 5945,
      "shid": 5946,
      "ĠkÅırishi": 5947,
      "Ġmagist": 5948,
      "yoki": 5949,
      "Ġsharoitlar": 5950,
      "ĠInternet": 5951,
      "Ġishbilar": 5952,
      "Ġiqtisodiyoti": 5953,
      ">'": 5954,
      "ydigan": 5955,
      "Ġanjumanida": 5956,
      "Ġyutqa": 5957,
      "Ġyozilgan": 5958,
      "Ġbosti": 5959,
      "Ġterrori": 5960,
      "udud": 5961,
      "boy": 5962,
      "ĠNiko": 5963,
      "ble": 5964,
      "ĠPan": 5965,
      "rel": 5966,
      "ĠÅıng": 5967,
      "Ġaksariyat": 5968,
      "vis": 5969,
      "Ġixtisoslashtirilgan": 5970,
      "ĠSher": 5971,
      "ĠUkrainada": 5972,
      "Ġtabrik": 5973,
      "ĠDmitriy": 5974,
      "Ġdunyoga": 5975,
      "boshi": 5976,
      "Ġharaka": 5977,
      "Ġyakunlandi": 5978,
      "Ġangla": 5979,
      "Ġkasalliklar": 5980,
      "Ġbemorlar": 5981,
      "wit": 5982,
      "Ġuchib": 5983,
      "Ġodamlarning": 5984,
      "ChL": 5985,
      "ĠNur": 5986,
      "Ġrejasi": 5987,
      "Ġprokurori": 5988,
      "neft": 5989,
      "arbiy": 5990,
      "Ġagentligining": 5991,
      "ĠDastlabki": 5992,
      "ĠtÅıy": 5993,
      "Ġbosqichma": 5994,
      "arovon": 5995,
      "Ġprokuror": 5996,
      "Ġzavodi": 5997,
      "Ġtafsi": 5998,
      "ila": 5999,
      "Ġvoyaga": 6000,
      "Ġfuqarolarga": 6001,
      "Ġdarajaga": 6002,
      "Ġsportchi": 6003,
      "Ġhisobla": 6004,
      "tibot": 6005,
      "Ġdekabrda": 6006,
      "stagram": 6007,
      "Ġurgan": 6008,
      "ĠSoliq": 6009,
      "qaruv": 6010,
      "Ġmunosabatlarni": 6011,
      "ĠÅınlab": 6012,
      "nomani": 6013,
      "Ġvoqealar": 6014,
      "27": 6015,
      "Ġashyo": 6016,
      "ĠSamsung": 6017,
      "Ġdavlatning": 6018,
      "Ġvositalarini": 6019,
      "Ġreys": 6020,
      "Ġson": 6021,
      "Ġtushirilgan": 6022,
      "ĠLukashenko": 6023,
      "Ġyuvi": 6024,
      "fikatsiya": 6025,
      "ĠsÅızlarini": 6026,
      "Ġxizmatining": 6027,
      "Ġ2010": 6028,
      "xonalar": 6029,
      "Ġ46": 6030,
      "Ġoydin": 6031,
      "Ġqola": 6032,
      "Ġetgani": 6033,
      "Ġtra": 6034,
      "ĠyoÄŁin": 6035,
      "Ġumr": 6036,
      "Ġqadri": 6037,
      "ĠDav": 6038,
      "mila": 6039,
      "inlashga": 6040,
      "Ġbron": 6041,
      "Ġtizimli": 6042,
      "Ġqimmatbaho": 6043,
      "ĠNiderlandiya": 6044,
      "Ġahvoli": 6045,
      "ĠÅırtoÄŁi": 6046,
      "Paxtakor": 6047,
      "Ġrahbarlik": 6048,
      "xonada": 6049,
      "ĠBank": 6050,
      "Ġbosqichida": 6051,
      ");": 6052,
      "shka": 6053,
      "Ġuyushmasi": 6054,
      "oshenko": 6055,
      "ĠIIBB": 6056,
      "Ġjoyga": 6057,
      "ĠHiso": 6058,
      "Ġrivojlanishi": 6059,
      "niye": 6060,
      "ĠSuriyadagi": 6061,
      "trakt": 6062,
      "ĠAnd": 6063,
      "kast": 6064,
      "Ġmanfaatdor": 6065,
      "Ġasar": 6066,
      "Ġvosi": 6067,
      "Ġvertol": 6068,
      "Ġborilayotgan": 6069,
      "Ġxitoy": 6070,
      "Ġtortish": 6071,
      "ĠVeng": 6072,
      "Ġetiladigan": 6073,
      "Ġmeros": 6074,
      "Ġvositasi": 6075,
      "Ġotasi": 6076,
      "Ġassotsi": 6077,
      "xob": 6078,
      "Ġgazetasi": 6079,
      "ĠÅİzi": 6080,
      "foda": 6081,
      "Ġaytgandi": 6082,
      "Ġ2024": 6083,
      "Ġochilgan": 6084,
      "Ġminnatdor": 6085,
      "Ġviloyatlarida": 6086,
      "alitsiya": 6087,
      "ĠkÅızdan": 6088,
      "lashtiriladi": 6089,
      "Ġmajmuasi": 6090,
      "21": 6091,
      "ubay": 6092,
      "Ġyanvardan": 6093,
      "Ġjihozlangan": 6094,
      "ĠqÅızÄŁatilgan": 6095,
      "Ġqochib": 6096,
      "sir": 6097,
      "Ġmutlaqo": 6098,
      "ĠkÅırsatmoqda": 6099,
      "lumotga": 6100,
      "Ġijod": 6101,
      "Ġpoyezd": 6102,
      "Ġissiqlik": 6103,
      "Ġyonida": 6104,
      "ĠHaro": 6105,
      "Ġqayerda": 6106,
      "doni": 6107,
      "Ġuzat": 6108,
      "Ġdavlatlarda": 6109,
      "Ġkollej": 6110,
      "han": 6111,
      "Ġjamoalari": 6112,
      "ĠSavdo": 6113,
      "Ġaksariyati": 6114,
      "Ġnarxlar": 6115,
      "lami": 6116,
      "ĠUm": 6117,
      "ĠyolÄŁon": 6118,
      "ĠPoroshenko": 6119,
      "Ġzudlik": 6120,
      "Ġhuquqiga": 6121,
      "Ġrang": 6122,
      "Ġnoyabrda": 6123,
      "Ġatrofidagi": 6124,
      "Ġmaxfiy": 6125,
      "Ġelchixonasi": 6126,
      "biriga": 6127,
      "yer": 6128,
      "Ġqiyo": 6129,
      "Ġqilinmagan": 6130,
      "Ġshaffof": 6131,
      "PS": 6132,
      "ĠQrim": 6133,
      "ĠJCh": 6134,
      "mdagi": 6135,
      "Ġbayra": 6136,
      "Ġprognoz": 6137,
      "rot": 6138,
      "ĠQurol": 6139,
      "Ġifoda": 6140,
      "Ġpos": 6141,
      "texnik": 6142,
      "Ġaudi": 6143,
      "Ġaylanadi": 6144,
      "Ġdarajasida": 6145,
      "ĠYevropada": 6146,
      "ĠAlloh": 6147,
      "Ġayta": 6148,
      "Ġdavriga": 6149,
      "ukus": 6150,
      "Ġuchrashdi": 6151,
      "Ġblog": 6152,
      "Ġtovarlar": 6153,
      "Ġdaromadi": 6154,
      "Ġlavozimini": 6155,
      "lmasligi": 6156,
      "Ro": 6157,
      "Ġovo": 6158,
      "Ġting": 6159,
      "striya": 6160,
      "Ġkutilmagan": 6161,
      "ĠÅırnida": 6162,
      "witter": 6163,
      "Ġnodavlat": 6164,
      "Ġochib": 6165,
      "Ġbuzgan": 6166,
      "Ġoke": 6167,
      "Ġhisobni": 6168,
      "Ġfarovon": 6169,
      "Ġkirit": 6170,
      "Ġhov": 6171,
      "ĠkÅıchasida": 6172,
      "ÄŁdo": 6173,
      "Ġoyoq": 6174,
      "Ġasoslanib": 6175,
      "ĠkÅıpaytirish": 6176,
      "sadi": 6177,
      "Ġkas": 6178,
      "Ġegalik": 6179,
      "ĠPolitsiya": 6180,
      "Ġdevor": 6181,
      "Ġaql": 6182,
      "ĠKlin": 6183,
      "Ġradi": 6184,
      "ĠGar": 6185,
      "Ġbitiruvchi": 6186,
      "maymiz": 6187,
      "Ġqiyna": 6188,
      "ĠyÅıllar": 6189,
      "Ġkechik": 6190,
      "Ġkommu": 6191,
      "ĠboshlanÄŁich": 6192,
      "veradi": 6193,
      "Ġkuzatish": 6194,
      "ĠGap": 6195,
      "Ġchiqargan": 6196,
      "ĠVideo": 6197,
      "ĠUniversi": 6198,
      "Ġtariqasida": 6199,
      "ĠAt": 6200,
      "Ġtasavvur": 6201,
      "Ġguvohnoma": 6202,
      "Ġkirdi": 6203,
      "Ġkelgani": 6204,
      "Ġmuayyan": 6205,
      "ruza": 6206,
      "Ġtushuntirish": 6207,
      "ratlar": 6208,
      "Ġyaqinda": 6209,
      "2021": 6210,
      "ĠNiz": 6211,
      "Tur": 6212,
      "Ġinso": 6213,
      "sizmi": 6214,
      "Ġertalab": 6215,
      "Ġtahriri": 6216,
      "ĠkÅıradi": 6217,
      "qida": 6218,
      "ĠJamoat": 6219,
      "Ġshikast": 6220,
      "bora": 6221,
      "ĠMav": 6222,
      "Ġtashlash": 6223,
      "Ġtushishi": 6224,
      "kiliy": 6225,
      "ensatsiya": 6226,
      "ĠÅıtilgan": 6227,
      "ÄŁun": 6228,
      "sper": 6229,
      "ĠQozoÄŁistonda": 6230,
      "ĠrÅıyxatiga": 6231,
      "Ġ2000": 6232,
      "senal": 6233,
      "agi": 6234,
      "Ġkva": 6235,
      "Ġnarxlari": 6236,
      "ĠTwitter": 6237,
      "Ġdastlab": 6238,
      "AN": 6239,
      "Ġ120": 6240,
      "Ġaytildi": 6241,
      "ĠDemak": 6242,
      "mun": 6243,
      "ĠkambaÄŁal": 6244,
      "Ġchiqardi": 6245,
      "arak": 6246,
      "ĠBMTning": 6247,
      "ĠÅısmir": 6248,
      "Ġmuhandis": 6249,
      "sepsiya": 6250,
      "Ġshoxob": 6251,
      "zish": 6252,
      "Ġxomashyo": 6253,
      "Ġboradagi": 6254,
      "Ġmuqaddam": 6255,
      "shishi": 6256,
      "ĠÅıtkazilmoqda": 6257,
      "ĠFili": 6258,
      "ĠAmir": 6259,
      "Ġavtomat": 6260,
      "Ġraqi": 6261,
      "ĠÅıtar": 6262,
      "zavot": 6263,
      "ĠOlimpiya": 6264,
      "ĠHarorat": 6265,
      "Ġmasalan": 6266,
      "Ġtafsilot": 6267,
      "ĠYoshlar": 6268,
      "Ġrafi": 6269,
      "ĠyÅıllanma": 6270,
      "Ġsudya": 6271,
      "Ġyetarlicha": 6272,
      "Ġqatnashgan": 6273,
      "Ġbuyurgan": 6274,
      "ncha": 6275,
      "mang": 6276,
      "Ġporta": 6277,
      "Ġbergandi": 6278,
      "Ġoldiga": 6279,
      "Ġshaxsan": 6280,
      "qÅı": 6281,
      "Ġrestoran": 6282,
      "Ġchiqaradi": 6283,
      "Ġavtotransport": 6284,
      "lit": 6285,
      "Ġmazm": 6286,
      "Ġtaniqli": 6287,
      "Ġmaqsadga": 6288,
      "roÄŁi": 6289,
      "Ġprezidentning": 6290,
      "Ġop": 6291,
      "Ġoyidan": 6292,
      "ĠÅıshanda": 6293,
      "bop": 6294,
      "bodon": 6295,
      "tinga": 6296,
      "ĠyoÄŁingarchilik": 6297,
      "xen": 6298,
      "ĠKlinton": 6299,
      "Ġ800": 6300,
      "IS": 6301,
      "Ġaytganda": 6302,
      "Ġsanoati": 6303,
      "uro": 6304,
      "mato": 6305,
      "ĠAyniqsa": 6306,
      "Ġkelgusi": 6307,
      "ngida": 6308,
      "Ġekspertlar": 6309,
      "Ġoshirishda": 6310,
      "Ġinvestor": 6311,
      "viz": 6312,
      "Ġukraina": 6313,
      "Ġraqami": 6314,
      "ĠXorij": 6315,
      "Ġbergani": 6316,
      "eziya": 6317,
      "ĠqÅıshimchalar": 6318,
      "Ġtutadi": 6319,
      "Ġkoalitsiya": 6320,
      "Ġvaziyatga": 6321,
      "Ġoilasi": 6322,
      "Ġyanva": 6323,
      "Te": 6324,
      "Ġyoshdan": 6325,
      "ĠkÅırinish": 6326,
      "ĠQaror": 6327,
      "ote": 6328,
      "Ġboriladi": 6329,
      "gapur": 6330,
      "Ġmusiqa": 6331,
      "ĠyÅılovchilar": 6332,
      "Ġqoidalariga": 6333,
      "ĠRIA": 6334,
      "Ġetishda": 6335,
      "ras": 6336,
      "Ġmanfaatlarini": 6337,
      "Ġof": 6338,
      "shinchi": 6339,
      "muni": 6340,
      "Ġ49": 6341,
      "Ġbaribir": 6342,
      "lansa": 6343,
      "Ġnota": 6344,
      "ĠShay": 6345,
      "Ġ250": 6346,
      "ĠtÅıs": 6347,
      "elsi": 6348,
      "Ġsafarbar": 6349,
      "Ġerishdi": 6350,
      "FY": 6351,
      "ĠNar": 6352,
      "Ġchiqariladi": 6353,
      "ĠMarkaz": 6354,
      "ĠHozircha": 6355,
      "ĠKeyinchalik": 6356,
      "ĠQodirov": 6357,
      "kib": 6358,
      "Ġuchrashuvlar": 6359,
      "Ġtopshiri": 6360,
      "Ġnormativ": 6361,
      "Ġkapital": 6362,
      "Ġetilayotgan": 6363,
      "Ġdaf": 6364,
      "Ġtup": 6365,
      "Ġhomiy": 6366,
      "ĠyÅıqligini": 6367,
      "ĠBelgiya": 6368,
      "Ġoshirdi": 6369,
      "lumotni": 6370,
      "ĠBritaniyaning": 6371,
      "Ġuyushma": 6372,
      "ĠAbdulla": 6373,
      "Ġishlaydigan": 6374,
      "Ġboshla": 6375,
      "ĠtÅıpni": 6376,
      "Ġmuvofiqlashtirish": 6377,
      "Ġpol": 6378,
      "entagon": 6379,
      "Ġonasi": 6380,
      "Ġloyihalarini": 6381,
      "Ġqutqa": 6382,
      "ĠFederatsiyasi": 6383,
      "Ġmajlisida": 6384,
      "Ġtubdan": 6385,
      "ĠSport": 6386,
      "Ġfilm": 6387,
      "Ġrivojlangan": 6388,
      "Ġxarajatlari": 6389,
      "Ha": 6390,
      "rix": 6391,
      "Åısh": 6392,
      "ĠToki": 6393,
      "Ġparlamenti": 6394,
      "Ġxodimlariga": 6395,
      "Ġjamoasining": 6396,
      "Ġmilliondan": 6397,
      "Ġsavollar": 6398,
      "Ġkelgusida": 6399,
      "ĠHatto": 6400,
      "Ġbajari": 6401,
      "ĠÅızgarib": 6402,
      "Ġmuxolifat": 6403,
      "Ġyopiq": 6404,
      "Ġsazo": 6405,
      "yir": 6406,
      "format": 6407,
      "Ġbuzib": 6408,
      "ĠPentagon": 6409,
      "ĠRajab": 6410,
      "Ġjuma": 6411,
      "Ġpolitsiyasi": 6412,
      "Ġfiliali": 6413,
      "Ġyerdan": 6414,
      "Ġsohalarda": 6415,
      "Ġsaylovi": 6416,
      "doneziya": 6417,
      "Ġsafa": 6418,
      "Ġfederal": 6419,
      "Ġislom": 6420,
      "ĠBal": 6421,
      "Ġdush": 6422,
      "Ġishlovchi": 6423,
      "moqchiman": 6424,
      "ĠbÅılganda": 6425,
      "Ġbuzish": 6426,
      "Ġkimga": 6427,
      "kali": 6428,
      "Ġsaralash": 6429,
      "Ġloyihani": 6430,
      "Ġoydan": 6431,
      "Ġtad": 6432,
      "ĠbÅılmasligi": 6433,
      "28": 6434,
      "ĠAhmad": 6435,
      "ĠAyrim": 6436,
      "Ġtril": 6437,
      "ngress": 6438,
      "ĠBol": 6439,
      "Ġqilmagan": 6440,
      "Ġfoizgacha": 6441,
      "ĠtarÄŁib": 6442,
      "Ġyoshgacha": 6443,
      "Ġtaqiqlangan": 6444,
      "Ġpoyga": 6445,
      "ĠArgentina": 6446,
      "verpul": 6447,
      "Ġdoirasidagi": 6448,
      "ngizda": 6449,
      "Ġyozdi": 6450,
      "Ġarab": 6451,
      "ĠbÅıli": 6452,
      "Ġaktyor": 6453,
      "Inter": 6454,
      "Ġsutka": 6455,
      "ĠSuv": 6456,
      "ĠjamÄŁarma": 6457,
      "Ġendilikda": 6458,
      "Ġsazovor": 6459,
      "Ġfron": 6460,
      "Ġradio": 6461,
      "Ġintellekt": 6462,
      "ĠPi": 6463,
      "qituvchi": 6464,
      "Ġziyorat": 6465,
      "Ġovqatlanish": 6466,
      "Ġdarhol": 6467,
      "if": 6468,
      "Ġquyidagilar": 6469,
      "Ġliniya": 6470,
      "ĠSingapur": 6471,
      "Ġniyatida": 6472,
      "ĠbÅılishga": 6473,
      "ĠNews": 6474,
      "Ġbostirib": 6475,
      "ĠNav": 6476,
      "Ġkuchlar": 6477,
      "Ġmiqdordagi": 6478,
      "Ġombor": 6479,
      "Ġmanzi": 6480,
      "Ġxarajatlar": 6481,
      "Ġkechgan": 6482,
      "ĠMirziyoyevning": 6483,
      "Ġtabiat": 6484,
      "Ġchorva": 6485,
      "ĠSuriyada": 6486,
      "Ġolimpiada": 6487,
      "Be": 6488,
      "tion": 6489,
      "Ġ54": 6490,
      "Ġvazifalari": 6491,
      "ĠÅıqqa": 6492,
      "Ġmamlakatimizda": 6493,
      "Ġsavdosi": 6494,
      "ĠYunuso": 6495,
      "ksiz": 6496,
      "Ġortib": 6497,
      "Ġkorrupsiyaga": 6498,
      "Ġoyna": 6499,
      "rohlik": 6500,
      "Ġukrain": 6501,
      "Ġuyiga": 6502,
      "zer": 6503,
      "Ġyoshga": 6504,
      "nta": 6505,
      "Ġberishdi": 6506,
      "Ġhiko": 6507,
      "ĠShan": 6508,
      "sen": 6509,
      "Ġiqtibos": 6510,
      "qos": 6511,
      "Ġtadbirda": 6512,
      "Ġqarorni": 6513,
      "Ġkeksa": 6514,
      "Ġmuassasasi": 6515,
      "Ġtarixida": 6516,
      "Ġmaqsadli": 6517,
      "Arsenal": 6518,
      "ĠAsosiy": 6519,
      "tartibot": 6520,
      "Ġnatijasi": 6521,
      "Ġushlandi": 6522,
      "Ġtozalash": 6523,
      "Ġtashxi": 6524,
      "Ġsanitariya": 6525,
      "Ġtahli": 6526,
      "Ġkesib": 6527,
      "Ġmehmonlar": 6528,
      "Ġbuzilishi": 6529,
      "Ġqarorini": 6530,
      "Ġ56": 6531,
      "Ġhisoblaydi": 6532,
      "Ġholatni": 6533,
      "Ġrol": 6534,
      "Ġtaqsim": 6535,
      "ĠUndan": 6536,
      "Ġbolalarni": 6537,
      "ĠÄŀazo": 6538,
      "ĠSta": 6539,
      "ĠLG": 6540,
      "ĠkÅımaklashish": 6541,
      "ĠkÅınik": 6542,
      "Ġkasallanish": 6543,
      "ĠkÅırgazma": 6544,
      "Ġafzal": 6545,
      "sl": 6546,
      "Ġtopib": 6547,
      "Ġogohlantirish": 6548,
      "Ġxizmatlarini": 6549,
      "Ġuyga": 6550,
      "Ġsoniya": 6551,
      "sinf": 6552,
      "Ġtrillion": 6553,
      "Ġsekin": 6554,
      "tadqiqot": 6555,
      "xud": 6556,
      "Ġgul": 6557,
      "Ġadvokat": 6558,
      "Ġkommunal": 6559,
      "radigan": 6560,
      "Ġvakolatli": 6561,
      "SK": 6562,
      "atiga": 6563,
      "Ġmuqo": 6564,
      "ĠTadbirda": 6565,
      "Ġqilsa": 6566,
      "Ġerishilgan": 6567,
      "ĠAyol": 6568,
      "Ġvazifalarni": 6569,
      "ĠAmerikaning": 6570,
      "ĠKreml": 6571,
      "ĠRey": 6572,
      "Ġfutbolchisi": 6573,
      "Ġ700": 6574,
      "jahon": 6575,
      "ĠyÅıqot": 6576,
      "Ġaprelda": 6577,
      "Ġbajara": 6578,
      "giga": 6579,
      "Ġkorpo": 6580,
      "Ġjanjal": 6581,
      "Ġoyiga": 6582,
      "rojaat": 6583,
      "Ġobektlari": 6584,
      "Ġkub": 6585,
      "tiyor": 6586,
      "Ġboshlash": 6587,
      "ĠQurolli": 6588,
      "izmat": 6589,
      "dning": 6590,
      "Ġtvit": 6591,
      "Ġstadion": 6592,
      "Ġqarshilik": 6593,
      "Ġyuqoridagi": 6594,
      "etti": 6595,
      "Ġdiqqat": 6596,
      "Ġagentlik": 6597,
      "Ġmayda": 6598,
      "Ġnomiga": 6599,
      "Ġruxsatnoma": 6600,
      "Ġushlangan": 6601,
      "Ġshun": 6602,
      "Ġtashkiliy": 6603,
      "ĠTabi": 6604,
      "Ġyashab": 6605,
      "Ġyoni": 6606,
      "Ġmonitoring": 6607,
      "char": 6608,
      "Ġyod": 6609,
      "Ġqama": 6610,
      "SST": 6611,
      "bud": 6612,
      "ĠsÅırash": 6613,
      "Ġochildi": 6614,
      "Ġmamlakatni": 6615,
      "Ġochilishi": 6616,
      "Ġshtat": 6617,
      "Ġimkoniyatiga": 6618,
      "Ġrejalashtirilmoqda": 6619,
      "hrat": 6620,
      "ĠFav": 6621,
      "Ġjamoaning": 6622,
      "bekov": 6623,
      "Ġtarqatish": 6624,
      "Ġbirorta": 6625,
      "qulay": 6626,
      "losi": 6627,
      "ĠPrezidentning": 6628,
      "ĠHarbiy": 6629,
      "ĠqÅıshilgan": 6630,
      "ĠMirzo": 6631,
      "ĠNega": 6632,
      "Ġfaxriy": 6633,
      "Ġif": 6634,
      "Ġsakkiz": 6635,
      "Ġqarashli": 6636,
      "ĠInstagram": 6637,
      "qqa": 6638,
      "sidiya": 6639,
      "mok": 6640,
      "Ġtilini": 6641,
      "Ġrasmiylashtirish": 6642,
      "Ġmarosim": 6643,
      "No": 6644,
      "Ġshov": 6645,
      "ĠFalastin": 6646,
      "Ġoxiriga": 6647,
      "ĠqÅıya": 6648,
      "Ġsalohiyatini": 6649,
      "toni": 6650,
      "ĠGroup": 6651,
      "ĠkÅımir": 6652,
      "Ġshaklda": 6653,
      "qini": 6654,
      "yoz": 6655,
      "Ġyasa": 6656,
      "gohi": 6657,
      "Ġqoidalarini": 6658,
      "shgan": 6659,
      "Ġyaxshiroq": 6660,
      "ms": 6661,
      "ĠzÅır": 6662,
      "mining": 6663,
      "ramiz": 6664,
      "Ġmakt": 6665,
      "qinlik": 6666,
      "ĠQurilish": 6667,
      "urnal": 6668,
      "Ġkeltiradi": 6669,
      "Ġfotosu": 6670,
      "langanini": 6671,
      "Ġyoshda": 6672,
      "rganch": 6673,
      "ĠshuÄŁullanish": 6674,
      "midagi": 6675,
      "ed": 6676,
      "ual": 6677,
      "ÄŁda": 6678,
      "Ġostidagi": 6679,
      "Ġprin": 6680,
      "ĠIqtisodiy": 6681,
      "zit": 6682,
      "Ġimtiyozli": 6683,
      "ĠkÅıchib": 6684,
      "Ġdamda": 6685,
      "rand": 6686,
      "xiya": 6687,
      "Ġkutub": 6688,
      "lova": 6689,
      "kologiya": 6690,
      "Ġuslu": 6691,
      "Ġturistik": 6692,
      "Ġmalakasini": 6693,
      "ĠyÅınaltirilgan": 6694,
      "Ġakademiyasi": 6695,
      "xÅıjayev": 6696,
      "Ġishlariga": 6697,
      "inch": 6698,
      "Ġpod": 6699,
      "Ġshoshi": 6700,
      "ĠgÅısht": 6701,
      "lamchi": 6702,
      "Ġtalon": 6703,
      "linch": 6704,
      "Ġir": 6705,
      "ĠMustaqil": 6706,
      "Ġkonsepsiya": 6707,
      "ĠSiti": 6708,
      "gird": 6709,
      "Ġbema": 6710,
      "Ġkungi": 6711,
      "Ġdavlatlarning": 6712,
      "Ġqoidabuzar": 6713,
      "ĠGretsiya": 6714,
      "Ġdeklar": 6715,
      "ĠÅıyinlar": 6716,
      "Ġsalohiyati": 6717,
      "Ġportali": 6718,
      "ngga": 6719,
      "Lo": 6720,
      "endum": 6721,
      "ĠAPL": 6722,
      "Ġyanvarda": 6723,
      "Ġmasalalarni": 6724,
      "qimachilik": 6725,
      "ferendum": 6726,
      "At": 6727,
      "Ġimkoniyatlari": 6728,
      "doq": 6729,
      "matika": 6730,
      "Ġqizil": 6731,
      "Ġyashagan": 6732,
      "Ġtir": 6733,
      "Ġyuksak": 6734,
      "ĠAfÄŁonistonda": 6735,
      "diyev": 6736,
      "Ġekran": 6737,
      "Ġchiqarishga": 6738,
      "yida": 6739,
      "ĠBen": 6740,
      "Ġtepa": 6741,
      "Ġmaskan": 6742,
      "ĠKun": 6743,
      "Ġgo": 6744,
      "ĠqÅımitasining": 6745,
      "ĠIqtisodiyot": 6746,
      "chinchi": 6747,
      "Ġbit": 6748,
      "Ġfesti": 6749,
      "Ġopera": 6750,
      "Ġkumush": 6751,
      "kori": 6752,
      "Ġsari": 6753,
      "Ġchegir": 6754,
      "Ġyakshanba": 6755,
      "Ġ2008": 6756,
      "Ġturishi": 6757,
      "Ġtelevi": 6758,
      "Ġishlati": 6759,
      "vardiya": 6760,
      "Ġqurib": 6761,
      "Ġsavollarga": 6762,
      "Ġquvvati": 6763,
      "OVID": 6764,
      "Ġnoqulay": 6765,
      "Ġmiqdoridagi": 6766,
      "ĠKeyinroq": 6767,
      "Ġqoidalari": 6768,
      "Ġorganlarining": 6769,
      "ĠNima": 6770,
      "niki": 6771,
      "Ġboshqacha": 6772,
      "Ġsayyora": 6773,
      "Ġmarkaziga": 6774,
      "Ġberiladigan": 6775,
      "kel": 6776,
      "soat": 6777,
      "ĠMisol": 6778,
      "Ġbyudjyet": 6779,
      "ĠtÅıl": 6780,
      "Ġishtirokidagi": 6781,
      "Ġbaxt": 6782,
      "bayev": 6783,
      "Ġ85": 6784,
      "ĠIndoneziya": 6785,
      "Ġfederatsiyasi": 6786,
      "ĠUru": 6787,
      "Ġdasturini": 6788,
      "Ġveb": 6789,
      "vili": 6790,
      "Ġdushanba": 6791,
      "rasi": 6792,
      "ĠqÅıshiq": 6793,
      "fil": 6794,
      "diga": 6795,
      "Ġkafe": 6796,
      "Ġ64": 6797,
      "Ġshtabi": 6798,
      "Ġtanlash": 6799,
      "ĠTar": 6800,
      "ragi": 6801,
      "Ġobodon": 6802,
      "suz": 6803,
      "Ġtopil": 6804,
      "Ġdasturlari": 6805,
      "Ġpat": 6806,
      "ĠTex": 6807,
      "ĠFer": 6808,
      "Ġtarqaldi": 6809,
      "ĠyiÄŁilishda": 6810,
      "Ġanglatadi": 6811,
      "ĠMotor": 6812,
      "ĠElekt": 6813,
      "Ġtezlikda": 6814,
      "Ġquyidagicha": 6815,
      "Ġgumanitar": 6816,
      "Ġetilib": 6817,
      "Ġfojia": 6818,
      "Ġ77": 6819,
      "Ġbeshta": 6820,
      "matsev": 6821,
      "Ġturda": 6822,
      "Ġfoydalanishni": 6823,
      "Mi": 6824,
      "Ġyuqorida": 6825,
      "Ġmashq": 6826,
      "ĠsoÄŁliÄŁi": 6827,
      "ĠInvestitsiya": 6828,
      "Ġolishgan": 6829,
      "ĠMehnat": 6830,
      "murodov": 6831,
      "Ġkvartira": 6832,
      "Ġjamoasiga": 6833,
      "Ġpullarni": 6834,
      "Ġpochta": 6835,
      "Ġqismiga": 6836,
      "Ġbronza": 6837,
      "ĠMask": 6838,
      "Ġ52": 6839,
      "Ġkoronavirusdan": 6840,
      "ĠShifo": 6841,
      "nam": 6842,
      "ĠGermaniyaning": 6843,
      "ĠPoy": 6844,
      "pak": 6845,
      "Ġqilishdan": 6846,
      "Ġyukla": 6847,
      "Ġaylanishi": 6848,
      "Ġnoyob": 6849,
      "ilonzor": 6850,
      "Ġtuza": 6851,
      "Ġdengizi": 6852,
      "ĠFavqulodda": 6853,
      "Ġchaqir": 6854,
      "Ġamaliyoti": 6855,
      "Ġyangilik": 6856,
      "Ġniko": 6857,
      "Ġnemis": 6858,
      "Ġbuyuk": 6859,
      "Ġkito": 6860,
      "ĠHavo": 6861,
      "brÅı": 6862,
      "Ġijrosi": 6863,
      "chalari": 6864,
      "ungacha": 6865,
      "ĠkÅık": 6866,
      "Ġfilial": 6867,
      "Ġyerdagi": 6868,
      "Ġistagan": 6869,
      "ĠUchrashuvda": 6870,
      "Ġqiziqarli": 6871,
      "neftgaz": 6872,
      "Ġsaylovlar": 6873,
      "Ġkubogi": 6874,
      "Ġyoxud": 6875,
      "ĠÅıringa": 6876,
      "Ġshaxsga": 6877,
      "Chelsi": 6878,
      "ĠBlo": 6879,
      "voldi": 6880,
      "ligicha": 6881,
      "vegiya": 6882,
      "xÅır": 6883,
      "Ġolimpiya": 6884,
      "Ġmazmun": 6885,
      "ĠyiÄŁish": 6886,
      "Ġketgani": 6887,
      "Ġshaharda": 6888,
      "ĠRasmiy": 6889,
      "Ġudda": 6890,
      "Ġmigratsiya": 6891,
      "taloniya": 6892,
      "shayotgan": 6893,
      "ĠkÅıtarilgan": 6894,
      "Yo": 6895,
      "Ġholatlarda": 6896,
      "shat": 6897,
      "Ġaholisining": 6898,
      "ĠBirlashgan": 6899,
      "Ġkompensatsiya": 6900,
      "Ġqilmaydi": 6901,
      "Ġ53": 6902,
      "Ġtadbirlari": 6903,
      "Ġajratib": 6904,
      "Ġsen": 6905,
      "ĠGermaniyada": 6906,
      "Ġqadriyat": 6907,
      "ĠÅıtkazishni": 6908,
      "Ġyakunlari": 6909,
      "erial": 6910,
      "Ġqarorga": 6911,
      "drat": 6912,
      "ĠNukus": 6913,
      "Ġsayyohlar": 6914,
      "ĠYil": 6915,
      "lagandi": 6916,
      "Ġ1000": 6917,
      "ĠkÅırsatkichlari": 6918,
      "Ġdon": 6919,
      "Ġketma": 6920,
      "Ġkelingan": 6921,
      "2016": 6922,
      "Ġhavola": 6923,
      "ĠTA": 6924,
      "Ġnomini": 6925,
      "Ġprotses": 6926,
      "ĠAniq": 6927,
      "ĠtÅırtta": 6928,
      "Ġmuomala": 6929,
      "shil": 6930,
      "Ġketib": 6931,
      "em": 6932,
      "yad": 6933,
      "Ġavtomatik": 6934,
      "ĠMoskvada": 6935,
      "Ġminimal": 6936,
      "Ġsheriklik": 6937,
      "Ġyoshida": 6938,
      "Ġdavlati": 6939,
      "ĠtÅılovlar": 6940,
      "Ġvayron": 6941,
      "ĠSk": 6942,
      "Ġyulduz": 6943,
      "IB": 6944,
      "ĠDubay": 6945,
      "Ġberishini": 6946,
      "Ġgub": 6947,
      "ĠtÅısqinlik": 6948,
      "onat": 6949,
      "ĠAu": 6950,
      "yishiga": 6951,
      "Ġram": 6952,
      "Ġstadioni": 6953,
      "lumki": 6954,
      "Ġaralash": 6955,
      "ĠTadqiqot": 6956,
      "qay": 6957,
      "ĠÅırinlari": 6958,
      "Ġidorasi": 6959,
      "Ġjamoaga": 6960,
      "ĠSal": 6961,
      "Ġqarzdor": 6962,
      "ĠMFY": 6963,
      "ĠÄŁoli": 6964,
      "Ġpenalti": 6965,
      "Ġqirol": 6966,
      "Ġqilmoqchi": 6967,
      "Ġholatini": 6968,
      "Ġterrorizm": 6969,
      "ĠAsad": 6970,
      "Ġhujjatlarini": 6971,
      "Ġ195": 6972,
      "Ġtahsil": 6973,
      "Ġbayonotida": 6974,
      "tilishini": 6975,
      "Ġsah": 6976,
      "ĠJan": 6977,
      "Ġyotqizilgan": 6978,
      "ĠÅızgartirishlar": 6979,
      "ĠYunusobod": 6980,
      "Ġmavjudligi": 6981,
      "Ġnamoyon": 6982,
      "Ġmetall": 6983,
      "Ġvertolyot": 6984,
      "ĠSaba": 6985,
      "ĠKri": 6986,
      "Ġmuxlislar": 6987,
      "Ġkimyoviy": 6988,
      "mbi": 6989,
      "Ġ58": 6990,
      "Ġyaqinidagi": 6991,
      "res": 6992,
      "Ġishoni": 6993,
      "bass": 6994,
      "ĠAbdula": 6995,
      "Le": 6996,
      "allu": 6997,
      "Ġamaliyo": 6998,
      "Ġjanubi": 6999,
      "Ġauksion": 7000,
      "Ġkiritiladi": 7001,
      "Ġtizimidagi": 7002,
      "ĠRossiyadagi": 7003,
      "Ġbildiri": 7004,
      "ĠÅıqituvchilar": 7005,
      "Ġsovet": 7006,
      "Ġtalabi": 7007,
      "kamma": 7008,
      "Ġbuyurdi": 7009,
      "ĠmaÄŁlubiyatga": 7010,
      "ĠBel": 7011,
      "Ġkunning": 7012,
      "ĠYeChL": 7013,
      "ĠVengriya": 7014,
      "Ġbut": 7015,
      "chilikka": 7016,
      "ill": 7017,
      "dasi": 7018,
      "Ġyonib": 7019,
      "Ġyondashuv": 7020,
      "Ġnihoyat": 7021,
      "luksiz": 7022,
      "ĠXitoyga": 7023,
      "Ġyuzlab": 7024,
      "nayted": 7025,
      "hom": 7026,
      "Ġyorqin": 7027,
      "ĠtÅıxtab": 7028,
      "Ġixtisoslashgan": 7029,
      "Ġodamlarga": 7030,
      "Ġinspeksiyasi": 7031,
      "Ġishbilarmon": 7032,
      "Ġfosh": 7033,
      "Ġoshadi": 7034,
      "Ġsiyosatini": 7035,
      "Ġbomba": 7036,
      "Ġdala": 7037,
      "2019": 7038,
      "Ġakademik": 7039,
      "Ġtun": 7040,
      "Ġsui": 7041,
      "Ġobek": 7042,
      "ĠyÅılak": 7043,
      "Ġtayyorligini": 7044,
      "Ġsubsidiya": 7045,
      "Ġmasjid": 7046,
      "ĠshuÄŁullanuvchi": 7047,
      "Ġplatforma": 7048,
      "noda": 7049,
      "ĠÅıqib": 7050,
      "minar": 7051,
      "kammal": 7052,
      "qiz": 7053,
      "Ġrespublikaning": 7054,
      "ĠAvtomobil": 7055,
      "Ġbarobarga": 7056,
      "Ġtarji": 7057,
      "qarshi": 7058,
      "Ġgapirdi": 7059,
      "Ġqisman": 7060,
      "layziya": 7061,
      "ĠmablaÄŁlarini": 7062,
      "Ġajratiladi": 7063,
      "yektlari": 7064,
      "Ġijodiy": 7065,
      "ĠVazirlik": 7066,
      "ĠIr": 7067,
      "Ġketmoqda": 7068,
      "royli": 7069,
      "Ġmuammosi": 7070,
      "yut": 7071,
      "Ġiqtisod": 7072,
      "hil": 7073,
      "Ġkunida": 7074,
      "Ġtanlovi": 7075,
      "Ġkvadrat": 7076,
      "Ġtut": 7077,
      "ĠCOVID": 7078,
      "ĠAgentlik": 7079,
      "tual": 7080,
      "del": 7081,
      "guncha": 7082,
      "Ġalmashtirish": 7083,
      "Ġtopdi": 7084,
      "Ġshogird": 7085,
      "qur": 7086,
      "Ġnafarni": 7087,
      "Ġuza": 7088,
      "lashtirdi": 7089,
      "Ġtushuncha": 7090,
      "Ġfoydalanuvchilar": 7091,
      "ĠTuman": 7092,
      "ĠPortugaliya": 7093,
      "Yuv": 7094,
      "ĠobrÅı": 7095,
      "irchiq": 7096,
      "qibatda": 7097,
      "Ġshartnomalar": 7098,
      "Ġavgustda": 7099,
      "ĠkÅırsatuvchi": 7100,
      "Ġsinga": 7101,
      "Ġnon": 7102,
      "Ġismli": 7103,
      "deniye": 7104,
      "parvarlik": 7105,
      "An": 7106,
      "Ġ78": 7107,
      "ĠBizda": 7108,
      "Ġbirini": 7109,
      "Ġmamlakatlarda": 7110,
      "Ġpullar": 7111,
      "ĠbÅılmadi": 7112,
      "Ġnafas": 7113,
      "Ġsanaladi": 7114,
      "dali": 7115,
      "ĠIT": 7116,
      "co": 7117,
      "Ġetadigan": 7118,
      "Ġpedagog": 7119,
      "Ġ67": 7120,
      "Ġtezligi": 7121,
      "uliston": 7122,
      "Ġsotuvga": 7123,
      "Ġkada": 7124,
      "Ġoshirishi": 7125,
      "Ġyetadi": 7126,
      "Ġkilogram": 7127,
      "ĠÄŁarb": 7128,
      "ergo": 7129,
      "Ġishlashga": 7130,
      "ĠChilonzor": 7131,
      "Ġteleviz": 7132,
      "Ġiloji": 7133,
      "Ġimkoniyatlarini": 7134,
      "tlarning": 7135,
      "uch": 7136,
      "Ġ41": 7137,
      "ĠToshkentga": 7138,
      "Ġborayotgani": 7139,
      "Ġshtati": 7140,
      "Liverpul": 7141,
      "xay": 7142,
      "ĠÅısib": 7143,
      "Ġkuzatildi": 7144,
      "Ġnomidan": 7145,
      "ube": 7146,
      "Ġort": 7147,
      "ĠSankt": 7148,
      "Ġkvo": 7149,
      "onasi": 7150,
      "Ġdarajasiga": 7151,
      "eyn": 7152,
      "Ġkuchlarining": 7153,
      "pana": 7154,
      "ĠtuÄŁi": 7155,
      "ĠToy": 7156,
      "ĠtÅıxtalib": 7157,
      "ĠJSST": 7158,
      "Ġbolalarning": 7159,
      "ĠFederatsiya": 7160,
      "ĠUchinchi": 7161,
      "Ġfuqarolarni": 7162,
      "dromet": 7163,
      "Ġbilib": 7164,
      "Ġtalablar": 7165,
      "rar": 7166,
      "Ġdarax": 7167,
      "lashini": 7168,
      "Ġqatorda": 7169,
      "Ġtarixidagi": 7170,
      "mut": 7171,
      "Ġaksiyadorlik": 7172,
      "ĠqishloÄŁi": 7173,
      "shlar": 7174,
      "Ġtobora": 7175,
      "Ġmuassasalariga": 7176,
      "ĠAQShdagi": 7177,
      "Ġdisp": 7178,
      "Ġjuft": 7179,
      "Ġaytiladi": 7180,
      "Ġbenzin": 7181,
      "Ġmao": 7182,
      "Ġtamoyil": 7183,
      "kni": 7184,
      "ĠMadrid": 7185,
      "Ġfaoliyatida": 7186,
      "Ġadliya": 7187,
      "ĠOra": 7188,
      "Ġhattoki": 7189,
      "entus": 7190,
      "ĠKoreyaning": 7191,
      "Ġhikoya": 7192,
      "rilish": 7193,
      "Ġxorijda": 7194,
      "Ġqarama": 7195,
      "Ġinfratuzil": 7196,
      "Ġsina": 7197,
      "Ġqaytish": 7198,
      "kredi": 7199,
      "foni": 7200,
      "ĠHamma": 7201,
      "Ġekstre": 7202,
      "ĠÅızlarining": 7203,
      "Ġtalablari": 7204,
      "Ġuzluksiz": 7205,
      "Ġtilga": 7206,
      "Ġhujumchisi": 7207,
      "Ġdeputatlar": 7208,
      "lashgani": 7209,
      "Ġqaytgan": 7210,
      "rishni": 7211,
      "ĠAvstriya": 7212,
      "Ġchaqirgan": 7213,
      "rigi": 7214,
      "Ġkelmaydi": 7215,
      "ĠNey": 7216,
      "Ġmurojaatlar": 7217,
      "Ġgvardiya": 7218,
      "gni": 7219,
      "Ġyengi": 7220,
      "Ġkiritib": 7221,
      "Ġmasalani": 7222,
      "ĠoraliÄŁi": 7223,
      "Ġmumkinki": 7224,
      "Ġtopshirilgan": 7225,
      "Ġpost": 7226,
      "Ġhayotdan": 7227,
      "Ġkutilayotgan": 7228,
      "Ġiflos": 7229,
      "ĠÅİzbek": 7230,
      "ĠYiÄŁilishda": 7231,
      "vali": 7232,
      "kr": 7233,
      "ring": 7234,
      "ĠYusu": 7235,
      "ĠÅızim": 7236,
      "Ġmulo": 7237,
      "ĠPrezidentimiz": 7238,
      "Ġtexnologiyalarni": 7239,
      "Ġbeshinchi": 7240,
      "boni": 7241,
      "Ġchizi": 7242,
      "Ġ2009": 7243,
      "Ġofat": 7244,
      "Ġbudjeti": 7245,
      "gunga": 7246,
      "Ġboshiga": 7247,
      "Ġintegratsiya": 7248,
      "Ġyashaydi": 7249,
      "diri": 7250,
      "rovi": 7251,
      "Ġishlayotgan": 7252,
      "Ġmaktablar": 7253,
      "Ġnorma": 7254,
      "2022": 7255,
      "26": 7256,
      "Ġhokimlik": 7257,
      "ĠkÅırsatishi": 7258,
      "Ġkeyinroq": 7259,
      "ĠBryus": 7260,
      "ĠrÅıyxatini": 7261,
      "ĠBloom": 7262,
      "Ġatom": 7263,
      "ĠqÅıli": 7264,
      "ĠJurnali": 7265,
      "Ġikkala": 7266,
      "Ġfoydasiga": 7267,
      "Ġichidagi": 7268,
      "2017": 7269,
      "XB": 7270,
      "Ġiyulda": 7271,
      "lyutsiya": 7272,
      "ĠShuni": 7273,
      "arru": 7274,
      "Ġkeltiri": 7275,
      "laringiz": 7276,
      "Ġmiya": 7277,
      "Åırinda": 7278,
      "Ġbunyod": 7279,
      "ĠUrganch": 7280,
      "ĠMakron": 7281,
      "Agar": 7282,
      "ĠTah": 7283,
      "Ġprinsi": 7284,
      "ope": 7285,
      "Ġsuhbatda": 7286,
      "lovoldi": 7287,
      "ĠÅıquvchilari": 7288,
      "Ġdiplomat": 7289,
      "Ġiyunda": 7290,
      "Ġnashrining": 7291,
      "ĠÅıÄŁil": 7292,
      "Ġbermaydi": 7293,
      "Ġtirik": 7294,
      "qqol": 7295,
      "ĠXÅısh": 7296,
      "ĠÅıyinni": 7297,
      "Ġchiqarilishi": 7298,
      "Ġ66": 7299,
      "ĠAfsuski": 7300,
      "tdagi": 7301,
      "ĠMalayziya": 7302,
      "Ġoso": 7303,
      "Ġmukammal": 7304,
      "ĠHech": 7305,
      "Ġnatijalar": 7306,
      "Ġmunosabatda": 7307,
      "Ġkurashi": 7308,
      "Ġpichoq": 7309,
      "ĠkÅıma": 7310,
      "ens": 7311,
      "Ġijrosini": 7312,
      "Xalq": 7313,
      "luvchi": 7314,
      "poliya": 7315,
      "Ġklinika": 7316,
      "Ġmush": 7317,
      "Ġsotilgan": 7318,
      "Ġtopa": 7319,
      "Ġraisining": 7320,
      "ddiyat": 7321,
      "Ġistisno": 7322,
      "ĠAbdulaziz": 7323,
      "Ġsingari": 7324,
      "ĠqÅıyadi": 7325,
      "Ġtasarru": 7326,
      "Ġyetakchilik": 7327,
      "Ġklaster": 7328,
      "jiz": 7329,
      "Ġortida": 7330,
      "ĠLav": 7331,
      "Ġhayotini": 7332,
      "Ġeshit": 7333,
      "ffus": 7334,
      "Ġochilish": 7335,
      "Atle": 7336,
      "rip": 7337,
      "Ġaviatsiya": 7338,
      "ĠTurizm": 7339,
      "uni": 7340,
      "Ġkela": 7341,
      "aroy": 7342,
      "Ġoshirishni": 7343,
      "ĠQurbon": 7344,
      "Ġkimdir": 7345,
      "komo": 7346,
      "ĠkÅırsatkichi": 7347,
      "Ġadabiyot": 7348,
      "Ġshahridan": 7349,
      "Ġhaqorat": 7350,
      "Ġmuzey": 7351,
      "vto": 7352,
      "Ġbrifi": 7353,
      "Ġshan": 7354,
      "Ġ(Â«": 7355,
      "Ġtopshirgan": 7356,
      "Ġumumta": 7357,
      "AMAS": 7358,
      "tim": 7359,
      "lmagani": 7360,
      "ĠTransport": 7361,
      "ĠFan": 7362,
      "Ġoldinga": 7363,
      "ĠYH": 7364,
      "Ġortga": 7365,
      "Ġomad": 7366,
      "ĠkÅırilgan": 7367,
      "ĠMol": 7368,
      "ĠMadaniyat": 7369,
      "Ġedim": 7370,
      "Ġyetishi": 7371,
      "ĠZi": 7372,
      "uquq": 7373,
      "Ġfonida": 7374,
      "kda": 7375,
      "Ġyaqqol": 7376,
      "Peterburg": 7377,
      "ĠPri": 7378,
      "ĠNizom": 7379,
      "Ġyurituvchi": 7380,
      "Ġasossiz": 7381,
      "ĠAziz": 7382,
      "Åİzbekneftgaz": 7383,
      "prezidenti": 7384,
      "Ġpulni": 7385,
      "Ġjoyidan": 7386,
      "QS": 7387,
      "sub": 7388,
      "ĠUlarga": 7389,
      "Ġtanlab": 7390,
      "Ġtomonga": 7391,
      "Ġjinoyatlar": 7392,
      "Ġtekshir": 7393,
      "Ġtuzatish": 7394,
      "ĠJor": 7395,
      "Ġhodisasi": 7396,
      "Ġfevralda": 7397,
      "Ġdvigatel": 7398,
      "Ġyordami": 7399,
      "Ġberayotgan": 7400,
      "Ġalomat": 7401,
      "29": 7402,
      "Ġbajaruvchi": 7403,
      "Ġnikoh": 7404,
      "Ġavj": 7405,
      "Ġqarorlar": 7406,
      "Ġhujumchi": 7407,
      "ĠkÅıtar": 7408,
      "ĠCN": 7409,
      "ĠXabarda": 7410,
      "ĠArab": 7411,
      "Ġkunidan": 7412,
      "Ġbuyruq": 7413,
      "Ġmukofoti": 7414,
      "Ġpsixo": 7415,
      "Ġkeltirish": 7416,
      "Ġavtomobili": 7417,
      "ĠTosh": 7418,
      "ĠQizil": 7419,
      "ani": 7420,
      "ĠsÅımgacha": 7421,
      "Ġolishda": 7422,
      "ĠbÅılishgan": 7423,
      "Ġsharoitda": 7424,
      "Ġzaif": 7425,
      "Ġasbob": 7426,
      "yar": 7427,
      "Ġhamkorlikning": 7428,
      "ĠÅızgartish": 7429,
      "Ġefir": 7430,
      "Ġyaratadi": 7431,
      "ĠYevropaning": 7432,
      "Ġqilinishini": 7433,
      "stansiya": 7434,
      "Ġoydinlik": 7435,
      "Ġboshi": 7436,
      "Ġ59": 7437,
      "Ġqozondi": 7438,
      "Ġekipa": 7439,
      "ĠAleks": 7440,
      "matsevtika": 7441,
      "Ġgiyohvand": 7442,
      "Ġmono": 7443,
      "Ġsab": 7444,
      "Ġmahbus": 7445,
      "Ġgapirib": 7446,
      "Ġaylanma": 7447,
      "Ġshaklida": 7448,
      "ovning": 7449,
      "Ġvaqtgacha": 7450,
      "Ġquti": 7451,
      "kalav": 7452,
      "ĠRustam": 7453,
      "larsiz": 7454,
      "ell": 7455,
      "kiy": 7456,
      "olchilar": 7457,
      "Ġkurashda": 7458,
      "ĠAsh": 7459,
      "Ġvaqtlarda": 7460,
      "Ġqilishning": 7461,
      "Ġreferendum": 7462,
      "Ġchempionatining": 7463,
      "ortini": 7464,
      "Ġahvolda": 7465,
      "Ġpandemiyasi": 7466,
      "ĠmashÄŁulotlar": 7467,
      "ĠÅıtmoqda": 7468,
      "ĠOqibatda": 7469,
      "mlagan": 7470,
      "Ġqaratish": 7471,
      "Ġchaqa": 7472,
      "Ġkiritilishi": 7473,
      "Ġqatnov": 7474,
      "Ġyetakchilari": 7475,
      "ĠLiviya": 7476,
      "Ġfinalda": 7477,
      "Ġmehnatga": 7478,
      "...+": 7479,
      "Ġtransporti": 7480,
      "xl": 7481,
      "Ġoyining": 7482,
      "ĠMahalla": 7483,
      "Ġhaydovchisi": 7484,
      "Ġtal": 7485,
      "Ġvakillarining": 7486,
      "irini": 7487,
      "Ġmon": 7488,
      "Ġbemalol": 7489,
      "Ġgarov": 7490,
      "ĠÅıyindan": 7491,
      "Ġmashinalar": 7492,
      "ĠÅıtildi": 7493,
      "Ġboshpana": 7494,
      "ĠKur": 7495,
      "Ġchiroyli": 7496,
      "Ġkelishuvi": 7497,
      "Ġhayda": 7498,
      "Ġepidemiya": 7499,
      "mn": 7500,
      "Ġhomila": 7501,
      "ĠYaman": 7502,
      "Ġolinadigan": 7503,
      "Ġbuyuri": 7504,
      "Ġqildim": 7505,
      "De": 7506,
      "gistika": 7507,
      "Ġerkaklar": 7508,
      "Yuventus": 7509,
      "dara": 7510,
      "ĠMun": 7511,
      "Ġrejalashtirgan": 7512,
      "Ġyaratib": 7513,
      "Ġtajov": 7514,
      "ĠNorvegiya": 7515,
      "ck": 7516,
      "Ġayir": 7517,
      "Ġgran": 7518,
      "Ġbazasini": 7519,
      "Ġuchrashuvida": 7520,
      "ĠBaho": 7521,
      "Ġolinib": 7522,
      "Ġtezda": 7523,
      "Ġinnovatsiya": 7524,
      "Vt": 7525,
      "Ġurdi": 7526,
      "Ġhimoyachi": 7527,
      "ĠSherzod": 7528,
      "hli": 7529,
      "Ġqilishmoqda": 7530,
      "Mar": 7531,
      "pora": 7532,
      "Ġdushman": 7533,
      "ĠbÅıldik": 7534,
      "kovnik": 7535,
      "Ġsumma": 7536,
      "qe": 7537,
      "Ġuzr": 7538,
      "Ġtasvirlangan": 7539,
      "Ġvaqtning": 7540,
      "Ġsaf": 7541,
      "Ġnegi": 7542,
      "obod": 7543,
      "ĠkÅıtarildi": 7544,
      "xan": 7545,
      "Ġqiruvchi": 7546,
      "ĠShtatlar": 7547,
      "ĠPay": 7548,
      "Ġkat": 7549,
      "Ġ194": 7550,
      "ĠSharqiy": 7551,
      "Ġax": 7552,
      "Ġshtab": 7553,
      "libon": 7554,
      "esla": 7555,
      "shoq": 7556,
      "rali": 7557,
      "Ġtantanali": 7558,
      "Ġguruhlar": 7559,
      "ping": 7560,
      "Ġsaylovlarda": 7561,
      "Ġistiqbolli": 7562,
      "hron": 7563,
      "Ġyoqi": 7564,
      "ĠChirchiq": 7565,
      "Ġeslatib": 7566,
      "ĠZe": 7567,
      "Ġrafiqasi": 7568,
      "komotiv": 7569,
      "Ġkungacha": 7570,
      "Ġtarmoqlar": 7571,
      "Ġbanklari": 7572,
      "Ġisitish": 7573,
      "Ġfunt": 7574,
      "ĠXar": 7575,
      "ĠpoÄŁona": 7576,
      "Ġruhiy": 7577,
      "aydi": 7578,
      "Ġnimalar": 7579,
      "Ġdekab": 7580,
      "Ġlitr": 7581,
      "ĠLit": 7582,
      "ĠShuhrat": 7583,
      "Ġnizom": 7584,
      "Ġhayrat": 7585,
      "ÄŁoch": 7586,
      "Ġkelishgan": 7587,
      "ĠTASS": 7588,
      "ĠBloomberg": 7589,
      "Ġhamkasb": 7590,
      "Ġshaxsning": 7591,
      "Ġnuqtai": 7592,
      "Ġmaz": 7593,
      "ĠYan": 7594,
      "ĠRossiyani": 7595,
      "Ġresurslari": 7596,
      "Ġmansub": 7597,
      "ĠAzi": 7598,
      "Ġchiqarishi": 7599,
      "ĠQozoÄŁistonning": 7600,
      "Ġtarqatgan": 7601,
      "lashmoqda": 7602,
      "grafiya": 7603,
      "aho": 7604,
      "ĠTai": 7605,
      "ĠBarak": 7606,
      "Ġmezon": 7607,
      "Ġuzatish": 7608,
      "ĠSerge": 7609,
      "Ġsaylangan": 7610,
      "voni": 7611,
      "Ġtank": 7612,
      "Ġzarurligini": 7613,
      "Ġqurilmalar": 7614,
      "ĠUsmonov": 7615,
      "incha": 7616,
      "Ġpasp": 7617,
      "Ġappara": 7618,
      "Ġtom": 7619,
      "raga": 7620,
      "Ġqonunni": 7621,
      "Ġsizning": 7622,
      "Ġmahallasida": 7623,
      "Ġsabablari": 7624,
      "molyot": 7625,
      "Ġbosqichga": 7626,
      "Ġbazaviy": 7627,
      "Bi": 7628,
      "Ġcheki": 7629,
      "Ġxizmatiga": 7630,
      "ĠJyey": 7631,
      "Ġkemasi": 7632,
      "Ġyilligi": 7633,
      "ĠOila": 7634,
      "Ġqoldirdi": 7635,
      "Ġfarzandlari": 7636,
      "Ġviloyatda": 7637,
      "Ġqoldir": 7638,
      "Ġbermagan": 7639,
      "ĠÄŀo": 7640,
      "Ġziddiyat": 7641,
      "Ġusto": 7642,
      "ĠyÅıqotgan": 7643,
      "eing": 7644,
      "Qo": 7645,
      "pik": 7646,
      "ĠDastur": 7647,
      "ĠqÅıyilishi": 7648,
      "Ġuzunligi": 7649,
      "Ġolo": 7650,
      "ĠIm": 7651,
      "ĠÅİzbekistondan": 7652,
      "Ġxodimlarini": 7653,
      "Ġsez": 7654,
      "Ġforum": 7655,
      "Ġdeklaratsiya": 7656,
      "enj": 7657,
      "ĠPress": 7658,
      "ngko": 7659,
      "Ġayo": 7660,
      "ĠXXR": 7661,
      "Ġnatijada": 7662,
      "Ġshoshilinch": 7663,
      "Si": 7664,
      "zmi": 7665,
      "Ġyotoq": 7666,
      "Ho": 7667,
      "losipe": 7668,
      "Ġkeltirdi": 7669,
      "Ġseshanba": 7670,
      "Ġfarqli": 7671,
      "ĠboÄŁi": 7672,
      "lmayapti": 7673,
      "lumotlari": 7674,
      "Ġchiqmoqda": 7675,
      "tiko": 7676,
      "raqa": 7677,
      "tamiz": 7678,
      "Ġkechki": 7679,
      "Ġnatijalarini": 7680,
      "Ġmilliarder": 7681,
      "Ġbozorda": 7682,
      "Ġqit": 7683,
      "Ġkishidan": 7684,
      "Ġsarat": 7685,
      "Ġjarohatlangan": 7686,
      "ĠShunda": 7687,
      "Ġtelevideniye": 7688,
      "Ġbuyru": 7689,
      "Ġtizimining": 7690,
      "ĠkÅıng": 7691,
      "Ġkutish": 7692,
      "Ġshaharning": 7693,
      "Ġhujjatlariga": 7694,
      "Ġamaldor": 7695,
      "Ġbyudjye": 7696,
      "ĠDaniya": 7697,
      "ĠTez": 7698,
      "movchilik": 7699,
      "ĠRamazon": 7700,
      "jini": 7701,
      "Ġyuboradi": 7702,
      "Ġaytadi": 7703,
      "Ġyarmida": 7704,
      "ĠKomilov": 7705,
      "ĠTokio": 7706,
      "Ġcheklash": 7707,
      "iborga": 7708,
      "Ġbokschi": 7709,
      "Ġobodonlashtirish": 7710,
      "gol": 7711,
      "ĠoÄŁ": 7712,
      "Ġbayrami": 7713,
      "ĠChexiya": 7714,
      "ĠJamoatchilik": 7715,
      "lax": 7716,
      "Ġaziyat": 7717,
      "ĠBor": 7718,
      "Ġyoshlarni": 7719,
      "Ġbolaning": 7720,
      "ĠNeymar": 7721,
      "ĠtÅıqqi": 7722,
      "ĠEksper": 7723,
      "Ġbax": 7724,
      "way": 7725,
      "ĠYunayted": 7726,
      "ĠbÅılinmalari": 7727,
      "Ġkirishga": 7728,
      "ratsion": 7729,
      "Ġmajlisi": 7730,
      "ĠÅıyinida": 7731,
      "Ġsayyohlik": 7732,
      "Ġshaxslarni": 7733,
      "ĠQoraboÄŁ": 7734,
      "Ġkiruvchi": 7735,
      "zolyutsiya": 7736,
      "Ġdoza": 7737,
      "ĠFilipp": 7738,
      "ĠqÅıpol": 7739,
      "Ġvazirligida": 7740,
      "Ġyaqindan": 7741,
      "39": 7742,
      "Åılat": 7743,
      "all": 7744,
      "ĠtÅılovi": 7745,
      "himoya": 7746,
      "ĠVir": 7747,
      "Ġder": 7748,
      "Ġbizne": 7749,
      "Ġballi": 7750,
      "Ġnazaridan": 7751,
      "figa": 7752,
      "ĠkÅızi": 7753,
      "Ġtajribasi": 7754,
      "ĠTermiz": 7755,
      "ij": 7756,
      "Ġmuam": 7757,
      "Ġqurbonlari": 7758,
      "Ġqatorida": 7759,
      "ĠbÅılyapti": 7760,
      "Ġ51": 7761,
      "Ġxorijlik": 7762,
      "Ġrespublikada": 7763,
      "qulov": 7764,
      "Ġekologiya": 7765,
      "Ġmaktabga": 7766,
      "Ġertaga": 7767,
      "ĠVet": 7768,
      "Ġmemo": 7769,
      "ĠYaIM": 7770,
      "Ġsohaga": 7771,
      "Ġolishlari": 7772,
      "ĠBoeing": 7773,
      "Ġnomzodlar": 7774,
      "tifikatsiya": 7775,
      "Ġjabrlanuvchi": 7776,
      "Ġ74": 7777,
      "ĠTurkiyaga": 7778,
      "Ġyozuv": 7779,
      "Ġmarhum": 7780,
      "Ġahamiyati": 7781,
      "him": 7782,
      "Ġbarham": 7783,
      "unyodkor": 7784,
      "AQSh": 7785,
      "Ġdasturiy": 7786,
      "Ġmaktabda": 7787,
      "ĠÅızlashtirish": 7788,
      "ĠRober": 7789,
      "Ġquduq": 7790,
      "lavha": 7791,
      "Ġhaqli": 7792,
      "ĠbÅılsangiz": 7793,
      "Ġmasofadan": 7794,
      "sko": 7795,
      "Ġtanishish": 7796,
      "ĠVol": 7797,
      "Ġavariya": 7798,
      "kalar": 7799,
      "ĠXudo": 7800,
      "Ġmuammoni": 7801,
      "Ġib": 7802,
      "Ġtelekanal": 7803,
      "Ġinflatsiya": 7804,
      "Ġmuqobil": 7805,
      "atida": 7806,
      "sizlar": 7807,
      "ĠrÅıyxatidan": 7808,
      "lanmaydi": 7809,
      "lashtiruvchi": 7810,
      "ĠÅıtishga": 7811,
      "ĠUr": 7812,
      "ĠÅıtgach": 7813,
      "Ġedik": 7814,
      "ĠMurojaat": 7815,
      "ĠAfÄŁonistondagi": 7816,
      "Ġligasi": 7817,
      "Ġchiqishni": 7818,
      "Ġmarosimida": 7819,
      "Ġjin": 7820,
      "Ġvodiy": 7821,
      "Ġ72": 7822,
      "Ġuchish": 7823,
      "Ġfakul": 7824,
      "Ġvazirlari": 7825,
      "ĠkÅırikdan": 7826,
      "ĠYaqinda": 7827,
      "Ġqurbonlar": 7828,
      "ĠYonÄŁin": 7829,
      "TE": 7830,
      "ĠKer": 7831,
      "Ġfoydalanishi": 7832,
      "Ġnomzodini": 7833,
      "Ġbiladi": 7834,
      "ĠyÅılda": 7835,
      "ĠYaponiyaning": 7836,
      "ĠSaylov": 7837,
      "ĠMotors": 7838,
      "ĠOldi": 7839,
      "Ġaniqlanib": 7840,
      "Ġorganlariga": 7841,
      "etsk": 7842,
      "Ġindek": 7843,
      "ismoniy": 7844,
      "Ġkamchiliklar": 7845,
      "ĠTib": 7846,
      "demiologik": 7847,
      "Ġarxite": 7848,
      "ĠTesla": 7849,
      "ĠTabiiy": 7850,
      "yatiga": 7851,
      "ĠgÅısh": 7852,
      "Ġuskunalar": 7853,
      "Ġmarkazining": 7854,
      "Ġyetkazgan": 7855,
      "ĠtÅıldirish": 7856,
      "Ġbazasi": 7857,
      "Ġtahrir": 7858,
      "Ġiltimos": 7859,
      "Ġrasmiylari": 7860,
      "ĠBritaniyada": 7861,
      "ken": 7862,
      "Ġsohadagi": 7863,
      "ĠYou": 7864,
      "shta": 7865,
      "ĠÅİt": 7866,
      "zgi": 7867,
      "Ġxotir": 7868,
      "Ġ68": 7869,
      "ĠMerkel": 7870,
      "natsiya": 7871,
      "stitsion": 7872,
      "Ġinfeksiyasi": 7873,
      "Ġmamn": 7874,
      "siyosiy": 7875,
      "Ġizchil": 7876,
      "Ġhukmron": 7877,
      "ĠKel": 7878,
      "Ġberishda": 7879,
      "kning": 7880,
      "Ġxon": 7881,
      "Ġtashuvchi": 7882,
      "Ġmashinalari": 7883,
      "70": 7884,
      "Ġtumanlarida": 7885,
      "fini": 7886,
      "Ġversiya": 7887,
      "maganini": 7888,
      "Ġjanubiy": 7889,
      "ĠÅıtmay": 7890,
      "Ġ63": 7891,
      "Ġ95": 7892,
      "sena": 7893,
      "Ġmiqdorini": 7894,
      "nora": 7895,
      "Ġsohasiga": 7896,
      "Ġmanfaatli": 7897,
      "Ġqahramon": 7898,
      "Ġuchradi": 7899,
      "ĠIkkinchidan": 7900,
      "Ġkiber": 7901,
      "Ġqarzi": 7902,
      "lashtirilishi": 7903,
      "Ġalmashish": 7904,
      "Ġsalohiyat": 7905,
      "Ġshanba": 7906,
      "KA": 7907,
      "ganingiz": 7908,
      "Ga": 7909,
      "Ġidi": 7910,
      "Ġux": 7911,
      "Ġsiyosatchi": 7912,
      "Ġsaylovoldi": 7913,
      "Ġviloyatiga": 7914,
      "Ġassotsiatsiyasi": 7915,
      "Ġsohasini": 7916,
      "Ġ76": 7917,
      "Ġmaqsadda": 7918,
      "ĠÅıyinlarida": 7919,
      "ĠOlimlar": 7920,
      "ĠxÅıjaliklari": 7921,
      "ĠHAMAS": 7922,
      "Ġyangiliklar": 7923,
      "ĠÅıtkazilayotgan": 7924,
      "ĠbÅılishni": 7925,
      "ĠRav": 7926,
      "ĠLat": 7927,
      "ĠbÅılimiga": 7928,
      "Ġmateriallari": 7929,
      "soy": 7930,
      "assu": 7931,
      "Ġsti": 7932,
      "Ġalyan": 7933,
      "Ġsessiya": 7934,
      "Ġaylantirish": 7935,
      "Ġinkor": 7936,
      "ĠFV": 7937,
      "ĠInno": 7938,
      "Ġkuzatilmoqda": 7939,
      "udrat": 7940,
      "Ġajralib": 7941,
      "Is": 7942,
      "Ġuslub": 7943,
      "lashtirildi": 7944,
      "Ġombo": 7945,
      "Ġkans": 7946,
      "Ġdavlatlarga": 7947,
      "Ġdoimo": 7948,
      "ĠTehron": 7949,
      "Ġtungi": 7950,
      "Ġfaoliyatining": 7951,
      "ĠtÅılovlarni": 7952,
      "ĠbÅılinma": 7953,
      "ĠBre": 7954,
      "teti": 7955,
      "Ġaybladi": 7956,
      "Ġtashkilotining": 7957,
      "Ġfoizlik": 7958,
      "talar": 7959,
      "ĠQQS": 7960,
      "Ġmasalalarini": 7961,
      "ĠSuhbat": 7962,
      "sli": 7963,
      "Ġaviakompaniyasi": 7964,
      "ED": 7965,
      "Ġtashlangan": 7966,
      "Ġchap": 7967,
      "Ġishlatish": 7968,
      "est": 7969,
      "Ġzararli": 7970,
      "Ġetishini": 7971,
      "lanishga": 7972,
      "Ġfoydalana": 7973,
      ".,": 7974,
      "Ġomon": 7975,
      "Ġchang": 7976,
      "ĠYaponiyada": 7977,
      "Ġbakalav": 7978,
      "Ġmahkum": 7979,
      "Ġkiritadi": 7980,
      "ĠLavrov": 7981,
      "Ġmuddatini": 7982,
      "Ġuzilish": 7983,
      "Ġodatda": 7984,
      "Ġchorshanba": 7985,
      "Ġfiribgarlik": 7986,
      "liblar": 7987,
      "Ġ86": 7988,
      "Ġtaallu": 7989,
      "yator": 7990,
      "ĠAxir": 7991,
      "ĠyÅıla": 7992,
      "ĠQolgan": 7993,
      "Ġimtiyozlar": 7994,
      "Ġqozongan": 7995,
      "stri": 7996,
      "Ġkutmoqda": 7997,
      "ĠsÅızlar": 7998,
      "Ġsohil": 7999,
      "ĠÅızlarini": 8000,
      "ĠOsiyoda": 8001,
      "ĠMas": 8002,
      "ĠSababi": 8003,
      "Ġoro": 8004,
      "Ġhukumatining": 8005,
      "kana": 8006,
      "erson": 8007,
      "Ġhamkorligi": 8008,
      "Tolibon": 8009,
      "rma": 8010,
      "ĠAtam": 8011,
      "Ġqamoqqa": 8012,
      "tara": 8013,
      "ĠAbu": 8014,
      "ĠXon": 8015,
      "Ġtasdiqlovchi": 8016,
      "Ġsamolyotlari": 8017,
      "Ġboshlanganidan": 8018,
      "ĠSp": 8019,
      "Ġoilalar": 8020,
      "ĠTemur": 8021,
      "qit": 8022,
      "ĠqÅıyishi": 8023,
      "Ġtaalluqli": 8024,
      "Ġquro": 8025,
      "ĠbÅılmish": 8026,
      "Ġrahbarlarining": 8027,
      "ĠyiÄŁilgan": 8028,
      "Ġbinolar": 8029,
      "ĠsÅıroq": 8030,
      "Ġetgandi": 8031,
      "Ġyakunlariga": 8032,
      "Ġolingani": 8033,
      "Ġtomoshabin": 8034,
      "Ġanjuman": 8035,
      "Ġmuammolari": 8036,
      "Ġtarafdorlari": 8037,
      "Ġraqibi": 8038,
      "ĠNaval": 8039,
      "ĠdÅıko": 8040,
      "Ġsaylovchi": 8041,
      "Ġtanaffus": 8042,
      "ĠSS": 8043,
      "bandi": 8044,
      "Ġmene": 8045,
      "gidan": 8046,
      "Ġrejasini": 8047,
      "Ġboshqara": 8048,
      "les": 8049,
      "ĠPes": 8050,
      "Ġorganlar": 8051,
      "Ġalmashin": 8052,
      "Ġsim": 8053,
      "Ġyuqumli": 8054,
      "Ġoperator": 8055,
      "Ġnomzodi": 8056,
      "epi": 8057,
      "eral": 8058,
      "dat": 8059,
      "Ġhojat": 8060,
      "Ġhayotga": 8061,
      "ĠNashrning": 8062,
      "ĠÅıtir": 8063,
      "ĠXuddi": 8064,
      "ĠsÅırovnoma": 8065,
      "ĠÄŁolibi": 8066,
      "Ġqilganini": 8067,
      "lumbiya": 8068,
      "ĠyÅınalishlar": 8069,
      "Ġinspektor": 8070,
      "Ġfransuz": 8071,
      "Ġdaxl": 8072,
      "Ġeshik": 8073,
      "soz": 8074,
      "Ġqaytishi": 8075,
      "Ġsamolyo": 8076,
      "ĠQuyida": 8077,
      "ford": 8078,
      "ĠUmumiy": 8079,
      "lilar": 8080,
      "Ġemlash": 8081,
      "ĠSaa": 8082,
      "leriya": 8083,
      "orod": 8084,
      "Ġraketalar": 8085,
      "jin": 8086,
      "ilgani": 8087,
      "ĠMixa": 8088,
      "ĠkÅıtarish": 8089,
      "ĠDastlab": 8090,
      "Ġshaharlar": 8091,
      "ĠMuro": 8092,
      "Ġmuassasalarining": 8093,
      "eoro": 8094,
      "ĠbÅılajak": 8095,
      "Ġobektlar": 8096,
      "Ġesla": 8097,
      "yuy": 8098,
      "ĠShahri": 8099,
      "ĠTaq": 8100,
      "Ġqatlam": 8101,
      "ĠKali": 8102,
      "Ġqulaylik": 8103,
      "laxy": 8104,
      "Ġolishadi": 8105,
      "Ġpayshanba": 8106,
      "Ġbozoriga": 8107,
      "ĠDonbass": 8108,
      "Ġaksincha": 8109,
      "ĠQan": 8110,
      "Ġdollarini": 8111,
      "Ġmasalada": 8112,
      "Ġqatnashish": 8113,
      "Ġkarra": 8114,
      "latib": 8115,
      "ĠyonilÄŁi": 8116,
      "ĠKÅır": 8117,
      "Ġreg": 8118,
      "Ġsevi": 8119,
      "moddasiga": 8120,
      "ĠqishloÄŁida": 8121,
      "des": 8122,
      "Ġeksporti": 8123,
      "Ġteri": 8124,
      "vas": 8125,
      "ĠMashina": 8126,
      "Ġxorijga": 8127,
      "ĠKos": 8128,
      "rio": 8129,
      "ĠHolat": 8130,
      "Ġolamiz": 8131,
      "Ġjamoani": 8132,
      "Ġharakatlarni": 8133,
      "ĠEronning": 8134,
      "ĠÅıtkaza": 8135,
      "Ġ99": 8136,
      "ĠÅİzbekistonlik": 8137,
      "ĠGalaxy": 8138,
      "uÄŁ": 8139,
      "riat": 8140,
      "ĠsÅızlari": 8141,
      "stitut": 8142,
      "Ġ[": 8143,
      "Ġetilmagan": 8144,
      "Ġintizo": 8145,
      "Ġtayan": 8146,
      "mimiy": 8147,
      "Ġsenator": 8148,
      "Ġpaytlarda": 8149,
      "PX": 8150,
      "ama": 8151,
      "Ġshaxmat": 8152,
      "tilleriya": 8153,
      "Ġ71": 8154,
      "Ġfikrini": 8155,
      "Ġyashil": 8156,
      "ĠOrol": 8157,
      "Ġmuddatidan": 8158,
      "Ġinvestitsion": 8159,
      "Atletiko": 8160,
      "kani": 8161,
      "Ġbolalarga": 8162,
      "Ġkartochka": 8163,
      "ĠToyyib": 8164,
      "kte": 8165,
      "Ġsalomatligi": 8166,
      "Ġfakt": 8167,
      "Ġyozgi": 8168,
      "Ġmateriallar": 8169,
      "Ġyashaydigan": 8170,
      "Ġyodgor": 8171,
      "Ġshaharlarida": 8172,
      "Ġkelajagi": 8173,
      "kada": 8174,
      "borak": 8175,
      "Ġmasalaga": 8176,
      "ĠKoreyada": 8177,
      "dina": 8178,
      "dagina": 8179,
      "Ġjoylarida": 8180,
      "nasi": 8181,
      "Ġvelosipe": 8182,
      "Ġnomlangan": 8183,
      "forniya": 8184,
      "ĠtarÄŁibot": 8185,
      "Ġchiqilishi": 8186,
      "ĠNavalniy": 8187,
      "Ġqodir": 8188,
      "RI": 8189,
      "cro": 8190,
      "Ġxizmatchi": 8191,
      "Ġzarurligi": 8192,
      "ĠSamolyot": 8193,
      "ssam": 8194,
      "ĠkÅıpayib": 8195,
      "Ġyashayotgan": 8196,
      "Ġyaratiladi": 8197,
      "Ġsammiti": 8198,
      "Ġishona": 8199,
      "ĠkÅırdi": 8200,
      "Ġdarvozabon": 8201,
      "Ġopa": 8202,
      "ĠBoy": 8203,
      "Ġreye": 8204,
      "line": 8205,
      "Ġdalillar": 8206,
      "Ġtutgan": 8207,
      "ÄŁli": 8208,
      "Ġshara": 8209,
      "Ġshartlari": 8210,
      "Ġyaratishga": 8211,
      "Ġ2007": 8212,
      "qilo": 8213,
      "shdi": 8214,
      "Ġabon": 8215,
      "Ġorti": 8216,
      "Ġtender": 8217,
      "Ġnegizida": 8218,
      "ĠSergeli": 8219,
      "vogar": 8220,
      "Ġ69": 8221,
      "Ġoqimi": 8222,
      "iborini": 8223,
      "Ġrivojlan": 8224,
      "ĠQÅımi": 8225,
      "ĠbÅılimda": 8226,
      "gner": 8227,
      "Ġyoqa": 8228,
      "ĠKrish": 8229,
      "ilochar": 8230,
      "yÅıÄŁi": 8231,
      "Ġkosmik": 8232,
      "ĠPeskov": 8233,
      "Ġaloqasi": 8234,
      "Ġbildirilgan": 8235,
      "Ġchaqaloq": 8236,
      "senariy": 8237,
      "gus": 8238,
      "ĠUlarni": 8239,
      "Ġquvon": 8240,
      "ĠafÄŁon": 8241,
      "ĠBerlin": 8242,
      "Ġshtatida": 8243,
      "ĠqÅızÄŁatilib": 8244,
      "Ġomillar": 8245,
      "Ġxususida": 8246,
      "ĠÅıtirgan": 8247,
      "Ġele": 8248,
      "spi": 8249,
      "Ġosmon": 8250,
      "Ġukrainalik": 8251,
      "55": 8252,
      "AL": 8253,
      "Ġetilishini": 8254,
      "ĠCher": 8255,
      "Ġmillionlab": 8256,
      "ĠzÅıravonlik": 8257,
      "jum": 8258,
      "ĠFlo": 8259,
      "Ġmasalalariga": 8260,
      "Ġsinovlari": 8261,
      "Ġalda": 8262,
      "ĠÅırinli": 8263,
      "Ġparva": 8264,
      "ĠRahmon": 8265,
      "Ġtaksi": 8266,
      "Ġtomor": 8267,
      "ĠÅıyinga": 8268,
      "ĠÅıchirish": 8269,
      "ĠTV": 8270,
      "bola": 8271,
      "Ġfikrlar": 8272,
      "hem": 8273,
      "Ġmanbalari": 8274,
      "ĠTashkilot": 8275,
      "Yangi": 8276,
      "ĠYHXB": 8277,
      "ct": 8278,
      "ĠEnergetika": 8279,
      "Ġjoylar": 8280,
      "ĠÅıyinlarda": 8281,
      "Ġtransformat": 8282,
      "Ġminnatdorchilik": 8283,
      "Ġplan": 8284,
      "Ġobektlarini": 8285,
      "Ġsig": 8286,
      "Ġmuammolarga": 8287,
      "ĠAndrey": 8288,
      "sona": 8289,
      "Ġxala": 8290,
      "Ġtaqqos": 8291,
      "Ġhududga": 8292,
      "Ġshay": 8293,
      "ĠbÅılsin": 8294,
      "Ġmuhokamasi": 8295,
      "Ġbandi": 8296,
      "moÄŁida": 8297,
      "Ġboshliq": 8298,
      "ĠYakka": 8299,
      "Ġbrend": 8300,
      "ĠÅıÄŁri": 8301,
      "Ġqoldirgan": 8302,
      "Ġehtimoliy": 8303,
      "hshat": 8304,
      "Ġberilgani": 8305,
      "Ġ2006": 8306,
      "Ġsel": 8307,
      "ĠHodisa": 8308,
      "Ġkompaniyasiga": 8309,
      "shimiz": 8310,
      "Ġkassa": 8311,
      "Ġrezolyutsiya": 8312,
      "Ġyutqaz": 8313,
      "ĠMoskvaga": 8314,
      "ĠgÅızal": 8315,
      "Ġtarafdori": 8316,
      "ĠBirinchidan": 8317,
      "tadan": 8318,
      "ĠMey": 8319,
      "ĠshuÄŁullanadi": 8320,
      "Ġqoplash": 8321,
      "ĠJÅıra": 8322,
      "Ġkelishilgan": 8323,
      "tiramiz": 8324,
      "ĠtÅılovchi": 8325,
      "Ġshahzoda": 8326,
      "atini": 8327,
      "nadigan": 8328,
      "tlarni": 8329,
      "Ġsohalarida": 8330,
      "Ġyaratildi": 8331,
      "Ġunu": 8332,
      "ĠOdamlar": 8333,
      "Ġjarimaga": 8334,
      "Ġtashlandi": 8335,
      "Ġchiqaruvchilar": 8336,
      "Ġen": 8337,
      "ĠAka": 8338,
      "leri": 8339,
      "ĠtÅıplagan": 8340,
      "ĠMeni": 8341,
      "shev": 8342,
      "ĠtÅıqimachilik": 8343,
      "turar": 8344,
      "Ġtennis": 8345,
      "Ġtortdi": 8346,
      "lasa": 8347,
      "jxona": 8348,
      "Ġpley": 8349,
      "raman": 8350,
      "vaning": 8351,
      "Ġvatandosh": 8352,
      "naliga": 8353,
      "Ġelektromobil": 8354,
      "Ġdemak": 8355,
      "Ġkasa": 8356,
      "Ġettiradi": 8357,
      "Ġsportchilar": 8358,
      "Ġaeroportida": 8359,
      "inlanadi": 8360,
      "Ġservis": 8361,
      "Lokomotiv": 8362,
      "Yosh": 8363,
      "Ġklini": 8364,
      "haza": 8365,
      "Ġzarbalar": 8366,
      "Bavariya": 8367,
      "Ra": 8368,
      "Tube": 8369,
      "harakatlari": 8370,
      "ĠyolÄŁiz": 8371,
      "Ġoldidagi": 8372,
      "Ġtartibida": 8373,
      "Ġsudining": 8374,
      "illa": 8375,
      "Ġerisha": 8376,
      "Ġjangarilar": 8377,
      "Ġseminar": 8378,
      "Ġartilleriya": 8379,
      "Ġsamolyotlar": 8380,
      "bov": 8381,
      "Ġxodimlarning": 8382,
      "Ġchoralarni": 8383,
      "Ġmavsumida": 8384,
      "maslikni": 8385,
      "ĠTomonlar": 8386,
      "Ġtomorqa": 8387,
      "Ġxasta": 8388,
      "erina": 8389,
      "ĠkÅıchirish": 8390,
      "Ġyuvish": 8391,
      "33": 8392,
      "ongi": 8393,
      "tirilmoqda": 8394,
      "Ġzamon": 8395,
      "Ġharakatlarini": 8396,
      "Ġmagistratura": 8397,
      "Ġsektori": 8398,
      "Ġorganizm": 8399,
      "Ġkayfiyat": 8400,
      "Ġturuvchi": 8401,
      "Davlat": 8402,
      "ros": 8403,
      "Ġyordamchisi": 8404,
      "pin": 8405,
      "boyeva": 8406,
      "foya": 8407,
      "Ġtuproq": 8408,
      "liddin": 8409,
      "ĠQizi": 8410,
      "Ġdollariga": 8411,
      "Ġuniversitetining": 8412,
      "''": 8413,
      "mayotgan": 8414,
      "ĠBozor": 8415,
      "Ġyozma": 8416,
      "Ġpulini": 8417,
      "vara": 8418,
      "Ġpolik": 8419,
      "sizligi": 8420,
      "Ġtutish": 8421,
      "Ġyuboriladi": 8422,
      "Ġaytmoqda": 8423,
      "Ġyillardan": 8424,
      "Ġxohi": 8425,
      "Ġqaysidir": 8426,
      "eo": 8427,
      "ĠKÅıpchilik": 8428,
      "Ġkifoya": 8429,
      "xabar": 8430,
      "Ġsahna": 8431,
      "Ġuyning": 8432,
      "Ġdeputati": 8433,
      "national": 8434,
      "park": 8435,
      "gro": 8436,
      "Ġchekka": 8437,
      "olo": 8438,
      "vol": 8439,
      "Ġvositalarining": 8440,
      "ĠSaakash": 8441,
      "Ġqonunchiligi": 8442,
      "Ġtajovuz": 8443,
      "Ġsolingan": 8444,
      "ĠQÅıqon": 8445,
      "Ġxayr": 8446,
      "Ġssenariy": 8447,
      "ĠtemiryÅıl": 8448,
      "ĠYouTube": 8449,
      "Ġtutuvchi": 8450,
      "Ġyumsha": 8451,
      "Ġkoope": 8452,
      "Ġnashriga": 8453,
      "zgu": 8454,
      "ensi": 8455,
      "uruh": 8456,
      "Ġvositalar": 8457,
      "Ġnarsalar": 8458,
      "ity": 8459,
      "Ġsamimiy": 8460,
      "ĠReklama": 8461,
      "ĠHindistonda": 8462,
      "saroy": 8463,
      "ĠtÅınta": 8464,
      "Ġmamlakatdan": 8465,
      "Ġjamoada": 8466,
      "Ġviloyatlari": 8467,
      "Ġbayonnoma": 8468,
      "Ġkutubxona": 8469,
      "tey": 8470,
      "bÅıyi": 8471,
      "laning": 8472,
      "Ġyoshlarning": 8473,
      "Ġmasalasiga": 8474,
      "Ġlavozimga": 8475,
      "Ġbrendi": 8476,
      "ĠMaro": 8477,
      "ĠJismoniy": 8478,
      "Ġtoifasida": 8479,
      "Ġoshiq": 8480,
      "qir": 8481,
      "ittifo": 8482,
      "Ġtanishdi": 8483,
      "Ġtayangan": 8484,
      "Ġbloger": 8485,
      "diiy": 8486,
      "Ġoldik": 8487,
      "Ġsaylovlari": 8488,
      "Ġsentabrda": 8489,
      "Ġteja": 8490,
      "Ġiqtidor": 8491,
      "Ġkartoshka": 8492,
      "Sha": 8493,
      "ua": 8494,
      "Ġkuchayishi": 8495,
      "Ġzarbasi": 8496,
      "ĠJoze": 8497,
      "PSJ": 8498,
      "Ġsotuvchi": 8499,
      "Ġhisoblab": 8500,
      "Ġshimoliy": 8501,
      "Ġmero": 8502,
      "Ġfutbolchining": 8503,
      "ĠkÅırinishi": 8504,
      "shning": 8505,
      "ĠTÅır": 8506,
      "ĠHudud": 8507,
      "Ġmigran": 8508,
      "Ġbyurosi": 8509,
      "ĠsÅıngra": 8510,
      "ĠMark": 8511,
      "ĠFransiyaning": 8512,
      "ĠAleksey": 8513,
      "ĠtÅıplangan": 8514,
      "tianu": 8515,
      "Ġchoy": 8516,
      "Ġfizi": 8517,
      "Ġlib": 8518,
      "ĠUmid": 8519,
      "Ġolgandi": 8520,
      "Ġfederatsiya": 8521,
      "Ġhududdagi": 8522,
      "qonli": 8523,
      "rit": 8524,
      "kini": 8525,
      "Ġketilgan": 8526,
      "ĠuyÄŁo": 8527,
      "OS": 8528,
      "bali": 8529,
      "ĠMixail": 8530,
      "Ġbritaniya": 8531,
      "Ġberilmagan": 8532,
      "Ġotib": 8533,
      "Ġ2030": 8534,
      "Ġagentligiga": 8535,
      "Ġimzolagan": 8536,
      "ĠKaliforniya": 8537,
      "Ġqiroli": 8538,
      "Ġrejalari": 8539,
      "ratini": 8540,
      "urgiya": 8541,
      "ĠCNN": 8542,
      "Ġmanzara": 8543,
      "Ġsanksiyalarni": 8544,
      "toro": 8545,
      "Ġsoti": 8546,
      "Ġmaktub": 8547,
      "Ġasir": 8548,
      "yishta": 8549,
      "Ġfikrlarini": 8550,
      "Ġdollargacha": 8551,
      "qor": 8552,
      "Ġboshdan": 8553,
      "Ġmintaqada": 8554,
      "Ġtopshiriqlar": 8555,
      "ĠSobiq": 8556,
      "Ġfond": 8557,
      "Ġdavlatimiz": 8558,
      "ĠkÅırinishida": 8559,
      "zak": 8560,
      "Ġsizni": 8561,
      "ĠKrishtianu": 8562,
      "Ġsharh": 8563,
      "Ġjarayonlari": 8564,
      "Ġbuzilgan": 8565,
      "saf": 8566,
      "Ġunut": 8567,
      "Ġyuritayotgan": 8568,
      "Ġuniversitetida": 8569,
      "Ġqutqar": 8570,
      "Ġtutilmoqda": 8571,
      "Ġkira": 8572,
      "itob": 8573,
      "qurun": 8574,
      "ĠBur": 8575,
      "Ġvaqtdan": 8576,
      "jar": 8577,
      "Ġhimoyachisi": 8578,
      "Ġstart": 8579,
      "roni": 8580,
      "Ġistiqbollari": 8581,
      "shke": 8582,
      "ĠPre": 8583,
      "Ġdavra": 8584,
      "Ġgazni": 8585,
      "Ġjazosiga": 8586,
      "ĠoraliÄŁida": 8587,
      "ĠÄŁalla": 8588,
      "omet": 8589,
      "Ġerishildi": 8590,
      "ĠMoldova": 8591,
      "Ġtadbirlarni": 8592,
      "Ġishlamoqda": 8593,
      "ĠJahongi": 8594,
      "ĠBBC": 8595,
      "ngina": 8596,
      "Ġhaqiqa": 8597,
      "Ġprovin": 8598,
      "Ġxalqimiz": 8599,
      "ĠOlmazor": 8600,
      "ĠKubogi": 8601,
      "Ġpaytgacha": 8602,
      "latish": 8603,
      "ĠqÅımondoni": 8604,
      "Ġ84": 8605,
      "Ġjarrohlik": 8606,
      "Ġhunar": 8607,
      "ĠBaxtiyor": 8608,
      "ĠLatviya": 8609,
      "Ġorasidan": 8610,
      "Ġqarorlari": 8611,
      "Ġsayt": 8612,
      "ylik": 8613,
      "Ġmahallasi": 8614,
      "Ġportalida": 8615,
      "ĠJonson": 8616,
      "Ġabonent": 8617,
      "orva": 8618,
      "ĠÅıylayman": 8619,
      "Ġayolning": 8620,
      "Ġtaklifini": 8621,
      "Ġqoni": 8622,
      "lanayotgani": 8623,
      "Ġpasayishi": 8624,
      "Bunyodkor": 8625,
      "kla": 8626,
      "Ġdemok": 8627,
      "ĠMash": 8628,
      "Ġ97": 8629,
      "Ġterrorchi": 8630,
      "Ġsp": 8631,
      "Ġvu": 8632,
      "chilikni": 8633,
      "ĠOradan": 8634,
      "matida": 8635,
      "Ġkelishini": 8636,
      "lgacha": 8637,
      "ĠmablaÄŁlarni": 8638,
      "ĠRio": 8639,
      "Ġniyat": 8640,
      "mokratiya": 8641,
      "ĠPoytax": 8642,
      "38": 8643,
      "Ġmess": 8644,
      "Ġetamiz": 8645,
      "Ġqaytdi": 8646,
      "Ġiyuldan": 8647,
      "uto": 8648,
      "ĠFina": 8649,
      "hod": 8650,
      "Ġ2005": 8651,
      "ĠÄŁalabaga": 8652,
      "Ġqochqinlar": 8653,
      "Ġnur": 8654,
      "Ġsharti": 8655,
      "Ġtermi": 8656,
      "ĠyÅıqolgan": 8657,
      "Ġmaydoniga": 8658,
      "Ġoxir": 8659,
      "moyish": 8660,
      "Ġolishini": 8661,
      "Ġurilgan": 8662,
      "Ġisyon": 8663,
      "ĠbÅılishadi": 8664,
      "Ġyevroga": 8665,
      "Ġdavlatlardan": 8666,
      "ĠyÅıldosh": 8667,
      "Ġfanlar": 8668,
      "off": 8669,
      "ddas": 8670,
      "ĠUkrainani": 8671,
      "ĠBolalar": 8672,
      "Ġbalan": 8673,
      "ĠkÅırsata": 8674,
      "Ġsuh": 8675,
      "Ġotishma": 8676,
      "virtual": 8677,
      "Ġaylanmasi": 8678,
      "buk": 8679,
      "lumotnoma": 8680,
      "ĠFinlandiya": 8681,
      "chenko": 8682,
      "Ġxarajatlarini": 8683,
      "uvchan": 8684,
      "ĠXay": 8685,
      "Ġjihati": 8686,
      "Ġfikriga": 8687,
      "Ġmessenj": 8688,
      "feri": 8689,
      "Ġgar": 8690,
      "Ġmeto": 8691,
      "shanbe": 8692,
      "ssyor": 8693,
      "ĠkÅınikma": 8694,
      "tilishicha": 8695,
      "limni": 8696,
      "ĠAmerikalik": 8697,
      "Ġhayotiga": 8698,
      "ususiy": 8699,
      "ĠkÅıtarilishi": 8700,
      "ĠVolo": 8701,
      "Ġtaqdiri": 8702,
      "Fi": 8703,
      "Ġchiqarildi": 8704,
      "ĠKecha": 8705,
      "ĠMajlisi": 8706,
      "ibori": 8707,
      "ulla": 8708,
      "Ġmanfaatlari": 8709,
      "ĠWi": 8710,
      "Ġboyligi": 8711,
      "So": 8712,
      "Ġdahshat": 8713,
      "Ġqaratildi": 8714,
      "Ġyordamga": 8715,
      "Ġinspektori": 8716,
      "Ġinvestorlar": 8717,
      "Ġboshlashi": 8718,
      "ĠMaxsus": 8719,
      "Ġhisobidagi": 8720,
      "ĠYevroittifo": 8721,
      "Ġfarmatsevtika": 8722,
      "ways": 8723,
      "Ġyurib": 8724,
      "Ġbermadi": 8725,
      "Ġyakunlangan": 8726,
      "Ġmigrant": 8727,
      "ĠFederal": 8728,
      "ĠAsa": 8729,
      "ligidagi": 8730,
      "Ġxarita": 8731,
      "Åİza": 8732,
      "ĠgÅıyoki": 8733,
      "Ġkv": 8734,
      "ĠBori": 8735,
      "Ġziyon": 8736,
      "Ġjabrlangan": 8737,
      "Ġtarzi": 8738,
      "Ġloyihasida": 8739,
      "Ġxavfsizlikni": 8740,
      "Ġtushum": 8741,
      "ĠkÅırsatmalar": 8742,
      "Ġmuvaffaqiyatsiz": 8743,
      "enit": 8744,
      "Ġnogironligi": 8745,
      "rina": 8746,
      "Ġboshqarib": 8747,
      "ĠKobul": 8748,
      "ishlab": 8749,
      "Ġerkinligi": 8750,
      "sdagi": 8751,
      "Ġshe": 8752,
      "ĠkÅıtarib": 8753,
      "ĠSardor": 8754,
      "Ġabituriyentlar": 8755,
      "Ġraqamlar": 8756,
      "Ġolmoqda": 8757,
      "Ġvaqtga": 8758,
      "zarov": 8759,
      "Ġyarimhimoya": 8760,
      "Ġnutq": 8761,
      "loqa": 8762,
      "ĠGur": 8763,
      "ĠtoÄŁli": 8764,
      "lamagan": 8765,
      "ĠÅıtkazishi": 8766,
      "pendiya": 8767,
      "Ġmuhimi": 8768,
      "timizda": 8769,
      "Ġrejimi": 8770,
      "ĠMinsk": 8771,
      "mosfe": 8772,
      "ĠIbro": 8773,
      "op": 8774,
      "ĠTax": 8775,
      "sabzavot": 8776,
      "Ġsuver": 8777,
      "ĠKiyevga": 8778,
      "Ġbuyumlar": 8779,
      "ĠÅızgardi": 8780,
      "Ġtaqiqlanadi": 8781,
      "ĠJahongir": 8782,
      "Ġishsiz": 8783,
      "limga": 8784,
      "Ġislohotlarni": 8785,
      "YeFA": 8786,
      "ĠSuperliga": 8787,
      "ĠInvestitsiyalar": 8788,
      "Ġmuze": 8789,
      "Ġjamoasini": 8790,
      "rishiga": 8791,
      "Ġfanlari": 8792,
      "Ġtvitter": 8793,
      "Ukraina": 8794,
      "Ġqilar": 8795,
      "oselekt": 8796,
      "Ġnarxini": 8797,
      "chalar": 8798,
      "Ġkasalligi": 8799,
      "Ġdeyilgan": 8800,
      "ernatori": 8801,
      "Ġyax": 8802,
      "Ġajrat": 8803,
      "Ġbanklar": 8804,
      "Ġxitoylik": 8805,
      "TI": 8806,
      "Ġbadiiy": 8807,
      "Ġtelevizor": 8808,
      "Ġdavlatda": 8809,
      "ĠPost": 8810,
      "zayev": 8811,
      "Ġtaassu": 8812,
      "ĠIlga": 8813,
      "Ġnoyab": 8814,
      "Ġhukumatning": 8815,
      "Ġbildiradi": 8816,
      "Ġxarajatlarni": 8817,
      "ĠBaxmut": 8818,
      "ĠBalki": 8819,
      "yiga": 8820,
      "Ġhududlarni": 8821,
      "Ġxizmatini": 8822,
      "Ġjurnalistlarga": 8823,
      "Ġberilishini": 8824,
      "Ġpeshqa": 8825,
      "Ġsonli": 8826,
      "urg": 8827,
      "ĠTadbirkor": 8828,
      "Ġfotosurat": 8829,
      "ĠqÅıliga": 8830,
      "ĠyÅılini": 8831,
      "kinchisi": 8832,
      "Ġqilayotgani": 8833,
      "Ġkasbiy": 8834,
      "Ġmoy": 8835,
      "ellyatsiya": 8836,
      "Ġfoydalanuvchilari": 8837,
      "Ġmuhojirlar": 8838,
      "Ġ900": 8839,
      "Ġismi": 8840,
      "Ġijrochi": 8841,
      "Ġtarqatdi": 8842,
      "ĠRossiyalik": 8843,
      "ĠtarmoÄŁini": 8844,
      "Ġyurtimizda": 8845,
      "Ġquriladi": 8846,
      "Ġbirgina": 8847,
      "ĠYevropadagi": 8848,
      "TS": 8849,
      "Ġurish": 8850,
      "Ġbosqin": 8851,
      "Ġochdi": 8852,
      "ĠqirÄŁoq": 8853,
      "ressi": 8854,
      "ĠYur": 8855,
      "ĠtÅıxtatilgan": 8856,
      "ĠQÅıshi": 8857,
      "ĠtÅılaqonli": 8858,
      "ĠLitva": 8859,
      "toroj": 8860,
      "ĠSenati": 8861,
      "Ġforumi": 8862,
      "Ġishchilar": 8863,
      "Ġinqilo": 8864,
      "ĠNurs": 8865,
      "Ġxizmatlarni": 8866,
      "Ġyaqinlari": 8867,
      "Ġboshqaruvidagi": 8868,
      "ĠBahodir": 8869,
      "MYu": 8870,
      "mash": 8871,
      "ĠSil": 8872,
      "Ġindi": 8873,
      "Ġfalokat": 8874,
      "xia": 8875,
      "Ġtasdiqlanadi": 8876,
      "ĠÅıldirilgan": 8877,
      "gori": 8878,
      "Ġbin": 8879,
      "ĠKoreyaga": 8880,
      "ĠEronga": 8881,
      "Ġnamoyishlar": 8882,
      "omi": 8883,
      "piya": 8884,
      "Ġoshxona": 8885,
      "Ġvazirlar": 8886,
      "Ġ88": 8887,
      "Ġhujjatlarida": 8888,
      "minist": 8889,
      "Ġdasturiga": 8890,
      "ĠkÅırinadi": 8891,
      "ĠYPX": 8892,
      "Ġinstitutlari": 8893,
      "Ġmahsuloti": 8894,
      "chasiga": 8895,
      "ĠuruÄŁ": 8896,
      "EL": 8897,
      "ymiz": 8898,
      "ĠqÅıymaslik": 8899,
      "Ġrost": 8900,
      "ĠMouri": 8901,
      "Ġkubo": 8902,
      "Ġfuqaroning": 8903,
      "Mu": 8904,
      "Mil": 8905,
      "Ġvirtual": 8906,
      "nob": 8907,
      "ĠHuquq": 8908,
      "Ġjazoni": 8909,
      "Ġtezlik": 8910,
      "Ġtushunish": 8911,
      "Ġbatar": 8912,
      "ĠRim": 8913,
      "36": 8914,
      "vob": 8915,
      "ĠNovosti": 8916,
      "ĠÅıtirib": 8917,
      "Ġvra": 8918,
      "Ġkesimida": 8919,
      "Ġmuolaja": 8920,
      "ĠAES": 8921,
      "Ġkeltir": 8922,
      "Åıstlik": 8923,
      "34": 8924,
      "Ol": 8925,
      "ĠUYeFA": 8926,
      "Ġlitsey": 8927,
      "ĠCovid": 8928,
      "Ġishora": 8929,
      "Ġchiziq": 8930,
      "ĠkÅıpincha": 8931,
      "Åıyxat": 8932,
      "Ġagro": 8933,
      "Ġnazoratga": 8934,
      "ĠNig": 8935,
      "riladigan": 8936,
      "Ġgram": 8937,
      "ĠVan": 8938,
      "Ġtashkilotning": 8939,
      "Ġdisk": 8940,
      "Ġbajarilishi": 8941,
      "Ġtanqidiy": 8942,
[...]
