{
  "version": "1.0",
  "truncation": null,
  "padding": null,
  "added_tokens": [
    {
      "id": 0,
      "content": "[PAD]",
      "single_word": false,
      "lstrip": false,
      "rstrip": false,
      "normalized": false,
      "special": true
    },
    {
      "id": 1,
      "content": "[UNK]",
      "single_word": false,
      "lstrip": false,
      "rstrip": false,
      "normalized": false,
      "special": true
    },
    {
      "id": 2,
      "content": "[START]",
      "single_word": false,
      "lstrip": false,
      "rstrip": false,
      "normalized": false,
      "special": true
    },
    {
      "id": 3,
      "content": "[END]",
      "single_word": false,
      "lstrip": false,
      "rstrip": false,
      "normalized": false,
      "special": true
    }
  ],
  "normalizer": null,
  "pre_tokenizer": {
    "type": "ByteLevel",
    "add_prefix_space": true,
    "trim_offsets": true,
    "use_regex": true
  },
  "post_processor": null,
  "decoder": null,
  "model": {
    "type": "BPE",
    "dropout": null,
    "unk_token": null,
    "continuing_subword_prefix": null,
    "end_of_word_suffix": null,
    "fuse_unk": false,
    "byte_fallback": false,
    "vocab": {
      "[PAD]": 0,
      "[UNK]": 1,
      "[START]": 2,
      "[END]": 3,
      "!": 4,
      "\"": 5,
      "#": 6,
      "$": 7,
      "%": 8,
      "&": 9,
      "'": 10,
      "(": 11,
      ")": 12,
      "*": 13,
      "+": 14,
      ",": 15,
      "-": 16,
      ".": 17,
      "/": 18,
      "0": 19,
      "1": 20,
      "2": 21,
      "3": 22,
      "4": 23,
      "5": 24,
      "6": 25,
      "7": 26,
      "8": 27,
      "9": 28,
      ":": 29,
      ";": 30,
      "<": 31,
      "=": 32,
      ">": 33,
      "?": 34,
      "@": 35,
      "A": 36,
      "B": 37,
      "C": 38,
      "D": 39,
      "E": 40,
      "F": 41,
      "G": 42,
      "H": 43,
      "I": 44,
      "J": 45,
      "K": 46,
      "L": 47,
      "M": 48,
      "N": 49,
      "O": 50,
      "P": 51,
      "Q": 52,
      "R": 53,
      "S": 54,
      "T": 55,
      "U": 56,
      "V": 57,
      "W": 58,
      "X": 59,
      "Y": 60,
      "Z": 61,
      "[": 62,
      "\\": 63,
      "]": 64,
      "_": 65,
      "a": 66,
      "b": 67,
      "c": 68,
      "d": 69,
      "e": 70,
      "f": 71,
      "g": 72,
      "h": 73,
      "i": 74,
      "j": 75,
      "k": 76,
      "l": 77,
      "m": 78,
      "n": 79,
      "o": 80,
      "p": 81,
      "q": 82,
      "r": 83,
      "s": 84,
      "t": 85,
      "u": 86,
      "v": 87,
      "w": 88,
      "x": 89,
      "y": 90,
      "z": 91,
      "|": 92,
      "¦": 93,
      "§": 94,
      "¬": 95,
      "°": 96,
      "µ": 97,
      "½": 98,
      "Â": 99,
      "Ã": 100,
      "Ç": 101,
      "â": 102,
      "Ċ": 103,
      "Ġ": 104,
      "Ĥ": 105,
      "ķ": 106,
      "la": 107,
      "da": 108,
      "sh": 109,
      "ni": 110,
      "ga": 111,
      "ri": 112,
      "li": 113,
      "Ġb": 114,
      "Ãµ": 115,
      "ti": 116,
      "di": 117,
      "ch": 118,
      "ma": 119,
      "Ġt": 120,
      "si": 121,
      "Ġk": 122,
      "lar": 123,
      "ar": 124,
      "Ġq": 125,
      "ya": 126,
      "ng": 127,
      "ra": 128,
      "gan": 129,
      "Ġh": 130,
      "Ġy": 131,
      "va": 132,
      "on": 133,
      "Ġo": 134,
      "il": 135,
      "shi": 136,
      "lari": 137,
      "ning": 138,
      "Ġs": 139,
      "Ġa": 140,
      "Ġu": 141,
      "gi": 142,
      "Ġva": 143,
      "ta": 144,
      "Ġm": 145,
      "Ġe": 146,
      "in": 147,
      "dan": 148,
      "or": 149,
      "chi": 150,
      "Ġta": 151,
      "zi": 152,
      "un": 153,
      "ĠÃµ": 154,
      "Ġma": 155,
      "at": 156,
      "Ġi": 157,
      "mo": 158,
      "lan": 159,
      "ĠbÃµ": 160,
      "Ġbi": 161,
      "mi": 162,
      "lik": 163,
      "Ġha": 164,
      "cha": 165,
      "ki": 166,
      "ro": 167,
      "sa": 168,
      "Ç§": 169,
      "ka": 170,
      "de": 171,
      "na": 172,
      "Ġke": 173,
      "Ġj": 174,
      "er": 175,
      "Ġqi": 176,
      "yo": 177,
      "Ġbo": 178,
      "Ġ\"": 179,
      "qi": 180,
      "lo": 181,
      "ĠB": 182,
      "Ġmu": 183,
      "ĠkÃµ": 184,
      "Ġx": 185,
      "siya": 186,
      "Ġf": 187,
      "qa": 188,
      "lgan": 189,
      "st": 190,
      "dagi": 191,
      "ĠS": 192,
      "Ġp": 193,
      "Ġsh": 194,
      "Ġda": 195,
      "vo": 196,
      "yi": 197,
      "bi": 198,
      "ĠA": 199,
      "rish": 200,
      "ur": 201,
      "ladi": 202,
      "Ġham": 203,
      "Ġya": 204,
      "Ġuch": 205,
      "lash": 206,
      "ba": 207,
      "ay": 208,
      "en": 209,
      "ĠM": 210,
      "Ġbilan": 211,
      "uv": 212,
      "Ġ2": 213,
      "an": 214,
      "Ġde": 215,
      "ĠU": 216,
      "Ġ1": 217,
      "do": 218,
      "Ġqili": 219,
      "Ġtu": 220,
      "ligi": 221,
      "Ġyil": 222,
      "Ġish": 223,
      "Ġku": 224,
      "Ġbu": 225,
      "re": 226,
      "gani": 227,
      "ara": 228,
      "Ġuchun": 229,
      "so": 230,
      "Ġbe": 231,
      "ĠT": 232,
      "ĠR": 233,
      "Ġ-": 234,
      "ĠqÃµ": 235,
      "lab": 236,
      "al": 237,
      "Ġbosh": 238,
      "ldi": 239,
      "zo": 240,
      "larni": 241,
      "Ġyo": 242,
      "Ġso": 243,
      "ek": 244,
      "Ġhu": 245,
      "os": 246,
      "lat": 247,
      "oy": 248,
      "Ġn": 249,
      "Ġsa": 250,
      "lib": 251,
      "Ġto": 252,
      "ston": 253,
      "ĠK": 254,
      "Ġra": 255,
      "ĠtÃµ": 256,
      "tgan": 257,
      "iz": 258,
      "ja": 259,
      "aro": 260,
      "moq": 261,
      "lishi": 262,
      "Ġbir": 263,
      "yat": 264,
      "et": 265,
      "za": 266,
      "ol": 267,
      "Ãķ": 268,
      "ĠI": 269,
      "Ġja": 270,
      "um": 271,
      "ĠyÃµ": 272,
      "ĠY": 273,
      "ĠSh": 274,
      "tish": 275,
      "Ç§i": 276,
      "Ġna": 277,
      "Ġchi": 278,
      "vi": 279,
      "sida": 280,
      "Ġtash": 281,
      "Ġ20": 282,
      "Ġay": 283,
      "larga": 284,
      "fa": 285,
      "Ġqil": 286,
      "lish": 287,
      "ĠÃķ": 288,
      "ul": 289,
      "ot": 290,
      "Ġki": 291,
      "kin": 292,
      "Ġyu": 293,
      "larini": 294,
      "ev": 295,
      "ori": 296,
      "ĠÃµz": 297,
      "ĠQ": 298,
      "kra": 299,
      "kat": 300,
      "larning": 301,
      "Ġte": 302,
      "ona": 303,
      "ossiya": 304,
      "ah": 305,
      "ĠH": 306,
      "ydi": 307,
      "rat": 308,
      "moqda": 309,
      "Ġch": 310,
      "be": 311,
      "lma": 312,
      "ina": 313,
      "ĠsÃµ": 314,
      "Ġdav": 315,
      "ĠRossiya": 316,
      "miz": 317,
      "niya": 318,
      "rib": 319,
      "Ġxa": 320,
      "oli": 321,
      "kiston": 322,
      "tib": 323,
      "ĠBu": 324,
      "sti": 325,
      "pa": 326,
      "Ġqo": 327,
      "ĠbÃµlgan": 328,
      "om": 329,
      "larda": 330,
      "Ġqa": 331,
      "ud": 332,
      "us": 333,
      "kraina": 334,
      "Ġho": 335,
      "ĠO": 336,
      "bekiston": 337,
      "Ġvazi": 338,
      "ha": 339,
      "ĠP": 340,
      "ĠÃķz": 341,
      "Ġsi": 342,
      "Ġka": 343,
      "ngi": 344,
      "langan": 345,
      "ov": 346,
      "ĠbÃµyi": 347,
      "lu": 348,
      "ĠbÃµyicha": 349,
      "lariga": 350,
      "lani": 351,
      "ĠUkraina": 352,
      "Ġqu": 353,
      "yin": 354,
      "Ġin": 355,
      "ĠÃķzbekiston": 356,
      "uvchi": 357,
      "ĠÃµt": 358,
      "Ġor": 359,
      "Ġhi": 360,
      "Ġmi": 361,
      "tirish": 362,
      "ent": 363,
      "ĠX": 364,
      "Ġdavlat": 365,
      "tida": 366,
      "Ġti": 367,
      "uq": 368,
      "Ġ(": 369,
      "ir": 370,
      "ĠN": 371,
      "Ġqilish": 372,
      "rin": 373,
      "siz": 374,
      "man": 375,
      "Ġg": 376,
      "iy": 377,
      "Ġtar": 378,
      "kazi": 379,
      "yot": 380,
      "Ġmum": 381,
      "Ġmumkin": 382,
      "Ġre": 383,
      "biy": 384,
      "ĠkÃµra": 385,
      "ĠD": 386,
      "ko": 387,
      "ĠÃµr": 388,
      "mat": 389,
      "Ġhar": 390,
      "mas": 391,
      "Ġ202": 392,
      "sp": 393,
      "adi": 394,
      "Ġber": 395,
      "roq": 396,
      "rak": 397,
      "kil": 398,
      "day": 399,
      "Ġhaqi": 400,
      "Ġkuni": 401,
      "Ġshu": 402,
      "\",": 403,
      "kor": 404,
      "ĠJ": 405,
      "to": 406,
      "Ġdo": 407,
      "ru": 408,
      "dir": 409,
      "moni": 410,
      "Ġesa": 411,
      "ĠF": 412,
      "bu": 413,
      "Ġqar": 414,
      "ĠG": 415,
      "Ġ3": 416,
      "Ġfa": 417,
      "bar": 418,
      "hi": 419,
      "den": 420,
      "dam": 421,
      "yotgan": 422,
      "yati": 423,
      "lga": 424,
      "ĠkÃµp": 425,
      "Ġbor": 426,
      "zar": 427,
      "bo": 428,
      "Ġqay": 429,
      "no": 430,
      "gar": 431,
      "tilgan": 432,
      "radi": 433,
      "mon": 434,
      "bat": 435,
      "fi": 436,
      "liy": 437,
      "ĠE": 438,
      "osh": 439,
      "ĠV": 440,
      "sini": 441,
      "lov": 442,
      "Ġdeb": 443,
      "du": 444,
      "rilgan": 445,
      "Ġav": 446,
      "ĠkÃµr": 447,
      "siga": 448,
      "Ġtomoni": 449,
      "ĠMa": 450,
      "el": 451,
      "ut": 452,
      "dek": 453,
      "Ġqilin": 454,
      "lardan": 455,
      "Ġshah": 456,
      "Ġim": 457,
      "Ġik": 458,
      "Ġkun": 459,
      "Ġkerak": 460,
      "Ġv": 461,
      "ku": 462,
      "Ġga": 463,
      "siy": 464,
      "Ġoshi": 465,
      "ziden": 466,
      "Ġtashkil": 467,
      "sha": 468,
      "ĠL": 469,
      "reziden": 470,
      "ekt": 471,
      "Ġmar": 472,
      "Ġaso": 473,
      "Ġba": 474,
      "Ġjoy": 475,
      "Sh": 476,
      "ilo": 477,
      "ino": 478,
      "Ġdara": 479,
      "00": 480,
      "Ġama": 481,
      "liq": 482,
      "ort": 483,
      "dda": 484,
      "mmo": 485,
      "'m": 486,
      "Ġolib": 487,
      "Ġtomonidan": 488,
      "Ġni": 489,
      "br": 490,
      "miy": 491,
      "lin": 492,
      "ran": 493,
      "pi": 494,
      "zil": 495,
      "Ç§ri": 496,
      "ĠbÃµladi": 497,
      "fo": 498,
      "Ġtur": 499,
      "Ġhiso": 500,
      "ĠShu": 501,
      "Ġedi": 502,
      "tan": 503,
      "Ġmil": 504,
      "qar": 505,
      "Ġdavo": 506,
      "larida": 507,
      "tadi": 508,
      "Ġhaqida": 509,
      "mla": 510,
      "Ġsha": 511,
      "ĠbÃµl": 512,
      "Ġdaraja": 513,
      "lim": 514,
      "tir": 515,
      "lumo": 516,
      "mida": 517,
      "evro": 518,
      "Ġboshqa": 519,
      "Ġhuj": 520,
      "Ġbar": 521,
      "dim": 522,
      "Ġfo": 523,
      "ĠÃµzi": 524,
      "ĠbÃµlib": 525,
      "ligini": 526,
      "..": 527,
      "Ġ5": 528,
      "chilik": 529,
      "qat": 530,
      "rishi": 531,
      "Ġoldi": 532,
      "Ġqan": 533,
      "Ġqildi": 534,
      "Ġyi": 535,
      "QSh": 536,
      "Ġsu": 537,
      "qin": 538,
      "Ġno": 539,
      "Ġyilda": 540,
      "Ġvaq": 541,
      "ganini": 542,
      "ron": 543,
      "Ġeti": 544,
      "dor": 545,
      "Ġharbiy": 546,
      "Ġye": 547,
      "it": 548,
      "Ġxiz": 549,
      "Ġd": 550,
      "ĠAQSh": 551,
      "eri": 552,
      "lumot": 553,
      "Ġyangi": 554,
      "Ġega": 555,
      "Ġpreziden": 556,
      "xona": 557,
      "yap": 558,
      "nga": 559,
      "Ġkom": 560,
      "mati": 561,
      "Ġmah": 562,
      "Ġ4": 563,
      "Ġyet": 564,
      "oyda": 565,
      "ĠyÃµq": 566,
      "diy": 567,
      "paniya": 568,
      "Ġhara": 569,
      "viy": 570,
      "Ġmamla": 571,
      "Ġming": 572,
      "zir": 573,
      "Ġme": 574,
      "gacha": 575,
      "ĠtÃµÇ§ri": 576,
      "ĠC": 577,
      "Ġikki": 578,
      "Ġlo": 579,
      "Ġvilo": 580,
      "larining": 581,
      "Ġrah": 582,
      "Ġxabar": 583,
      "dar": 584,
      "Ġvazir": 585,
      "xs": 586,
      "mani": 587,
      "kent": 588,
      "rida": 589,
      "Ġfoyda": 590,
      "mu": 591,
      "lum": 592,
      "Ġqarshi": 593,
      "Ġet": 594,
      "Ġolish": 595,
      "Ġzar": 596,
      "Ġhisob": 597,
      "niq": 598,
      "unday": 599,
      "landi": 600,
      "oshkent": 601,
      "var": 602,
      "yu": 603,
      "Ġmamlakat": 604,
      "alq": 605,
      "ora": 606,
      "sining": 607,
      "lanadi": 608,
      "tsiya": 609,
      "Ġeng": 610,
      "Ġyor": 611,
      "Ġ7": 612,
      "Ġxo": 613,
      "sidagi": 614,
      "Ġkuch": 615,
      "Ġemas": 616,
      "av": 617,
      "Ġyana": 618,
      "lagan": 619,
      "yor": 620,
      "Ġyoki": 621,
      "Ġne": 622,
      "ĠToshkent": 623,
      "Ġchiqa": 624,
      "ĠYa": 625,
      "ningdek": 626,
      "ĠbÃµlishi": 627,
      "ub": 628,
      "yapti": 629,
      "Ġqat": 630,
      "uri": 631,
      "ĠYevro": 632,
      "bari": 633,
      "Ġqis": 634,
      "Ġtan": 635,
      "Ġqilgan": 636,
      "giya": 637,
      "kt": 638,
      "xi": 639,
      "tin": 640,
      "sta": 641,
      "ho": 642,
      "Ġshar": 643,
      "Ġmo": 644,
      "ĠyÃµl": 645,
      "Ġchiqi": 646,
      "le": 647,
      "Ġharakat": 648,
      "Ġishlab": 649,
      "ĠqÃµshi": 650,
      "bor": 651,
      "lon": 652,
      "Ġberish": 653,
      "mol": 654,
      "lashi": 655,
      "bir": 656,
      "tini": 657,
      "ĠÃµrta": 658,
      "Ġuning": 659,
      "Ġberi": 660,
      "ĠIs": 661,
      "Ġel": 662,
      "shbu": 663,
      "Ġvo": 664,
      "Ġko": 665,
      "sat": 666,
      "lay": 667,
      "Ġmilli": 668,
      "Ġnar": 669,
      "ĠbÃµldi": 670,
      "laridan": 671,
      "Ġqara": 672,
      "Ġxav": 673,
      "ĠqÃµl": 674,
      "atta": 675,
      "ulo": 676,
      "Ġml": 677,
      "Ġsaba": 678,
      "yiha": 679,
      "ĠÇ§": 680,
      "far": 681,
      "Ġeka": 682,
      "Ġfoiz": 683,
      "niy": 684,
      "Ġuru": 685,
      "Ġchiq": 686,
      "Ġmaq": 687,
      "Ġkeyin": 688,
      "bul": 689,
      "Ġah": 690,
      "rol": 691,
      "Ġbiz": 692,
      "Ġtez": 693,
      "Ġorqa": 694,
      "Ġbarcha": 695,
      "undan": 696,
      "Ġpay": 697,
      "Ġdol": 698,
      "qti": 699,
      "Ġ6": 700,
      "Ġtizi": 701,
      "erg": 702,
      "lanish": 703,
      "rinchi": 704,
      "ĠsÃµng": 705,
      "ĠYevropa": 706,
      "ji": 707,
      "Ġamalga": 708,
      "Ġoyi": 709,
      "es": 710,
      "ekin": 711,
      "Ġjamo": 712,
      "Ġ19": 713,
      "Ġaniq": 714,
      "Ġdi": 715,
      "Ġkompaniya": 716,
      "Ġqon": 717,
      "vat": 718,
      "Ġhamda": 719,
      "son": 720,
      "rim": 721,
      "layotgan": 722,
      "masi": 723,
      "san": 724,
      "likda": 725,
      "Ġsabab": 726,
      "Ġtush": 727,
      "Ġyer": 728,
      "Ġmasa": 729,
      "ĠSa": 730,
      "Ġmav": 731,
      "uqaro": 732,
      "tiga": 733,
      "Ġman": 734,
      "as": 735,
      "Ġloyiha": 736,
      "Ġkatta": 737,
      "Ġorqali": 738,
      "Ġrahbari": 739,
      "lanishi": 740,
      "Ġxavf": 741,
      "ĠbÃµlma": 742,
      "magan": 743,
      "kid": 744,
      "Ġtak": 745,
      "Ġholat": 746,
      "ĠÃµtka": 747,
      "Ġyordam": 748,
      "Ġetish": 749,
      "lgi": 750,
      "te": 751,
      "Ġqanday": 752,
      "Ġr": 753,
      "Ġmay": 754,
      "Ġxizmat": 755,
      "Ġij": 756,
      "laydi": 757,
      "qtiso": 758,
      "Ġqilingan": 759,
      "Ġavto": 760,
      "ilgan": 761,
      "dbir": 762,
      "Ġvazirligi": 763,
      "Ġshahar": 764,
      "Ġxalq": 765,
      "dud": 766,
      "Ġkel": 767,
      "Ġfuqaro": 768,
      "Ġhudud": 769,
      "tiq": 770,
      "Ġuni": 771,
      "xta": 772,
      "Ġolin": 773,
      "Ġtay": 774,
      "Ġkiri": 775,
      "tda": 776,
      "gu": 777,
      "Ġpar": 778,
      "chilar": 779,
      "Ġpa": 780,
      "tiro": 781,
      "ĠZ": 782,
      "lashtirish": 783,
      "Ġdedi": 784,
      "Ġtayyor": 785,
      "ve": 786,
      "ngiz": 787,
      "tishi": 788,
      "Ġtop": 789,
      "sidan": 790,
      "Ġyosh": 791,
      "lashti": 792,
      "rash": 793,
      "Ġaholi": 794,
      "lika": 795,
      "Ġmasala": 796,
      "roil": 797,
      "jat": 798,
      "ĠbÃµlsa": 799,
      "ĠTa": 800,
      "Ġhuq": 801,
      "Ġri": 802,
      "spub": 803,
      "spublika": 804,
      "Ġbiri": 805,
      "Ġcha": 806,
      "may": 807,
      "rasida": 808,
      "Ġqabul": 809,
      "Ġ2023": 810,
      "uda": 811,
      "Ġyax": 812,
      "ĠboÇ§": 813,
      "ĠkÃµrsa": 814,
      "ĠsÃµm": 815,
      "ĠÃµtkazi": 816,
      "ĠÃµrin": 817,
      "Ġpro": 818,
      "Ġen": 819,
      "Ġalo": 820,
      "ke": 821,
      "Ġishtiro": 822,
      "Ġmun": 823,
      "Ġbil": 824,
      "Ġsiyo": 825,
      "Ġbirinchi": 826,
      "ĠCh": 827,
      "Ġche": 828,
      "Ġza": 829,
      "Ġyaqin": 830,
      "Ġsay": 831,
      "nini": 832,
      "Ġras": 833,
      "Ġberdi": 834,
      "Ç¦": 835,
      "sk": 836,
      "Ġtaq": 837,
      "Ġhamkor": 838,
      "Ġar": 839,
      "Ġshi": 840,
      "Ġsifa": 841,
      "ĠHa": 842,
      "maydi": 843,
      "Ġbelgi": 844,
      "don": 845,
      "mir": 846,
      "itoy": 847,
      "til": 848,
      "ank": 849,
      "liklar": 850,
      "Ġdoi": 851,
      "Ġmaqsa": 852,
      "Ġodam": 853,
      "Ġimko": 854,
      "Ġis": 855,
      "Ġji": 856,
      "tab": 857,
      "tija": 858,
      "uz": 859,
      "Ġdavom": 860,
      "Ġsuv": 861,
      "Ġqiladi": 862,
      "Ġurush": 863,
      "Ġjavo": 864,
      "ĠyÃµna": 865,
      "Ġil": 866,
      "Ġyaxshi": 867,
      "nishi": 868,
      "ĠÇ¦": 869,
      "Ġprezidenti": 870,
      "Ġyuq": 871,
      "faa": 872,
      "Ġolgan": 873,
      "Ġuy": 874,
      "quv": 875,
      "ĠRe": 876,
      "unyo": 877,
      "ĠIsroil": 878,
      "lif": 879,
      "Ġkishi": 880,
      "Ġhujum": 881,
      "...": 882,
      "ĠsÃµz": 883,
      "shan": 884,
      "ech": 885,
      "Ġbola": 886,
      "tti": 887,
      "Ġyuqori": 888,
      "uru": 889,
      "Ġqilib": 890,
      "Ġushbu": 891,
      "ver": 892,
      "dofaa": 893,
      "Ġfaoli": 894,
      "Ġ8": 895,
      "Ġjino": 896,
      "Ġoy": 897,
      "yish": 898,
      "Ġ10": 899,
      "tlar": 900,
      "Ġsud": 901,
      "ĠNa": 902,
      "Ġsoha": 903,
      "Ġhuku": 904,
      "Ġkon": 905,
      "20": 906,
      "bil": 907,
      "ĠÃµtgan": 908,
      "ratsiya": 909,
      "timo": 910,
      "go": 911,
      "lashgan": 912,
      "Ġtex": 913,
      "tdi": 914,
      "Ġelekt": 915,
      "Ġichi": 916,
      "nida": 917,
      "Ġqonun": 918,
      "ĠXitoy": 919,
      "Ġmak": 920,
      "Ġqayta": 921,
      "ĠTur": 922,
      "hat": 923,
      "moya": 924,
      "Ġmuno": 925,
      "oriy": 926,
      "Ġnafar": 927,
      "Ġjuda": 928,
      "Ġrivo": 929,
      "rik": 930,
      "Ġ2022": 931,
      "mini": 932,
      "Ġreja": 933,
      "ttifo": 934,
      "ĠÃµyin": 935,
      "Ġviloyati": 936,
      "val": 937,
      "Ġtashqa": 938,
      "ey": 939,
      "Ġular": 940,
      "Ġfi": 941,
      "Ġhudu": 942,
      "Ġjamoa": 943,
      "yabr": 944,
      "Ġxavfsiz": 945,
      "ter": 946,
      "Ġqurol": 947,
      "riga": 948,
      "Ġmaj": 949,
      "Ġek": 950,
      "Ġhaq": 951,
      "Ġbirga": 952,
      "ssiya": 953,
      "mcha": 954,
      "Ġnis": 955,
      "Ġsifatida": 956,
      "riladi": 957,
      "Ġak": 958,
      "Ġbergan": 959,
      "lida": 960,
      "yotgani": 961,
      "Ġtumani": 962,
      "ral": 963,
      "Ġun": 964,
      "Ġetgan": 965,
      "Ġrasmiy": 966,
      "Ġtushi": 967,
      "Ġshaxs": 968,
      "ĠQo": 969,
      "Ġrivoj": 970,
      "Ġvaziyat": 971,
      "Ġxalqaro": 972,
      "Ġnisba": 973,
      "Ġolma": 974,
      "sport": 975,
      "Ġiqtiso": 976,
      "Ġob": 977,
      "Ġasosiy": 978,
      "Ġhozir": 979,
      "ril": 980,
      "Ġsaq": 981,
      "ĠqÃµy": 982,
      "ĠMar": 983,
      "ĠBi": 984,
      "Ġguru": 985,
      "Ġnatija": 986,
      "'t": 987,
      "Ġhoki": 988,
      "Ãµy": 989,
      "chisi": 990,
      "Ġshart": 991,
      "ski": 992,
      "Ġnisbatan": 993,
      "Ġ9": 994,
      "loq": 995,
      "Ġdavomida": 996,
      "Ġdast": 997,
      "Ġshuningdek": 998,
      "Ġtas": 999,
      "lantirish": 1000,
      "Ġ201": 1001,
      "Ġkor": 1002,
      "ĠkÃµrsat": 1003,
      "ĠMu": 1004,
      "liga": 1005,
      "Ġishlar": 1006,
      "noma": 1007,
      "ayon": 1008,
      "Ġtashqari": 1009,
      "Ġol": 1010,
      "Ġdegan": 1011,
      "erma": 1012,
      "Ġtalab": 1013,
      "Ġortiq": 1014,
      "Ġyetkazi": 1015,
      "Ġmillion": 1016,
      "likni": 1017,
      "ĠÃµzga": 1018,
      "Ġmunosa": 1019,
      "Ġgaz": 1020,
      "Ġmuhi": 1021,
      "Ġjavob": 1022,
      "dida": 1023,
      "ĠÃµqi": 1024,
      "Ġro": 1025,
      "Ġ+": 1026,
      "Ġtadbir": 1027,
      "Ġmln": 1028,
      "Ġyan": 1029,
      "Ġbuy": 1030,
      "oni": 1031,
      "Ġtran": 1032,
      "zod": 1033,
      "laba": 1034,
      "Ġkam": 1035,
      "Ġmudda": 1036,
      "ĠHo": 1037,
      "usu": 1038,
      "tasi": 1039,
      "ĠtÃµxta": 1040,
      "Ġvaziri": 1041,
      "shga": 1042,
      "tax": 1043,
      "Ġishtirok": 1044,
      "Ġ15": 1045,
      "Ġyara": 1046,
      "Ġyuza": 1047,
      "Ġprezident": 1048,
      "shda": 1049,
      "rini": 1050,
      "Ġmuho": 1051,
      "lam": 1052,
      "zilgan": 1053,
      "Ġtomon": 1054,
      "rilishi": 1055,
      "rd": 1056,
      "Ġoshirish": 1057,
      "riy": 1058,
      "Ġer": 1059,
      "Ġboshqar": 1060,
      "bol": 1061,
      "Ġhech": 1062,
      "siyo": 1063,
      "Ç§ir": 1064,
      "Ãµl": 1065,
      "Ġhavo": 1066,
      "qan": 1067,
      "Ġhol": 1068,
      "Ġoqi": 1069,
      "...+": 1070,
      "Ġag": 1071,
      "likka": 1072,
      "pe": 1073,
      "Ġmiq": 1074,
      "Ġkenga": 1075,
      "ĠVa": 1076,
      "lanib": 1077,
      "Ġdunyo": 1078,
      "bek": 1079,
      "ram": 1080,
      "yasi": 1081,
      "Ġfaqat": 1082,
      "Ġmua": 1083,
      "ĠrÃµy": 1084,
      "Ġyanvar": 1085,
      "Ç§in": 1086,
      "Ġoyida": 1087,
      "Ġochi": 1088,
      "nadi": 1089,
      "Ġan": 1090,
      "oro": 1091,
      "sari": 1092,
      "Ġkelib": 1093,
      "Ġqaror": 1094,
      "Ġayb": 1095,
      "Ġxodim": 1096,
      "zim": 1097,
      "Ġiy": 1098,
      "Ġvaqt": 1099,
      "Ġkelish": 1100,
      "Ġtari": 1101,
      "Ġmudofaa": 1102,
      "kinchi": 1103,
      "sulo": 1104,
      "liya": 1105,
      "Ġetilgan": 1106,
      "Ġsodir": 1107,
      "ĠBa": 1108,
      "Ġammo": 1109,
      "vdo": 1110,
      "uvi": 1111,
      "chasi": 1112,
      "Ġbah": 1113,
      "Ġtaklif": 1114,
      "Ġhimoya": 1115,
      "Ġpul": 1116,
      "Ġqilishi": 1117,
      "etr": 1118,
      "diq": 1119,
      "Ġsavdo": 1120,
      "ladan": 1121,
      "Ġularning": 1122,
      "Ġmarkazi": 1123,
      "Ġmahsulo": 1124,
      "Ġjoriy": 1125,
      "tar": 1126,
      "ĠqÃµshimcha": 1127,
      "Ġolingan": 1128,
      "Ġqilindi": 1129,
      "Ġla": 1130,
      "ermaniya": 1131,
      "Ġmuammo": 1132,
      "Ġmas": 1133,
      "\".": 1134,
      "ĠboÇ§liq": 1135,
      "Ç§iston": 1136,
      "Ġom": 1137,
      "nat": 1138,
      "ĠUkrainaga": 1139,
      "Ġkelgan": 1140,
      "Ġat": 1141,
      "ĠÃµq": 1142,
      "Ġdar": 1143,
      "mobil": 1144,
      "Ġtah": 1145,
      "Ġmat": 1146,
      "Ġmuhim": 1147,
      "po": 1148,
      "'s": 1149,
      "logiya": 1150,
      "Ġyilning": 1151,
      "ĠAmmo": 1152,
      "Ġhuquq": 1153,
      "Ġdeya": 1154,
      "Ġhaqda": 1155,
      "Ġaj": 1156,
      "kiya": 1157,
      "Ġkabi": 1158,
      "rov": 1159,
      "Ġchora": 1160,
      "oliya": 1161,
      "ĠGermaniya": 1162,
      "unga": 1163,
      "Ġberadi": 1164,
      "timoiy": 1165,
      "kama": 1166,
      "Ġnecha": 1167,
      "ĠqÃµllab": 1168,
      "sita": 1169,
      "Ġoi": 1170,
      "ttifoqi": 1171,
      "shni": 1172,
      "Ġjinoyat": 1173,
      "ard": 1174,
      "qiq": 1175,
      "Ġzarba": 1176,
      "jon": 1177,
      "quvvat": 1178,
      "stit": 1179,
      "mar": 1180,
      "Ġqayd": 1181,
      "lama": 1182,
      "yol": 1183,
      "Ġaloqa": 1184,
      "miyat": 1185,
      "ĠKa": 1186,
      "shli": 1187,
      "lasti": 1188,
      "umladan": 1189,
      "Ġhujjat": 1190,
      "ĠUning": 1191,
      "Ġmaktab": 1192,
      "Ġxizmati": 1193,
      "skiy": 1194,
      "atsiya": 1195,
      "Ġeh": 1196,
      "tiladi": 1197,
      "ĠAv": 1198,
      "arli": 1199,
      "Ġhalo": 1200,
      "nali": 1201,
      "Ġfar": 1202,
      "niga": 1203,
      "Ġqolgan": 1204,
      "ganidan": 1205,
      "shina": 1206,
      "rildi": 1207,
      "ĠShuningdek": 1208,
      "Ġtashkilot": 1209,
      "Ġvi": 1210,
      "port": 1211,
      "Ġal": 1212,
      "Ġqoldi": 1213,
      "Ġnazo": 1214,
      "tibi": 1215,
      "shanba": 1216,
      "ddiy": 1217,
      "Ġbora": 1218,
      "Ġchek": 1219,
      "Ġagent": 1220,
      "ĠÃµzgar": 1221,
      "Ġmahal": 1222,
      "jud": 1223,
      "qo": 1224,
      "Ġyak": 1225,
      "Ġbos": 1226,
      "lini": 1227,
      "zm": 1228,
      "miga": 1229,
      "ĠRespublika": 1230,
      "Ġmeh": 1231,
      "Ġas": 1232,
      "Ġqadar": 1233,
      "tilma": 1234,
      "ĠÃµy": 1235,
      "Ġshahri": 1236,
      "zoq": 1237,
      "Ġholda": 1238,
      "Ġz": 1239,
      "Ġbunday": 1240,
      "Ġosh": 1241,
      "voz": 1242,
      "Ġbal": 1243,
      "xa": 1244,
      "Ġru": 1245,
      "Ġetdi": 1246,
      "tidan": 1247,
      "Ġmusta": 1248,
      "Ġnima": 1249,
      "Ġjang": 1250,
      "rdi": 1251,
      "Ġgap": 1252,
      "Ġfik": 1253,
      "Ġnarsa": 1254,
      "Ġsoat": 1255,
      "Ġchiqarish": 1256,
      "gara": 1257,
      "Ġdollar": 1258,
      "Ġmunosabat": 1259,
      "unki": 1260,
      "ura": 1261,
      "ĠBundan": 1262,
      "Ġoldin": 1263,
      "Ġfoydalanish": 1264,
      "lovchi": 1265,
      "orij": 1266,
      "ĠPu": 1267,
      "Ġyetkazib": 1268,
      "tilishi": 1269,
      "xm": 1270,
      "ĠÃķzbekistonda": 1271,
      "ĠTurkiya": 1272,
      "Ġshunday": 1273,
      "utbol": 1274,
      "tak": 1275,
      "Ġkim": 1276,
      "Ġuchrash": 1277,
      "Ġnav": 1278,
      "Ġmavjud": 1279,
      "roz": 1280,
      "Ġkucha": 1281,
      "yev": 1282,
      "Ġchaqi": 1283,
      "larimiz": 1284,
      "Ġmin": 1285,
      "ayli": 1286,
      "Ġsov": 1287,
      "dov": 1288,
      "Ġmarta": 1289,
      "ĠIttifoqi": 1290,
      "niyat": 1291,
      "meri": 1292,
      "Ġyoz": 1293,
      "kur": 1294,
      "Ġsoni": 1295,
      "Ġfaoliyati": 1296,
      "Ġse": 1297,
      "qiy": 1298,
      "daryo": 1299,
      "madi": 1300,
      "riya": 1301,
      "tun": 1302,
      "ĠAn": 1303,
      "Ġpo": 1304,
      "Ġtuf": 1305,
      "Ġtopshi": 1306,
      "Ġyildan": 1307,
      "Ġtasdiq": 1308,
      "Ġtufayli": 1309,
      "chki": 1310,
      "Ġoladi": 1311,
      "Ġmoliya": 1312,
      "ĠOsiyo": 1313,
      "Ġsamol": 1314,
      "bus": 1315,
      "Ġtegi": 1316,
      "Ġap": 1317,
      "Ġ12": 1318,
      "lashga": 1319,
      "arb": 1320,
      "ĠtÃµp": 1321,
      "ĠKe": 1322,
      "hon": 1323,
      "ĠMi": 1324,
      "Ġ11": 1325,
      "dori": 1326,
      "Ġelektr": 1327,
      "yan": 1328,
      "Ġavtomobil": 1329,
      "kaziy": 1330,
      "qon": 1331,
      "Ġekan": 1332,
      "Ġkuza": 1333,
      "tika": 1334,
      "yib": 1335,
      "par": 1336,
      "unda": 1337,
      "Ġvosita": 1338,
      "Ġhay": 1339,
      "Ġumu": 1340,
      "Ġviloyat": 1341,
      "merika": 1342,
      "Ġfutbol": 1343,
      "enta": 1344,
      "ĠIn": 1345,
      "gik": 1346,
      "rgan": 1347,
      "Ġmahsulot": 1348,
      "Ġhaqidagi": 1349,
      "Ġkechasi": 1350,
      "Ġqish": 1351,
      "ste": 1352,
      "Ġjoylarda": 1353,
      "Ġchegara": 1354,
      "Ġax": 1355,
      "Ġtuman": 1356,
      "ĠRossiyaning": 1357,
      "Ġijtimoiy": 1358,
      "Ġjazo": 1359,
      "Ġtizim": 1360,
      "Ġdu": 1361,
      "Ġnom": 1362,
      "Ġbino": 1363,
      "biq": 1364,
      "Ġrake": 1365,
      "Ġosti": 1366,
      "tga": 1367,
      "dro": 1368,
      "Ġyerda": 1369,
      "ĠsÃµzlariga": 1370,
      "Ġichida": 1371,
      "Ġbildir": 1372,
      "Ġturli": 1373,
      "Ġetadi": 1374,
      "zor": 1375,
      "Ġtegishli": 1376,
      "qe": 1377,
      "Ġmashina": 1378,
      "Ġquri": 1379,
      "fta": 1380,
      "arorat": 1381,
      "ĠBosh": 1382,
      "ĠMarkaziy": 1383,
      "ĠPutin": 1384,
      "ĠBo": 1385,
      "Ġayol": 1386,
      "yiladi": 1387,
      "ildi": 1388,
      "Ġatro": 1389,
      "Ġinson": 1390,
      "der": 1391,
      "Ġqilinishi": 1392,
      "zoÇ§iston": 1393,
      "batida": 1394,
      "Ġmuhokama": 1395,
      "ligiga": 1396,
      "Ġikkinchi": 1397,
      "Ġmlrd": 1398,
      "ĠAl": 1399,
      "Ġtarmoq": 1400,
      "Ġuzoq": 1401,
      "Ġlavo": 1402,
      "Ġajra": 1403,
      "ziyo": 1404,
      "ĠbÃµlish": 1405,
      "lanuvchi": 1406,
      "nal": 1407,
      "Ġguruh": 1408,
      "Ġraketa": 1409,
      "zon": 1410,
      "Ġqol": 1411,
      "tildi": 1412,
      "ĠLekin": 1413,
      "osk": 1414,
      "Ġhukumati": 1415,
      "ĠyiÇ§i": 1416,
      "borot": 1417,
      "ĠÇ§a": 1418,
      "12": 1419,
      "kon": 1420,
      "Ġkeladi": 1421,
      "bon": 1422,
      "Ġxusu": 1423,
      "Ġtaqdim": 1424,
      "moqchi": 1425,
      "avlat": 1426,
      "ĠRa": 1427,
      "Ġtashqi": 1428,
      "kati": 1429,
      "Ġyuk": 1430,
      "Ġvakil": 1431,
      "se": 1432,
      "Ġtin": 1433,
      "yishi": 1434,
      "Ġqur": 1435,
      "xsus": 1436,
      "nik": 1437,
      "Ġ18": 1438,
      "Ġnafa": 1439,
      "Ġmilliy": 1440,
      "taqa": 1441,
      "Ġunga": 1442,
      "Ġshak": 1443,
      "ĠyÃµnalish": 1444,
      "zda": 1445,
      "ĠAy": 1446,
      "chalik": 1447,
      "Ġturadi": 1448,
      "ĠBiz": 1449,
      "Ġpoy": 1450,
      "Ġyirik": 1451,
      "iyev": 1452,
      "chilari": 1453,
      "Ġbosqi": 1454,
      "ergiya": 1455,
      "bla": 1456,
      "kam": 1457,
      "ĠkÃµrib": 1458,
      "Ġasosida": 1459,
      "rita": 1460,
      "lashtirilgan": 1461,
      "tiv": 1462,
      "ĠMir": 1463,
      "Ġeksp": 1464,
      "ĠÃµrtasida": 1465,
      "Ġishi": 1466,
      "ergov": 1467,
      "Ġtele": 1468,
      "ĠtÃµliq": 1469,
      "Ġhalok": 1470,
      "Ġsan": 1471,
      "Ġjumladan": 1472,
      "Ġamal": 1473,
      "oskva": 1474,
      "tli": 1475,
      "ĠtÃµÇ§risida": 1476,
      "Ġ30": 1477,
      "Ġishon": 1478,
      "Ãµja": 1479,
      "Ġmilliard": 1480,
      "Ġasos": 1481,
      "ĠQozoÇ§iston": 1482,
      "bur": 1483,
      "Ġyuzasidan": 1484,
      "Ġjoylashgan": 1485,
      "Ġ200": 1486,
      "Ġ14": 1487,
      "ĠSha": 1488,
      "kara": 1489,
      "Ġkundu": 1490,
      "Ġdoirasida": 1491,
      "Ġfoizga": 1492,
      "Ġuz": 1493,
      "rel": 1494,
      "Ġbayon": 1495,
      "Ġchiqish": 1496,
      "Ġdeydi": 1497,
      "Ġl": 1498,
      "tirib": 1499,
      "ĠÇ¦a": 1500,
      "ĠqÃµlga": 1501,
      "sion": 1502,
      "Ġozod": 1503,
      "Ġ13": 1504,
      "Ġbank": 1505,
      "Ġhafta": 1506,
      "Ch": 1507,
      "Ġqaro": 1508,
      "Ġkorxona": 1509,
      "izi": 1510,
      "Ġdeka": 1511,
      "zokara": 1512,
      "Ġbutun": 1513,
      "hida": 1514,
      "Ġaxborot": 1515,
      "ĠBiroq": 1516,
      "Ġenergiya": 1517,
      "AS": 1518,
      "Ġmabla": 1519,
      "bori": 1520,
      "ibor": 1521,
      "Ġmatbu": 1522,
      "ĠKiyev": 1523,
      "qea": 1524,
      "uniy": 1525,
      "ĠDavlat": 1526,
      "ffa": 1527,
      "rab": 1528,
      "Ġxorij": 1529,
      "Ġmuva": 1530,
      "Ġsavo": 1531,
      "versi": 1532,
      "Ġtib": 1533,
      "Ġrivojlantirish": 1534,
      "Ġmen": 1535,
      "ĠBe": 1536,
      "Ġvide": 1537,
      "liÇ§i": 1538,
      "oq": 1539,
      "ĠMoskva": 1540,
      "ĠHozir": 1541,
      "vishda": 1542,
      "ĠBir": 1543,
      "Ġchiqib": 1544,
      "Ġ16": 1545,
      "Ġimzo": 1546,
      "ĠÃµta": 1547,
      "ĠÃµtkaz": 1548,
      "una": 1549,
      "Ġtartib": 1550,
      "Ġkuchlari": 1551,
      "yoti": 1552,
      "'d": 1553,
      "ĠAf": 1554,
      "rishga": 1555,
      "sib": 1556,
      "nan": 1557,
      "tishga": 1558,
      "yotganini": 1559,
      "ĠKun": 1560,
      "diya": 1561,
      "Ġravishda": 1562,
      "Ġyetak": 1563,
      "roja": 1564,
      "Ġkelishi": 1565,
      "Ġvazifa": 1566,
      "Ġrahbar": 1567,
      "Ġmintaqa": 1568,
      "ĠsÃµnggi": 1569,
      "Ġehti": 1570,
      "Ġarmi": 1571,
      "Ãķz": 1572,
      "Ġfev": 1573,
      "Ġhamkorlik": 1574,
      "Ġishlari": 1575,
      "Ġayrim": 1576,
      "Ġmuvaffa": 1577,
      "shma": 1578,
      "Ġsiyosiy": 1579,
      "tirgan": 1580,
      "Ġqismi": 1581,
      "Ġban": 1582,
      "Ġsamolyot": 1583,
      "dik": 1584,
      "Ġoila": 1585,
      "),": 1586,
      "Ġboshi": 1587,
      "Ġhududi": 1588,
      "anksiya": 1589,
      "Ġmaxsus": 1590,
      "ĠmablaÇ§": 1591,
      "ĠÃµrinbo": 1592,
      "Ġnash": 1593,
      "ĠJa": 1594,
      "ĠFa": 1595,
      "Ġtarqa": 1596,
      "ĠxÃµja": 1597,
      "ĠÃµrna": 1598,
      "Ġtinch": 1599,
      "ĠkÃµproq": 1600,
      "sim": 1601,
      "Ç§a": 1602,
      "kaz": 1603,
      "lana": 1604,
      "ziq": 1605,
      "Ġlekin": 1606,
      "Ġyasha": 1607,
      "ĠNi": 1608,
      "Ġxavfsizlik": 1609,
      "TO": 1610,
      "Ġmatbuot": 1611,
      "Ġtayin": 1612,
      "Ġtezlikda": 1613,
      "Ġkunduzi": 1614,
      "oti": 1615,
      "umi": 1616,
      "Ġegal": 1617,
      "uriy": 1618,
      "Ġyevro": 1619,
      "Ġparti": 1620,
      "Ġsobiq": 1621,
      "assi": 1622,
      "ton": 1623,
      "Ġiqtisodiy": 1624,
      "Ġnazorat": 1625,
      "olo": 1626,
      "qil": 1627,
      "Ġrespublika": 1628,
      "Ġbaho": 1629,
      "Ġiste": 1630,
      "Ġsaylov": 1631,
      "Ġtor": 1632,
      "ĠÃµrinbosari": 1633,
      "Ġope": 1634,
      "Ġoch": 1635,
      "ĠEn": 1636,
      "Ġtizimi": 1637,
      "Ġtadbirkor": 1638,
      "Ġtashri": 1639,
      "lati": 1640,
      "Ġfoizi": 1641,
      "ĠÃµrtasidagi": 1642,
      "Ġsar": 1643,
      "tilmoqda": 1644,
      "ĠAb": 1645,
      "Ġrai": 1646,
      "Ġshahrida": 1647,
      "mad": 1648,
      "nib": 1649,
      "mov": 1650,
      "ĠÇ¦azo": 1651,
      "anu": 1652,
      "Ġqila": 1653,
      "ktyabr": 1654,
      "Ġyanada": 1655,
      "sal": 1656,
      "stitut": 1657,
      "Ġtexno": 1658,
      "Ġmuzokara": 1659,
      "Ġhal": 1660,
      "yingi": 1661,
      "nash": 1662,
      "zkur": 1663,
      "Ġdeyiladi": 1664,
      "Ġberilgan": 1665,
      "hbat": 1666,
      "Ġkeng": 1667,
      "Ġfaol": 1668,
      "Ġsanksiya": 1669,
      "Ġmaqsad": 1670,
      "Ġdekabr": 1671,
      "Ġhukumat": 1672,
      "Ġshartnoma": 1673,
      "dosh": 1674,
      "Ġmetr": 1675,
      "gun": 1676,
      "Ġhisoblanadi": 1677,
      "xon": 1678,
      "ss": 1679,
      "ĠÃµtdi": 1680,
      "fat": 1681,
      "ĠKor": 1682,
      "Ġvoqea": 1683,
      "chon": 1684,
      "uvchilar": 1685,
      "Ġmux": 1686,
      "Ġdavlatlar": 1687,
      "rt": 1688,
      "ĠUlar": 1689,
      "taxassi": 1690,
      "dj": 1691,
      "Ġ25": 1692,
      "Ġgol": 1693,
      "ĠbÃµlgani": 1694,
      "Ġishga": 1695,
      "Ġusti": 1696,
      "Ġhuqu": 1697,
      "ĠDa": 1698,
      "garchilik": 1699,
      "Ġinter": 1700,
      "sin": 1701,
      "araf": 1702,
      "Ġkutilma": 1703,
      "Ġekanini": 1704,
      "Ġmaqsadida": 1705,
      "Ġmanba": 1706,
      "von": 1707,
      "Ġport": 1708,
      "Ġjami": 1709,
      "ĠEron": 1710,
      "Ġagentligi": 1711,
      "siq": 1712,
      "Ġ17": 1713,
      "ida": 1714,
      "yti": 1715,
      "ĠbÃµy": 1716,
      "ĠbÃµlmagan": 1717,
      "ĠIk": 1718,
      "Ġpaytda": 1719,
      "Ġnarx": 1720,
      "Ġtushun": 1721,
      "Ġesadi": 1722,
      "Ġ100": 1723,
      "ner": 1724,
      "Ġboshlab": 1725,
      "Ġyon": 1726,
      "Ġista": 1727,
      "boy": 1728,
      "Ġmart": 1729,
      "MT": 1730,
      "ĠÇ§alaba": 1731,
      "entabr": 1732,
      "ĠHarorat": 1733,
      "Ġtarki": 1734,
      "Ġmuroja": 1735,
      "ATO": 1736,
      "Ġmaydon": 1737,
      "Ġnoyabr": 1738,
      "Ġdan": 1739,
      "urnali": 1740,
      "ĠQÃµ": 1741,
      "inlash": 1742,
      "mal": 1743,
      "Ġket": 1744,
      "Ġnavbat": 1745,
      "Ġyash": 1746,
      "Ġyakun": 1747,
      "Ġaytdi": 1748,
      "nika": 1749,
      "Ġerish": 1750,
      "Ġqilinadi": 1751,
      "ĠTo": 1752,
      "ban": 1753,
      "Ġumumiy": 1754,
      "Ġularni": 1755,
      "im": 1756,
      "Ġrossiya": 1757,
      "AM": 1758,
      "Ġklu": 1759,
      "chik": 1760,
      "oz": 1761,
      "lardagi": 1762,
      "Ġzarur": 1763,
      "ĠUshbu": 1764,
      "Ġkompaniyasi": 1765,
      "erge": 1766,
      "ritaniya": 1767,
      "Ġstan": 1768,
      "Ġoktyabr": 1769,
      "Ġkuchli": 1770,
      "Ġturib": 1771,
      "tirdi": 1772,
      "ĠÃµsha": 1773,
      "mpi": 1774,
      "lil": 1775,
      "Ġuniversi": 1776,
      "ĠÃµtkazish": 1777,
      "ĠtÃµÇ§risidagi": 1778,
      "Ġoxi": 1779,
      "Ġcho": 1780,
      "Ġtek": 1781,
      "tik": 1782,
      "Ġsentabr": 1783,
      "Ġbuyon": 1784,
      "Ġyuri": 1785,
      "Ġqator": 1786,
      "qam": 1787,
      "Ġhali": 1788,
      "Ġimkoniyat": 1789,
      "taxassis": 1790,
      "Ġberishi": 1791,
      "dr": 1792,
      "garlik": 1793,
      "Ġavval": 1794,
      "ĠAmerika": 1795,
      "ĠqÃµmi": 1796,
      "ĠHavo": 1797,
      "ĠQora": 1798,
      "Ġqilishga": 1799,
      "Ġishla": 1800,
      "Ġinf": 1801,
      "ĠÃµrgani": 1802,
      "ĠyÃµqo": 1803,
      "Ġmavs": 1804,
      "Ġnamo": 1805,
      "Ġst": 1806,
      "Ġorgan": 1807,
      "Ġuchrashuv": 1808,
      "ĠNATO": 1809,
      "limi": 1810,
      "mara": 1811,
      "Ġtabi": 1812,
      "Ġkelishuv": 1813,
      "Ġshifo": 1814,
      "eya": 1815,
      "ĠkÃµta": 1816,
      "Ġust": 1817,
      "ĠoÇ§ir": 1818,
      "ero": 1819,
      "Ġetilishi": 1820,
      "Ġichki": 1821,
      "Ġ2024": 1822,
      "elen": 1823,
      "ĠDe": 1824,
      "ĠkÃµplab": 1825,
      "Ġsuhbat": 1826,
      "modda": 1827,
      "marqan": 1828,
      "zib": 1829,
      "ĠAr": 1830,
      "ĠAgar": 1831,
      "Ġsin": 1832,
      "Ġyoshli": 1833,
      "ĠyoÇ§in": 1834,
      "Ġbiroz": 1835,
      "Ġtik": 1836,
      "Ġyili": 1837,
      "Ġtergov": 1838,
      "Ġketgan": 1839,
      "Ġsotib": 1840,
      "Ġbelgilangan": 1841,
      "shish": 1842,
      "Ġzarar": 1843,
      "Ġaytgan": 1844,
      "ĠZelen": 1845,
      "Ġfevral": 1846,
      "ĠBMT": 1847,
      "nish": 1848,
      "ĠPreziden": 1849,
      "Ġjamoat": 1850,
      "ĠNe": 1851,
      "Ġvideo": 1852,
      "ĠyoÇ§ingarchilik": 1853,
      "ĠBritaniya": 1854,
      "Ġchiqar": 1855,
      "Ġtaj": 1856,
      "enti": 1857,
      "Ġetiladi": 1858,
      "for": 1859,
      "ĠZelenskiy": 1860,
      "Ġ24": 1861,
      "Ġtuga": 1862,
      "Ġavi": 1863,
      "Ġyuz": 1864,
      "Ġbudj": 1865,
      "Ġjo": 1866,
      "ĠII": 1867,
      "Ġalohida": 1868,
      "Ġ0": 1869,
      "riq": 1870,
      "ĠYe": 1871,
      "AMAS": 1872,
      "Ġqurolli": 1873,
      "ĠÃµtkazilgan": 1874,
      "rid": 1875,
      "Ġomma": 1876,
      "Ġovoz": 1877,
      "ĠkÃµcha": 1878,
      "Ġmahalliy": 1879,
      "fer": 1880,
      "ĠQa": 1881,
      "Ġtekshi": 1882,
      "disa": 1883,
      "ĠtuÇ§": 1884,
      "kidladi": 1885,
      "Ġiyul": 1886,
      "Ġetildi": 1887,
      "Ġtransport": 1888,
      "Ġqiyin": 1889,
      "Ġhaj": 1890,
      "Ġsababli": 1891,
      "ĠÃµzgarib": 1892,
      "ĠQay": 1893,
      "Ġochiq": 1894,
      "Ġsharo": 1895,
      "Ġnazar": 1896,
      "Ġbalki": 1897,
      "Ġjar": 1898,
      "Ġatrofi": 1899,
      "Ġkirish": 1900,
      "Ġshakl": 1901,
      "ft": 1902,
      "Ġmuvaffaqi": 1903,
      "Ġara": 1904,
      "Ġquv": 1905,
      "ĠyÃµnalishi": 1906,
      "ĠSamarqan": 1907,
      "Ġoli": 1908,
      "Ġdire": 1909,
      "Ġaprel": 1910,
      "ĠFran": 1911,
      "fot": 1912,
      "kan": 1913,
      "Ġinve": 1914,
      "ytirish": 1915,
      "Ġjaro": 1916,
      "Ġalma": 1917,
      "Ġsano": 1918,
      "ĠHAMAS": 1919,
      "van": 1920,
      "Ġhokim": 1921,
      "Ġsiyosat": 1922,
      "gram": 1923,
      "goh": 1924,
      "Ġlavozi": 1925,
      "Ġ50": 1926,
      "ĠShamol": 1927,
      "Ġkeldi": 1928,
      "Ġsoliq": 1929,
      "ĠMe": 1930,
      "Ġorasida": 1931,
      "Ġpaydo": 1932,
      "Ġmurojaat": 1933,
      "Ġqishloq": 1934,
      "Ġsaqlash": 1935,
      "ede": 1936,
      "dora": 1937,
      "Ġiqtisodi": 1938,
      "qdan": 1939,
      "Ġsekt": 1940,
      "tat": 1941,
      "Ġyillarda": 1942,
      "Ç§ida": 1943,
      "Ġyilga": 1944,
      "qib": 1945,
      "ĠHu": 1946,
      "Ġproku": 1947,
      "ĠtÃµlov": 1948,
      "10": 1949,
      "alb": 1950,
      "ĠkÃµrish": 1951,
      "Ġkengashi": 1952,
      "Ġtexnologiya": 1953,
      "Ġqiy": 1954,
      "loh": 1955,
      "Ġjara": 1956,
      "Ġendi": 1957,
      "Ġodamlar": 1958,
      "ĠMirziyo": 1959,
      "Ġkeyingi": 1960,
      "Ġdarajada": 1961,
      "Ġxat": 1962,
      "Ġsamara": 1963,
      "Ġkes": 1964,
      "ĠSo": 1965,
      "Ġetib": 1966,
      "Ġetishi": 1967,
      "Ġtopi": 1968,
      "ĠkÃµrsatki": 1969,
      "klar": 1970,
      "pu": 1971,
      "Ġoqibatida": 1972,
      "Ġjarayo": 1973,
      "zadi": 1974,
      "lumotlariga": 1975,
      "assa": 1976,
      "Ġmos": 1977,
      "ĠMil": 1978,
      "Ġdirekt": 1979,
      "tuvchi": 1980,
      "xat": 1981,
      "siyasi": 1982,
      "Ġchet": 1983,
      "Ġavgu": 1984,
      "Ġxodimlari": 1985,
      "ratura": 1986,
      "tirilgan": 1987,
      "lastin": 1988,
      "Ġqilmoqda": 1989,
      "por": 1990,
      "urs": 1991,
      "tam": 1992,
      "Ġchiqqan": 1993,
      "Ġvaqtida": 1994,
      "ert": 1995,
      "Ġimkoniya": 1996,
      "Ġvaki": 1997,
      "ĠFar": 1998,
      "urnalist": 1999,
      "Ġoliy": 2000,
      "Ġboshladi": 2001,
      "xir": 2002,
      "202": 2003,
      "iyo": 2004,
      "Ġolishi": 2005,
      "rilmoqda": 2006,
      "ĠXalq": 2007,
      "ĠkÃµrsatish": 2008,
      "Ãµr": 2009,
      "ĠÃµn": 2010,
      "ĠYangi": 2011,
      "Ġchunki": 2012,
      "xmin": 2013,
      "Ġbuni": 2014,
      "rate": 2015,
      "Ġtaqiq": 2016,
      "Ġkasal": 2017,
      "ÃµÇ§": 2018,
      "Ġmash": 2019,
      "Ġilk": 2020,
      "ĠMah": 2021,
      "Ġbolalar": 2022,
      "Ġsavol": 2023,
      "Ġjalb": 2024,
      "Ġvakillari": 2025,
      "sil": 2026,
      "kov": 2027,
      "Ġmuvaffaqiyat": 2028,
      "sga": 2029,
      "ziga": 2030,
      "Ġyillik": 2031,
      "tal": 2032,
      "zu": 2033,
      "atto": 2034,
      "Ġquyi": 2035,
      "ag": 2036,
      "biga": 2037,
      "Ġbozor": 2038,
      "sizlik": 2039,
      "gandi": 2040,
      "ĠPrezident": 2041,
      "Ġyubori": 2042,
      "Ġostida": 2043,
      "gina": 2044,
      "Ġdavlatlari": 2045,
      "Ġkeskin": 2046,
      "Ġizo": 2047,
      "ĠdÃµ": 2048,
      "ab": 2049,
      "fiq": 2050,
      "Ġboshlan": 2051,
      "ĠqÃµyish": 2052,
      "ĠBay": 2053,
      "ĠSu": 2054,
      ").": 2055,
      "Ġshax": 2056,
      "dqiq": 2057,
      "Ġtalaba": 2058,
      "zan": 2059,
      "Ġjahon": 2060,
      "Ġ22": 2061,
      "Ġkotibi": 2062,
      "Ġmutaxassis": 2063,
      "ngil": 2064,
      "uli": 2065,
      "Ġkela": 2066,
      "ak": 2067,
      "qiqa": 2068,
      "ddi": 2069,
      "Ġora": 2070,
      "mni": 2071,
      "larus": 2072,
      "ĠSS": 2073,
      "vofiq": 2074,
      "Ġdey": 2075,
      "Ġrus": 2076,
      "Ġjiddiy": 2077,
      "Ġidora": 2078,
      "Ġhuk": 2079,
      "ĠShav": 2080,
      "ĠÃµtib": 2081,
      "Ġeva": 2082,
      "ĠRossiyaga": 2083,
      "Ġqoida": 2084,
      "ĠbÃµylab": 2085,
      "ĠShavkat": 2086,
      "ĠÃµtish": 2087,
      "Ġvakili": 2088,
      "Ġkar": 2089,
      "yatida": 2090,
      "chib": 2091,
      "Ġnamoyish": 2092,
      "Ġsafar": 2093,
      "ye": 2094,
      "Ġfikr": 2095,
      "ĠÃµzining": 2096,
      "rima": 2097,
      "qonuniy": 2098,
      "Ġyarim": 2099,
      "lumotlar": 2100,
      "ĠÇ§o": 2101,
      "Ġancha": 2102,
      "Ġkutilmaydi": 2103,
      "Ġxona": 2104,
      "Ġmajbu": 2105,
      "ĠKoreya": 2106,
      "Ġjarayon": 2107,
      "jal": 2108,
      "30": 2109,
      "Ġfor": 2110,
      "Ġfaoliyat": 2111,
      "me": 2112,
      "ĠShar": 2113,
      "ĠsÃµra": 2114,
      "ĠMirziyoyev": 2115,
      "assasa": 2116,
      "Ġxara": 2117,
      "zilma": 2118,
      "Ġoperatsiya": 2119,
      "xsat": 2120,
      "ergetika": 2121,
      "ĠTash": 2122,
      "ĠxÃµjaligi": 2123,
      "ĠÃµzaro": 2124,
      "Ġbekor": 2125,
      "Ġavgust": 2126,
      "Ġtaxmin": 2127,
      "Ġmuvofiq": 2128,
      "Ġmodda": 2129,
      "ĠHar": 2130,
      "Ġasosan": 2131,
      "faat": 2132,
      "Ġsharqdan": 2133,
      "Ġmehnat": 2134,
      "Ġibo": 2135,
      "missiya": 2136,
      "Ġaynan": 2137,
      "Ġkunda": 2138,
      "Ġruxsat": 2139,
      "qaror": 2140,
      "ĠTe": 2141,
      "is": 2142,
      "Ġmuassasa": 2143,
      "fon": 2144,
      "Ġ2021": 2145,
      "gach": 2146,
      "ĠqÃµshin": 2147,
      "Ġiyun": 2148,
      "he": 2149,
      "Ġuchra": 2150,
      "maslik": 2151,
      "Ġhamma": 2152,
      "ĠyÃµlga": 2153,
      "lanma": 2154,
      "nes": 2155,
      "Ġmanfaat": 2156,
      "Ġmustah": 2157,
      "Ġjarima": 2158,
      "Ġraqam": 2159,
      "Ġchempi": 2160,
      "tining": 2161,
      "Ġsiz": 2162,
      "ĠMak": 2163,
      "ĠRespublikasi": 2164,
      "Ġnatijasida": 2165,
      "Ġnarxi": 2166,
      "ĠAvval": 2167,
      "bal": 2168,
      "masligi": 2169,
      "Ġguruhi": 2170,
      "Ġvaqtda": 2171,
      "Ġrossiyalik": 2172,
      "Ġbesh": 2173,
      "ĠbÃµlmaydi": 2174,
      "Ġdengiz": 2175,
      "Ġtartibi": 2176,
      "jaro": 2177,
      "Ġhududida": 2178,
      "shon": 2179,
      "stitsiya": 2180,
      "ĠsoÇ§": 2181,
      "dqiqot": 2182,
      "Ġteng": 2183,
      "Ġbildirdi": 2184,
      "ĠkÃµrsatkich": 2185,
      "Ãµp": 2186,
      "Ġush": 2187,
      "riba": 2188,
      "Ġimti": 2189,
      "ĠSamarqand": 2190,
      "bod": 2191,
      "ĠFransiya": 2192,
      "plo": 2193,
      "Ġqancha": 2194,
      "ĠtÃµrt": 2195,
      "ĠÇ¦arb": 2196,
      "inchi": 2197,
      "Biz": 2198,
      "lanmoqda": 2199,
      "Ġishonch": 2200,
      "shqa": 2201,
      "sla": 2202,
      "Ġpozi": 2203,
      "gona": 2204,
      "Ġkodek": 2205,
      "Ġekani": 2206,
      "Ġmajbur": 2207,
      "Ġraisi": 2208,
      "Ġ21": 2209,
      "ĠÃµzini": 2210,
      "tob": 2211,
      "Ġdron": 2212,
      "ĠÃķzbekistonning": 2213,
      "ĠKo": 2214,
      "Ġnoqonuniy": 2215,
      "Ġfutbolchi": 2216,
      "ĠLi": 2217,
      "xoro": 2218,
      "Ġtabiiy": 2219,
      "tayotgan": 2220,
      "Ġli": 2221,
      "yuk": 2222,
      "gungi": 2223,
      "ror": 2224,
      "Ġkomp": 2225,
      "Bu": 2226,
      "Ġyetib": 2227,
      "Ġturgan": 2228,
      "eo": 2229,
      "biyot": 2230,
      "Ġpasa": 2231,
      "Ġbit": 2232,
      "ved": 2233,
      "tira": 2234,
      "Ġyubor": 2235,
      "ĠÃµziga": 2236,
      "ĠkÃµri": 2237,
      "Ġbildi": 2238,
      "Ġularga": 2239,
      "Ġuyu": 2240,
      "Ġamali": 2241,
      "chiligi": 2242,
      "ĠbÃµla": 2243,
      "maniston": 2244,
      "Ġpoytax": 2245,
      "Ġpoli": 2246,
      "Ġisti": 2247,
      "Ġ199": 2248,
      "ssa": 2249,
      "Ġstrate": 2250,
      "Ġsport": 2251,
      "bida": 2252,
      "labki": 2253,
      "ĠrÃµyxat": 2254,
      "ĠPol": 2255,
      "Ġpozitsiya": 2256,
      "Ġ23": 2257,
      "mona": 2258,
      "Ç§on": 2259,
      "Ġqiz": 2260,
      "Ġyuzaga": 2261,
      "ne": 2262,
      "ĠKeyin": 2263,
      "Ġtajriba": 2264,
      "Ġerkin": 2265,
      "Ġboshqarmasi": 2266,
      "Ġqarori": 2267,
      "ĠQayd": 2268,
      "Ġmojaro": 2269,
      "Ġmustahkam": 2270,
      "Ġobekt": 2271,
      "Ġhodisa": 2272,
      "anubiy": 2273,
      "xti": 2274,
      "onna": 2275,
      "Ġqamoq": 2276,
      "ganda": 2277,
      "Ġtexnika": 2278,
      "Ġloyihasi": 2279,
      "Ġjoyi": 2280,
      "katsiya": 2281,
      "ĠBayden": 2282,
      "Ġkamida": 2283,
      "Ġhuquqi": 2284,
      "landiya": 2285,
      "Ġparlam": 2286,
      "Ġkunlari": 2287,
      "Ġhokimi": 2288,
      "ĠÃµtadi": 2289,
      "sak": 2290,
      "Ġberiladi": 2291,
      "lek": 2292,
      "tishicha": 2293,
      "Ġqir": 2294,
      "Ġlozim": 2295,
      "orlar": 2296,
      "Ġprokuratura": 2297,
      "Ç§izi": 2298,
      "Ġjurnalist": 2299,
      "Ġyorda": 2300,
      "Ġtumanida": 2301,
      "uncha": 2302,
      "Ġdirektori": 2303,
      "mmi": 2304,
      "zarboy": 2305,
      "Ġyozi": 2306,
      "Ç§iziston": 2307,
      "ĠShi": 2308,
      "ĠBelarus": 2309,
      "voza": 2310,
      "ĠShundan": 2311,
      "ene": 2312,
      "Ġyaku": 2313,
      "ĠAvvalroq": 2314,
      "Ġaero": 2315,
      "Ġsho": 2316,
      "lmagan": 2317,
      "Ġishlash": 2318,
      "sul": 2319,
      "Ġqiluvchi": 2320,
      "Ġmustaqil": 2321,
      "ĠChunki": 2322,
      "Ġbosqich": 2323,
      "Ġeshi": 2324,
      "ĠboshliÇ§i": 2325,
      "Ġommaviy": 2326,
      "Ġizoh": 2327,
      "Ġyubo": 2328,
      "likdan": 2329,
      "Ç§oni": 2330,
      "Ġborib": 2331,
      "ele": 2332,
      "mda": 2333,
      "ĠOliy": 2334,
      "tati": 2335,
      "Ġpartiya": 2336,
      "moliy": 2337,
      "ĠBuxoro": 2338,
      "ompaniya": 2339,
      "Ġsudi": 2340,
      "Ġrad": 2341,
      "Ġota": 2342,
      "uk": 2343,
      "ĠÃµldi": 2344,
      "Ç§ona": 2345,
      "ĠRo": 2346,
      "Ġkurash": 2347,
      "Ġhaydov": 2348,
      "Ġjarohat": 2349,
      "xira": 2350,
      "Ġishtiroki": 2351,
      "eriya": 2352,
      "vedka": 2353,
      "Ġturi": 2354,
      "land": 2355,
      "Ġmaydo": 2356,
      "lashdi": 2357,
      "udiya": 2358,
      "irÇ§iziston": 2359,
      "zvedka": 2360,
      "Ġxususiy": 2361,
      "xmut": 2362,
      "ĠSi": 2363,
      "ĠyÃµli": 2364,
      "Ç§li": 2365,
      "Ġbiroq": 2366,
      "stika": 2367,
      "Ġsektori": 2368,
      "Ġtanqi": 2369,
      "Ġurushi": 2370,
      "Ġblo": 2371,
      "ĠKi": 2372,
      "Ġissiq": 2373,
      "Ġpe": 2374,
      "Ġquyidagi": 2375,
      "langani": 2376,
      "jin": 2377,
      "rati": 2378,
      "yoq": 2379,
      "Ġiborat": 2380,
      "ĠPo": 2381,
      "Ġkamay": 2382,
      "Ġdastur": 2383,
      "ĠMen": 2384,
      "ĠtÃµq": 2385,
      "Ġqulay": 2386,
      "Ġul": 2387,
      "ovqat": 2388,
      "dlar": 2389,
      "stik": 2390,
      "Ġyur": 2391,
      "Ġxarajat": 2392,
      "Ġinvestitsiya": 2393,
      "inoyat": 2394,
      "Ġxorijiy": 2395,
      "vich": 2396,
      "nit": 2397,
      "Ġkirib": 2398,
      "Ġqizi": 2399,
      "sligi": 2400,
      "sofa": 2401,
      "Ġkema": 2402,
      "Ġ27": 2403,
      "ap": 2404,
      "ster": 2405,
      "Ġhujumi": 2406,
      "ĠSÃµ": 2407,
      "Ġijro": 2408,
      "Ġqut": 2409,
      "monaviy": 2410,
      "Ġmada": 2411,
      "ĠUch": 2412,
      "ĠPri": 2413,
      "ĠQu": 2414,
      "Ġtashrif": 2415,
      "quvvatlash": 2416,
      "krain": 2417,
      "Ġmazkur": 2418,
      "orat": 2419,
      "moddasi": 2420,
      "salan": 2421,
      "Ġetmoqda": 2422,
      "Ġzaxira": 2423,
      "Ġmavsum": 2424,
      "Ġavva": 2425,
      "ĠÃµzgarish": 2426,
      "Ġdiplo": 2427,
      "ĠÃµzbek": 2428,
      "Ġqim": 2429,
      "Ġnuq": 2430,
      "ĠUkrainadagi": 2431,
      "ĠUn": 2432,
      "Ġtonna": 2433,
      "Ġqolish": 2434,
      "Ġdarvoza": 2435,
      "Ġmasofa": 2436,
      "ĠBaxmut": 2437,
      "Ġmahalla": 2438,
      "ĠÃµsi": 2439,
      "Ġchiqdi": 2440,
      "Ġjihat": 2441,
      "mga": 2442,
      "Ġbozo": 2443,
      "Ġmarkaz": 2444,
      "Ġmiqdori": 2445,
      "Ġtahdi": 2446,
      "Ġnazarda": 2447,
      "yon": 2448,
      "Ġjinoiy": 2449,
      "zarboyjon": 2450,
      "ĠDon": 2451,
      "ridan": 2452,
      "ardi": 2453,
      "ali": 2454,
      "Ġsiyosa": 2455,
      "Ġyaratish": 2456,
      "Ãµra": 2457,
      "Ġata": 2458,
      "Ġkech": 2459,
      "Ġkichik": 2460,
      "Ġikkita": 2461,
      "Ġbaza": 2462,
      "Ġsovuq": 2463,
      "ĠÃķzbekistonga": 2464,
      "Ġtarix": 2465,
      "stan": 2466,
      "Ġdaro": 2467,
      "ensiya": 2468,
      "Ġviloyatida": 2469,
      "ĠPolsha": 2470,
      "Ġbera": 2471,
      "ĠqÃµyilgan": 2472,
      "Ġqurilish": 2473,
      "Ġsal": 2474,
      "Ġholatda": 2475,
      "tiradi": 2476,
      "ĠUkrainaning": 2477,
      "ĠQirÇ§iziston": 2478,
      "agner": 2479,
      "lashicha": 2480,
      "Vagner": 2481,
      "era": 2482,
      "ĠRossiyada": 2483,
      "vet": 2484,
      "ĠKon": 2485,
      "ĠVazir": 2486,
      "ĠqÃµmon": 2487,
      "ĠrÃµyxa": 2488,
      "laridagi": 2489,
      "ĠXalqaro": 2490,
      "ĠkÃµz": 2491,
      "Ġsalo": 2492,
      "Ġunda": 2493,
      "SR": 2494,
      "rem": 2495,
      "ĠqÃµmitasi": 2496,
      "Ġhatto": 2497,
      "Ġuyush": 2498,
      "mak": 2499,
      "zila": 2500,
      "Ġyilgi": 2501,
      "Ġoblasti": 2502,
      "Ġdasturi": 2503,
      "gojin": 2504,
      "Ġtashab": 2505,
      "Ġ28": 2506,
      "Ġborish": 2507,
      "mokra": 2508,
      "Ç§ul": 2509,
      "masdan": 2510,
      "Ġharakati": 2511,
      "Ġbayonot": 2512,
      "xirgi": 2513,
      "gari": 2514,
      "erti": 2515,
      "mizda": 2516,
      "Ġbitta": 2517,
      "shini": 2518,
      "Ġmingdan": 2519,
      "Ġtrans": 2520,
      "Ġuniversite": 2521,
      "Ġ40": 2522,
      "Ġjamoasi": 2523,
      "Ġyol": 2524,
      "Ġgu": 2525,
      "stitutsiya": 2526,
      "Ġrazvedka": 2527,
      "Ġsharoit": 2528,
      "demi": 2529,
      "vyu": 2530,
      "Ġhukm": 2531,
      "Ġbaja": 2532,
      "ĠUz": 2533,
      "ts": 2534,
      "Ġbarqaror": 2535,
      "Ġqimmat": 2536,
      "ĠÃµtkazil": 2537,
      "Ġkechi": 2538,
      "ziya": 2539,
      "Ġtarzda": 2540,
      "ĠSaudiya": 2541,
      "Ġoziq": 2542,
      "Ġneft": 2543,
      "ĠqÃµz": 2544,
      "Ġaytib": 2545,
      "Ġmehmon": 2546,
      "Ġtadqiqot": 2547,
      "ĠPrigojin": 2548,
      "ĠMasalan": 2549,
      "Ġtibbiy": 2550,
      "ĠNo": 2551,
      "Ġagar": 2552,
      "Ġtomonlama": 2553,
      "lobal": 2554,
      "vka": 2555,
      "ĠPa": 2556,
      "lom": 2557,
      "Ġbunga": 2558,
      "ĠÃµquv": 2559,
      "Ġpast": 2560,
      "ĠJinoyat": 2561,
      "ĠVladi": 2562,
      "Ġerta": 2563,
      "shqadaryo": 2564,
      "Ġeksport": 2565,
      "rum": 2566,
      "Ġsammi": 2567,
      "Ġqaratilgan": 2568,
      "ĠW": 2569,
      "Ġyetarli": 2570,
      "Ġyar": 2571,
      "Ġbiznes": 2572,
      "ĠEndi": 2573,
      "Ġhib": 2574,
      "Ġmiqdor": 2575,
      "Ç§oniston": 2576,
      "ÃµÇ§ri": 2577,
      "Ġsanoat": 2578,
      "Ġbuyur": 2579,
      "ttifoq": 2580,
      "50": 2581,
      "ĠÃµyna": 2582,
      "Ġbudjet": 2583,
      "su": 2584,
      "Ġtovar": 2585,
      "sho": 2586,
      "ĠmÃµl": 2587,
      "mer": 2588,
      "diston": 2589,
      "Ġtashkiloti": 2590,
      "Ġqoladi": 2591,
      "Ġxabari": 2592,
      "Ġyetish": 2593,
      "ĠshuÇ§ul": 2594,
      "skar": 2595,
      "Ġundan": 2596,
      "ĠtuÇ§ilgan": 2597,
      "Ġfaoliyatini": 2598,
      "Ġmoliyaviy": 2599,
      "Ġdaqiqa": 2600,
      "jak": 2601,
      "000": 2602,
      "Ġdepu": 2603,
      "Ġzamonaviy": 2604,
      "Ġyopi": 2605,
      "mÇ§ir": 2606,
      "Ġshaxslar": 2607,
      "bati": 2608,
      "Ġaytishicha": 2609,
      "yatini": 2610,
      "Ġaf": 2611,
      "Ġgi": 2612,
      "ĠBunday": 2613,
      "ĠQashqadaryo": 2614,
      "Ġdori": 2615,
      "Ġarmiyasi": 2616,
      "Ġkura": 2617,
      "xt": 2618,
      "ĠmaÇ§": 2619,
      "ganida": 2620,
      "ĠSt": 2621,
      "ell": 2622,
      "ulosa": 2623,
      "Ġboy": 2624,
      "Ġqisqa": 2625,
      "Ġuchi": 2626,
      "Ġqilishni": 2627,
      "yil": 2628,
      "Ġtank": 2629,
      "ĠBer": 2630,
      "Ġbulu": 2631,
      "Ġdollarga": 2632,
      "Ġsaqlab": 2633,
      "ger": 2634,
      "ratu": 2635,
      "Ġnomi": 2636,
      "ĠmÃµljal": 2637,
      "Ġvako": 2638,
      "havo": 2639,
      "ĠyonÇ§in": 2640,
      "ĠHin": 2641,
      "Ġdavr": 2642,
      "uddi": 2643,
      "Ġ26": 2644,
      "sto": 2645,
      "Ġtahlil": 2646,
      "ratsiyasi": 2647,
      "Ġdeyarli": 2648,
      "riyb": 2649,
      "Ġfarzan": 2650,
      "ĠmaÇ§lu": 2651,
      "ĠXusu": 2652,
      "ĠOzarboyjon": 2653,
      "lis": 2654,
      "shiga": 2655,
      "Ġarmiya": 2656,
      "ĠAfÇ§oniston": 2657,
      "Ġtibbiyot": 2658,
      "ĠÇ§arb": 2659,
      "Ġoqibat": 2660,
      "Ġyagona": 2661,
      "Ġgacha": 2662,
      "ĠKu": 2663,
      "vir": 2664,
      "lahat": 2665,
      "batta": 2666,
      "ĠÃµquvchi": 2667,
      "Ġter": 2668,
      "inal": 2669,
      "Ġad": 2670,
      "Ġtemir": 2671,
      "Ġkm": 2672,
      "shin": 2673,
      "psiya": 2674,
      "net": 2675,
      "Ġkomissiya": 2676,
      "bot": 2677,
      "Ġmasalalari": 2678,
      "Ġuyi": 2679,
      "ĠbÃµlim": 2680,
      "Ġalmash": 2681,
      "Ç§o": 2682,
      "shanda": 2683,
      "Ġketdi": 2684,
      "logik": 2685,
      "qish": 2686,
      "ĠÃµrtacha": 2687,
      "voiy": 2688,
      "ometr": 2689,
      "Ġogoh": 2690,
      "ruv": 2691,
      "Ġtushgan": 2692,
      "Ġreji": 2693,
      "Ġevaziga": 2694,
      "Ġaks": 2695,
      "Ġbulutli": 2696,
      "biya": 2697,
      "ĠkÃµpay": 2698,
      "liqni": 2699,
      "Ġvaqti": 2700,
      "alla": 2701,
      "Ġbirgalikda": 2702,
      "Ġintervyu": 2703,
      "Ġinfratu": 2704,
      "Ġdoimiy": 2705,
      "15": 2706,
      "Ġnuqta": 2707,
      "Ġittifoq": 2708,
      "Ġyadro": 2709,
      "uter": 2710,
      "ĠÃµzgartirish": 2711,
      "Ġmuzokaralar": 2712,
      "Ġona": 2713,
      "Ġxil": 2714,
      "Ġkiritish": 2715,
      "ĠVladimir": 2716,
      "Ġzil": 2717,
      "Rossiya": 2718,
      "ati": 2719,
      "lifi": 2720,
      "Ġtutilgan": 2721,
      "redi": 2722,
      "riza": 2723,
      "lanayotgan": 2724,
      "Ġbay": 2725,
      "Ġyomon": 2726,
      "ham": 2727,
      "Ġxulosa": 2728,
      "stitu": 2729,
      "ĠMilliy": 2730,
      "tlari": 2731,
      "Ġmul": 2732,
      "Ġqop": 2733,
      "Ġpala": 2734,
      "Ġkelayotgan": 2735,
      "ĠJanubiy": 2736,
      "Ġmaslahat": 2737,
      "ĠUnga": 2738,
      "Ġqurilma": 2739,
      "Ġaha": 2740,
      "ĠSSSR": 2741,
      "ĠTele": 2742,
      "Ġres": 2743,
      "Ġdastlabki": 2744,
      "Ġmaqo": 2745,
      "ĠIIB": 2746,
      "Ġyetakchi": 2747,
      "Ġchiqarilgan": 2748,
      "Ġmuloq": 2749,
      "Ġinstitu": 2750,
      "Ġnafaqat": 2751,
      "Ġqariyb": 2752,
      "Ġqora": 2753,
      "Ġvafot": 2754,
      "Ġtaya": 2755,
      "Ġkil": 2756,
      "Ġqaysi": 2757,
      "Ġtark": 2758,
      "Ġjam": 2759,
      "Ġtil": 2760,
      "Ġang": 2761,
      "Ġxarid": 2762,
      "Ġatrofida": 2763,
      "Ġerishi": 2764,
      "Ġnashri": 2765,
      "ĠFarÇ§ona": 2766,
      "19": 2767,
      "zini": 2768,
      "Ġboshida": 2769,
      "ÃµÇ§an": 2770,
      "Ġavtobus": 2771,
      "Ġisloh": 2772,
      "digan": 2773,
      "Ġsana": 2774,
      "Ġyilgacha": 2775,
      "mizni": 2776,
      "Ġtushib": 2777,
      "Ġtexnik": 2778,
      "AV": 2779,
      "Ġaskar": 2780,
      "Ġeko": 2781,
      "urxon": 2782,
      "ĠHindiston": 2783,
      "pul": 2784,
      "ren": 2785,
      "zatsiya": 2786,
      "umon": 2787,
      "Ġilmiy": 2788,
      "ĠSÃµng": 2789,
      "Ġmuh": 2790,
      "Ġpolitsiya": 2791,
      "Ġxabariga": 2792,
      "Ġiz": 2793,
      "yoz": 2794,
      "ĠqÃµsh": 2795,
      "Ġfikri": 2796,
      "Ġnavbatdagi": 2797,
      "mid": 2798,
      "bos": 2799,
      "Ġuchinchi": 2800,
      "Ġchor": 2801,
      "Ġoq": 2802,
      "Ġbermoqda": 2803,
      "xo": 2804,
      "Ġnishon": 2805,
      "ez": 2806,
      "ĠMudofaa": 2807,
      "Ġresurs": 2808,
      "Ġsohasida": 2809,
      "ĠAlek": 2810,
      "Ġvay": 2811,
      "Ġiq": 2812,
      "Ġpun": 2813,
      "ĠÃµyinda": 2814,
      "ĠjÃµ": 2815,
      "Ġdaromad": 2816,
      "enko": 2817,
      "Ġukrain": 2818,
      "ĠBirinchi": 2819,
      "Ġchaqirdi": 2820,
      "Ġfan": 2821,
      "qal": 2822,
      "Ġqachon": 2823,
      "Ġqisqar": 2824,
      "Ġboshlagan": 2825,
      "ĠyomÇ§ir": 2826,
      "Ġzi": 2827,
      "Ġboshlangan": 2828,
      "Ç§ar": 2829,
      "Ġvaqtin": 2830,
      "Ġberildi": 2831,
      "ramp": 2832,
      "tatsiya": 2833,
      "lanadigan": 2834,
      "Ġkilometr": 2835,
      "Ġshuncha": 2836,
      "ĠUkrainada": 2837,
      "ĠJah": 2838,
      "Ġsurat": 2839,
      "liklari": 2840,
      "Ġturibdi": 2841,
      "sel": 2842,
      "yÃµl": 2843,
      "Ġshifoxona": 2844,
      "lardi": 2845,
      "Ġzavo": 2846,
      "Ġstansiya": 2847,
      "Ġtav": 2848,
      "ngli": 2849,
      "Ġmahrum": 2850,
      "kidlashicha": 2851,
      "ĠKrem": 2852,
      "zish": 2853,
      "Ġyozadi": 2854,
      "Ġvositalari": 2855,
      "Ġtinchlik": 2856,
      "Ġyaqi": 2857,
      "Ġjamiyat": 2858,
      "bili": 2859,
      "Ġariza": 2860,
      "Ġimkon": 2861,
      "Ġkuchayishi": 2862,
      "tet": 2863,
      "ĠXususan": 2864,
      "Ġhokimiyat": 2865,
      "Ġbormoqda": 2866,
      "Ġqilishicha": 2867,
      "matik": 2868,
      "Ġbaro": 2869,
      "ĠTramp": 2870,
      "Ġnomzod": 2871,
      "Ġtahdid": 2872,
      "lak": 2873,
      "ĠÃµx": 2874,
      "Ãķzbekiston": 2875,
      "ush": 2876,
      "malar": 2877,
      "Ġqurish": 2878,
      "Ġenergetika": 2879,
      "Ġbara": 2880,
      "Ġolishga": 2881,
      "Ġharakatlari": 2882,
      "Ġ60": 2883,
      "partam": 2884,
      "riyat": 2885,
      "los": 2886,
      "lashib": 2887,
      "fiy": 2888,
      "ĠqÃµr": 2889,
      "ĠQon": 2890,
      "ĠchoÇ§ida": 2891,
      "Ġhamkorlikni": 2892,
      "Ġkengaytirish": 2893,
      "Ġhajmi": 2894,
      "Ġoid": 2895,
      "ĠIkkinchi": 2896,
      "Ġketishi": 2897,
      "Ġqaramay": 2898,
      "dal": 2899,
      "Ġov": 2900,
      "ĠFede": 2901,
      "ĠUlarning": 2902,
      "ĠyÃµlovchi": 2903,
      "Ġfarq": 2904,
      "Ġklub": 2905,
      "Ġtezkor": 2906,
      "urxondaryo": 2907,
      "lashtir": 2908,
      "Ġkafo": 2909,
      "Ġ2020": 2910,
      "Ġgapi": 2911,
      "qtisodiy": 2912,
      "ĠNavoiy": 2913,
      "orozi": 2914,
      "Ġhibsga": 2915,
      "min": 2916,
      "ĠqÃµzÇ§a": 2917,
      "Ġqatnash": 2918,
      "Ġsamarali": 2919,
      "ĠÃķtgan": 2920,
      "Ġyut": 2921,
      "Ġhozirgi": 2922,
      "rdÃµÇ§an": 2923,
      "Ġketish": 2924,
      "sab": 2925,
      "ĠRF": 2926,
      "Ġqavat": 2927,
      "ĠLo": 2928,
      "mayapti": 2929,
      "ĠbÃµlin": 2930,
      "qachon": 2931,
      "Ġdavrida": 2932,
      "poniya": 2933,
      "Ġilgari": 2934,
      "buzar": 2935,
      "niqsa": 2936,
      "ĠErdÃµÇ§an": 2937,
      "eng": 2938,
      "qulo": 2939,
      "Ġfron": 2940,
      "ĠÃµzida": 2941,
      "qobat": 2942,
      "qul": 2943,
      "taraf": 2944,
      "Ġmig": 2945,
      "Ġilo": 2946,
      "ĠToshkentda": 2947,
      "Ġalla": 2948,
      "mis": 2949,
      "ĠVi": 2950,
      "pro": 2951,
      "Ġum": 2952,
      "Ġtarixi": 2953,
      "Ãµrin": 2954,
      "alqi": 2955,
      "Ġsarf": 2956,
      "ganiga": 2957,
      "Ġerka": 2958,
      "layotgani": 2959,
      "ĠÃµzbekiston": 2960,
      "ĠOAV": 2961,
      "tadbir": 2962,
      "ovchi": 2963,
      "ĠqÃµshma": 2964,
      "Ġnorozi": 2965,
      "lashni": 2966,
      "ĠJo": 2967,
      "Ġolindi": 2968,
      "ĠSurxondaryo": 2969,
      "ĠBuyuk": 2970,
      "Ġolmaydi": 2971,
      "ovar": 2972,
      "Ġborada": 2973,
      "Ġnor": 2974,
      "Ġtarmo": 2975,
      "ĠÃµtkaziladi": 2976,
      "ĠmÃµljallangan": 2977,
      "Ġtayanib": 2978,
      "18": 2979,
      "Ġqilinishicha": 2980,
      "Ġqurbon": 2981,
      "shing": 2982,
      "Ġes": 2983,
      "atar": 2984,
      "Ġallaqachon": 2985,
      "hur": 2986,
      "ĠQi": 2987,
      "Ġtoza": 2988,
      "Ġelektron": 2989,
      "Ġustidan": 2990,
      "Ġbundan": 2991,
      "Ġkas": 2992,
      "ĠÃķsha": 2993,
      "Ġukraina": 2994,
      "tim": 2995,
      "Ġmaro": 2996,
      "Ġjan": 2997,
      "biri": 2998,
      "Ġkirishi": 2999,
      "25": 3000,
      "Ġulu": 3001,
      "Ġ29": 3002,
      "ahar": 3003,
      "Ġrejalashtirilgan": 3004,
      "Ġsanksiyalar": 3005,
      "taliya": 3006,
      "Ġijo": 3007,
      "Ġsot": 3008,
      "Ġayt": 3009,
      "Ġbanki": 3010,
      "ĠShimoliy": 3011,
      "ĠSan": 3012,
      "Ġhududlarda": 3013,
      "qiz": 3014,
      "Ġmuz": 3015,
      "Ġmuko": 3016,
      "ĠÃµrganish": 3017,
      "Ġoldini": 3018,
      "ĠBuning": 3019,
      "Ġtaraf": 3020,
      "bit": 3021,
      "Ġmuloqot": 3022,
      "Ġhayot": 3023,
      "Ġmamlakatda": 3024,
      "Ġetilishicha": 3025,
      "Ġiqtisodiyot": 3026,
      "Ġon": 3027,
      "Ġreyti": 3028,
      "Ġboshlaydi": 3029,
      "Ġkiritilgan": 3030,
      "qulodda": 3031,
      "Ġbuning": 3032,
      "Ġelchi": 3033,
      "ĠgÃµ": 3034,
      "laka": 3035,
      "nir": 3036,
      "erial": 3037,
      "lashadi": 3038,
      "Ġsinov": 3039,
      "Ġjabr": 3040,
      "layn": 3041,
      "yapmiz": 3042,
      "ĠÃµqituvchi": 3043,
      "ĠAbdu": 3044,
      "Ġsifat": 3045,
      "Ġoxirida": 3046,
      "ĠYaqin": 3047,
      "Ġsub": 3048,
      "ĠYeI": 3049,
      "Ġehtiyo": 3050,
      "rika": 3051,
      "Ġkuz": 3052,
      "arakat": 3053,
      "lishini": 3054,
      "uqur": 3055,
      "ĠShuning": 3056,
      "tilayotgan": 3057,
      "Ġyigi": 3058,
      "Ġsheri": 3059,
      "ĠUnda": 3060,
      "shington": 3061,
      "Ġixti": 3062,
      "chta": 3063,
      "Ġehtimo": 3064,
      "Ġurib": 3065,
      "Ġborasida": 3066,
      "ĠKÃµp": 3067,
      "Ġfon": 3068,
      "ĠchÃµ": 3069,
      "ransport": 3070,
      "Ġyetka": 3071,
      "Ġzilzila": 3072,
      "Ġaka": 3073,
      "Ġberib": 3074,
      "Ġhola": 3075,
      "rupsiya": 3076,
      "Ç§ini": 3077,
      "ChJ": 3078,
      "Ġ31": 3079,
      "Ġmunosabati": 3080,
      "Ġrozi": 3081,
      "che": 3082,
      "ĠYaponiya": 3083,
      "Ġtariqa": 3084,
      "Ġbarobar": 3085,
      "ĠkÃµchi": 3086,
      "Ġyengil": 3087,
      "lanmagan": 3088,
      "ĠMChJ": 3089,
      "Ġpan": 3090,
      "Ġparlament": 3091,
      "ĠAra": 3092,
      "Ġjiho": 3093,
      "ES": 3094,
      "Ġmasalasi": 3095,
      "Ġrahbarlari": 3096,
      "ĠFalastin": 3097,
      "rinish": 3098,
      "Ġoxirgi": 3099,
      "Ġmual": 3100,
      "Ġtashrifi": 3101,
      "pol": 3102,
      "Ġdepartam": 3103,
      "Ġjavobgar": 3104,
      "gon": 3105,
      "Ġamaliyot": 3106,
      "enat": 3107,
      "ĠLu": 3108,
      "ĠBel": 3109,
      "Ġdemokra": 3110,
      "Ġbaj": 3111,
      "qalpo": 3112,
      "mizga": 3113,
      "sam": 3114,
      "Ġboj": 3115,
      "Ġboradi": 3116,
      "ĠAyni": 3117,
      "voh": 3118,
      "ifa": 3119,
      "moniy": 3120,
      "Ġhuquqlari": 3121,
      "Ġustun": 3122,
      "Ġkodeksining": 3123,
      "Ġxalqi": 3124,
      "ce": 3125,
      "Ġcheklov": 3126,
      "ksiya": 3127,
      "Ġpayt": 3128,
      "Ġtavsiya": 3129,
      "hu": 3130,
      "rilib": 3131,
      "Ġglobal": 3132,
      "Ġetil": 3133,
      "Ġbiror": 3134,
      "Ġaniqlangan": 3135,
      "Ġimkonini": 3136,
      "ket": 3137,
      "lmaydi": 3138,
      "Ġtili": 3139,
      "ff": 3140,
      "Ġpiyo": 3141,
      "Ġijara": 3142,
      "Ġkir": 3143,
      "Ġxato": 3144,
      "Ġyechi": 3145,
      "lovi": 3146,
      "kka": 3147,
      "Ġketadi": 3148,
      "Ġhozircha": 3149,
      "ĠbÃµlimi": 3150,
      "Ġplat": 3151,
      "Ġberishni": 3152,
      "Ġislohot": 3153,
      "yadi": 3154,
      "Ġxavfsizligi": 3155,
      "Ġmavzu": 3156,
      "ress": 3157,
      "luta": 3158,
      "zilar": 3159,
      "zal": 3160,
      "Ġtaxminan": 3161,
      "Ġmalaka": 3162,
      "ĠÃµrniga": 3163,
      "Ġhozirda": 3164,
      "Ġgapir": 3165,
      "likning": 3166,
      "Ġoshiriladi": 3167,
      "yoh": 3168,
      "Ġyillar": 3169,
      "Ġqism": 3170,
      "Ġayblov": 3171,
      "Ġjamoatchilik": 3172,
      "Ġkafolat": 3173,
      "Ġjihoz": 3174,
      "ĠAQShning": 3175,
      "Ġxoh": 3176,
      "dimi": 3177,
      "chilarning": 3178,
      "ĠtÃµÇ§ridan": 3179,
      "ĠÃķzbekistondagi": 3180,
      "Ġhisobga": 3181,
      "Ġmode": 3182,
      "Ġolim": 3183,
      "laydigan": 3184,
      "Ġtaqdir": 3185,
      "slatib": 3186,
      "ten": 3187,
      "ĠYo": 3188,
      "urji": 3189,
      "bay": 3190,
      "Ġmuddatli": 3191,
      "Ġmuammolar": 3192,
      "lumotlarni": 3193,
      "Ġtanqid": 3194,
      "ĠDi": 3195,
      "Ġmiqdo": 3196,
      "Ġparvoz": 3197,
      "ĠEr": 3198,
      "Ġsun": 3199,
      "ber": 3200,
      "Ġziyo": 3201,
      "Ġaytish": 3202,
      "Ġshahridagi": 3203,
      "ĠÃµyi": 3204,
      "Ġqilayotgan": 3205,
      "lumotlarga": 3206,
      "ting": 3207,
      "qu": 3208,
      "Ġgumon": 3209,
      "ĠTelegram": 3210,
      "liklarni": 3211,
      "Ġbosti": 3212,
      "Ġmahsulotlari": 3213,
      "Ġbizning": 3214,
      "Ġkutilmoqda": 3215,
      "Ġayni": 3216,
      "ĠÃµxsha": 3217,
      "bini": 3218,
      "Ġatrof": 3219,
      "faza": 3220,
      "Ġxavo": 3221,
      "Ġborgan": 3222,
      "Ġtayyorgarlik": 3223,
      "Ġaholisi": 3224,
      "Ġstrategik": 3225,
      "Ġvakolat": 3226,
      "dijon": 3227,
      "Ġbartaraf": 3228,
      "Ġtara": 3229,
      "Ġberuvchi": 3230,
      "Ġorganlari": 3231,
      "Ġyuborish": 3232,
      "Ġraqib": 3233,
      "Ġbugungi": 3234,
      "Ġoltin": 3235,
      "ĠKiyevga": 3236,
      "uma": 3237,
      "Ġelektro": 3238,
      "berg": 3239,
      "Ġjangovar": 3240,
      "Ġnafari": 3241,
      "Ġoda": 3242,
      "ĠQÃµshma": 3243,
      "fes": 3244,
      "Ġtoifa": 3245,
      "Ġchuqur": 3246,
      "eta": 3247,
      "tÃµ": 3248,
      "Ġqarab": 3249,
      "ĠkÃµlam": 3250,
      "Ġnega": 3251,
      "muni": 3252,
      "Ġmuso": 3253,
      "ĠAJ": 3254,
      "Ġlavozim": 3255,
      "qalpoÇ§iston": 3256,
      "Ġtanish": 3257,
      "Ġjihatdan": 3258,
      "Ġmuhofaza": 3259,
      "lamoqda": 3260,
      "Ġucha": 3261,
      "Ġmet": 3262,
      "Ãµravon": 3263,
      "ĠKreml": 3264,
      "rush": 3265,
      "maydigan": 3266,
      "ĠQonun": 3267,
      "Ġtelefon": 3268,
      "ĠqÃµshni": 3269,
      "lashuv": 3270,
      "Ġishlagan": 3271,
      "Ġboshlanishi": 3272,
      "ĠChe": 3273,
      "harakat": 3274,
      "zolari": 3275,
      "ĠArmaniston": 3276,
      "dini": 3277,
      "Ġqattiq": 3278,
      "uriyati": 3279,
      "Ġshaxsiy": 3280,
      "22": 3281,
      "Ġfikricha": 3282,
      "Ġharakatlar": 3283,
      "Ġinfratuzilma": 3284,
      "ĠGa": 3285,
      "Ġchiqishi": 3286,
      "Ġtayyorlash": 3287,
      "orti": 3288,
      "Ġyashi": 3289,
      "avf": 3290,
      "Ġdona": 3291,
      "mush": 3292,
      "Ġ2019": 3293,
      "Ġsovet": 3294,
      "Ġbosqichi": 3295,
      "ĠkÃµzda": 3296,
      "boÇ§": 3297,
      "Ġkredi": 3298,
      "ĠUmu": 3299,
      "Ġ500": 3300,
      "bha": 3301,
      "zin": 3302,
      "ĠMazkur": 3303,
      "Ġbarchasi": 3304,
      "Ġnavbatida": 3305,
      "ĠXa": 3306,
      "Ġband": 3307,
      "Ġdam": 3308,
      "Ġinternet": 3309,
      "gra": 3310,
      "ĠQoraqalpoÇ§iston": 3311,
      "Ġraqobat": 3312,
      "ĠItaliya": 3313,
      "Ġaksiya": 3314,
      "ĠFin": 3315,
      "lega": 3316,
      "gor": 3317,
      "Ġimkoniyati": 3318,
      "Ġoson": 3319,
      "ĠbÃµlganini": 3320,
      "Ġdarajasi": 3321,
      "Ġumuman": 3322,
      "Ġxavotir": 3323,
      "lagani": 3324,
      "Ġyashash": 3325,
      "Ukraina": 3326,
      "ĠAs": 3327,
      "ĠjamÇ§ar": 3328,
      "tirishi": 3329,
      "Ġqor": 3330,
      "Ġberishga": 3331,
      "uriya": 3332,
      "Ġmuddatga": 3333,
      "Ġqiymati": 3334,
      "ĠÇ§olib": 3335,
      "iza": 3336,
      "Ġtizimini": 3337,
      "Ġfuqarolar": 3338,
      "Ġsolish": 3339,
      "ĠTashqi": 3340,
      "kki": 3341,
      "Ġbosib": 3342,
      "ĠMo": 3343,
      "Ġaylandi": 3344,
      "Ġxuddi": 3345,
      "zam": 3346,
      "Ġyozdi": 3347,
      "ĠtÃµqnash": 3348,
      "ĠJumladan": 3349,
      "Ġboshqaruvi": 3350,
      "nar": 3351,
      "Ġaylan": 3352,
      "Ġshamol": 3353,
      "ĠArabi": 3354,
      "Ġimport": 3355,
      "Ġpartiyasi": 3356,
      "Ġgene": 3357,
      "16": 3358,
      "liklarning": 3359,
      "ĠNaman": 3360,
      "17": 3361,
      "Ġqarz": 3362,
      "Ġshifokor": 3363,
      "malari": 3364,
      "fasida": 3365,
      "Ġnashr": 3366,
      "ĠSud": 3367,
      "Ġboshqarish": 3368,
      "Ġplatfor": 3369,
      "ge": 3370,
      "Ġichiga": 3371,
      "Ġayollar": 3372,
      "Ġulardan": 3373,
      "Ġetishga": 3374,
      "ĠqÃµygan": 3375,
      "ana": 3376,
      "ĠTi": 3377,
      "Ġmumkinligini": 3378,
      "Ġbaland": 3379,
      "ĠPro": 3380,
      "Ġ198": 3381,
      "Ġvaziyatni": 3382,
      "Ġxususan": 3383,
      "yosh": 3384,
      "Ġmuddat": 3385,
      "mik": 3386,
      "tiriladi": 3387,
      "Ġolti": 3388,
      "ĠJahon": 3389,
      "Ġsur": 3390,
      "moli": 3391,
      "ĠAndijon": 3392,
      "ks": 3393,
      "Ġqurilishi": 3394,
      "Ġturnir": 3395,
      "manitar": 3396,
      "ĠyiÇ§ilishi": 3397,
      "Ġxonadon": 3398,
      "ĠHam": 3399,
      "ddin": 3400,
      "zilarli": 3401,
      "Ġtamo": 3402,
      "ĠbÃµlishini": 3403,
      "ĠYer": 3404,
      "ĠzÃµravon": 3405,
      "Ġ000": 3406,
      "Ġsta": 3407,
      "dova": 3408,
      "qqi": 3409,
      "Ġtushishi": 3410,
      "ĠHozirda": 3411,
      "ĠSÃµnggi": 3412,
      "nidan": 3413,
      "ĠSuriya": 3414,
      "ĠVolo": 3415,
      "ska": 3416,
      "Ç§iga": 3417,
      "Ġeta": 3418,
      "Ġturdagi": 3419,
      "Ġonlayn": 3420,
      "ĠUkrainani": 3421,
      "rigacha": 3422,
      "Ġyashovchi": 3423,
      "yt": 3424,
      "Ġtana": 3425,
      "arbiy": 3426,
      "sos": 3427,
      "Ġola": 3428,
      "Ġdars": 3429,
      "ĠkÃµlamli": 3430,
      "Ġshundan": 3431,
      "bidan": 3432,
      "ĠAd": 3433,
      "ĠNatija": 3434,
      "Ġistiq": 3435,
      "ssi": 3436,
      "nidagi": 3437,
      "Ġoddiy": 3438,
      "Ġguvoh": 3439,
      "Ġboshlandi": 3440,
      "tishni": 3441,
      "ĠQrim": 3442,
      "Ġmumkinligi": 3443,
      "Ġyordamida": 3444,
      "ĠqÃµmondon": 3445,
      "ĠVashington": 3446,
      "Ġmashhur": 3447,
      "ĠHi": 3448,
      "omil": 3449,
      "ĠtemiryÃµl": 3450,
      "Ġkerakligini": 3451,
      "ĠZa": 3452,
      "Ġsezilarli": 3453,
      "Ġolinadi": 3454,
      "Ġimtiyoz": 3455,
      "Ġuniversiteti": 3456,
      "Ġinstituti": 3457,
      "soz": 3458,
      "Ġnechta": 3459,
      "Ġbugun": 3460,
      "Ġortidan": 3461,
      "Ġrahbariyati": 3462,
      "vor": 3463,
      "liklarga": 3464,
      "stoni": 3465,
      "Ġportlash": 3466,
      "kana": 3467,
      "ĠOq": 3468,
      "Ġolmadi": 3469,
      "gno": 3470,
      "Ġumid": 3471,
      "Ġkut": 3472,
      "ĠThe": 3473,
      "Ġqayer": 3474,
      "ĠYana": 3475,
      "Ġqavatli": 3476,
      "Ġfoydalanuvchi": 3477,
      "Ġdoim": 3478,
      "Ġbayono": 3479,
      "Ġmuvaffaqiyatli": 3480,
      "yus": 3481,
      "tatlar": 3482,
      "Ġjis": 3483,
      "yut": 3484,
      "Ġahvo": 3485,
      "Ġtarmoqlarda": 3486,
      "ok": 3487,
      "ĠÃµtishi": 3488,
      "ĠyiÇ§ilish": 3489,
      "ligida": 3490,
      "Ġuniversitet": 3491,
      "rilayotgan": 3492,
      "ĠEng": 3493,
      "ĠBunda": 3494,
      "Ġkitob": 3495,
      "Ġdeputat": 3496,
      "jikiston": 3497,
      "Ġstandar": 3498,
      "Ġomil": 3499,
      "rian": 3500,
      "Ġturish": 3501,
      "ĠyÃµqotish": 3502,
      "tni": 3503,
      "kash": 3504,
      "Ġ70": 3505,
      "onlar": 3506,
      "Ġaksari": 3507,
      "ĠIkki": 3508,
      "joz": 3509,
      "Ġxavfi": 3510,
      "ĠjÃµna": 3511,
      "Ġxizmatlari": 3512,
      "bl": 3513,
      "dul": 3514,
      "ĠyoÇ§": 3515,
      "Ġtumanidagi": 3516,
      "Ġehtiyoj": 3517,
      "Ġqilishda": 3518,
      "Ġhududiy": 3519,
      "Ġaybdor": 3520,
      "Ġinstitut": 3521,
      "ĠLa": 3522,
      "Ġ300": 3523,
      "Ġxodimi": 3524,
      "mish": 3525,
      "ĠBunga": 3526,
      "orazm": 3527,
      "dolat": 3528,
      "ĠIsh": 3529,
      "Ġtashabbus": 3530,
      "Ġpiyoda": 3531,
      "zida": 3532,
      "Ġdelega": 3533,
      "Ġahamiyat": 3534,
      "ĠqÃµydi": 3535,
      "ĠLe": 3536,
      "Ġsherik": 3537,
      "Ġvaluta": 3538,
      "und": 3539,
      "ĠSe": 3540,
      "Ġogohlan": 3541,
      "Ġkuchi": 3542,
      "Ġkelajak": 3543,
      "ĠVolodi": 3544,
      "gaz": 3545,
      "Ġuchta": 3546,
      "Ġehtiyot": 3547,
      "lav": 3548,
      "qibat": 3549,
      "ĠÃµtkazdi": 3550,
      "Ġqadam": 3551,
      "ĠÃµqqa": 3552,
      "ju": 3553,
      "Ġishchi": 3554,
      "ovning": 3555,
      "ĠXitoyning": 3556,
      "Ġbildirgan": 3557,
      "Ġenergiyasi": 3558,
      "tatistika": 3559,
      "Ġamerika": 3560,
      "Ġboshqaruv": 3561,
      "Ġtayinlangan": 3562,
      "midan": 3563,
      "beki": 3564,
      "Ġxizmatlar": 3565,
      "ĠTÃµ": 3566,
      "Ġhuz": 3567,
      "Ġklubi": 3568,
      "Re": 3569,
      "Ġbosim": 3570,
      "Ġkelishib": 3571,
      "Ġchiqaruvchi": 3572,
      "vetsiya": 3573,
      "Ġgeo": 3574,
      "ĠkÃµpchilik": 3575,
      "ĠqÃµmita": 3576,
      "ĠAfrika": 3577,
      "Ġhuzuri": 3578,
      "ĠShunday": 3579,
      "Ġqolishi": 3580,
      "Ġrey": 3581,
      "Ġuchuvchi": 3582,
      "ĠIl": 3583,
      "ĠBugun": 3584,
      "Ġok": 3585,
      "ĠtÃµldi": 3586,
      "ĠQiz": 3587,
      "laver": 3588,
      "Ġaytilgan": 3589,
      "Ġhududlarida": 3590,
      "BC": 3591,
      "met": 3592,
      "Ġyoshlar": 3593,
      "tirishga": 3594,
      "ĠTadbir": 3595,
      "dlari": 3596,
      "baqa": 3597,
      "ĠkÃµrsatadi": 3598,
      "Ġ90": 3599,
      "xfiy": 3600,
      "ermer": 3601,
      "ĠBr": 3602,
      "Ç§ish": 3603,
      "viya": 3604,
      "Ġtekshiruv": 3605,
      "ĠÃµchi": 3606,
      "ahra": 3607,
      "ĠÃµtamiz": 3608,
      "Ġvayron": 3609,
      "ler": 3610,
      "qis": 3611,
      "Ġboshlanadi": 3612,
      "Ġmaterial": 3613,
      "ĠAh": 3614,
      "ĠAng": 3615,
      "zosi": 3616,
      "Ġshubha": 3617,
      "ĠÃµzgarishi": 3618,
      "Ġfot": 3619,
      "ladigan": 3620,
      "xonasi": 3621,
      "izza": 3622,
      "Ġturar": 3623,
      "ĠÃµtkazib": 3624,
      "variya": 3625,
      "Ġharbiylar": 3626,
      "Ġchiqadi": 3627,
      "mli": 3628,
      "mua": 3629,
      "rilgani": 3630,
      "Ġberilishi": 3631,
      "Ġxavfli": 3632,
      "nada": 3633,
      "Ġsurish": 3634,
      "Ġaktiv": 3635,
      "ĠyÃµnal": 3636,
      "Ġpoyez": 3637,
      "13": 3638,
      "Ġarzon": 3639,
      "ĠNamangan": 3640,
      "ĠVolodimir": 3641,
      "Ġbur": 3642,
      "tsi": 3643,
      "masiga": 3644,
      "Ġuzay": 3645,
      "tiya": 3646,
      "kas": 3647,
      "ĠXorazm": 3648,
      "ĠqÃµshinlari": 3649,
      "Ġshuning": 3650,
      "Ġqismini": 3651,
      "Ġkurashish": 3652,
      "ĠsÃµmdan": 3653,
      "Ġ2018": 3654,
      "Ġiqlim": 3655,
      "Ġbojxona": 3656,
      "Ġprofes": 3657,
      "pp": 3658,
      "tiladigan": 3659,
      "Ġbostirib": 3660,
      "Ġkadr": 3661,
      "Ġnoma": 3662,
      "enga": 3663,
      "Ġishdan": 3664,
      "ĠShvetsiya": 3665,
      "ĠVazirlar": 3666,
      "Ġalbatta": 3667,
      "ĠArabistoni": 3668,
      "tazam": 3669,
      "Ġkecha": 3670,
      "Ġqam": 3671,
      "Ġqonuniy": 3672,
      "tilib": 3673,
      "Ç§ur": 3674,
      "ĠHuj": 3675,
      "sir": 3676,
      "Ġholati": 3677,
      "Ġint": 3678,
      "Ġdelegatsiya": 3679,
      "tning": 3680,
      "Ġmarkaziy": 3681,
      "Ġistiqbol": 3682,
      "Ġinqi": 3683,
      "qindi": 3684,
      "Ġvazirlik": 3685,
      "Ġqilgandi": 3686,
      "lashish": 3687,
      "Ġmuddati": 3688,
      "ĠBoshqa": 3689,
      "joy": 3690,
      "Ġliga": 3691,
      "Ġbahs": 3692,
      "Ġoshgan": 3693,
      "Ġovqat": 3694,
      "viga": 3695,
      "Ġprogno": 3696,
      "Ġrasmiylari": 3697,
      "ĠAir": 3698,
      "Ġqatna": 3699,
      "Ya": 3700,
      "lararo": 3701,
      "Ġhuquqiy": 3702,
      "Ġniya": 3703,
      "Ãµz": 3704,
      "latsiya": 3705,
      "Ġqilgani": 3706,
      "Ġmuxoli": 3707,
      "ĠNatijada": 3708,
      "Ġborishi": 3709,
      "Ġkeltirib": 3710,
      "kab": 3711,
      "Ġsiyosati": 3712,
      "Ç§ulo": 3713,
      "ĠTu": 3714,
      "Ġqolmoqda": 3715,
      "Ġkelgu": 3716,
      "Ġhuzuridagi": 3717,
      "sr": 3718,
      "yov": 3719,
      "mlik": 3720,
      "Ġhaydovchi": 3721,
      "uvor": 3722,
      "Ġmamlakati": 3723,
      "Ġmexa": 3724,
      "ĠTojikiston": 3725,
      "Ġturizm": 3726,
      "Ġvaqtincha": 3727,
      "inoti": 3728,
      "Ġkomplek": 3729,
      "Ġjismoniy": 3730,
      "ĠBar": 3731,
      "layman": 3732,
      "ĠsoÇ§liqni": 3733,
      "ĠEl": 3734,
      "Ġkelmoqda": 3735,
      "ĠkÃµrsatilgan": 3736,
      "Ġdollarlik": 3737,
      "HK": 3738,
      "ĠQatar": 3739,
      "Ġbudje": 3740,
      "Ġmana": 3741,
      "Ġsafi": 3742,
      "Ġdoira": 3743,
      "Ġmajburiy": 3744,
      "bekistan": 3745,
      "qara": 3746,
      "Ġhayoti": 3747,
      "mizning": 3748,
      "Ġvoz": 3749,
      "Ġochko": 3750,
      "engriya": 3751,
      "Ġoylik": 3752,
      "Ġquvvat": 3753,
      "etsk": 3754,
      "ĠrÃµyxatdan": 3755,
      "ĠÃµs": 3756,
      "Ġjavobgarlik": 3757,
      "ĠUni": 3758,
      "Ġtomondan": 3759,
      "Ġintervyusida": 3760,
      "Ġkuzat": 3761,
      "ĠÃµrnatilgan": 3762,
      "avfsizlik": 3763,
      "ĠtÃµla": 3764,
      "Ġmijoz": 3765,
      "Ġofi": 3766,
      "Ġduch": 3767,
      "Ġatadi": 3768,
      "Ġmuntazam": 3769,
      "Ġsalohi": 3770,
      "Ġilova": 3771,
      "per": 3772,
      "Ġxari": 3773,
      "ertifi": 3774,
      "laversa": 3775,
      "mor": 3776,
      "Ġoldingi": 3777,
      "Ġtashkilotlar": 3778,
      "ayev": 3779,
      "ment": 3780,
      "ergey": 3781,
      "Ġkont": 3782,
      "ĠqÃµn": 3783,
      "rans": 3784,
      "iro": 3785,
      "rakkab": 3786,
      "Ġfuqarolik": 3787,
      "Ġkorrupsiya": 3788,
      "AR": 3789,
      "stka": 3790,
      "Ġhisobot": 3791,
      "Ġegallab": 3792,
      "masligini": 3793,
      "tiruvchi": 3794,
      "Ġfoydalani": 3795,
      "Ġkarta": 3796,
      "Ġyozishi": 3797,
      "nov": 3798,
      "ĠOr": 3799,
      "Ġsalbiy": 3800,
      "Ġdavlati": 3801,
      "Ġ35": 3802,
      "Ġhujjatlar": 3803,
      "Ġborilmoqda": 3804,
      "Ġoshirilgan": 3805,
      "Ġaniqlash": 3806,
      "Ġustuvor": 3807,
      "Ġfoydalangan": 3808,
      "Ġqatori": 3809,
      "lashtirishga": 3810,
      "Ġshunchaki": 3811,
      "arov": 3812,
      "Ġmaxfiy": 3813,
      "Ġayniqsa": 3814,
      "burg": 3815,
      "Ġishtirokida": 3816,
      "Ġgekt": 3817,
      "ĠQurol": 3818,
      "Ġmulk": 3819,
      "Ãµj": 3820,
      "say": 3821,
      "ĠRas": 3822,
      "Ġchang": 3823,
      "Ġhissa": 3824,
      "sandr": 3825,
      "In": 3826,
      "ĠÃµl": 3827,
      "ĠEslatib": 3828,
      "Ġdeyish": 3829,
      "tabi": 3830,
      "kast": 3831,
      "Ġ197": 3832,
      "Ġqiladigan": 3833,
      "Ġgektar": 3834,
      "rij": 3835,
      "ĠkÃµrgan": 3836,
      "IV": 3837,
      "Ġkesi": 3838,
      "ĠQar": 3839,
      "ĠJizza": 3840,
      "Ġtasvir": 3841,
      "Ġjarayoni": 3842,
      "Ġerkak": 3843,
      "ĠIj": 3844,
      "Ġsahi": 3845,
      "Ġehtimol": 3846,
      "Ġhududiga": 3847,
      "Ġkiradi": 3848,
      "Ġchiqarib": 3849,
      "Ġberil": 3850,
      "Ġkons": 3851,
      "rif": 3852,
      "shib": 3853,
      "Ġquyosh": 3854,
      "bin": 3855,
      "Ġoshib": 3856,
      "Ġdunyoning": 3857,
      "Ġchiqindi": 3858,
      "chiq": 3859,
      "Ġjon": 3860,
      "ĠSergey": 3861,
      "vokat": 3862,
      "ĠVengriya": 3863,
      "Ġdaryo": 3864,
      "Ġharorat": 3865,
      "Ġxos": 3866,
      "Ġinno": 3867,
      "diruv": 3868,
      "ĠIspaniya": 3869,
      "Ma": 3870,
      "Ġhaqiqiy": 3871,
      "lumotiga": 3872,
      "Ġbizga": 3873,
      "Ġfuqarolari": 3874,
      "Ġekspert": 3875,
      "Ġmiqdorida": 3876,
      "ĠMan": 3877,
      "mlakat": 3878,
      "ktor": 3879,
      "Ġboshlanganidan": 3880,
      "ĠSir": 3881,
      "Ġmamlakatning": 3882,
      "Ġholatlar": 3883,
      "Ġhamkorlikda": 3884,
      "Ġmajmua": 3885,
      "Ġborayotgan": 3886,
      "Ġfuqarosi": 3887,
      "iqtisodiy": 3888,
      "rori": 3889,
      "Ġmurakkab": 3890,
      "dorlik": 3891,
      "Ġmiqdorda": 3892,
      "Ġavia": 3893,
      "akompaniya": 3894,
      "Ar": 3895,
      "ĠAso": 3896,
      "Ġtizimlari": 3897,
      "ĠQoraboÇ§": 3898,
      "Ġyozishicha": 3899,
      "Ġsohasidagi": 3900,
      "Ġdepartamenti": 3901,
      "ĠÃµlim": 3902,
      "Ġminglab": 3903,
      "Ġjavoban": 3904,
      "Ġdunyoda": 3905,
      "ĠRossiyadan": 3906,
      "ley": 3907,
      "skuna": 3908,
      "pov": 3909,
      "dash": 3910,
      "sonli": 3911,
      "ĠTurk": 3912,
      "ĠUrush": 3913,
      "Ġfav": 3914,
      "tali": 3915,
      "Ġjazosi": 3916,
      "ĠmaÇ§lubi": 3917,
      "Ġmuxbiri": 3918,
      "Ġmamlakatlar": 3919,
      "gida": 3920,
      "mit": 3921,
      "ĠIchki": 3922,
      "Ġball": 3923,
      "2023": 3924,
      "Ġ196": 3925,
      "Ġkelin": 3926,
      "Ġchiqara": 3927,
      "Ġtaqdi": 3928,
      "Ġkur": 3929,
      "Ġrekor": 3930,
      "ĠKonstitutsiya": 3931,
      "23": 3932,
      "Ġsertifi": 3933,
      "Ġasr": 3934,
      "Ġjuma": 3935,
      "Ġradi": 3936,
      "ydir": 3937,
      "ĠPar": 3938,
      "ĠNor": 3939,
      "Ġxabarlar": 3940,
      "Ġkiritdi": 3941,
      "Ġrasman": 3942,
      "Ġmaqsadi": 3943,
      "Ġchempiona": 3944,
      "Ġimtihon": 3945,
      "chilarga": 3946,
      "Ġxabarda": 3947,
      "ĠSharq": 3948,
      "ĠUmuman": 3949,
      "ĠÃķshanda": 3950,
      "rant": 3951,
      "ĠmashÇ§ulo": 3952,
      "masa": 3953,
      "Ġuskuna": 3954,
      "Ġqozon": 3955,
      "Ġfonida": 3956,
      "ĠkÃµrsatib": 3957,
      "Ġshikast": 3958,
      "Ġyuridik": 3959,
      "Ġfun": 3960,
      "ĠXHK": 3961,
      "Ġishonchli": 3962,
      "Ġpaytida": 3963,
      "Ġyozgan": 3964,
      "Ġtarixiy": 3965,
      "Ġqolib": 3966,
      "till": 3967,
      "tilgani": 3968,
      "urjiston": 3969,
      "ĠqÃµyib": 3970,
      "mart": 3971,
      "sional": 3972,
      "mdan": 3973,
      "likdagi": 3974,
      "ĠMol": 3975,
      "Ġfede": 3976,
      "Ġ2017": 3977,
      "Ġchempion": 3978,
      "Ġukrainalik": 3979,
      "Ġbuz": 3980,
      "Ġtushu": 3981,
      "kidlagan": 3982,
      "ĠQurolli": 3983,
      "gratsiya": 3984,
      "Ġaeropor": 3985,
      "smon": 3986,
      "ĠAk": 3987,
      "Ġfermer": 3988,
      "ĠIsroilga": 3989,
      "Ġten": 3990,
      "tirildi": 3991,
      "Ġmansab": 3992,
      "Ġkunlarda": 3993,
      "yÃµ": 3994,
      "Ġbom": 3995,
      "Ġbuzi": 3996,
      "Ġhis": 3997,
      "oya": 3998,
      "Ġnot": 3999,
      "Ġkunlik": 4000,
      "ĠÃµtkazildi": 4001,
      "40": 4002,
      "Bar": 4003,
      "ĠYÃµl": 4004,
      "Me": 4005,
      "dirish": 4006,
      "chil": 4007,
      "Ġeski": 4008,
      "Ġtopilgan": 4009,
      "Ġkos": 4010,
      "Ġmexani": 4011,
      "ĠMisr": 4012,
      "Ġjamiyati": 4013,
      "Ġfavqulodda": 4014,
      "para": 4015,
      "Ġvarian": 4016,
      "Ġamaliy": 4017,
      "Ġqanchalik": 4018,
      "parvar": 4019,
      "ĠBola": 4020,
      "Ġustida": 4021,
      "ĠSho": 4022,
      "Ġijobiy": 4023,
      "Ġusta": 4024,
      "Ġqonunchilik": 4025,
      "Ġdushanba": 4026,
      "Ġerishish": 4027,
      "Ġinsp": 4028,
      "Ġoldida": 4029,
      "ĠÃµzbekistonlik": 4030,
      "ĠSenat": 4031,
      "Ġ80": 4032,
      "ĠtÃµxtatish": 4033,
      "Ġkuchaytirish": 4034,
      "ĠkÃµch": 4035,
      "dasi": 4036,
      "Ġeki": 4037,
      "Ġqazib": 4038,
      "ĠJy": 4039,
      "Ġtayinlandi": 4040,
      "Ba": 4041,
      "nayotgan": 4042,
      "hol": 4043,
      "Ġurinish": 4044,
      "ĠbÃµlgandi": 4045,
      "ĠyiÇ§": 4046,
      "Ġyerga": 4047,
      "lanishiga": 4048,
      "Ġbirida": 4049,
      "Ġfil": 4050,
      "Ġartill": 4051,
      "Ġlavozimida": 4052,
      "Ġtransfer": 4053,
      "Ġmetro": 4054,
      "Ġstavka": 4055,
      "ova": 4056,
      "Ġkompaniyalari": 4057,
      "tex": 4058,
      "Ġiliq": 4059,
      "alu": 4060,
      "Ġmobil": 4061,
      "ĠdÃµkon": 4062,
      "ngliz": 4063,
      "rey": 4064,
      "hammad": 4065,
      "Ġuchastka": 4066,
      "rashuv": 4067,
      "Ġaloqador": 4068,
      "ĠFinlandiya": 4069,
      "ĠJizzax": 4070,
      "qich": 4071,
      "Ġdaraxt": 4072,
      "hati": 4073,
      "Ġvazirligining": 4074,
      "ĠsÃµmlik": 4075,
      "Ġnazorati": 4076,
      "ellekt": 4077,
      "qismi": 4078,
      "Al": 4079,
      "ker": 4080,
      "lanishini": 4081,
      "Ġhujumidan": 4082,
      "ĠDonetsk": 4083,
      "ray": 4084,
      "Ġtuzilma": 4085,
      "Ġqismida": 4086,
      "Ġyetti": 4087,
      "Ġmeni": 4088,
      "Ġfalastin": 4089,
      "Ġtuz": 4090,
      "Ġharbiylari": 4091,
      "Ġoladigan": 4092,
      "Ġqishlo": 4093,
      "Ġaviakompaniya": 4094,
      "Ġmurab": 4095,
      "doni": 4096,
      "Ġchizi": 4097,
      "magani": 4098,
      "Ġpi": 4099,
      "end": 4100,
      "ĠkÃµrinishi": 4101,
      "Ġnemis": 4102,
      "Ġjarayonida": 4103,
      "Ġmustahkamlash": 4104,
      "Ġqoch": 4105,
      "Ġtransp": 4106,
      "Ġdush": 4107,
      "ĠkÃµpa": 4108,
      "stru": 4109,
      "Ġbajar": 4110,
      "sht": 4111,
      "ling": 4112,
      "tidagi": 4113,
      "inot": 4114,
      "Ġpor": 4115,
      "Ġmasalalar": 4116,
      "yotini": 4117,
      "Ġertalab": 4118,
      "Ġpunkt": 4119,
      "ze": 4120,
      "Ġ36": 4121,
      "Ġqanot": 4122,
      "Ġyechim": 4123,
      "ork": 4124,
      "Ġyurish": 4125,
      "Ġoshirishga": 4126,
      "Ġoshdi": 4127,
      "Ġmut": 4128,
      "Ġshunda": 4129,
      "Ġtaklifi": 4130,
      "Ġtuzi": 4131,
      "lashini": 4132,
      "Ġmamlakatlari": 4133,
      "ĠDast": 4134,
      "ddan": 4135,
      "Ġhisobiga": 4136,
      "ĠÃµtkazgan": 4137,
      "Ġyashay": 4138,
      "sano": 4139,
      "ĠBol": 4140,
      "Ġavt": 4141,
      "Ġrivojlanish": 4142,
      "Ġprezidentlik": 4143,
      "ĠRi": 4144,
      "Ġdunyodagi": 4145,
      "Ġorada": 4146,
      "jy": 4147,
      "Ġtasdiqladi": 4148,
      "Ġamalda": 4149,
      "Ġtartibga": 4150,
      "ĠUzbekistan": 4151,
      "Ġtaf": 4152,
      "Ġkama": 4153,
      "Ġtushadi": 4154,
      "uters": 4155,
      "Ġtaraqqi": 4156,
      "Ġkelishuvga": 4157,
      "ĠMoldova": 4158,
      "Ġbren": 4159,
      "Ġhosil": 4160,
      "Ġzona": 4161,
      "Ġur": 4162,
      "Ġtala": 4163,
      "Ġloyihasini": 4164,
      "Ġtartibda": 4165,
      "Ġmaydoni": 4166,
      "aroq": 4167,
      "ĠYi": 4168,
      "Ġozodlikdan": 4169,
      "zbon": 4170,
      "Ġsotish": 4171,
      "ĠKompaniya": 4172,
      "Toshkent": 4173,
      "shyo": 4174,
      "mosha": 4175,
      "Ġinte": 4176,
      "ĠJoriy": 4177,
      "Ġhududda": 4178,
      "Ġamaldagi": 4179,
      "Ġstrategiya": 4180,
      "Ġmadaniy": 4181,
      "ĠAsosiy": 4182,
      "ĠtoÇ§li": 4183,
      "ĠOy": 4184,
      "lidan": 4185,
      "Ġfoizdan": 4186,
      "Ġmintaqaviy": 4187,
      "am": 4188,
      "Ġnut": 4189,
      "Ġkirgan": 4190,
      "Ġkuchlarining": 4191,
      "ĠReuters": 4192,
      "tinchi": 4193,
      "Ġolmagan": 4194,
      "Ġushlab": 4195,
      "barida": 4196,
      "Ġchoralar": 4197,
      "Ġhokimligi": 4198,
      "ĠÃµnlab": 4199,
      "ĠMaktab": 4200,
      "Ġavvalgi": 4201,
      "ĠKim": 4202,
      "Ġkanal": 4203,
      "Ġakademi": 4204,
      "Ġseshanba": 4205,
      "Ġadolat": 4206,
      "ĠsÃµrov": 4207,
      "batga": 4208,
      "Ġve": 4209,
      "Ġyakshanba": 4210,
      "Ġsafarbar": 4211,
      "Ġtuzilgan": 4212,
      "Ġchorshanba": 4213,
      "Ġintellekt": 4214,
      "sus": 4215,
      "ĠQur": 4216,
      "Ġdollardan": 4217,
      "Ġshunga": 4218,
      "urmat": 4219,
      "Ġulg": 4220,
      "ĠInter": 4221,
      "Ġketa": 4222,
      "ertlar": 4223,
      "Ġdalil": 4224,
      "Ġbari": 4225,
      "Ġmingga": 4226,
      "ĠAbdul": 4227,
      "ĠSharqiy": 4228,
      "yaga": 4229,
      "ĠUchrashuv": 4230,
      "Ġdavlatga": 4231,
      "Ġmingta": 4232,
      "Ġchiqilgan": 4233,
      "Ġanju": 4234,
      "ĠÃµsish": 4235,
      "ĠÃµrgan": 4236,
      "lgach": 4237,
      "Ġviza": 4238,
      "tiruv": 4239,
      "Ġqaytarish": 4240,
      "ĠÃµrnatish": 4241,
      "Ġtopish": 4242,
      "jorat": 4243,
      "Ġyildagi": 4244,
      "ĠtÃµlash": 4245,
      "Ġino": 4246,
      "Ġkompaniyalar": 4247,
      "Ġpalatasi": 4248,
      "SJ": 4249,
      "ĠÃķr": 4250,
      "Ġfoydalanishga": 4251,
      "ĠPutinning": 4252,
      "tr": 4253,
      "ĠYu": 4254,
      "Ġavtomobillar": 4255,
      "Ġolinishi": 4256,
      "bituriy": 4257,
      "ĠBBC": 4258,
      "irlash": 4259,
      "link": 4260,
      "Ġmanzil": 4261,
      "Ġtakomil": 4262,
      "bituriyent": 4263,
      "kitob": 4264,
      "ĠTim": 4265,
      "ĠÃµrinda": 4266,
      "Ġyetakchisi": 4267,
      "Ġbuyurt": 4268,
      "Ġfili": 4269,
      "Ġsharoi": 4270,
      "Ġmusobaqa": 4271,
      "simi": 4272,
      "Ġjanu": 4273,
      "ĠPekin": 4274,
      "Ġnarsani": 4275,
      "fe": 4276,
      "Ġavvalroq": 4277,
      "Ġatrofidagi": 4278,
      "sol": 4279,
      "Ġmaydonga": 4280,
      "ST": 4281,
      "Ġnaza": 4282,
      "Ġ45": 4283,
      "Ġviloyatining": 4284,
      "ĠIttifoqining": 4285,
      "ferensiya": 4286,
      "Ġgeneral": 4287,
      "Ç§al": 4288,
      "kasi": 4289,
      "ĠGurjiston": 4290,
      "tdagi": 4291,
      "shil": 4292,
      "umli": 4293,
      "lashtirib": 4294,
      "Ġqaytarib": 4295,
      "Ġoxirigacha": 4296,
      "Real": 4297,
      "Ġishni": 4298,
      "Ġkonstitutsiya": 4299,
      "Ġqiruvchi": 4300,
      "ĠAleksandr": 4301,
      "Ġinobatga": 4302,
      "qqat": 4303,
      "Ġurin": 4304,
      "ĠÃµÇ§": 4305,
      "lashuvi": 4306,
      "Ġqarash": 4307,
      "Ġmiqyo": 4308,
      "lÇ§i": 4309,
      "Ġartilleriya": 4310,
      "Ġmahsulotlar": 4311,
      "Ġquruq": 4312,
      "mning": 4313,
      "sning": 4314,
      "unos": 4315,
      "Ġtarbiya": 4316,
      "Ġrubl": 4317,
      "fikatsiya": 4318,
      "Ġbata": 4319,
      "Ġyuborilgan": 4320,
      "ĠSirdaryo": 4321,
      "Ġjoylarga": 4322,
      "ĠqÃµyil": 4323,
      "11": 4324,
      "Ġkol": 4325,
      "ĠTergov": 4326,
      "Ġhalokat": 4327,
      "Ġiqtisodiyoti": 4328,
      "Ġdiplomatik": 4329,
      "ĠTurkmaniston": 4330,
      "ologik": 4331,
      "Ġekologik": 4332,
      "Ġyetkaz": 4333,
      "ĠyÃµqligi": 4334,
      "ĠQizil": 4335,
      "Ġkla": 4336,
      "nomasi": 4337,
      "Ġhisobidan": 4338,
      "Ġsil": 4339,
      "Ġsifatli": 4340,
      "35": 4341,
      "Ġdarajadagi": 4342,
      "Ġboshidan": 4343,
      "hli": 4344,
      "Ġqama": 4345,
      "Ġjoyda": 4346,
      "str": 4347,
      "Ġkredit": 4348,
      "24": 4349,
      "Ġkub": 4350,
      "ĠMamlakat": 4351,
      "ĠÃµtmay": 4352,
      "Ġraketalar": 4353,
      "Ġurushda": 4354,
      "Ġberishicha": 4355,
      "Ġbaravar": 4356,
      "yatsiya": 4357,
      "ĠOT": 4358,
      "Ġpayshanba": 4359,
      "Ġaniqlik": 4360,
      "Ġblok": 4361,
      "muhi": 4362,
      "Ġsarmoya": 4363,
      "har": 4364,
      "chan": 4365,
      "vosita": 4366,
      "Ġholatlari": 4367,
      "ngizni": 4368,
      "Ġkasb": 4369,
      "Ġmutla": 4370,
      "dav": 4371,
      "Ġborligi": 4372,
      "Ġyiliga": 4373,
      "Ġaholining": 4374,
      "Ġshiko": 4375,
      "Ġkamera": 4376,
      "Ç§or": 4377,
      "Ġyoshi": 4378,
      "laymiz": 4379,
      "ĠkÃµrin": 4380,
      "uqori": 4381,
      "Ġbutunlay": 4382,
      "Ġtalabalar": 4383,
      "ĠnotÃµÇ§ri": 4384,
      "Men": 4385,
      "ĠyÃµnalishida": 4386,
      "eva": 4387,
      "Ġbelgilandi": 4388,
      "ĠÇ§oya": 4389,
      "jo": 4390,
      "ngda": 4391,
      "Ġtanlov": 4392,
      "ĠdÃµst": 4393,
      "Ġmodel": 4394,
      "lashtirgan": 4395,
      "ĠAQShda": 4396,
      "Li": 4397,
      "tur": 4398,
      "daydir": 4399,
      "ĠbÃµlmasa": 4400,
      "Ġsayyoh": 4401,
      "vatsiya": 4402,
      "Ç§urta": 4403,
      "ĠmaÇ§lubiyat": 4404,
      "jir": 4405,
      "Ġchiqildi": 4406,
      "XX": 4407,
      "Ġ[": 4408,
      "ĠtarÇ§i": 4409,
      "Ġtarif": 4410,
      "Ġmajburiyat": 4411,
      "Ġasir": 4412,
      "Ġtomosha": 4413,
      "ĠShahar": 4414,
      "Ġxabarida": 4415,
      "ĠQolaversa": 4416,
      "ĠKong": 4417,
      "Ç§u": 4418,
      "Ġkiyi": 4419,
      "Ġyetgan": 4420,
      "Ġmarkazida": 4421,
      "Ġtexnologiyalar": 4422,
      "Ġimkoniyatini": 4423,
      "shar": 4424,
      "ĠBugungi": 4425,
      "toq": 4426,
      "Ġurushni": 4427,
      "Ġyetkazish": 4428,
      "kar": 4429,
      "ĠJamo": 4430,
      "sor": 4431,
      "Ġyuborgan": 4432,
      "bidagi": 4433,
      "ĠTay": 4434,
      "Ġboshchiligi": 4435,
      "Ġyoq": 4436,
      "ĠFaqat": 4437,
      "Ġtarkib": 4438,
      "Ç§bat": 4439,
      "Ġkapi": 4440,
      "Ġturmush": 4441,
      "ĠÃµtadigan": 4442,
      "shunos": 4443,
      "Ġbilim": 4444,
      "ĠVo": 4445,
      "iri": 4446,
      "Ġpre": 4447,
      "Ġshuni": 4448,
      "monlar": 4449,
      "Ġbozori": 4450,
      "Ġyop": 4451,
      "ĠLoyiha": 4452,
      "kuatsiya": 4453,
      "Ġkomissiyasi": 4454,
      "chka": 4455,
      "ĠbaÇ§ish": 4456,
      "kanali": 4457,
      "ĠkÃµmir": 4458,
      "ĠTIV": 4459,
      "Ġgarov": 4460,
      "Ġrioya": 4461,
      "ĠIsroilning": 4462,
      "Ġtahri": 4463,
      "14": 4464,
      "ĠMaj": 4465,
      "Ġurushning": 4466,
      "Ġraqamli": 4467,
      "ĠÃµzgarishlar": 4468,
      "Ġmaqola": 4469,
      "?\"": 4470,
      "ĠSer": 4471,
      "siyosiy": 4472,
      "hem": 4473,
      "ĠHujjat": 4474,
      "Ġqayt": 4475,
      "ĠmaÇ§lub": 4476,
      "Ġif": 4477,
      "ĠtÃµsiq": 4478,
      "Ġdavri": 4479,
      "ĠÃµtar": 4480,
      "mayman": 4481,
      "Ġvaziyatda": 4482,
      "Ġmoliyalashtirish": 4483,
      "Ġharo": 4484,
      "oriya": 4485,
      "Ġuzi": 4486,
      "Ġaylanib": 4487,
      "Ġmissiya": 4488,
      "ĠtÃµpni": 4489,
      "Ġmenga": 4490,
      "ĠNATOga": 4491,
      "sanoat": 4492,
      "Ġ32": 4493,
      "Ġborligini": 4494,
      "ĠbÃµlmoqda": 4495,
      "narya": 4496,
      "Ġdushman": 4497,
      "shat": 4498,
      "Ġyetdi": 4499,
      "Ġtakror": 4500,
      "Ġholatiga": 4501,
      "kro": 4502,
      "Ġoshirilishi": 4503,
      "Ġshaxslarga": 4504,
      "tilishicha": 4505,
      "Ġtadbirkorlik": 4506,
      "ĠyoÇ§i": 4507,
      "ĠraÇ§bat": 4508,
      "ĠDu": 4509,
      "Ġolishni": 4510,
      "ĠÃµng": 4511,
      "Ġkuchlar": 4512,
      "Ġingliz": 4513,
      "lashda": 4514,
      "Ġsayo": 4515,
      "Ġuchrashuvi": 4516,
      "Ġbepul": 4517,
      "ĠFor": 4518,
      "loniya": 4519,
      "ĠOlim": 4520,
      "Ġzarbalar": 4521,
      "tilmagan": 4522,
      "Ġyal": 4523,
      "ĠGol": 4524,
      "Ġnavbatda": 4525,
      "Ġlavozimiga": 4526,
      "chilarni": 4527,
      "Ġrejalashti": 4528,
      "ĠsÃµragan": 4529,
      "qibatda": 4530,
      "Ġbaribir": 4531,
      "Ta": 4532,
      "mos": 4533,
      "Ġangla": 4534,
      "ĠbÃµlmas": 4535,
      "Ġbiriga": 4536,
      "Ġser": 4537,
      "ĠMay": 4538,
      "Ç§ich": 4539,
      "ĠXo": 4540,
      "Ġtashabbu": 4541,
      "ĠtarmoÇ§i": 4542,
      "Ġreytingi": 4543,
      "dago": 4544,
      "eksiya": 4545,
      "Ġaylangan": 4546,
      "Ġnizo": 4547,
      "elsi": 4548,
      "Ġjoylashtirish": 4549,
      "ĠYun": 4550,
      "udlik": 4551,
      "Ġhisoblaydi": 4552,
      "davlat": 4553,
      "To": 4554,
      "Ç§iz": 4555,
      "Ġqandaydir": 4556,
      "Ġqilamiz": 4557,
      "Ġnam": 4558,
      "ĠDmit": 4559,
      "Ġkeyinchalik": 4560,
      "Ġinflatsiya": 4561,
      "Ġyetkazilgan": 4562,
      "ĠYev": 4563,
      "Ġqarat": 4564,
      "Ġqilinmoqda": 4565,
      "dromet": 4566,
      "Ġetayotgan": 4567,
      "ĠkÃµmak": 4568,
      "ĠSin": 4569,
      "ĠSay": 4570,
      "Ġloyihalar": 4571,
      "Ġaholiga": 4572,
      "Ġaviatsiya": 4573,
      "Ġkamaytirish": 4574,
      "Ġulushi": 4575,
      "kumat": 4576,
      "Ġdollarni": 4577,
      "riladigan": 4578,
      "Ġmuvaffaq": 4579,
      "Ġinqiroz": 4580,
      "Ġmon": 4581,
      "ĠÃµÇ§ir": 4582,
      "Ġ(\"": 4583,
      "Ġbelgilab": 4584,
      "Ġolganda": 4585,
      "sno": 4586,
      "Ġtosh": 4587,
      "Ġtashlab": 4588,
      "Ġuchrashuvda": 4589,
      "Ġyaqinida": 4590,
      "slar": 4591,
      "yekt": 4592,
      "Ġvaziyatlar": 4593,
      "Ġevakuatsiya": 4594,
      "fsil": 4595,
      "rator": 4596,
      "ĠsÃµmga": 4597,
      "Ġurushga": 4598,
      "larimizni": 4599,
      "Ġarab": 4600,
      "Ġmuxolifat": 4601,
      "Man": 4602,
      "eni": 4603,
      "dorlar": 4604,
      "Ġhuquqbuzar": 4605,
      "Ġdronlar": 4606,
      "ĠÃµxshash": 4607,
      "Ġplatforma": 4608,
      "ĠBÃµ": 4609,
      "Ġyigit": 4610,
      "27": 4611,
      "ĠAt": 4612,
      "Ġishlarni": 4613,
      "lovchilar": 4614,
      "ĠMuhammad": 4615,
      "Ġterror": 4616,
      "simal": 4617,
      "ĠbÃµlardi": 4618,
      "Ġishlarini": 4619,
      "Ġmajli": 4620,
      "ĠkÃµrsatgan": 4621,
      "Ġkuchga": 4622,
      "ĠCher": 4623,
      "qur": 4624,
      "Ġoshir": 4625,
      "Ġberadigan": 4626,
      "Ġtashkilotlari": 4627,
      "Ġtortib": 4628,
      "Ġtaqdirda": 4629,
      "Ġsen": 4630,
      "bÃµ": 4631,
      "tigi": 4632,
      "Ġusul": 4633,
      "baÇ§al": 4634,
      "Ġbarpo": 4635,
      "ĠsuÇ§urta": 4636,
      "Ġyadroviy": 4637,
      "ĠyoÇ§adi": 4638,
      "ĠAngliya": 4639,
      "ĠShtatlar": 4640,
      "ĠDunyo": 4641,
      "Ġqutqar": 4642,
      "Ġgoli": 4643,
      "Ġtushdi": 4644,
      "Ġshimoli": 4645,
      "Ġtopshiriq": 4646,
      "Ġbayonotida": 4647,
      "han": 4648,
      "xe": 4649,
      "ĠKatta": 4650,
      "hoyat": 4651,
      "Ġoylarida": 4652,
      "Ġpalata": 4653,
      "ans": 4654,
      "ĠqÃµyiladi": 4655,
      "ĠNyu": 4656,
      "Ġkundan": 4657,
      "Ġoldindan": 4658,
      "bank": 4659,
      "dlik": 4660,
      "pta": 4661,
      "razi": 4662,
      "ĠkÃµngil": 4663,
      "ĠbÃµlyapti": 4664,
      "Ġpake": 4665,
      "senal": 4666,
      "Ġuzat": 4667,
      "Ġtiklash": 4668,
      "Ġsiyosatchi": 4669,
      "munikatsiya": 4670,
      "uvlar": 4671,
      "Ġdegani": 4672,
      "Ġaytadi": 4673,
      "Ġmezbon": 4674,
      "Ġodamlarni": 4675,
      "ĠParij": 4676,
      "IM": 4677,
      "Ġsnarya": 4678,
      "zatish": 4679,
      "ĠOqibatda": 4680,
      "Ġxabardor": 4681,
      "lanishicha": 4682,
      "Ġbaholash": 4683,
      "ĠKeyinchalik": 4684,
      "ĠIjtimoiy": 4685,
      "Ġabituriyent": 4686,
      "ĠKar": 4687,
      "Ġsaqlanib": 4688,
      "Ġiflos": 4689,
      "Ġfinal": 4690,
      "Ġtarqalgan": 4691,
      "ĠrÃµyxatga": 4692,
      "uf": 4693,
      "Ãķzbek": 4694,
      "tion": 4695,
      "dagilar": 4696,
      "ql": 4697,
      "nizatsiya": 4698,
      "ĠÃµrnini": 4699,
      "dri": 4700,
      "tor": 4701,
      "ros": 4702,
      "dorilar": 4703,
      "Ġfoizini": 4704,
      "layotganini": 4705,
      "ĠyÃµnalishda": 4706,
      "Ġeksperti": 4707,
      "jniy": 4708,
      "tel": 4709,
      "Ġqahra": 4710,
      "luÇ§": 4711,
      "Ġ37": 4712,
      "Ġmoddiy": 4713,
      "Ġkuchay": 4714,
      "Ġekanligini": 4715,
      "ĠDo": 4716,
      "Ġyanvardan": 4717,
      "Ġmukofot": 4718,
      "Ġqidiruv": 4719,
      "lmas": 4720,
      "Ġzarbasi": 4721,
      "Ġtopshirish": 4722,
      "Ġmukofo": 4723,
      "derlandiya": 4724,
      "Chelsi": 4725,
      "Ġixtisos": 4726,
      "ĠAdliya": 4727,
      "80": 4728,
      "Ġsut": 4729,
      "Ġkuzatilgan": 4730,
      "Ġnorozilik": 4731,
      "lit": 4732,
      "diga": 4733,
      "Ġkurs": 4734,
      "ĠIroq": 4735,
      "Ġkuniga": 4736,
      "Ġaslida": 4737,
      "Ġtasi": 4738,
      "Ġinsho": 4739,
      "Ġloyihalarni": 4740,
      "ĠkÃµrsatdi": 4741,
      "Ġaeroport": 4742,
      "ĠHiso": 4743,
      "ln": 4744,
      "yun": 4745,
      "Ġtr": 4746,
      "ĠXavfsizlik": 4747,
      "Ġatigi": 4748,
      "ĠqÃµmondoni": 4749,
      "Ġyot": 4750,
      "Ġvazifasini": 4751,
      "tadbirlar": 4752,
      "yn": 4753,
      "ĠbÃµsh": 4754,
      "Ġhammasi": 4755,
      "ligidan": 4756,
      "Ġyoni": 4757,
      "ĠqÃµllash": 4758,
      "Ġishlaydi": 4759,
      "Ġoshiradi": 4760,
      "Ġarafasida": 4761,
      "Ġjavobgarlikka": 4762,
      "sda": 4763,
      "orda": 4764,
      "Ġxotin": 4765,
      "Ġsuvi": 4766,
      "Ġehtimoli": 4767,
      "Ġsertifikat": 4768,
      "Ġvatan": 4769,
      "taj": 4770,
      "Ġhamon": 4771,
      "ĠKÃµ": 4772,
      "Ġpunk": 4773,
      "rma": 4774,
      "yab": 4775,
      "ĠqÃµriq": 4776,
      "ĠYuqori": 4777,
      "Ġkunga": 4778,
      "Ġxavfsizligini": 4779,
      "Ġsamolyoti": 4780,
      "mb": 4781,
      "Ġkutib": 4782,
      "ĠPe": 4783,
      "Ġsir": 4784,
      "Ġqonunga": 4785,
      "Ġtadbirkorlar": 4786,
      "Ġziyod": 4787,
      "tash": 4788,
      "stlar": 4789,
      "Ġ400": 4790,
      "Ġolmas": 4791,
      "Ġqud": 4792,
      "Ġbemor": 4793,
      "Ġdavlatning": 4794,
      "Ġmillat": 4795,
      "Ġmadaniyat": 4796,
      "Ġprognoz": 4797,
      "Ġver": 4798,
      "rayotgan": 4799,
      "miyati": 4800,
      "ĠMin": 4801,
      "Ġshaf": 4802,
      "Ġkimyo": 4803,
      "Ġviloyatlarida": 4804,
      "Ġtarkibida": 4805,
      "Ġmavsu": 4806,
      "tirilishi": 4807,
      "ĠÃµÇ§li": 4808,
      "Ġqurilgan": 4809,
      "Ġochish": 4810,
      "Ġstandart": 4811,
      "ziz": 4812,
      "Ġketayotgan": 4813,
      "Ġpara": 4814,
      "ĠAP": 4815,
      "Ġqobili": 4816,
      "Ġ34": 4817,
      "Ġborayotgani": 4818,
      "Ġtort": 4819,
      "chak": 4820,
      "anba": 4821,
      "Ġqaraganda": 4822,
      "Ġhududlari": 4823,
      "Ġimzolangan": 4824,
      "bosqich": 4825,
      "RI": 4826,
      "ĠsÃµradi": 4827,
      "ĠjamÇ§armasi": 4828,
      "Ġrekord": 4829,
      "oliq": 4830,
      "Ġmuallif": 4831,
      "Ġtrln": 4832,
      "giron": 4833,
      "ĠXar": 4834,
      "Ġtajov": 4835,
      "ĠPokiston": 4836,
      "Ġhurmat": 4837,
      "ondon": 4838,
      "larim": 4839,
      "kamasi": 4840,
      "Ġkesib": 4841,
      "ĠBlink": 4842,
      "ĠAvst": 4843,
      "Ġalyan": 4844,
      "kkiz": 4845,
      "Ġbriga": 4846,
      "ĠÃµshanda": 4847,
      "ĠOl": 4848,
      "Ġ2016": 4849,
      "yotiga": 4850,
      "Ġyordami": 4851,
      "ĠboÇ§cha": 4852,
      "Ġolmay": 4853,
      "Ġ150": 4854,
      "Ġinsonlar": 4855,
      "Ġumum": 4856,
      "lagi": 4857,
      "Ġyutuq": 4858,
      "grafi": 4859,
      "Ġtaraqqiyot": 4860,
      "choq": 4861,
      "Ġtashish": 4862,
      "Ġqaytar": 4863,
      "Ġbosqin": 4864,
      "Ġshakllantirish": 4865,
      "Ġijaraga": 4866,
      "Ġamerikalik": 4867,
      "Ġisi": 4868,
      "Ġmoddalar": 4869,
      "Ġqisqartirish": 4870,
      "ĠBryus": 4871,
      "Ġoshishi": 4872,
      "Ġsudga": 4873,
      "ĠDmitriy": 4874,
      "Ġbitim": 4875,
      "zov": 4876,
      "Ġaytilishicha": 4877,
      "liyev": 4878,
      "Ġadvokat": 4879,
      "sozlik": 4880,
      "Kning": 4881,
      "Na": 4882,
      "ĠAg": 4883,
      "ĠqÃµyi": 4884,
      "Ġaytilmoqda": 4885,
      "Ġmutaxassislar": 4886,
      "ĠBlinken": 4887,
      "tirmoqda": 4888,
      "ĠÃµzgartirib": 4889,
      "AL": 4890,
      "yiq": 4891,
      "Ġavlo": 4892,
      "ĠLondon": 4893,
      "Ġhisobo": 4894,
      "Ġsayohat": 4895,
      "37": 4896,
      "sangiz": 4897,
      "ĠbÃµlishiga": 4898,
      "ĠRasmiy": 4899,
      "yur": 4900,
      "Ç§oq": 4901,
      "ĠSiz": 4902,
      "ĠTer": 4903,
      "ĠRek": 4904,
      "dorlari": 4905,
      "ĠQodi": 4906,
      "Ġyakuniy": 4907,
      "ĠÇ§arbdan": 4908,
      "Ġimkoni": 4909,
      "Ġmaksimal": 4910,
      "Ġgazeta": 4911,
      "Arsenal": 4912,
      "raziliya": 4913,
      "men": 4914,
      "sun": 4915,
      "yul": 4916,
      "piya": 4917,
      "Ġkompaniyasining": 4918,
      "ĠÃµqish": 4919,
      "ĠYevge": 4920,
      "yen": 4921,
      "ĠRossiyani": 4922,
      "Ġqadr": 4923,
      "ĠqÃµyildi": 4924,
      "Ġekspertlar": 4925,
      "chester": 4926,
      "Ġkg": 4927,
      "Ġfoizni": 4928,
      "ĠÃµtkazilishi": 4929,
      "Ġnatijalari": 4930,
      "Ġsalomat": 4931,
      "Ġqilingandi": 4932,
      "Ġisroil": 4933,
      "Ġaloqalar": 4934,
      "Ġcheklangan": 4935,
      "Ġzudlik": 4936,
      "Ġmunosabatlar": 4937,
      "Ġuzun": 4938,
      "Ġyalpi": 4939,
      "Ġqiziq": 4940,
      "Ġhamja": 4941,
      "bogi": 4942,
      "Ġ2014": 4943,
      "Ġmavsumda": 4944,
      "ĠBlo": 4945,
      "ĠEk": 4946,
      "silo": 4947,
      "ĠRah": 4948,
      "Ġombor": 4949,
      "gen": 4950,
      "Ġus": 4951,
      "Ġkeltirilgan": 4952,
      "Ġjoyida": 4953,
      "tÃµzon": 4954,
      "Ġshikoyat": 4955,
      "28": 4956,
      "yaro": 4957,
      "kanal": 4958,
      "Ġxay": 4959,
      "tepa": 4960,
      "Ġoyda": 4961,
      "orod": 4962,
      "Ġvoqealar": 4963,
      "Ġulkan": 4964,
      "tu": 4965,
      "ĠMeh": 4966,
      "ON": 4967,
      "ola": 4968,
      "udi": 4969,
      "toni": 4970,
      "Ġquvva": 4971,
      "Ġpoytaxti": 4972,
      "Ġdemokratik": 4973,
      "Ġstatistika": 4974,
      "zidan": 4975,
      "ĠRus": 4976,
      "Ġelchisi": 4977,
      "Ġprokuraturasi": 4978,
      "Ġsum": 4979,
      "ĠIqtiso": 4980,
      "valniy": 4981,
      "erson": 4982,
      "ĠKenga": 4983,
      "Ġhududlar": 4984,
      "Ġsinf": 4985,
      "ada": 4986,
      "ĠkÃµrini": 4987,
      "lasha": 4988,
      "jab": 4989,
      "ĠÃµrni": 4990,
      "ĠkÃµprik": 4991,
      "Ġoshkor": 4992,
      "Ġbayram": 4993,
      "Ġahamiyatga": 4994,
      "Ġanjumani": 4995,
      "Ġmol": 4996,
      "Ġchiqqa": 4997,
      "ĠAnd": 4998,
      "Ġkelajakda": 4999,
      "99": 5000,
      "XR": 5001,
      "tiy": 5002,
      "ĠTs": 5003,
      "Ç§ilish": 5004,
      "lashtiradi": 5005,
      "ĠIttifoqiga": 5006,
      "Ġmahsulotlarini": 5007,
      "ĠBryussel": 5008,
      "zarb": 5009,
      "Ġdarajagacha": 5010,
      "ĠZap": 5011,
      "parat": 5012,
      "ĠEnergetika": 5013,
      "ĠTashkil": 5014,
      "Ġdavrda": 5015,
      "Ġniyatida": 5016,
      "gistika": 5017,
      "Ġorgani": 5018,
      "Ġqilishdi": 5019,
      "Ġnazora": 5020,
      "ID": 5021,
      "if": 5022,
      "ĠbÃµlayotgan": 5023,
      "Ġjadal": 5024,
      "ĠKanada": 5025,
      "Ġkuzatilishi": 5026,
      "Ġasoslangan": 5027,
      "Ġyubordi": 5028,
      "Ġboshla": 5029,
      "ĠHarbiy": 5030,
      "Ġlits": 5031,
      "ĠTimes": 5032,
      "Ġanglatadi": 5033,
      "ĠYevgeniy": 5034,
      "din": 5035,
      "andi": 5036,
      "Ġmehmonxona": 5037,
      "sov": 5038,
      "Ġmahbus": 5039,
      "Ġajratilgan": 5040,
      "Ġkeladigan": 5041,
      "Ġchop": 5042,
      "dia": 5043,
      "Ġsakkiz": 5044,
      "Ġbordi": 5045,
      "Ġqilingani": 5046,
      "ĠAQShga": 5047,
      "Ġmoder": 5048,
      "Ġoyidan": 5049,
      "kuror": 5050,
      "Ġtup": 5051,
      "Ġkuchayti": 5052,
      "Sa": 5053,
      "oyib": 5054,
      "Ġsonini": 5055,
      "Ġjasa": 5056,
      "Ġtijorat": 5057,
      "ĠzÃµravonlik": 5058,
      "Ġolgani": 5059,
      "Ġortiqcha": 5060,
      "ĠÃµqishga": 5061,
      "Ġfarzand": 5062,
      "lining": 5063,
      "ĠtoÇ§": 5064,
      "Ġyetmagan": 5065,
      "Ġemasligini": 5066,
      "Ġmasalan": 5067,
      "Ġissiqlik": 5068,
      "ĠOTM": 5069,
      "yaroÇ§": 5070,
      "ĠHolat": 5071,
      "ziyat": 5072,
      "kala": 5073,
      "tez": 5074,
      "Ġtopgan": 5075,
      "Ġishtirokchi": 5076,
      "Ġmuammolarni": 5077,
      "Ġimzoladi": 5078,
      "Ġyutqa": 5079,
      "Ġbevosita": 5080,
      "Ġfoydali": 5081,
      "yuro": 5082,
      "ĠIslom": 5083,
      "Ġajoyib": 5084,
      "sey": 5085,
      "gist": 5086,
      "ĠBuni": 5087,
      "Ġqochib": 5088,
      "Ġdarajaga": 5089,
      "ĠqÃµshib": 5090,
      "ĠÃµrinni": 5091,
      "tilyapti": 5092,
      "orijj": 5093,
      "ĠHozirgi": 5094,
      "Ġyakunida": 5095,
      "ĠTÃµÇ§ri": 5096,
      "ĠtÃµr": 5097,
      "Ġmasalasini": 5098,
      "Ġyaxshilash": 5099,
      "Ġtelegram": 5100,
      "ĠÃµsishi": 5101,
      "qq": 5102,
      "Ġkanali": 5103,
      "toj": 5104,
      "ektor": 5105,
      "Ġdiniy": 5106,
      "Ġchoralari": 5107,
      "Inter": 5108,
      "pard": 5109,
      "Ġuchib": 5110,
      "Ġbilish": 5111,
      "soniya": 5112,
      "onalar": 5113,
      "bel": 5114,
      "Ġminnat": 5115,
      "Ġuchragan": 5116,
      "lyut": 5117,
      "Ġyum": 5118,
      "Ġpu": 5119,
      "Ġishlashi": 5120,
      "ĠÃµrga": 5121,
      "Ġyarat": 5122,
      "Ġbarava": 5123,
      "Ġqayerda": 5124,
      "Ãµjayev": 5125,
      "Ġmusul": 5126,
      "ĠEko": 5127,
      "Ġkerakli": 5128,
      "layev": 5129,
      "Ġqaroriga": 5130,
      "alujniy": 5131,
      "Ġbois": 5132,
      "Ġpuli": 5133,
      "Ġjad": 5134,
      "Ġpaxta": 5135,
      "Ġfirib": 5136,
      "ĠGermaniyaning": 5137,
      "Ġostidagi": 5138,
      "unaqa": 5139,
      "ĠBerlin": 5140,
      "mlar": 5141,
      "kal": 5142,
      "Ġyoqil": 5143,
      "Ġkerakligi": 5144,
      "ĠbÃµlishicha": 5145,
      "Ġfevra": 5146,
      "chli": 5147,
      "ĠUluÇ§": 5148,
      "ĠHukumat": 5149,
      "Ġqozo": 5150,
      "uber": 5151,
      "ĠNew": 5152,
      "Ġpedago": 5153,
      "Ġzim": 5154,
      "lol": 5155,
      "Ġ33": 5156,
      "Ġprezidentining": 5157,
      "Ġtadbirlar": 5158,
      "Ġkampaniya": 5159,
      "lament": 5160,
      "ĠqÃµnÇ§i": 5161,
      "Ġtafsilo": 5162,
      "sav": 5163,
      "Ġortib": 5164,
      "Ġxodimlar": 5165,
      "orijjya": 5166,
      "pana": 5167,
      "Ġreal": 5168,
      "ĠNavalniy": 5169,
      "ĠAvto": 5170,
      "Ġshakllan": 5171,
      "Ġixtiyo": 5172,
      "ĠyoÇ§ishi": 5173,
      "Ġmodernizatsiya": 5174,
      "Ġrol": 5175,
      "Ġkino": 5176,
      "Ġtopa": 5177,
      "ĠtÃµs": 5178,
      "ĠDar": 5179,
      "ĠChi": 5180,
      "ĠbÃµsha": 5181,
      "Ġmuhtoj": 5182,
      "bali": 5183,
      "ĠsovÇ§a": 5184,
      "ertol": 5185,
      "limiga": 5186,
      "Ġrejalashtir": 5187,
      "Ġtarqat": 5188,
      "ĠbÃµladigan": 5189,
      "Ġbajarish": 5190,
      "Ġbuyurtma": 5191,
      "maslikka": 5192,
      "Ġdolzarb": 5193,
      "Ġsamarador": 5194,
      "Ġsurishtiruv": 5195,
      "Ġquro": 5196,
      "ĠyÃµnalishini": 5197,
      "Ġinvest": 5198,
      "HT": 5199,
      "oma": 5200,
      "Ġtest": 5201,
      "ĠZalujniy": 5202,
      "Ġrejasi": 5203,
      "ĠGermaniyada": 5204,
      "ĠAvva": 5205,
      "ĠIT": 5206,
      "Ġmamlakatga": 5207,
      "ĠSoÇ§": 5208,
      "Ġboshchiligidagi": 5209,
      "ĠReklama": 5210,
      "Ġmikro": 5211,
      "Ġetishni": 5212,
      "Ġkishini": 5213,
      "ĠXitoyga": 5214,
      "Ġnomzo": 5215,
      "ĠMahkama": 5216,
      "qli": 5217,
      "daqiqa": 5218,
      "lion": 5219,
      "Ġbila": 5220,
      "kiy": 5221,
      "yoki": 5222,
      "ĠBun": 5223,
      "Ġhayvon": 5224,
      "Ġyashagan": 5225,
      "Ġbloger": 5226,
      "Is": 5227,
      "Ġhiko": 5228,
      "Ġdiz": 5229,
      "Ġtekshirish": 5230,
      "Ġqurbonlar": 5231,
      "Ġmansabdor": 5232,
      "ĠZaporijjya": 5233,
      "Ġkvar": 5234,
      "Ġdollari": 5235,
      "kidlandi": 5236,
      "ĠNash": 5237,
      "alitsiya": 5238,
      "Ġsoxta": 5239,
      "ĠbÃµlganlar": 5240,
      "noq": 5241,
      "satsiya": 5242,
      "Ġaniqlandi": 5243,
      "maymiz": 5244,
      "Ġjarohati": 5245,
      "Ġmurabbiy": 5246,
      "lishiga": 5247,
      "ĠYosh": 5248,
      "ĠShah": 5249,
      "Ġparcha": 5250,
      "Ġsudya": 5251,
      "Ġcheklovlar": 5252,
      "up": 5253,
      "Ġtir": 5254,
      "Ġbizda": 5255,
      "Ġjos": 5256,
      "ĠsoliÇ§i": 5257,
      "Ġoshirdi": 5258,
      "Ġyaratilgan": 5259,
      "lova": 5260,
      "Ġ75": 5261,
      "Ġchiqarishni": 5262,
      "esti": 5263,
      "ĠLit": 5264,
      "ping": 5265,
      "ĠMoskvaga": 5266,
      "qaldi": 5267,
      "Ġ194": 5268,
      "Ġbirining": 5269,
      "Ġinnovatsiya": 5270,
      "otor": 5271,
      "Ġbizni": 5272,
      "Ġpoytaxt": 5273,
      "Ġmuallifi": 5274,
      "Ġkosmik": 5275,
      "Ġharorati": 5276,
      "kum": 5277,
      "mun": 5278,
      "Ġoz": 5279,
      "rovi": 5280,
      "Ġekspertiza": 5281,
      "savv": 5282,
      "shiy": 5283,
      "Ġtayan": 5284,
      "ĠFi": 5285,
      "Ġnihoyat": 5286,
      "yapman": 5287,
      "Ġrahbarining": 5288,
      "Ġholatga": 5289,
      "Ġaloqalarni": 5290,
      "Ġyashil": 5291,
      "qaldiroq": 5292,
      "Ġhujumga": 5293,
      "Ġtasdiqlangan": 5294,
      "ĠKeyingi": 5295,
      "Ġmaslahatchisi": 5296,
      "PSJ": 5297,
      "Ġben": 5298,
      "maqaldiroq": 5299,
      "yam": 5300,
      "Ġtani": 5301,
      "ĠMana": 5302,
      "ĠLeo": 5303,
      "Ġkiritgan": 5304,
      "Ġichimlik": 5305,
      "Ġnimalar": 5306,
      "ĠNiderlandiya": 5307,
      "Ġqal": 5308,
      "ĠÃµlimi": 5309,
      "yida": 5310,
      "Ġnogiron": 5311,
      "Ġistalgan": 5312,
      "Ġidoralari": 5313,
      "tlarni": 5314,
      "Ġbyuro": 5315,
      "Ġoke": 5316,
      "Ġchin": 5317,
      "lashishi": 5318,
      "Ġzid": 5319,
      "Ġtanishi": 5320,
      "ĠMus": 5321,
      "ĠYan": 5322,
      "Ġhaqiqat": 5323,
      "Ġdoir": 5324,
      "Ġsekin": 5325,
      "atr": 5326,
      "ĠSar": 5327,
      "Ġqolgani": 5328,
      "Ġintegratsiya": 5329,
      "Ġnuf": 5330,
      "brÃµ": 5331,
      "Ġmedal": 5332,
      "Ġtushirish": 5333,
      "Ġochilgan": 5334,
      "Ġpenal": 5335,
      "Ġmuqa": 5336,
      "Ġaylanadi": 5337,
      "ĠPoli": 5338,
      "ĠJin": 5339,
      "Ġtushirilgan": 5340,
      "Ġmuxlis": 5341,
      "ĠNashr": 5342,
      "kul": 5343,
      "urat": 5344,
      "nim": 5345,
      "Ġzaif": 5346,
      "Ġodamlarning": 5347,
      "rilganini": 5348,
      "Ġrossiyaliklar": 5349,
      "Ġhukmron": 5350,
      "bud": 5351,
      "oda": 5352,
      "Ġsababi": 5353,
      "ĠInson": 5354,
      "Ġyashirin": 5355,
      "TH": 5356,
      "ĠkÃµrgaz": 5357,
      "qinlik": 5358,
      "Ġkamroq": 5359,
      "Ġzavod": 5360,
      "qurun": 5361,
      "yob": 5362,
      "Ġettirish": 5363,
      "Ġtizimida": 5364,
      "Ġkorxonalar": 5365,
      "Ġkadrlar": 5366,
      "nining": 5367,
      "Ġtirik": 5368,
      "Ġvertol": 5369,
      "Ġmuassasalari": 5370,
      "ĠQish": 5371,
      "ĠqÃµnÇ§iroq": 5372,
      "rilma": 5373,
      "Ġbunda": 5374,
      "Ġittifoqi": 5375,
      "Ġjin": 5376,
      "Ġqotil": 5377,
      "Ġdviga": 5378,
      "ĠyolÇ§on": 5379,
      "yer": 5380,
      "Ġyod": 5381,
      "Ġmomaqaldiroq": 5382,
      "Ġkelgani": 5383,
      "Ġtomonlar": 5384,
      "Ġmashinasi": 5385,
      "Ġkengashining": 5386,
      "Ġfront": 5387,
      "od": 5388,
      "ĠBor": 5389,
      "Ġraqa": 5390,
      "ĠÃµzlari": 5391,
      "ĠYevropada": 5392,
      "veradi": 5393,
      "Ġhimoyachi": 5394,
      "op": 5395,
      "Ġtovarlar": 5396,
      "Ġinshoot": 5397,
      "sev": 5398,
      "Ġkay": 5399,
      "Ġpos": 5400,
      "ĠXerson": 5401,
      "Ġfoji": 5402,
      "Ġkamchilik": 5403,
      "Ġparlamenti": 5404,
      "kanalida": 5405,
      "Ġkirdi": 5406,
      "Ġqilishadi": 5407,
      "ĠtÃµxtatib": 5408,
      "ĠTurkiyada": 5409,
      "Ġvazifasi": 5410,
      "Ġbozorida": 5411,
      "ĠrÃµyxatiga": 5412,
      "Ġislohotlar": 5413,
      "AA": 5414,
      "ramiz": 5415,
      "rishini": 5416,
      "ĠQonunchilik": 5417,
      "ubernat": 5418,
      "Ġboshpana": 5419,
      "Ġyozib": 5420,
      "ĠÃķyin": 5421,
      "udud": 5422,
      "Ġemasligi": 5423,
      "Ġxususiya": 5424,
      "Ġyondash": 5425,
      "Ġmexanizm": 5426,
      "Ġdengi": 5427,
      "ĠyÃµqligini": 5428,
      "ĠkambaÇ§al": 5429,
      "Ġnamuna": 5430,
      "ĠHay": 5431,
      "sand": 5432,
      "Ġkonferensiya": 5433,
      "xob": 5434,
      "Ġzir": 5435,
      "ras": 5436,
      "Ġsmart": 5437,
      "Ġkechik": 5438,
      "Ġpensiya": 5439,
      "bora": 5440,
      "Ġsavolga": 5441,
      "Ġhududidan": 5442,
      "Ġtabiat": 5443,
      "Ġsuhbatlashdi": 5444,
      "yeva": 5445,
      "Ġyopiq": 5446,
      "Ġkva": 5447,
      "rad": 5448,
      "Ġsektorida": 5449,
      "diyot": 5450,
      "ĠTan": 5451,
      "ĠOdam": 5452,
      "Ġimpor": 5453,
      "Ġjoyga": 5454,
      "Ġxotira": 5455,
      "Ġoqibatlari": 5456,
      "Ġqatnashgan": 5457,
      "Ġtajovuz": 5458,
      "libon": 5459,
      "ĠyÃµlida": 5460,
      ");": 5461,
      "Yu": 5462,
      "lilar": 5463,
      "Ġsuver": 5464,
      "Ġbosqichda": 5465,
      "ĠFederatsiyasi": 5466,
      "Ġtashabbusi": 5467,
      "An": 5468,
      "FA": 5469,
      "Ġ55": 5470,
      "verpul": 5471,
      "ĠyoqilÇ§i": 5472,
      "Ġkal": 5473,
      "Ġsara": 5474,
      "ĠsÃµrab": 5475,
      "itter": 5476,
      "Ġtizimiga": 5477,
      "Ġvazirligiga": 5478,
      "veyt": 5479,
      "sariya": 5480,
      "ĠAynan": 5481,
      "Ġqamoqqa": 5482,
      "Ġyotqi": 5483,
      "Ġkayfi": 5484,
      "iroz": 5485,
      "ibori": 5486,
      "ĠHatto": 5487,
      "ĠGu": 5488,
      "ĠÇ¦arbiy": 5489,
      "Ġjanglar": 5490,
      "ĠBirlashgan": 5491,
      "Ġtortish": 5492,
      "Ġshundaki": 5493,
      "ĠyÃµlak": 5494,
      "Ġfoydalanib": 5495,
      "Ġviloyatlari": 5496,
      "Manchester": 5497,
      "nipro": 5498,
      "doshi": 5499,
      "zolyut": 5500,
      "ĠAlbatta": 5501,
      "Ġqamrab": 5502,
      "elin": 5503,
      "Ç§oz": 5504,
      "Ġsohi": 5505,
      "ĠÃµrmon": 5506,
      "duz": 5507,
      "Ġtezroq": 5508,
      "Ġavtoma": 5509,
      "Ġmasalasida": 5510,
      "Ġsanoati": 5511,
      "bbi": 5512,
      "Ġepi": 5513,
      "Ġkungi": 5514,
      "Ġqarin": 5515,
      "ĠOlma": 5516,
      "Ġmonit": 5517,
      "ĠilÇ§or": 5518,
      "Ġtadqiqotlar": 5519,
      "kiv": 5520,
      "Ġgen": 5521,
      "ĠJon": 5522,
      "Ġchiqishga": 5523,
      "Ġjurnalistlar": 5524,
      "selona": 5525,
      "Ġyaqinidagi": 5526,
      "Ġsafida": 5527,
      "ĠUluÇ§bek": 5528,
      "bosh": 5529,
      "ĠÇ§alla": 5530,
      "Ġuyda": 5531,
      "Tolibon": 5532,
      "hqon": 5533,
      "sidiya": 5534,
      "rang": 5535,
      "ĠBah": 5536,
      "ĠTom": 5537,
      "Ġdarhol": 5538,
      "ĠyonilÇ§i": 5539,
      "langanini": 5540,
      "lokat": 5541,
      "Ġnaq": 5542,
      "Ġinti": 5543,
      "ĠqÃµshini": 5544,
      "Ġkeltirgan": 5545,
      "Ġsovrin": 5546,
      "Ġetishicha": 5547,
      "ĠtÃµrtta": 5548,
      "Ġjoyiga": 5549,
      "Ġfederal": 5550,
      "Ġbuyu": 5551,
      "ĠShunga": 5552,
      "Ġtilida": 5553,
      "ĠDnipro": 5554,
      "Ġmobay": 5555,
      "Ġhuquqni": 5556,
      "ĠÃµrganib": 5557,
      "Ġbarobarga": 5558,
      "ĠLitva": 5559,
      "kl": 5560,
      "ual": 5561,
      "Ġprokuror": 5562,
      "Ġmuhojir": 5563,
      "Ġqad": 5564,
      "Ġrek": 5565,
      "Ġshahriga": 5566,
      "Ġoldidan": 5567,
      "Ġborasidagi": 5568,
      "Ġelchixona": 5569,
      "ĠtÃµsqinlik": 5570,
      "ilon": 5571,
      "Ġtuzish": 5572,
      "Ġkoalitsiya": 5573,
      "Ġisyon": 5574,
      "guncha": 5575,
      "Ġliniya": 5576,
      "Ġmobaynida": 5577,
      "hshat": 5578,
      "ope": 5579,
      "vaqti": 5580,
      "Ġmina": 5581,
      "lub": 5582,
      "Ġboshqalar": 5583,
      "Ġoldinga": 5584,
      "Ġaholini": 5585,
      "Ġoshadi": 5586,
      "Ġsuhbatda": 5587,
      "Ġkechqurun": 5588,
      "ĠqÃµzÇ§atilgan": 5589,
      "tse": 5590,
      "diri": 5591,
      "kidlanishicha": 5592,
      "Ġbuyum": 5593,
      "Ġsamolyotlar": 5594,
      "ĠIIV": 5595,
      "Ġrusumli": 5596,
      "Ġjanub": 5597,
      "ĠChempi": 5598,
      "Ġuchuvchisiz": 5599,
      "pen": 5600,
      "Ġfax": 5601,
      "ĠTurkiyaning": 5602,
      "Ġimkoniyatlar": 5603,
      "ĠbaÇ§ishlangan": 5604,
      "ĠtÃµrtinchi": 5605,
      "Ġtov": 5606,
      "ĠShveyt": 5607,
      "ĠÃµtkazadi": 5608,
      "Ġboshqarma": 5609,
      "Ġtarqaldi": 5610,
      "ĠAmerikaning": 5611,
      "2022": 5612,
      "Ġshifoxonaga": 5613,
      "final": 5614,
      "ila": 5615,
      "stona": 5616,
      "Ġtepa": 5617,
      "Ġasoschisi": 5618,
      "Ġoilaviy": 5619,
      "Ġnashriga": 5620,
      "cho": 5621,
      "Ġmuta": 5622,
      "Ġqilinib": 5623,
      "ĠKX": 5624,
      "Ġaytiladi": 5625,
      "Ġiqtisod": 5626,
      "ĠNima": 5627,
      "Ġnarxlar": 5628,
      "savvur": 5629,
      "Ġtril": 5630,
      "gini": 5631,
      "qida": 5632,
      "ĠGap": 5633,
      "Ġ600": 5634,
      "Ġekst": 5635,
      "Ġmuhandi": 5636,
      "Ġulgur": 5637,
      "90": 5638,
      "Ġ38": 5639,
      "kidlaydi": 5640,
      "Ġbolalarni": 5641,
      "Ġqiyinchilik": 5642,
      "Ġziddi": 5643,
      "Ġfoto": 5644,
      "ĠSoÇ§liqni": 5645,
      "vay": 5646,
      "Ġorzu": 5647,
      "Ġqaytib": 5648,
      "ĠCha": 5649,
      "ĠbÃµlmadi": 5650,
      "Ġhujumchi": 5651,
      "Ġhujjatlarni": 5652,
      "Ġfarmoni": 5653,
      "entagon": 5654,
      "Ġlavozimidan": 5655,
      "Ġjosus": 5656,
      "fan": 5657,
      "let": 5658,
      "pik": 5659,
      "Ġviloyatidagi": 5660,
      "ĠÃµylab": 5661,
      "Ġimzolandi": 5662,
      "ĠÃµtayotgan": 5663,
      "tall": 5664,
      "Ġvaqtinchalik": 5665,
      "Ġbatafsil": 5666,
      "Ġaql": 5667,
      "ĠMat": 5668,
      "Ġdarajasida": 5669,
      "Ġkirit": 5670,
      "Ġqilishini": 5671,
      "parvarlik": 5672,
      "Ġlitsen": 5673,
      "inch": 5674,
      "roÇ§i": 5675,
      "ĠGro": 5676,
      "Ġustiga": 5677,
      "ĠAleksey": 5678,
      "ĠAslida": 5679,
      "York": 5680,
      "ani": 5681,
      "nta": 5682,
      "kini": 5683,
      "ĠkÃµchib": 5684,
      "ĠYTH": 5685,
      "Ġajratish": 5686,
      "Ġyurgan": 5687,
      "Ġjabrlangan": 5688,
      "ĠBarcha": 5689,
      "sli": 5690,
      "Ġfir": 5691,
      "yivka": 5692,
      "Ġyuzlab": 5693,
      "ĠtÃµqqiz": 5694,
      "Ġavtot": 5695,
      "Ġmutlaqo": 5696,
      "Dunyo": 5697,
      "qini": 5698,
      "Ġtashvi": 5699,
      "Ġisbot": 5700,
      "Ġtarkibiga": 5701,
      "Ġaksariyati": 5702,
      "ĠoÇ§ri": 5703,
      "rodov": 5704,
      "ĠPentagon": 5705,
      "himoya": 5706,
      "Ġegallagan": 5707,
      "Ġerishdi": 5708,
      "uliyat": 5709,
      "Liverpul": 5710,
      "Ġurgan": 5711,
      "Ġboshlash": 5712,
      "ĠVal": 5713,
      "Ġoshirildi": 5714,
      "Ġoldiga": 5715,
      "kidlab": 5716,
      "Ġfuqarolarning": 5717,
      "Ġruh": 5718,
      "ĠsoÇ§lom": 5719,
      "Ġxarajatlari": 5720,
      "Ġyollanma": 5721,
      "DR": 5722,
      "dil": 5723,
      "Ġstar": 5724,
      "Ġmaosh": 5725,
      "Ġpol": 5726,
      "Ġhamkas": 5727,
      "rakt": 5728,
      "qarshi": 5729,
      "entina": 5730,
      "Ġgumanitar": 5731,
      "ĠXarkiv": 5732,
      "Be": 5733,
      "Ãµsh": 5734,
      "tifikatsiya": 5735,
      "Ġ2030": 5736,
      "Ġmasji": 5737,
      "Ġushlangan": 5738,
      "Ġqiziqish": 5739,
      "Ġmening": 5740,
      "Ġfoizgacha": 5741,
      "ĠKeyinroq": 5742,
      "ologiya": 5743,
      "rativ": 5744,
      "ĠUsmon": 5745,
      "Ġreak": 5746,
      "tanbul": 5747,
      "Ġsaytida": 5748,
      "Ġtakliflar": 5749,
      "Ġsektor": 5750,
      "ĠLeopard": 5751,
      "illa": 5752,
      "ĠQK": 5753,
      "ĠÃµyinlari": 5754,
      "Ġbinosi": 5755,
      "Ġsanksiyalarni": 5756,
      "Ġmaydonda": 5757,
      "60": 5758,
      "gle": 5759,
      "lidagi": 5760,
      "Ġson": 5761,
      "ĠBank": 5762,
      "Ġ2025": 5763,
      "Ġtopildi": 5764,
      "Ġfaqatgina": 5765,
      "bok": 5766,
      "ĠMask": 5767,
      "xonada": 5768,
      "Ġagentlik": 5769,
      "witter": 5770,
      "Ġmamlakatdagi": 5771,
      "ĠIstanbul": 5772,
      "Ġshaharda": 5773,
      "Ġhuquqlarini": 5774,
      "Ġishini": 5775,
      "ĠNega": 5776,
      "ĠMahal": 5777,
      "irof": 5778,
      "Ġtakomillashtirish": 5779,
      "ĠJinping": 5780,
      "ĠShveytsariya": 5781,
      "GB": 5782,
      "rilmagan": 5783,
      "ydigan": 5784,
      "Ġbergani": 5785,
      "Ġqilinadigan": 5786,
      "Ġprofessional": 5787,
      "Si": 5788,
      "shimcha": 5789,
      "Ġoshirib": 5790,
      "Ġ78": 5791,
      "ĠbÃµlmasligi": 5792,
      "ĠzÃµr": 5793,
      "Ġrahbarlik": 5794,
      "zildi": 5795,
      "Ġ195": 5796,
      "Ġvaziyatga": 5797,
      "Ġhuquqini": 5798,
      "shahar": 5799,
      "ĠbÃµlar": 5800,
      "kir": 5801,
      "soat": 5802,
      "ĠtÃµl": 5803,
      "eter": 5804,
      "ĠbÃµlsak": 5805,
      "Ġmilliondan": 5806,
      "Ġsubsidiya": 5807,
      "qÃµr": 5808,
      "Ġshtab": 5809,
      "Ġchar": 5810,
      "Ġoshirgan": 5811,
      "Ġavtomo": 5812,
      "Ġyaqinda": 5813,
      "Ġshoxob": 5814,
      "Ġkelgusi": 5815,
      "Ġbomba": 5816,
      "Ġtrillion": 5817,
      "\")": 5818,
      "Ġtab": 5819,
      "bass": 5820,
      "Ġegasi": 5821,
      "Ġharaka": 5822,
      "ĠtÃµxtab": 5823,
      "Ġtarmoqlari": 5824,
      "tses": 5825,
      "rod": 5826,
      "ĠFV": 5827,
      "ĠLat": 5828,
      "ĠsÃµmni": 5829,
      "Ġxizmatining": 5830,
      "doshlari": 5831,
      "ĠyiÇ§ilishida": 5832,
      "ĠBloom": 5833,
      "Ġmini": 5834,
      "Ġoyiga": 5835,
      "Ġkishiga": 5836,
      "ĠHodisa": 5837,
      "Ġnarsalar": 5838,
      "Ġmunosabatlarni": 5839,
      "format": 5840,
      "Ġhikoya": 5841,
      "Ġtaga": 5842,
      "ĠÃķzi": 5843,
      "ĠGo": 5844,
      "xonaga": 5845,
      "Ġtaqsim": 5846,
      "Ġeksporti": 5847,
      "ĠmablaÇ§lari": 5848,
      "Ġtarqatish": 5849,
      "ĠAbdura": 5850,
      "xen": 5851,
      "Ġkelma": 5852,
      "Ġtobora": 5853,
      "Ġfoydasiga": 5854,
      "ngizga": 5855,
      "ĠPrigojinning": 5856,
      "zolyutsiya": 5857,
      "Ġavtomashina": 5858,
      "ald": 5859,
      "tanya": 5860,
      "Ġhisoblash": 5861,
      "Ġshaxslarning": 5862,
      "Ġtaqiqlangan": 5863,
      "ĠQodirov": 5864,
      "Ġziddiyat": 5865,
      "gorod": 5866,
      "slik": 5867,
      "Ġorol": 5868,
      "ĠMoliya": 5869,
      "ĠÃµtkazishga": 5870,
      "Ġtozalash": 5871,
      "ffus": 5872,
      "Ġlab": 5873,
      "onat": 5874,
      "Ġularda": 5875,
      "Ġmulo": 5876,
      "Ġshanba": 5877,
      "ĠRossiyadagi": 5878,
      "Ġ44": 5879,
      "Ġsahifa": 5880,
      "33": 5881,
      "rilish": 5882,
      "Ġof": 5883,
      "ĠGar": 5884,
      "Ġturda": 5885,
      "ĠCo": 5886,
      "Ġlogistika": 5887,
      "urilish": 5888,
      "Ġvazirining": 5889,
      "Ġchoralarini": 5890,
      "ĠKari": 5891,
      "linib": 5892,
      "Ġegalladi": 5893,
      "Ġaytgandi": 5894,
      "Barselona": 5895,
      "suski": 5896,
      "TE": 5897,
      "az": 5898,
      "ĠShol": 5899,
      "Ġhududidagi": 5900,
      "Ġelchixonasi": 5901,
      "qulay": 5902,
      "pur": 5903,
      "Ġoyoq": 5904,
      "ĠobrÃµ": 5905,
      "Ġvaz": 5906,
      "Ġbermadi": 5907,
      "tadigan": 5908,
      "Ġtayyorlangan": 5909,
      "ĠTabi": 5910,
      "ĠQozoÇ§istonda": 5911,
      "Ġekipa": 5912,
      "ĠqishloÇ§i": 5913,
      "ftga": 5914,
      "huq": 5915,
      "baho": 5916,
      "uvga": 5917,
      "ĠPort": 5918,
      "ĠXu": 5919,
      "ĠGES": 5920,
      "Ġhisoblangan": 5921,
      "Ġqutqa": 5922,
      "ĠSov": 5923,
      "ĠTwitter": 5924,
      "Ġortda": 5925,
      "Ġqurollar": 5926,
      "Ġishonchi": 5927,
      "ĠÃµyini": 5928,
      "Ġgeosiyosiy": 5929,
      "Ġmonitori": 5930,
      "Ġdahshat": 5931,
      "Ġteja": 5932,
      "mizdan": 5933,
      "ĠPoy": 5934,
      "ĠyÃµqot": 5935,
      "Ġyetakchilari": 5936,
      "ferend": 5937,
      "Ġprokurori": 5938,
      "Ġhokimiyati": 5939,
      "Ġbrigada": 5940,
      "ferendum": 5941,
      "tuvchilar": 5942,
      "biriga": 5943,
      "Ġbuzish": 5944,
      "Ġvoyaga": 5945,
      "Ġmuvaffaqiyatsiz": 5946,
      "Ġbosqichma": 5947,
      "tadbirlari": 5948,
      "liklarini": 5949,
      "Ġpsi": 5950,
      "ĠKGB": 5951,
      "Ġqilyapti": 5952,
      "Ġegalik": 5953,
      "Ġguruhlar": 5954,
      "ĠNetanya": 5955,
      "Ġchiqardi": 5956,
      "ĠSta": 5957,
      "Ġshov": 5958,
      "vosti": 5959,
      "Ġchipta": 5960,
      "Ġyaralangan": 5961,
      "Ġfondi": 5962,
      "Ġpandemi": 5963,
      "ĠAndrey": 5964,
      "ci": 5965,
      "dara": 5966,
      "ligining": 5967,
      "Ġoshiq": 5968,
      "Ġnuqtayi": 5969,
      "kada": 5970,
      "ĠButun": 5971,
      "Ġtilini": 5972,
      "Ġbergandi": 5973,
      "Ġshahrining": 5974,
      "Ġmartabali": 5975,
      "Ġostiga": 5976,
      "Ġkompleks": 5977,
      "ĠchiziÇ§i": 5978,
      "HM": 5979,
      "ĠUy": 5980,
      "Ġqilinayotgan": 5981,
      "nomani": 5982,
      "Ġdarajasini": 5983,
      "Ġetgani": 5984,
      "Ġhisobni": 5985,
      "Ġtezda": 5986,
      "2024": 5987,
      "ĠbÃµlimda": 5988,
      "Ġmusulmon": 5989,
      "drat": 5990,
      "qÃµ": 5991,
      "ningiz": 5992,
      "tari": 5993,
      "zit": 5994,
      "ĠIqtisodiy": 5995,
      "tartib": 5996,
      "Ġjinoyatlar": 5997,
      "Ġhajmini": 5998,
      "Ġafzal": 5999,
      "Ġqochqin": 6000,
      "ĠBloomberg": 6001,
      "Mi": 6002,
      "Ãµst": 6003,
      "chin": 6004,
      "ĠUm": 6005,
      "iloyat": 6006,
      "Ġerishgan": 6007,
      "ĠboshlanÇ§ich": 6008,
      "ĠkÃµpaytirish": 6009,
      "ĠGollar": 6010,
      "ĠAPL": 6011,
      "uga": 6012,
      "ĠSav": 6013,
      "Ġtashlash": 6014,
      "Ġqas": 6015,
      "Ġgubernat": 6016,
      "Ġnoqulay": 6017,
      "Ġ65": 6018,
      "Ġzahar": 6019,
      "Ġyakuniga": 6020,
      "Ġmarkazlari": 6021,
      "Ġogohlantirish": 6022,
      "ĠMajlis": 6023,
      "Te": 6024,
      "ĠYil": 6025,
      "Ġaytildi": 6026,
      "ĠyÃµllanma": 6027,
      "eys": 6028,
      "Ġzirhli": 6029,
      "21": 6030,
      "saddi": 6031,
      "Ġqilmaydi": 6032,
      "Ġqaytishi": 6033,
      "vegiya": 6034,
      "uzli": 6035,
      "Ġshartnomasi": 6036,
      "ĠAyrim": 6037,
      "ĠÃµsmir": 6038,
      "ĠIqtisodiyot": 6039,
      "zara": 6040,
      "Ġavariya": 6041,
      "Ġmagist": 6042,
      "ĠBraziliya": 6043,
      "Ġagre": 6044,
      "Ġasar": 6045,
      "Ġmunosabatda": 6046,
      "sena": 6047,
      "sinf": 6048,
      "Ġnarxlari": 6049,
      "Ġquvur": 6050,
      "Ġchiqaradi": 6051,
      "Ġhujumlar": 6052,
      "Ġqiymat": 6053,
      "Ġmutaxassislari": 6054,
      "Ġehtimoliy": 6055,
      "kashenko": 6056,
      "Ne": 6057,
      "uto": 6058,
      "latilgan": 6059,
      "Ġbiti": 6060,
      "ĠArab": 6061,
      "Ġchiqil": 6062,
      "Ġketgani": 6063,
      "Ġpasayishi": 6064,
      "Ġbuzgan": 6065,
      "ddam": 6066,
      "ĠÃµtishga": 6067,
      "Ġdala": 6068,
      "ĠShtat": 6069,
      "Ġuyga": 6070,
      "Ġuchish": 6071,
      "ĠIIBB": 6072,
      "Ġkonser": 6073,
      "Ġ2000": 6074,
      "Ġsohasi": 6075,
      "Ġmaktabi": 6076,
      "Ġfoydalanishni": 6077,
      "Ġushlandi": 6078,
      "ĠrÃµyxati": 6079,
      "Vt": 6080,
      "fil": 6081,
      "sek": 6082,
      "ays": 6083,
      "ĠOldi": 6084,
      "Ġdavlatlarning": 6085,
      "lingan": 6086,
      "Ġbudjeti": 6087,
      "Ġzimmasiga": 6088,
      "mada": 6089,
      "Ġyul": 6090,
      "Ġder": 6091,
      "niqli": 6092,
      "Ġxolos": 6093,
      "Ġchap": 6094,
      "Ġochishni": 6095,
      "Ġqarorini": 6096,
      "Ġreyting": 6097,
      "anaviy": 6098,
      "Ġsharoitida": 6099,
      "Ġtahrir": 6100,
      "chining": 6101,
      "erlar": 6102,
      "Ġshun": 6103,
      "lumotni": 6104,
      "Ġhisobda": 6105,
      "Ġyerdan": 6106,
      "Ye": 6107,
      "transport": 6108,
      "ĠkÃµrishi": 6109,
      "Ġchiziq": 6110,
      "ĠToshkentdagi": 6111,
      "Ġkuzatib": 6112,
      "ĠmablaÇ§lar": 6113,
      "ĠSiti": 6114,
      "Ġsheriklik": 6115,
      "Ġanjumanida": 6116,
      "Ġvertolyot": 6117,
      "ruq": 6118,
      "xÃµjayev": 6119,
      "Ġifo": 6120,
      "log": 6121,
      "ĠSuv": 6122,
      "ĠSoliq": 6123,
      "Ġchiqiladi": 6124,
      "Ġqarama": 6125,
      "Ġkengayti": 6126,
      "ĠHAMASning": 6127,
      "Ġtamoyil": 6128,
      "ĠMahkamasining": 6129,
      "Fa": 6130,
      "Ġaudi": 6131,
      "ĠKri": 6132,
      "Ġqilmoqchi": 6133,
      "Ġkoloniya": 6134,
      "Ġyarimhimoya": 6135,
      "qÃµrÇ§on": 6136,
      "38": 6137,
      "ms": 6138,
      "yak": 6139,
      "Ġyozilgan": 6140,
      "Ġsari": 6141,
      "ĠqoÇ§oz": 6142,
      "Ġmamlakatni": 6143,
      "ĠyÃµllar": 6144,
      "Ġxatti": 6145,
      "Ġoperatsiyasi": 6146,
      "Ġyetarlicha": 6147,
      "Ġpoyezd": 6148,
      "ĠHisob": 6149,
      "Ġkvadrat": 6150,
      "Yo": 6151,
      "Ġakt": 6152,
      "Ġxur": 6153,
      "Ġkiritildi": 6154,
      "olog": 6155,
      "sincha": 6156,
      "Ġamaliyoti": 6157,
      "Ġmaydonida": 6158,
      "ĠFederatsiya": 6159,
      "Ġmarosimi": 6160,
      "ĠLukashenko": 6161,
      "kim": 6162,
      "Ġsaf": 6163,
      "ĠbÃµlganda": 6164,
      "ĠGi": 6165,
      "Ġqisman": 6166,
      "Ġsohada": 6167,
      "Ġuchrashdi": 6168,
      "ĠMixa": 6169,
      "Ġpanel": 6170,
      "Ġstadi": 6171,
      "lansa": 6172,
      "ĠMotor": 6173,
      "ovka": 6174,
      "Ġ48": 6175,
      "Ġarman": 6176,
      "Ġmunosib": 6177,
      "Ġtasdiqlandi": 6178,
      "Ġkiyim": 6179,
      "Ġversiya": 6180,
      "ed": 6181,
      "gnit": 6182,
      "Ġbun": 6183,
      "roh": 6184,
      "Ġqarshilik": 6185,
      "Ġkeyinroq": 6186,
      "Ġoydan": 6187,
      "Ġimkoniyatlari": 6188,
      "ĠAholi": 6189,
      "gentina": 6190,
      "lami": 6191,
      "niki": 6192,
      "gich": 6193,
      "filak": 6194,
      "Ġtayyorladi": 6195,
      "Ġqilaman": 6196,
      "ĠyiÇ§ilishda": 6197,
      "Bavariya": 6198,
      "Ġovo": 6199,
      "Ġada": 6200,
      "Ġmuqo": 6201,
      "ensi": 6202,
      "Ġhusiy": 6203,
      "radigan": 6204,
      "Ġombori": 6205,
      "tilishini": 6206,
      "xtiyor": 6207,
      "ransuz": 6208,
      "Ġreklama": 6209,
      "Agar": 6210,
      "oat": 6211,
      "vol": 6212,
      "ĠqÃµyishi": 6213,
      "Ġmigratsiya": 6214,
      "Ġavlod": 6215,
      "sekund": 6216,
      "yuter": 6217,
      "Ġinso": 6218,
      "Ġdavlatlarda": 6219,
      "Ġetuvchi": 6220,
      "ĠyÃµllari": 6221,
      "Ġbelgilash": 6222,
      "Ġyaxshiroq": 6223,
      "ĠQishloq": 6224,
      "Ġlitsenziya": 6225,
      "Ġlaborat": 6226,
      "Ġtun": 6227,
      "gidromet": 6228,
      "Ġishlaydigan": 6229,
      "Ġbolalarning": 6230,
      "Ġshaxsga": 6231,
      "ĠRespublikaning": 6232,
      "Ġyakunlari": 6233,
      "vin": 6234,
      "Ġtasavvur": 6235,
      "ĠViloyat": 6236,
      "ĠkÃµrsatishi": 6237,
      "Ġmanfaatdor": 6238,
      "ĠMakron": 6239,
      "Ġsahifasida": 6240,
      "ĠÃķrta": 6241,
      "kÃµ": 6242,
      "uni": 6243,
      "Ġzo": 6244,
      "ĠBek": 6245,
      "ĠBAA": 6246,
      "ĠÃµtgach": 6247,
      "korlik": 6248,
      "Ġboshqacha": 6249,
      "Ġqildik": 6250,
      "minist": 6251,
      "Ġfarzandi": 6252,
      "Ġtarafdori": 6253,
      "ĠAgent": 6254,
      "naqa": 6255,
      "ĠUlardan": 6256,
      "ĠFo": 6257,
      "piada": 6258,
      "Ġpasay": 6259,
      "Ġavvalo": 6260,
      "Ġdarvozabon": 6261,
      "ĠGaz": 6262,
      "Ġfojia": 6263,
      "eline": 6264,
      "ĠChempionlar": 6265,
      "mil": 6266,
      "Ġyasa": 6267,
      "vid": 6268,
      "lisher": 6269,
      "Ġuylar": 6270,
      "Ġtelekanali": 6271,
      "Ġumr": 6272,
      "Ġjihozlangan": 6273,
      "struksiya": 6274,
      "Ġminnatdor": 6275,
      "Ġnaqd": 6276,
      "ĠLatviya": 6277,
      "Ġtilga": 6278,
      "ĠNar": 6279,
      "Ġ39": 6280,
      "Ġharakatlarni": 6281,
      "Ġ2015": 6282,
      "Ġaybladi": 6283,
      "Ġmahsulotlarni": 6284,
      "Ġchorak": 6285,
      "Ġzavodi": 6286,
      "Ġquvvati": 6287,
      "DH": 6288,
      "kun": 6289,
      "kori": 6290,
      "Ġotish": 6291,
      "Ġseriya": 6292,
      "ĠYÃµ": 6293,
      "ĠFav": 6294,
      "lashtirilishi": 6295,
      "Ġtadbirda": 6296,
      "Ġcheklash": 6297,
      "Ġmunosabatlari": 6298,
      "Ġtopshirildi": 6299,
      "ĠTez": 6300,
      "Ġdiplomat": 6301,
      "senariy": 6302,
      "yashil": 6303,
      "Ġayi": 6304,
      "ĠÃµsim": 6305,
      "Ġqochi": 6306,
      "Ġhisobida": 6307,
      "Ġfoydalana": 6308,
      "Ġtayyorligini": 6309,
      "lastik": 6310,
      "Ġballi": 6311,
      "Ġtartibini": 6312,
      "Ġahvoli": 6313,
      "pon": 6314,
      "Ġfransuz": 6315,
      "lashtirdi": 6316,
      "Ġtutadi": 6317,
      "Ġsig": 6318,
      "Ġdavlatlarining": 6319,
      "Ġikkala": 6320,
      "ĠÃµqitish": 6321,
      "Ġgiyoh": 6322,
      "ulyat": 6323,
      "Ġqola": 6324,
      "ĠqÃµshilish": 6325,
      "Ġyanva": 6326,
      "ĠMahalliy": 6327,
      "Ġbiladi": 6328,
      "Ġkelmaydi": 6329,
      "Ġberishda": 6330,
      "Ġtaqchil": 6331,
      "ĠBMTning": 6332,
      "Ġpiyodalar": 6333,
      "Ġshoxobcha": 6334,
      "Ġot": 6335,
      "Ġkoman": 6336,
      "Ġsaylovi": 6337,
      "Ġsifati": 6338,
      "Ġavvaliga": 6339,
      "Ġnufuzli": 6340,
      "maga": 6341,
      "Ġklini": 6342,
      "ĠSal": 6343,
      "Ġishlayotgan": 6344,
      "Ġreye": 6345,
      "Ġharakatlanish": 6346,
      "Ġketmoqda": 6347,
      "Ġdiplomati": 6348,
      "Ġsammiti": 6349,
      "Ġsuratga": 6350,
      "ĠKengashi": 6351,
      "kol": 6352,
      "lich": 6353,
      "ovga": 6354,
      "vatsion": 6355,
      "Ġbirik": 6356,
      "ĠyiÇ§ish": 6357,
      "Ġshaxsan": 6358,
      "uksion": 6359,
      "Ġrejalashtirmoqda": 6360,
      "Ç§da": 6361,
      "Ġborilgan": 6362,
      "Ġ46": 6363,
      "sant": 6364,
      "Ġfaoliyatiga": 6365,
      "Ġhaftada": 6366,
      "ĠDonald": 6367,
      "rali": 6368,
      "Ġshtabi": 6369,
      "ĠAlisher": 6370,
      "Ġrezolyutsiya": 6371,
      "yansk": 6372,
      "Ġqatorida": 6373,
      "ĠMixail": 6374,
      "Ġjurnali": 6375,
      "ĠSerge": 6376,
      "Ġtut": 6377,
      "qarli": 6378,
      "Ġimkoniyatiga": 6379,
      "Ġdvigatel": 6380,
      "bri": 6381,
      "bilar": 6382,
      "xiya": 6383,
      "lashtiriladi": 6384,
      "ĠBizning": 6385,
      "Ġkorxonasi": 6386,
      "Ġelektromobil": 6387,
      "Ġokru": 6388,
      "Ġsutka": 6389,
      "Ġkvartira": 6390,
      "Ġbenzin": 6391,
      "29": 6392,
      "Ho": 6393,
      "drid": 6394,
      "ĠSamarqandda": 6395,
      "ĠFavqulodda": 6396,
      "Ġgiyohvan": 6397,
      "rav": 6398,
      "Ġqilishgan": 6399,
      "ĠkÃµradi": 6400,
      "xonalar": 6401,
      "ĠYaman": 6402,
      "atsiyasi": 6403,
      "Ġalmashtirish": 6404,
      "Ġtransporti": 6405,
      "co": 6406,
      "ishiy": 6407,
      "Ġishora": 6408,
      "ĠqÃµyadi": 6409,
      "Ġ57": 6410,
      "Ġyoshgacha": 6411,
      "Ġkorxonalari": 6412,
      "Ġchetlab": 6413,
      "Ġxursand": 6414,
      "shid": 6415,
      "Ġbema": 6416,
      "ĠXÃµsh": 6417,
      "Ġbermagan": 6418,
      "Ġtopil": 6419,
      "eterburg": 6420,
      "Ġssenariy": 6421,
      "ĠAyol": 6422,
      "Ġmisol": 6423,
      "shayotgan": 6424,
      "rantlar": 6425,
      "Ġtalablariga": 6426,
      "Ġrivojlantirishga": 6427,
      "Ġchiqargan": 6428,
      "bosar": 6429,
      "rus": 6430,
      "uso": 6431,
      "lanyapti": 6432,
      "Ç§un": 6433,
      "des": 6434,
      "lamchi": 6435,
      "ĠbÃµlishga": 6436,
      "ĠAyniqsa": 6437,
      "Ġaytganda": 6438,
      "Ġvayr": 6439,
      "ĠraÇ§batlantirish": 6440,
      "tlarini": 6441,
      "Ġana": 6442,
      "ĠSiyo": 6443,
      "Ġyonib": 6444,
      "Ġaylanishi": 6445,
      "Ġqilishdan": 6446,
      "Ġtezligi": 6447,
      "Ġalmashin": 6448,
      "Ġsavollar": 6449,
      "Ġmajlisida": 6450,
      "lashgani": 6451,
      "ĠTransport": 6452,
      "ĠQud": 6453,
      "omu": 6454,
      "ĠFuqaro": 6455,
      "Ġyuqoridagi": 6456,
      "Ġkimga": 6457,
      "Ġmashinalari": 6458,
      "Ġbazaviy": 6459,
      "Ġnomidagi": 6460,
      "Ġkutmoqda": 6461,
      "tartibot": 6462,
      "ĠSavdo": 6463,
      "32": 6464,
      "etasi": 6465,
      "shoq": 6466,
      "Ġomon": 6467,
      "Ġofat": 6468,
      "Ġhakam": 6469,
      "ĠBen": 6470,
      "voni": 6471,
      "ĠKol": 6472,
      "ĠIm": 6473,
      "Ġvositalarini": 6474,
      "Ġshartnomalar": 6475,
      "Ġerishilgan": 6476,
      "Ġbeshta": 6477,
      "Ġonasi": 6478,
      "qizlar": 6479,
      "Ġqadriyat": 6480,
      "poli": 6481,
      "Ġkemasi": 6482,
      "ĠStatistika": 6483,
      "ommunikatsiya": 6484,
      "ĠOxirgi": 6485,
      "bardi": 6486,
      "Ġhuju": 6487,
      "ĠÃµrinbosar": 6488,
      "Ġqonunni": 6489,
      "Ġquyidagicha": 6490,
      "Ġinvestitsiyalar": 6491,
      "ĠStol": 6492,
      "Ġshikastlangan": 6493,
      "Ġnazaridan": 6494,
      "komissiya": 6495,
      "book": 6496,
      "noda": 6497,
      "fof": 6498,
      "Ġyerdagi": 6499,
      "Ġyaxlit": 6500,
      "Ġislo": 6501,
      "ĠMutaxassis": 6502,
      "Ġxodimlarining": 6503,
      "Ġtexnologik": 6504,
      "Ġbildirish": 6505,
      "ellyatsiya": 6506,
      "Ġtanaffus": 6507,
      "Ġaksariyat": 6508,
      "ĠMDH": 6509,
      "Ġturishi": 6510,
      "ĠOra": 6511,
      "itoyda": 6512,
      "Ġvaqtdan": 6513,
      "Ġbinolar": 6514,
      "ĠKongress": 6515,
      "timiz": 6516,
      "mashyo": 6517,
      "stagram": 6518,
      "Ġgazetasi": 6519,
      "Ġhollarda": 6520,
      "Ġochib": 6521,
      "Ġkimdir": 6522,
      "Ġpost": 6523,
      "boyev": 6524,
      "Ġfarqli": 6525,
      "ĠEkologiya": 6526,
      "Ġop": 6527,
      "Ġtaniqli": 6528,
      "ĠAm": 6529,
      "Ġavj": 6530,
      "neftga": 6531,
      "ĠYiÇ§ilish": 6532,
      "ĠYon": 6533,
      "Ġjarayonini": 6534,
      "Ġobektlari": 6535,
      "Ġetilgani": 6536,
      "tenberg": 6537,
      "Ġjadva": 6538,
      "Ġsmartfon": 6539,
      "ĠShols": 6540,
      "Pa": 6541,
      "Ġlif": 6542,
      "lasi": 6543,
      "Ġgvar": 6544,
      "ĠYevrokomissiya": 6545,
      "Ġprezidentning": 6546,
      "Ġfotos": 6547,
      "hil": 6548,
      "qima": 6549,
      "ĠAmir": 6550,
      "Ġ120": 6551,
      "Ġkubogi": 6552,
      "Ġayta": 6553,
      "ullar": 6554,
      "ote": 6555,
      "ngida": 6556,
      "ĠMari": 6557,
      "kuni": 6558,
      "Ġ47": 6559,
      "Ġyoshda": 6560,
      "ĠsÃµzlarini": 6561,
      "Ġatom": 6562,
      "Ġtexnikalar": 6563,
      "ĠqÃµshilgan": 6564,
      "ĠPoytax": 6565,
      "rasi": 6566,
      "raman": 6567,
      "ĠPi": 6568,
      "Ġgarovga": 6569,
      "Ġisroillik": 6570,
      "Ġqizil": 6571,
      "latlar": 6572,
      "ĠDil": 6573,
      "ĠVe": 6574,
      "elekt": 6575,
      "movchilik": 6576,
      "Ġeslat": 6577,
      "Ġpaytlarda": 6578,
      "Ġdizay": 6579,
      "Ġiltimo": 6580,
      "Ġekspor": 6581,
      "Ġtopib": 6582,
      "Ġekologiya": 6583,
      "Ġifoda": 6584,
      "sad": 6585,
      "ĠkÃµchasi": 6586,
      "pak": 6587,
      "ĠJurnalist": 6588,
      "shab": 6589,
      "Ġ56": 6590,
      "ĠqÃµllani": 6591,
      "Ġxizmatlarini": 6592,
      "Ġapparat": 6593,
      "Ãķzgidromet": 6594,
      "Ġyetishtirish": 6595,
      "Ġjabrlanuvchi": 6596,
      "Ġpenalti": 6597,
      "AN": 6598,
      "latish": 6599,
      "Ġuri": 6600,
      "ĠkÃµrinish": 6601,
      "Ġishtirokchilari": 6602,
      "ĠyÃµnalishlari": 6603,
      "ChL": 6604,
      "Ġarmiyasining": 6605,
      "Ġdeputatlari": 6606,
      "ĠÃµlcha": 6607,
      "neftgaz": 6608,
      "39": 6609,
      "enit": 6610,
      "Ġtalon": 6611,
      "eksi": 6612,
      "Ġhojat": 6613,
      "ĠXitoyda": 6614,
      "Ġturk": 6615,
      "Ġolingani": 6616,
      "Ġboradagi": 6617,
      "larimizga": 6618,
      "Ġyashab": 6619,
      "Ġagentligining": 6620,
      "Ġmiqdordagi": 6621,
      "Ġresurslari": 6622,
      "skaya": 6623,
      "qqol": 6624,
      "obod": 6625,
      "Ġ*": 6626,
      "linadi": 6627,
      "lolat": 6628,
      "vili": 6629,
      "ĠOsiyoda": 6630,
      "ĠHozircha": 6631,
      "Ġoxiriga": 6632,
      "ĠBelgorod": 6633,
      "daqiqada": 6634,
      "Ġdengizi": 6635,
      "uqiy": 6636,
      "nam": 6637,
      "Ġqilsa": 6638,
      "ĠÃµrto": 6639,
      "Ġoshirishi": 6640,
      "diyev": 6641,
      "Ġchaqa": 6642,
      "Ġsohalarda": 6643,
      "Ġdastlab": 6644,
      "Ġbuyruq": 6645,
      "Ġjazosiga": 6646,
      "Ġsektoridagi": 6647,
      "ĠqÃµzÇ§atilib": 6648,
      "Ġbirorta": 6649,
      "otsi": 6650,
      "ĠVar": 6651,
      "Ġkonsul": 6652,
      "Ġrivojlangan": 6653,
      "Ġjangchilari": 6654,
      "Ġkuzatish": 6655,
      "Ġajratiladi": 6656,
      "Ġrazvedkasi": 6657,
      "shinchi": 6658,
      "ĠTayvan": 6659,
      "Tur": 6660,
      "eral": 6661,
      "lita": 6662,
      "maganini": 6663,
      "ĠBal": 6664,
      "sotsi": 6665,
      "ĠXuddi": 6666,
      "masdi": 6667,
      "ĠJÃµra": 6668,
      "Ġchegi": 6669,
      "Ġmuddatda": 6670,
      "Ġnafaqa": 6671,
      "stansiya": 6672,
      "Ġqimmatbaho": 6673,
      "Ġuyiga": 6674,
      "ĠqÃµmondonligi": 6675,
      "Ġomillar": 6676,
      "texnika": 6677,
      "Ġmuqobil": 6678,
      "26": 6679,
      "rigi": 6680,
      "Ġyuvi": 6681,
      "Ġotasi": 6682,
      "ĠqÃµya": 6683,
      "Ġsifatini": 6684,
      "Ġfarmon": 6685,
      "Ġmintaqadagi": 6686,
      "ĠkÃµrinadi": 6687,
      "Ġinnovatsiyalar": 6688,
      "TB": 6689,
      "aga": 6690,
      "Ġdalolat": 6691,
      "Ġmamlakatlarda": 6692,
      "Ġharakatlarini": 6693,
      "Ġloyihalarini": 6694,
      "ĠInve": 6695,
      "ĠoraliÇ§i": 6696,
      "ĠbÃµlinma": 6697,
      "Ġnorma": 6698,
      "sitasi": 6699,
      "ĠÃµtir": 6700,
      "Ġdehqon": 6701,
      "Ġkutilayotgan": 6702,
      "Ġqilmagan": 6703,
      "kup": 6704,
      "Ġvositasi": 6705,
      "Ġyoshdan": 6706,
      "Ġrivojlanishi": 6707,
      "Ġhuquqiga": 6708,
      "hudiy": 6709,
      "Ġveb": 6710,
      "Ġdalillar": 6711,
      "mul": 6712,
      "sar": 6713,
      "ring": 6714,
      "Ġkat": 6715,
      "matsev": 6716,
      "Ġmintaqada": 6717,
      "Ġinfratuzil": 6718,
      "ĠFederal": 6719,
      "Ġmalakali": 6720,
      "ĠStoltenberg": 6721,
      "otiga": 6722,
      "last": 6723,
      "ĠAna": 6724,
      "Ġkutish": 6725,
      "rilyapti": 6726,
      "Ġchaqiruv": 6727,
      "Ġboshiga": 6728,
      "Ġtushuntirish": 6729,
      "Ġsudining": 6730,
      "ĠVazirlik": 6731,
      "virus": 6732,
      "Ġtender": 6733,
      "Ãķzbekneftgaz": 6734,
      "!\"": 6735,
      "Ġdeklar": 6736,
      "Ġsodda": 6737,
      "Ġdavlatlarga": 6738,
      "Ġqaytgan": 6739,
      "Ġmeros": 6740,
      "Ġqismiga": 6741,
      "Ġkuchayib": 6742,
      "Ġfutbolchilar": 6743,
      "ĠÇ¦azodagi": 6744,
      "Ġkelaja": 6745,
      "ĠDonbass": 6746,
      "Ġdelegatsiyasi": 6747,
      "Ġfunksiya": 6748,
      "qilo": 6749,
      "incha": 6750,
      "Ġram": 6751,
      "ĠyÃµlovchilar": 6752,
      "Ġreferendum": 6753,
      "ĠÃµrnat": 6754,
      "Ġqilinmagan": 6755,
      "Ġoshirilmoqda": 6756,
      "ĠyÃµllagan": 6757,
      "ĠsÃµmgacha": 6758,
      "Ġvaqtlarda": 6759,
      "Ġistisno": 6760,
      "ĠQarshi": 6761,
      "id": 6762,
      "nin": 6763,
      "Ġjoni": 6764,
      "Ġjanubiy": 6765,
      "ĠÃķzbekistondan": 6766,
      "Ġdunyoga": 6767,
      "qomat": 6768,
      "Ġistiqomat": 6769,
      "Ġyarmida": 6770,
      "Ġolayotgan": 6771,
      "ĠkÃµtar": 6772,
      "bob": 6773,
      "Ġsharqiy": 6774,
      "Ġmaktablar": 6775,
      "ĠBeeline": 6776,
      "Ġqiyna": 6777,
      "Ãµrinni": 6778,
      "Ġdoirasidagi": 6779,
      "Ġtirban": 6780,
      "Ha": 6781,
      "Ġesla": 6782,
      "inlashga": 6783,
      "Ġchekka": 6784,
      "Ġboshlanganini": 6785,
      "Ġjarohatlangan": 6786,
      "NN": 6787,
      "inlaydi": 6788,
      "ĠÃµsib": 6789,
      "arovon": 6790,
      "ĠShunda": 6791,
      "Ġdavriga": 6792,
      "Ġ49": 6793,
      "Ġfoydalanishi": 6794,
      "Ġvaqtning": 6795,
      "Ġimkoniyatlarini": 6796,
      "Ġtopilib": 6797,
      "ĠÃµzgartirishlar": 6798,
      "Ġtarixidagi": 6799,
      "hor": 6800,
      "lamagan": 6801,
      "nis": 6802,
      "arder": 6803,
      "ĠPat": 6804,
      "Ġbirini": 6805,
      "Ġoyna": 6806,
      "gohi": 6807,
      "Ġmarkaziga": 6808,
      "ĠRespublikasining": 6809,
      "Ġdurang": 6810,
      "ĠgÃµyoki": 6811,
      "atiga": 6812,
      "ob": 6813,
      "Ġsenat": 6814,
      "Ġyaqqol": 6815,
      "ligicha": 6816,
      "Ġkoope": 6817,
      "Ġnafardan": 6818,
      "larimizning": 6819,
      "ĠxÃµjalik": 6820,
      "Ġoperat": 6821,
      "ĠRoman": 6822,
      "Ġbayonotda": 6823,
      "ĠUzA": 6824,
      "Ġjanjal": 6825,
      "ilonzor": 6826,
      "ĠKXDR": 6827,
      "Ġdahshatli": 6828,
      "ota": 6829,
      "Ġgar": 6830,
      "Ġotib": 6831,
      "rot": 6832,
      "Ġishbilar": 6833,
      "all": 6834,
      "allu": 6835,
      "Ġaylanma": 6836,
      "Ġhov": 6837,
      "Ġprofilak": 6838,
      "ĠkÃµrsatma": 6839,
      "Ġzarbalari": 6840,
      "Ġqoidalarini": 6841,
      "ĠÃµtkazilmoqda": 6842,
      "ĠNorvegiya": 6843,
      "Ġklaster": 6844,
      "irini": 6845,
      "Ġprin": 6846,
      "ĠIb": 6847,
      "vard": 6848,
      "Ġ700": 6849,
      "Ġyoshga": 6850,
      "Ġodamlarga": 6851,
      "Ġqoldirdi": 6852,
      "Ġ1000": 6853,
      "Ġmajburi": 6854,
      "Ġrejimi": 6855,
      "Ġgapirdi": 6856,
      "Ġmusodara": 6857,
      "200": 6858,
      "34": 6859,
      "uch": 6860,
      "ngina": 6861,
      "rom": 6862,
      "xia": 6863,
      "Ġkompaniyaning": 6864,
      "Ġshimoliy": 6865,
      "Ġ800": 6866,
      "Ġnatijalariga": 6867,
      "ĠÃµqib": 6868,
      "Ġhujjatlari": 6869,
      "Ġxaridor": 6870,
      "ĠkÃµchmas": 6871,
      "Mar": 6872,
      "mdagi": 6873,
      "Ġurilgan": 6874,
      "inlangan": 6875,
      "kib": 6876,
      "Ġplastik": 6877,
      "anda": 6878,
      "Ġqilganini": 6879,
      "Ġchiqariladi": 6880,
      "hod": 6881,
      "Ġaholisining": 6882,
      "Ġqaysidir": 6883,
      "Ġradio": 6884,
      "ĠNetanyahu": 6885,
      "SB": 6886,
      "ripov": 6887,
      "Ġshta": 6888,
      "ĠsÃµrash": 6889,
      "sizmi": 6890,
      "foga": 6891,
      "Ġkeltirdi": 6892,
      "Ġberishini": 6893,
      "ĠDemak": 6894,
      "Ġmehmonlar": 6895,
      "Ġtabrik": 6896,
      "hum": 6897,
      "raliya": 6898,
      "stin": 6899,
      "Ġloyihalari": 6900,
      "Ġmillionlab": 6901,
      "Ġ250": 6902,
      "ĠDaniya": 6903,
      "Ġidorasi": 6904,
      "ĠkÃµzdan": 6905,
      "Ġsilji": 6906,
      "Ġjinsiy": 6907,
      "ĠMotors": 6908,
      "hmon": 6909,
      "ĠqÃµli": 6910,
      "Ġtashuvchi": 6911,
      "Ġsui": 6912,
      "Ġichidagi": 6913,
      "oroj": 6914,
      "ĠkÃµtarilgan": 6915,
      "ĠkÃµtarildi": 6916,
      "ĠLiga": 6917,
      "Ġkompyuter": 6918,
      "ĠUndan": 6919,
      "Ġsammitida": 6920,
      "Ġerkaklar": 6921,
      "bÃµyi": 6922,
      "Ġshaffof": 6923,
      "Ġmuqaddam": 6924,
      "ep": 6925,
      "fera": 6926,
      "Ġsul": 6927,
      "Ġqit": 6928,
      "Ġyori": 6929,
      "ĠPes": 6930,
      "Ġqurib": 6931,
      "ktori": 6932,
      "ted": 6933,
      "ĠÃµringa": 6934,
      "ĠSuper": 6935,
      "Ġsharoitda": 6936,
      "45": 6937,
      "Ka": 6938,
      "Va": 6939,
      "eoro": 6940,
      "Ġsaro": 6941,
      "Ġxitoy": 6942,
      "Ġdavla": 6943,
      "ĠPay": 6944,
      "Ġnomli": 6945,
      "ĠyÃµnalishlarda": 6946,
      "Ġkarto": 6947,
      "Ġmutasaddi": 6948,
      "bardimon": 6949,
      "Ġtadan": 6950,
      "Ġyahudiy": 6951,
      "foni": 6952,
      "Ġoyining": 6953,
      "rilishini": 6954,
      "Ġruxsatnoma": 6955,
      "Ġyuboradi": 6956,
      "Ġsinovdan": 6957,
      "Ġbosqichida": 6958,
      "Ġbel": 6959,
      "Ġkiber": 6960,
      "tilganini": 6961,
      "Ġundi": 6962,
      "Ġadminist": 6963,
      "ĠtÃµldirish": 6964,
      "Ġyutqaz": 6965,
      "Ġyulduz": 6966,
      "matsevtika": 6967,
      "ways": 6968,
      "Ġketib": 6969,
      "ĠÃµzim": 6970,
      "ĠToshkentga": 6971,
      "Ġoluvchi": 6972,
      "Ġjazoni": 6973,
      "ĠZelenskiyning": 6974,
      "ĠbÃµlinmalari": 6975,
      "ĠtarÇ§ib": 6976,
      "ĠGroup": 6977,
      "JS": 6978,
      "onavirus": 6979,
      "Ġtanklar": 6980,
      "Ġkonse": 6981,
      "Ġsamolyotlari": 6982,
      "Ġketma": 6983,
      "ukus": 6984,
      "Ġmigrant": 6985,
      "Ġdemokratiya": 6986,
      "Ġshifokorlar": 6987,
      "Yangi": 6988,
      "FY": 6989,
      "atida": 6990,
      "omi": 6991,
      "Ġflo": 6992,
      "urar": 6993,
      "otten": 6994,
      "ĠXon": 6995,
      "ĠDXX": 6996,
      "Ġimp": 6997,
      "Ġkerakki": 6998,
      "Ġmayda": 6999,
      "Ġtizimli": 7000,
      "Ġoblastida": 7001,
      "Ġahamiyati": 7002,
      "ĠBolalar": 7003,
      "Ġhayotini": 7004,
      "vis": 7005,
      "lmay": 7006,
      "Ġmeva": 7007,
      "Ġloyihani": 7008,
      "Ġholatni": 7009,
      "Ġavtomatik": 7010,
      "Ġshaharning": 7011,
      "Ġmadaniya": 7012,
      "ĠViktor": 7013,
      "Ġtaqdimo": 7014,
      "ottenhem": 7015,
      "rar": 7016,
      "Ġkans": 7017,
      "Ġurdi": 7018,
      "Ġqanaqa": 7019,
      "Ġortga": 7020,
      "ĠMada": 7021,
      "Ġnodavlat": 7022,
      "Ġvazirlari": 7023,
      "Ġbelgilanadi": 7024,
      "Ġtomonga": 7025,
      "ĠJam": 7026,
      "Ġetilmoqda": 7027,
      "moliddin": 7028,
      "Ġahvol": 7029,
      "ĠUchrashuvda": 7030,
      "gapur": 7031,
      "Ġtal": 7032,
      "ĠIS": 7033,
      "Ġindek": 7034,
      "Ġhaqiqa": 7035,
      "Ġyozda": 7036,
      "Ġinsonparvarlik": 7037,
      "portatsiya": 7038,
      "ĠPeskov": 7039,
      "siv": 7040,
      "ĠTah": 7041,
      "izmat": 7042,
      "novi": 7043,
      "Ġdiqqat": 7044,
      "Ġmashinalar": 7045,
      "ĠRajab": 7046,
      "Ġtushuncha": 7047,
      "Ġkasallik": 7048,
      "Ġtarafdorlari": 7049,
      "Ġkelgusida": 7050,
      "ĠDastlabki": 7051,
      "rix": 7052,
      "Ãµt": 7053,
      "ets": 7054,
      "ĠVil": 7055,
      "ĠÃµrtalarida": 7056,
      "Ġpaket": 7057,
      "ĠÃµqituvchilar": 7058,
      "Ġsavdosi": 7059,
      "Ġmaqsadga": 7060,
      "Ġtarkibi": 7061,
      "yar": 7062,
      "midagi": 7063,
      "Ġfakt": 7064,
      "Ġyordamchisi": 7065,
      "Ġapellyatsiya": 7066,
      "Ġtergovga": 7067,
      "parast": 7068,
      "Ġtortdi": 7069,
      "Ġmonitoring": 7070,
      "lmoqda": 7071,
      "diyivka": 7072,
      "Ġvagon": 7073,
      "Ġmaz": 7074,
      "Ġmaishiy": 7075,
      "Ġyevroga": 7076,
      "Ġsuratlari": 7077,
      "Ġgapirib": 7078,
      "Ġogohlantirdi": 7079,
      "ĠAli": 7080,
      "doy": 7081,
      "utqar": 7082,
      "Ġjoylashtirilgan": 7083,
      "Ġjamoalar": 7084,
      "ĠVakil": 7085,
      "Ġmaktabda": 7086,
      "Ġzarurligini": 7087,
      "Ġdirektor": 7088,
      "Ġxarajatlar": 7089,
      "em": 7090,
      "chiga": 7091,
      "qay": 7092,
      "ĠchÃµl": 7093,
      "Ġdarax": 7094,
      "Ġdarajasiga": 7095,
      "chilikka": 7096,
      "Ġxomashyo": 7097,
      "Ġkengash": 7098,
      "Ġerisha": 7099,
      "Ġbildirib": 7100,
      "Ġkorrupsiyaga": 7101,
      "ĠJamoat": 7102,
      "ue": 7103,
      "Ġolo": 7104,
      "kirov": 7105,
      "ĠkÃµrilgan": 7106,
      "Ġfarovon": 7107,
      "ĠAziz": 7108,
      "linch": 7109,
      "Ġqarorlar": 7110,
      "Ġvazifalar": 7111,
      "Ġetishini": 7112,
      "Ġlitr": 7113,
      "Ġkurashi": 7114,
      "Ġsalohiyatini": 7115,
      "Ġpsix": 7116,
      "MYu": 7117,
      "RB": 7118,
      "ube": 7119,
      "shadi": 7120,
      "Ç§ol": 7121,
      "Ġortida": 7122,
      "ĠJan": 7123,
      "ĠJKning": 7124,
      "ĠqÃµshimchalar": 7125,
      "ĠÃµquvchilar": 7126,
      "Ġapre": 7127,
      "Ġuzilish": 7128,
      "xl": 7129,
      "Ġboshqara": 7130,
      "paganda": 7131,
      "Ġetishda": 7132,
      "Ġshimol": 7133,
      "ĠtÃµxtatishga": 7134,
      "Ġeshik": 7135,
      "Ġbozoriga": 7136,
      "ĠMusta": 7137,
      "ĠKarimov": 7138,
      "ĠÃµrtoÇ§i": 7139,
      "IS": 7140,
      "Tottenhem": 7141,
      "hom": 7142,
      "mova": 7143,
      "roy": 7144,
      "ĠKel": 7145,
      "Ġgra": 7146,
      "Ġnoyob": 7147,
      "essiya": 7148,
      "Ġqoidabuzar": 7149,
      "Ġtarixida": 7150,
      "ksa": 7151,
      "Ġkvo": 7152,
      "Ġanti": 7153,
      "Ġchaqirgan": 7154,
      "Ġpod": 7155,
      "ĠFace": 7156,
      "Ġyakunlandi": 7157,
      "Ġsizga": 7158,
      "ĠÃµldirish": 7159,
      "stoniya": 7160,
      "mila": 7161,
      "ĠtÃµnta": 7162,
      "ĠGre": 7163,
      "Ġyangilik": 7164,
      "ĠSaba": 7165,
      "Ġhududlarni": 7166,
      "Ġtopdi": 7167,
      "Ġbolaning": 7168,
      "Ġochilishi": 7169,
      "Ġqarorni": 7170,
      "ĠBizda": 7171,
      "Ġhamkorlikning": 7172,
      "Ġaskarlar": 7173,
      "Ġkelingan": 7174,
      "Ġfalastinlik": 7175,
      "Ġkaltak": 7176,
      "nglar": 7177,
      "Ġashyo": 7178,
      "stri": 7179,
      "ĠHech": 7180,
      "ĠkÃµtariladi": 7181,
      "Ġsiyosatini": 7182,
      "ĠtÃµqnashuv": 7183,
      "Ġfotosurat": 7184,
      "masini": 7185,
      "ĠYH": 7186,
      "ĠUkrainadan": 7187,
      "Ġtaktik": 7188,
      "ĠUchinchi": 7189,
      "Ġbombardimon": 7190,
      "Ġbemalol": 7191,
      "lasa": 7192,
      "mom": 7193,
      "ayyan": 7194,
      "ĠGlobal": 7195,
      "boni": 7196,
      "Ġyetishi": 7197,
      "Ġobek": 7198,
      "Ġterrori": 7199,
      "Ġjanubi": 7200,
      "Ġlaboratoriya": 7201,
      "Ġlib": 7202,
      "shka": 7203,
      "sharo": 7204,
      "Ġishlat": 7205,
      "Ġ42": 7206,
      "Ġavtomat": 7207,
      "ĠÃµtkazishni": 7208,
      "Ġoilasi": 7209,
      "Ġbuzilishi": 7210,
      "Ġpedagog": 7211,
      "Gaz": 7212,
      "hron": 7213,
      "ĠKur": 7214,
      "Ġdon": 7215,
      "Ġmanzi": 7216,
      "ĠAvdiyivka": 7217,
      "Ġ2008": 7218,
      "Ġchempioni": 7219,
      "Ġreys": 7220,
      "tori": 7221,
      "Ġdeportatsiya": 7222,
      "Ġnon": 7223,
      "ĠChilonzor": 7224,
      "Ġaralash": 7225,
      "Ġmanfaatlarini": 7226,
      "Ġqahramon": 7227,
      "Ġchaqaloq": 7228,
      "ĠTar": 7229,
      "ĠQan": 7230,
      "ĠOila": 7231,
      "asr": 7232,
      "Ġmuammosi": 7233,
      "ĠKamoliddin": 7234,
      "ĠbÃµlajak": 7235,
      "Ġshogi": 7236,
      "Ġimkonsiz": 7237,
      "Ġiloji": 7238,
      "munal": 7239,
      "ĠMFY": 7240,
      "Ġqodir": 7241,
      "irchiq": 7242,
      "ĠMav": 7243,
      "Ġetilmagan": 7244,
      "Ġyordamni": 7245,
      "...-": 7246,
      "ĠBaxtiyor": 7247,
      "ĠEntoni": 7248,
      "ĠMillatlar": 7249,
      "Ġyuboriladi": 7250,
      "Ġovqatlanish": 7251,
      "ĠUniversi": 7252,
      "ĠQaror": 7253,
      "ĠSergeli": 7254,
      "qimachilik": 7255,
      "preziden": 7256,
      "pora": 7257,
      "ĠUlarga": 7258,
      "doq": 7259,
      "ĠNukus": 7260,
      "Ġge": 7261,
      "Ġedim": 7262,
      "ĠEronning": 7263,
      "ĠÃµtkaziladigan": 7264,
      "Ġinnovatsion": 7265,
      "Ġfiliali": 7266,
      "Ġpunkti": 7267,
      "Ġminimal": 7268,
      "Ġsignal": 7269,
      "Ġprinsi": 7270,
      "leri": 7271,
      "nati": 7272,
      "ĠkÃµnik": 7273,
      "lovga": 7274,
      "Ġturlari": 7275,
      "Ġnafarga": 7276,
      "Ġmuddatidan": 7277,
      "Ġassotsi": 7278,
      "Ġchiqarishga": 7279,
      "Ġprofessor": 7280,
      "ĠMaktabgacha": 7281,
      "Ġruhiy": 7282,
      "fir": 7283,
      "xan": 7284,
      "lad": 7285,
      "nimcha": 7286,
      "rifi": 7287,
      "Ġbuzib": 7288,
      "ĠRon": 7289,
      "ĠShay": 7290,
      "Ġtelek": 7291,
      "ĠCNN": 7292,
      "Ġoqimi": 7293,
      "Ġchegarasi": 7294,
      "Ġjarimaga": 7295,
      "Ġnishonga": 7296,
      "Ġsalohiyati": 7297,
      "ĠJyey": 7298,
      "KO": 7299,
      "tra": 7300,
      "uh": 7301,
      "Ġsafa": 7302,
      "ĠtÃµlab": 7303,
      "Ġtashlangan": 7304,
      "ĠEstoniya": 7305,
      "Ġnimani": 7306,
      "Ġqatnov": 7307,
      "kidlash": 7308,
      "Ġkishining": 7309,
      "Ġtahli": 7310,
      "Ġmaktabgacha": 7311,
      "Ġhayrat": 7312,
      "ĠMoskvada": 7313,
      "ĠÃµyinida": 7314,
      "Ġaktivlarini": 7315,
      "ksi": 7316,
      "gal": 7317,
      "chenko": 7318,
      "losi": 7319,
      "etti": 7320,
      "Ġkirishga": 7321,
      "Ġinqilo": 7322,
      "Ġkunida": 7323,
      "Ġyengi": 7324,
      "Ġemasdi": 7325,
      "lagandi": 7326,
      "ĠYevropaning": 7327,
      "Ġprotses": 7328,
      "ĠNiko": 7329,
      "Ġshaklda": 7330,
      "Ġoblastidagi": 7331,
      "ĠÃµÇ§il": 7332,
      "ĠSingapur": 7333,
      "sen": 7334,
      "ĠoÇ§": 7335,
      "dessa": 7336,
      "ĠyÃµlagi": 7337,
      "matika": 7338,
      "Ġurushdan": 7339,
      "Ġchorasi": 7340,
      "moqchiman": 7341,
      "Ġqamoqxona": 7342,
      "ĠQurbon": 7343,
      "tional": 7344,
      "Ġnomzodini": 7345,
      "unar": 7346,
      "qayev": 7347,
      "Ġbirlash": 7348,
      "ĠkÃµpincha": 7349,
      "ĠVen": 7350,
      "Ġtexnologiyalari": 7351,
      "medov": 7352,
      "Ġpozitsiyasi": 7353,
      "Ġmojarosi": 7354,
      "Ġligasi": 7355,
      "Ġkuzatuv": 7356,
      "Ġtranspor": 7357,
      "mosfera": 7358,
      "Ġhaqiqatan": 7359,
      "Ġdaxl": 7360,
      "eksiyasi": 7361,
      "Ġxizmatga": 7362,
      "Ġatagan": 7363,
      "Ġustunlik": 7364,
      "ĠVoqea": 7365,
      "ĠÃµlar": 7366,
      "Ġbilib": 7367,
      "ĠBori": 7368,
      "ĠkÃµma": 7369,
      "ĠUr": 7370,
      "ĠtuÇ§i": 7371,
      "Ġsohil": 7372,
      "Ġratifikatsiya": 7373,
      "Ġtarji": 7374,
      "Ġyetadi": 7375,
      "Ġkeltiradi": 7376,
      "Ġsohasiga": 7377,
      "Ġnatijasi": 7378,
      "ĠkÃµrsatmoqda": 7379,
      "Ġamaldor": 7380,
      "Ġtartibsiz": 7381,
      "Ġyuritish": 7382,
      "Ġtartibida": 7383,
      "Ġhaydovchisi": 7384,
      "ĠXabar": 7385,
      "ĠTermiz": 7386,
      "998": 7387,
      "Ġchindan": 7388,
      "ble": 7389,
      "chini": 7390,
      "rishiga": 7391,
      "lumotlari": 7392,
      "Ġshoshi": 7393,
      "ĠkÃµpayishi": 7394,
      "gner": 7395,
      "Ġkilo": 7396,
      "qasi": 7397,
      "ĠMes": 7398,
      "Ġishona": 7399,
      "Ġbut": 7400,
      "ulla": 7401,
      "ĠNav": 7402,
      "ĠGul": 7403,
      "Ġhujumni": 7404,
      "Ġagentligiga": 7405,
      "Ġtushuntirdi": 7406,
      "ĠTex": 7407,
      "Ġkompen": 7408,
      "Ġodatda": 7409,
      "Ġtuproq": 7410,
      "Ġtahrirdagi": 7411,
      "est": 7412,
      "ksiz": 7413,
      "ongi": 7414,
      "ppe": 7415,
      "Ġichka": 7416,
      "Ġtutilishi": 7417,
      "Ġbeshinchi": 7418,
      "Ġyurak": 7419,
      "Ġoshirilayotgan": 7420,
      "Ġoshirishni": 7421,
      "Ġrespublikaning": 7422,
      "Ġerishildi": 7423,
      "Ġmoddasi": 7424,
      "ĠTehron": 7425,
      "ĠsoÇ§liÇ§i": 7426,
      "Ġolinadigan": 7427,
      "ĠAvvaliga": 7428,
      "ĠÃµlaroq": 7429,
      "Ġurini": 7430,
      "Ġekra": 7431,
      "Ġir": 7432,
      "Ġbekat": 7433,
      "masidan": 7434,
      "Ġ2010": 7435,
      "Ġtasdiqlash": 7436,
      "Ġqilinishini": 7437,
      "Ġishlatish": 7438,
      "ĠLivan": 7439,
      "Ġdasturini": 7440,
      "Ġmavsumida": 7441,
      "Ġhisobotida": 7442,
      "Siti": 7443,
      "dus": 7444,
      "dira": 7445,
      "Ġpora": 7446,
      "ressi": 7447,
      "ĠÃµzlashtirish": 7448,
      "Ġyorqin": 7449,
      "Ġqarashli": 7450,
      "ĠBoku": 7451,
      "Ġeshit": 7452,
      "Ġstansiyalari": 7453,
      "Ġixtisoslashtirilgan": 7454,
      "ĠAvtomobil": 7455,
      "Ġkori": 7456,
      "Ġekin": 7457,
      "Ġbosi": 7458,
      "Ġboks": 7459,
      "Ġaylantirish": 7460,
      "ĠXi": 7461,
      "Ġbaliq": 7462,
      "ĠyÃµqotgan": 7463,
      "Ġimtiyozli": 7464,
      "Ġsnaryad": 7465,
      "ĠAvstraliya": 7466,
      "ĠUzAuto": 7467,
      "Ġkvota": 7468,
      "Yevro": 7469,
      "nita": 7470,
      "Ġuza": 7471,
      "tamiz": 7472,
      "lanmaydi": 7473,
      "Ġorde": 7474,
      "Ġbermaydi": 7475,
      "mlagan": 7476,
      "ĠqÃµllangan": 7477,
      "Ġkonv": 7478,
      "Ġhaqorat": 7479,
      "uminiya": 7480,
      "Ġraisligi": 7481,
      "Ġmanbalari": 7482,
      "ĠTÃµqayev": 7483,
      "Ġofisi": 7484,
      "Ġhamjamiyat": 7485,
      "Ġfiribgarlik": 7486,
      "ĠBorrel": 7487,
      "At": 7488,
      "ish": 7489,
      "toroj": 7490,
      "rining": 7491,
      "kinchisi": 7492,
      "Ġxotini": 7493,
      "Ġpropaganda": 7494,
      "Ġyakka": 7495,
      "Ġtizimlarini": 7496,
      "Ġajralib": 7497,
      "Ġxavotirda": 7498,
      "grafik": 7499,
      "ĠAbdurahmon": 7500,
      "Shi": 7501,
      "eziya": 7502,
      "lyu": 7503,
      "Ġyaroq": 7504,
      "Ġshtati": 7505,
      "Ġkommunal": 7506,
      "molyot": 7507,
      "Ġberilma": 7508,
      "Ġrasmiylar": 7509,
      "ĠtÃµlovlar": 7510,
      "Ġerkinligi": 7511,
      "Ġyondashuv": 7512,
      "ongir": 7513,
      "36": 7514,
      "Xitoy": 7515,
      "mayotgan": 7516,
      "Ġxoli": 7517,
      "zavo": 7518,
      "Ġqulab": 7519,
      "Ġxodimlariga": 7520,
      "Ġappara": 7521,
      "parlament": 7522,
      "yillar": 7523,
      "Ġtaqdiri": 7524,
      "muhitni": 7525,
      "ugaliya": 7526,
      "ĠVakillar": 7527,
      "II": 7528,
      "Nyu": 7529,
      "qot": 7530,
      "shgan": 7531,
      "Ġoyo": 7532,
      "Ġosmon": 7533,
      "Ġtat": 7534,
      "Ġdavlatlardan": 7535,
      "ĠJoz": 7536,
      "limni": 7537,
      "Ġ77": 7538,
      "lanishga": 7539,
      "ĠInstagram": 7540,
      "ĠBritaniyaning": 7541,
      "ĠJahongir": 7542,
      "ĠSerbiya": 7543,
      "ĠqÃµyilishi": 7544,
      "Ġyotqizilgan": 7545,
      "Ġstat": 7546,
      "Ġbitiruvchi": 7547,
      "manda": 7548,
      "ektori": 7549,
      "Ġmezon": 7550,
      "Ġsharh": 7551,
      "ĠyÃµlda": 7552,
      "Ġhududga": 7553,
      "Ġnatijada": 7554,
      "Ġtadbirlari": 7555,
      "Ġvitse": 7556,
      "Ġtopshirilgan": 7557,
      "Ġmaqsadli": 7558,
      "Ġoliygoh": 7559,
      "Ġnormal": 7560,
      "Ġchempionati": 7561,
      "ĠJamoa": 7562,
      "Ġtaallu": 7563,
      "moran": 7564,
      "rosa": 7565,
      "urgiya": 7566,
      "ĠRuminiya": 7567,
      "Ġberishdi": 7568,
      "Ġ67": 7569,
      "Ġshaharni": 7570,
      "Ġchaqir": 7571,
      "ĠAnqara": 7572,
      "Ġbinoan": 7573,
      "Ġsaylovlar": 7574,
      "Ġalmashish": 7575,
      "Ġhokimining": 7576,
      "ĠkÃµchirish": 7577,
      "kasl": 7578,
      "Ġyashaydi": 7579,
      "Ġbrendi": 7580,
      "ĠYonÇ§in": 7581,
      "Ġtatbiq": 7582,
      "Ġolinib": 7583,
      "ĠkÃµrik": 7584,
      "Ġishoni": 7585,
      "Ġyonida": 7586,
      "ĠDey": 7587,
      "Ġmillati": 7588,
      "Ġdisp": 7589,
      "Ġilm": 7590,
      "Ġchaqiriq": 7591,
      "Ġraketalari": 7592,
      "ĠkÃµchasida": 7593,
      "Ġforum": 7594,
      "Ġjurnalistlarga": 7595,
      "Ġokkup": 7596,
      "Ġmajmuasi": 7597,
      "Ġtaalluqli": 7598,
      "Ġbron": 7599,
      "Ġam": 7600,
      "lantika": 7601,
      "Ġfuqarolarga": 7602,
      "Ġmaktabga": 7603,
      "ĠRaqam": 7604,
      "ÃµÇ§li": 7605,
      "ĠSudan": 7606,
      "Ġuringan": 7607,
      "ĠTabiiy": 7608,
      "Ġmuoma": 7609,
      "sizlar": 7610,
      "ĠGe": 7611,
      "Ġegalari": 7612,
      "Ġberishdan": 7613,
      "Ġrejalari": 7614,
      "Ġrejasini": 7615,
      "Ġmuzokaralarni": 7616,
      "ĠMahkamasi": 7617,
      "Ġberayotgan": 7618,
      "Ġtushunish": 7619,
      "Ġshogird": 7620,
      "rbosh": 7621,
      "zona": 7622,
      "kali": 7623,
      "ĠAx": 7624,
      "Ġboryapti": 7625,
      "Ġqaytish": 7626,
      "Ġsabablari": 7627,
      "Ġyaratadi": 7628,
      "uliston": 7629,
      "Ġmuassasalarida": 7630,
      "Ġpozitsiyasini": 7631,
      "ĠAirways": 7632,
      "Ġvazn": 7633,
      "Ti": 7634,
      "Ġketilgan": 7635,
      "ĠSol": 7636,
      "ydin": 7637,
      "bop": 7638,
      "ĠCO": 7639,
      "ĠIsroilni": 7640,
      "Ġshaxslarni": 7641,
      "ĠKam": 7642,
      "ĠAnna": 7643,
      "Ġ2006": 7644,
      "ĠToÇ§li": 7645,
      "Ġqiynoq": 7646,
      "Ġdepartament": 7647,
      "Ġbajara": 7648,
      "ĠmaÇ§lubiyatga": 7649,
      "Ġgvardiya": 7650,
      "Ġkelajagi": 7651,
      "xit": 7652,
      "Ġiyu": 7653,
      "chasiga": 7654,
      "dol": 7655,
      "ĠqÃµpol": 7656,
      "ĠRossiyalik": 7657,
      "ĠÃµrnida": 7658,
      "lumotga": 7659,
      "ergo": 7660,
      "Ġtekshir": 7661,
      "Ġhodisasi": 7662,
      "Ġdasturlari": 7663,
      "Ġbuyurdi": 7664,
      "ĠqÃµshil": 7665,
      "Ġyashaydigan": 7666,
      "ĠTomonlar": 7667,
      "ĠOradan": 7668,
      "com": 7669,
      "uy": 7670,
      "mah": 7671,
      "urnal": 7672,
      "ĠMba": 7673,
      "Ġqiling": 7674,
      "Ġyotoq": 7675,
      "kovich": 7676,
      "Ġjoylar": 7677,
      "Ġqaramasdan": 7678,
      "Ġ85": 7679,
      "Ġmajlis": 7680,
      "yotganiga": 7681,
      "Ġetgandi": 7682,
      "Ġkelishuvi": 7683,
      "ĠMirzo": 7684,
      "Ġketyapti": 7685,
      "ĠNATOning": 7686,
      "ĠÃµldirilgan": 7687,
      "Ġqiziqarli": 7688,
      "Ġdeputati": 7689,
      "ĠChexiya": 7690,
      "ĠYunuso": 7691,
      "Ġqobiliyati": 7692,
      "ĠOdamlar": 7693,
      "lang": 7694,
      "char": 7695,
      "Ġqoli": 7696,
      "Ġuzatish": 7697,
      "ĠÃµtirgan": 7698,
      "anat": 7699,
      "ĠRim": 7700,
      "ĠFer": 7701,
      "Ġoqim": 7702,
      "Ġistiqbollari": 7703,
      "ĠEksp": 7704,
      "Ġkompensatsiya": 7705,
      "psi": 7706,
      "Ġuchradi": 7707,
      "Ġsotilgan": 7708,
      "Ġtom": 7709,
      "ĠKom": 7710,
      "Ġorti": 7711,
      "Ġgrant": 7712,
      "Ġchiqarishi": 7713,
      "bulloh": 7714,
      "Ġajratib": 7715,
      "Ġochildi": 7716,
      "Ġuchrashuvlar": 7717,
      "Ġkasalliklar": 7718,
      "Ġaskarlari": 7719,
      "ĠOrtiq": 7720,
      "Ġgubernatori": 7721,
      "shu": 7722,
      "Ġmeri": 7723,
      "ĠBHM": 7724,
      "Ġyoqi": 7725,
      "ĠJor": 7726,
      "Ġ54": 7727,
      "Ġchiqishni": 7728,
      "Ġolinmagan": 7729,
      "tabek": 7730,
      "Ġtopshiri": 7731,
      "Ġchegarasini": 7732,
      "Ġqamrov": 7733,
      "ĠkÃµpayib": 7734,
      "Ġraqami": 7735,
      "ĠMbappe": 7736,
      "FP": 7737,
      "qit": 7738,
      "ganim": 7739,
      "Ġkito": 7740,
      "sizligi": 7741,
      "Ġgran": 7742,
      "Ġnomini": 7743,
      "Ġmuddatini": 7744,
      "jonov": 7745,
      "Ġjoiz": 7746,
      "Ġishtirokidagi": 7747,
      "ĠHamma": 7748,
      "ĠtarÇ§ibot": 7749,
      "eksika": 7750,
      "Ġtashi": 7751,
      "Ġmuayyan": 7752,
      "Ġshtat": 7753,
      "Ġhumanitar": 7754,
      "Ġraqi": 7755,
      "izbulloh": 7756,
      "ĠQurilish": 7757,
      "ĠsÃµroq": 7758,
      "Ġzararli": 7759,
      "Ġbolalarga": 7760,
      "Ġqarorga": 7761,
      "ĠÃµylayman": 7762,
      "Ġberiladigan": 7763,
      "Ġoblastining": 7764,
      "Ġbuyurgan": 7765,
      "Ġkutub": 7766,
      "Ġkesimida": 7767,
      "Ġisitish": 7768,
      "ĠYoshlar": 7769,
      "lovakiya": 7770,
      "AQSh": 7771,
      "latib": 7772,
      "layapti": 7773,
      "shida": 7774,
      "Ġurish": 7775,
      "Ġbolani": 7776,
      "Ġboriladi": 7777,
      "aydi": 7778,
      "res": 7779,
      "oygu": 7780,
      "onasi": 7781,
      "ĠGer": 7782,
      "Ġmilliarder": 7783,
      "Ġhududlarga": 7784,
      "ĠArgentina": 7785,
      "ford": 7786,
      "ĠBaydenning": 7787,
      "Ġxarajatlarini": 7788,
      "ĠjÃµnat": 7789,
      "ĠIkkinchidan": 7790,
      "Ġkimyoviy": 7791,
      "Ġnogironligi": 7792,
      "bbimov": 7793,
      "ĠOldin": 7794,
      "Ġishbilarmon": 7795,
      "55": 7796,
      "aniq": 7797,
      "lamaydi": 7798,
      "Ġsat": 7799,
      "Ġtuzatish": 7800,
      "zoda": 7801,
      "ĠbÃµlmish": 7802,
      "Ġmetall": 7803,
      "Ġolqish": 7804,
      "Ġxizmatiga": 7805,
      "zmun": 7806,
      "Ġfutbolchisi": 7807,
      "Ġbandi": 7808,
      "Ġtajribasi": 7809,
      "Ġadolatli": 7810,
      "Hozir": 7811,
      "Ġdaf": 7812,
      "Ġdevor": 7813,
      "ĠSher": 7814,
      "Ġkunning": 7815,
      "Ġetyapti": 7816,
      "Ġolgandi": 7817,
      "ĠRabbimov": 7818,
      "Ġstansiyasi": 7819,
      "Ġtashkilotining": 7820,
      "Ġuyida": 7821,
      "Ġmukofoti": 7822,
      "Ġxayriya": 7823,
      "ĠAgentlik": 7824,
      "ĠYiÇ§ilishda": 7825,
      "ĠFacebook": 7826,
      "mmoni": 7827,
      "tinga": 7828,
      "Ġmao": 7829,
      "Ġyillardan": 7830,
      "ĠOrol": 7831,
      "boz": 7832,
      "Ġmasalani": 7833,
      "Ġdegandi": 7834,
      "Ġyanvarda": 7835,
      "Ãµrinda": 7836,
      "Ġekipaj": 7837,
      "ty": 7838,
      "Ġtax": 7839,
      "Ġsodiq": 7840,
      "olchilar": 7841,
      "tibos": 7842,
      "ĠÃķzbek": 7843,
      "ruziya": 7844,
      "Ġbormi": 7845,
      "ĠChirchiq": 7846,
      "Ġsudda": 7847,
      "ĠÃµyinni": 7848,
      "ĠMisol": 7849,
      "Ġkuzatiladi": 7850,
      "Ġdekabrda": 7851,
      "Ġmanfaatlari": 7852,
      "Ġtransformat": 7853,
      "ĠQilich": 7854,
      "ĠAvstriya": 7855,
      "ĠTashkiloti": 7856,
      "huquqiy": 7857,
      "ĠSovet": 7858,
      "Ġlarda": 7859,
      "Ġqilar": 7860,
      "xtakor": 7861,
      "Ġkiritib": 7862,
      "Ġbelgilanmoqda": 7863,
      "Ġmuammoni": 7864,
      "Ġshaxmat": 7865,
      "Ġqoidalari": 7866,
      "ĠEndilikda": 7867,
      "Ġoqibatlarini": 7868,
      "ĠBelgiya": 7869,
      "Ġpaytgacha": 7870,
      "Ġbrend": 7871,
      "Ġtalabi": 7872,
      "Ġyoshida": 7873,
      "bina": 7874,
      "raga": 7875,
      "langanidan": 7876,
      "ĠToy": 7877,
      "ĠOtabek": 7878,
      "Ġqilishning": 7879,
      "ĠMartin": 7880,
      "Ġatmosfera": 7881,
      "Ġoldinroq": 7882,
      "Ġmavjudligi": 7883,
      "Ġjarayonlari": 7884,
      "storan": 7885,
      "ĠVide": 7886,
      "ĠYou": 7887,
      "Ġyodgor": 7888,
      "chilarining": 7889,
      "national": 7890,
      "ĠBoy": 7891,
      "Ġpat": 7892,
      "jahon": 7893,
      "Ġreg": 7894,
      "Ġetishdi": 7895,
      "ĠÇ¦azoda": 7896,
      "moddasiga": 7897,
      "ĠSuhbat": 7898,
      "Ġhukmi": 7899,
      "Ġmanfaatli": 7900,
      "Ġuyushmasi": 7901,
      "ĠYoki": 7902,
      "Ġguvohnoma": 7903,
      "Ġburchak": 7904,
      "ĠElekt": 7905,
      "Ġinvestor": 7906,
      "Ġdeklaratsiya": 7907,
      "Peterburg": 7908,
      "XB": 7909,
      "bli": 7910,
      "feri": 7911,
      "xovka": 7912,
      "ragi": 7913,
      "lashmoqda": 7914,
      "ĠHuq": 7915,
      "vardi": 7916,
      "Ġfoizlik": 7917,
      "ĠZil": 7918,
      "Ġtashqarida": 7919,
      "Ġimzolagan": 7920,
      "Ġistagan": 7921,
      "Ġoktyabrdan": 7922,
      "Ġdaromadi": 7923,
      "Ġtariqasida": 7924,
      "ĠurÇ§u": 7925,
      "Ġfaxriy": 7926,
      "agi": 7927,
      "ei": 7928,
      "Ġtunda": 7929,
      "Ġsxe": 7930,
      "Ġaziyat": 7931,
      "ĠÃµlimiga": 7932,
      "naviy": 7933,
      "qir": 7934,
      "Ġmusi": 7935,
      "ĠAmal": 7936,
      "Ġtutuvchi": 7937,
      "ĠShoygu": 7938,
      "ĠYevroparlament": 7939,
      "Ġ64": 7940,
      "Ġsudlanuvchi": 7941,
      "Ġrivoji": 7942,
      "Ġaloqasi": 7943,
      "Ġmasofadan": 7944,
      "Ġtanklari": 7945,
      "ulyator": 7946,
      "Bir": 7947,
      "mn": 7948,
      "taba": 7949,
      "ĠMal": 7950,
      "eto": 7951,
      "Ġsuvosti": 7952,
      "uriyat": 7953,
      "teti": 7954,
      "Ġkoronavirus": 7955,
      "quvvatlashga": 7956,
      "ĠtÃµplangan": 7957,
      "ĠyÃµqolgan": 7958,
      "ĠkÃµtarish": 7959,
      "ĠSobiq": 7960,
      "Ġerkinlik": 7961,
      "Ġaerodro": 7962,
      "Ġmarosi": 7963,
      "ĠSankt": 7964,
      "Ġekstre": 7965,
      "Ġudda": 7966,
      "ĠÃµtildi": 7967,
      "vob": 7968,
      "Ġbeqaror": 7969,
      "otensi": 7970,
      "ĠOdessa": 7971,
      "luksiz": 7972,
      "ĠkÃµrdi": 7973,
      "limga": 7974,
      "Ġkompaniyasiga": 7975,
      "Ġhaqli": 7976,
      "Ġetadigan": 7977,
      "ĠPutinni": 7978,
      "ĠbÃµlishdi": 7979,
      "ĠQozoÇ§istonning": 7980,
      "Ġzarurligi": 7981,
      "harakatlari": 7982,
      "Ġsamaradorligini": 7983,
      "Nyukasl": 7984,
      "ps": 7985,
      "xÃµr": 7986,
      "rio": 7987,
      "ĠHudud": 7988,
      "Ġbarham": 7989,
      "doneziya": 7990,
      "Ġyuqorida": 7991,
      "ĠbÃµlishni": 7992,
      "Ġ1991": 7993,
      "Ġqutu": 7994,
      "Ġzaxiralari": 7995,
      "mokratik": 7996,
      "prom": 7997,
      "ĠTinch": 7998,
      "Ġsah": 7999,
      "Ġsim": 8000,
      "Ġkafe": 8001,
      "murodov": 8002,
      "Ġolishdi": 8003,
      "Ġtanlash": 8004,
      "lashtirishi": 8005,
      "ĠHaaga": 8006,
      "ĠÃµyinlar": 8007,
      "Ġoshirishda": 8008,
      "tilishiga": 8009,
      "Ġekanligi": 8010,
      "Ġmanbalariga": 8011,
      "Ġmavsumi": 8012,
      "ĠqirÇ§oq": 8013,
      "Ġbayra": 8014,
      "Ġiqtibos": 8015,
      "ĠTsA": 8016,
      "buds": 8017,
      "Ġminnatdorchilik": 8018,
      "mur": 8019,
      "tdan": 8020,
      "ĠAFP": 8021,
      "Ġtub": 8022,
      "Ġbirja": 8023,
      "Ġmasalalarni": 8024,
      "ĠkÃµrsatuvchi": 8025,
      "ĠyÃµnalishlar": 8026,
      "ĠFarhod": 8027,
      "ĠgÃµsht": 8028,
      "ĠyÃµqotishlar": 8029,
      "Ġayirbosh": 8030,
      "ĠoraliÇ§ida": 8031,
      "kÃµp": 8032,
      "tnoma": 8033,
      "yay": 8034,
      "Ġsp": 8035,
      "ĠÃķqi": 8036,
      "Ġ43": 8037,
      "Ġ74": 8038,
      "ĠYevropadagi": 8039,
      "Ġkeltir": 8040,
      "Ġtushirildi": 8041,
      "ĠQolgan": 8042,
      "Ġkuzatildi": 8043,
      "Ġnafas": 8044,
      "Ġuzluksiz": 8045,
      "Ġoperator": 8046,
      "Ġsavollarga": 8047,
      "ĠkÃµrilmagan": 8048,
      "Ġmasofaga": 8049,
      "Ġkayfiyat": 8050,
      "boli": 8051,
      "nel": 8052,
      "Ġuran": 8053,
      "Ġmamn": 8054,
      "Ġtutilmoqda": 8055,
      "Ġishlovchi": 8056,
      "ĠqÃµliga": 8057,
      "Ġdavlatlarida": 8058,
      "korlar": 8059,
      "Ġolishadi": 8060,
      "Ġoblast": 8061,
      "Ġbuyru": 8062,
      "Ġassam": 8063,
      "Ġvositalarining": 8064,
      "Ġhududini": 8065,
      "lanayotgani": 8066,
      "Ġqilayotgani": 8067,
      "Ġ1990": 8068,
      "ĠQuyida": 8069,
      "Ġtanklarini": 8070,
      "Ġsalomatligi": 8071,
      "ĠSababi": 8072,
      "nitariya": 8073,
      "OR": 8074,
      "ches": 8075,
      "Ġux": 8076,
      "taga": 8077,
      "Ġboshdan": 8078,
      "Ġboshlashi": 8079,
      "Ġ52": 8080,
      "Ġhujumlari": 8081,
      "quvvatladi": 8082,
      "ĠkÃµtarib": 8083,
      "Ġlavozimini": 8084,
      "Ġdeyilgan": 8085,
      "Ġyarimor": 8086,
      "Ġfarzandlari": 8087,
      "ĠChery": 8088,
      "Ġtayanch": 8089,
      "Ġsonli": 8090,
      "ĠGarchi": 8091,
      "Milan": 8092,
      "Ġsulh": 8093,
      "Ġassamble": 8094,
      "Bor": 8095,
      "Ġkri": 8096,
      "tay": 8097,
      "ĠAniq": 8098,
      "ĠMI": 8099,
      "Ġfoydalanadi": 8100,
      "Ġolmasligi": 8101,
      "Ġtranzit": 8102,
      "ĠÃµzbekistonliklar": 8103,
      "Ġfilm": 8104,
      "Ġnutq": 8105,
      "Ġkapital": 8106,
      "pikeri": 8107,
      "Tube": 8108,
      "Ġspikeri": 8109,
      "tani": 8110,
      "Ġmagnit": 8111,
      "rova": 8112,
      "Ġsoniya": 8113,
      "Ġxala": 8114,
      "ĠVol": 8115,
      "zilgani": 8116,
      "Ġmamlakatdan": 8117,
      "Ġholatlarda": 8118,
      "Ġ2013": 8119,
      "ĠtÃµplagan": 8120,
      "hone": 8121,
      "ĠbÃµlishgan": 8122,
      "vto": 8123,
      "sovo": 8124,
      "Ġyorib": 8125,
      "Ġrafi": 8126,
      "lgacha": 8127,
      "lumotlarini": 8128,
      "Ġaksincha": 8129,
      "rganch": 8130,
      "Ġorasidan": 8131,
      "Ġrossiyaliklarning": 8132,
      "ĠBelarusda": 8133,
      "Ġissiqxona": 8134,
      "Ġdollargacha": 8135,
      "Ġsotsi": 8136,
      "Ġolimlar": 8137,
      "bert": 8138,
      "gol": 8139,
      "mili": 8140,
      "Ġmemoran": 8141,
      "orasiga": 8142,
      "Ġ76": 8143,
      "Ġkuchlarini": 8144,
      "Ġgazni": 8145,
      "Ġrahbarlarining": 8146,
      "Ġtaqiqlash": 8147,
      "Ġidoralar": 8148,
      "Ġdaraxtlar": 8149,
      "HAL": 8150,
      "Xalq": 8151,
      "gunga": 8152,
      "kredi": 8153,
      "ll": 8154,
      "raha": 8155,
      "utbu": 8156,
      "ĠÇ§oli": 8157,
      "ĠÃµtkaza": 8158,
      "ĠÇ§alabaga": 8159,
      "Ġmuvofiqlashtirish": 8160,
      "ĠmashÇ§ulot": 8161,
      "Ġaeroporti": 8162,
      "Ġtenden": 8163,
      "Falastin": 8164,
      "eorologiya": 8165,
      "ĠQilichdor": 8166,
      "Ġeslatib": 8167,
      "rosti": 8168,
      "lovo": 8169,
      "ĠOta": 8170,
      "him": 8171,
      "Ġ68": 8172,
      "Ġshaharga": 8173,
      "Ġshidda": 8174,
      "ĠqÃµymaslik": 8175,
      "Ġtopshirgan": 8176,
      "Ġtasdiqlagan": 8177,
      "Ġasossiz": 8178,
      "Ġjarayonda": 8179,
      "Ġholatini": 8180,
      "Ġkursi": 8181,
      "Ġpandemiya": 8182,
      "lisi": 8183,
      "Ġtre": 8184,
      "Ġhav": 8185,
      "Ġishlariga": 8186,
      "Ġyoqa": 8187,
      "Ġhomiy": 8188,
      "Ġqulagan": 8189,
      "iyonat": 8190,
      "Ġmumkinmi": 8191,
      "ĠÃµrtoq": 8192,
      "Ġ59": 8193,
      "Ġnef": 8194,
      "leti": 8195,
      "uruh": 8196,
      "Ġaloqalarini": 8197,
      "Ġtopshirdi": 8198,
      "Ġsanaladi": 8199,
      "Ġvariant": 8200,
      "Ġkamayib": 8201,
      "Ġkamayishi": 8202,
      "Ġavtotransport": 8203,
      "sub": 8204,
      "darak": 8205,
      "chet": 8206,
      "mang": 8207,
      "Ġix": 8208,
      "ĠboÇ§i": 8209,
      "ĠNur": 8210,
      "Ġtarzi": 8211,
      "Ġyerosti": 8212,
      "ĠbÃµldim": 8213,
      "Ġshaharlar": 8214,
      "Ġkelyapti": 8215,
      "Ġyaratishga": 8216,
      "Ġhujjatlarini": 8217,
      "Ġnimadir": 8218,
      "lashtiruvchi": 8219,
      "Ġolamiz": 8220,
      "Ġqarzi": 8221,
      "Ġnomiga": 8222,
      "Ġchiqmoqda": 8223,
      "Ġyordamga": 8224,
      "Ġhududdagi": 8225,
      "ĠMirza": 8226,
      "Ġochil": 8227,
      "Ġmaqomini": 8228,
      "Ġnashrining": 8229,
      "Ġavtobuslar": 8230,
      "Ġvakolatli": 8231,
      "jum": 8232,
      "sekin": 8233,
      "ĠBil": 8234,
      "Ġkutilgan": 8235,
      "ĠRu": 8236,
      "usxa": 8237,
      "ĠOle": 8238,
      "ĠXXR": 8239,
      "eriyasi": 8240,
      "Ġmahkum": 8241,
      "Ġislom": 8242,
      "Ġunchalik": 8243,
      "ĠPost": 8244,
      "Ġmarotaba": 8245,
      "Ġpaketi": 8246,
      "Ġuzunligi": 8247,
      "Ġavtomobili": 8248,
      "QS": 8249,
      "Qo": 8250,
      "gariya": 8251,
      "dirib": 8252,
      "Ġmoy": 8253,
      "Ġsinga": 8254,
      "matov": 8255,
      "Ġetilib": 8256,
      "Ġolishda": 8257,
      "Ġ71": 8258,
      "Ġberilishini": 8259,
      "ĠSamolyot": 8260,
      "Ġmaqsadda": 8261,
      "Ġvaziyatdan": 8262,
      "Ġ2012": 8263,
      "Ġayblangan": 8264,
      "Ġqilishimiz": 8265,
      "Ġmuammolarga": 8266,
      "Ġqoldir": 8267,
      "Ġvazifalarni": 8268,
      "Ġraqamlar": 8269,
      "Ġbosqichga": 8270,
      "Ġmaydoniga": 8271,
      "Ġqoplash": 8272,
      "Ġuslu": 8273,
      "ĠYHXB": 8274,
      "kom": 8275,
      "chlar": 8276,
      "Ġishlashga": 8277,
      "Ġdavolash": 8278,
      "qatnov": 8279,
      "Ġvazirlar": 8280,
      "Ġbelgisi": 8281,
      "Ġoyga": 8282,
      "Ġmuammolari": 8283,
      "ĠbÃµysun": 8284,
      "ĠMed": 8285,
      "Ġreaksiya": 8286,
      "Ġmulozim": 8287,
      "De": 8288,
      "xud": 8289,
      "Ġoydin": 8290,
      "ĠkÃµrishga": 8291,
      "Ġtutish": 8292,
      "zak": 8293,
      "Ġyurishi": 8294,
      "maslikni": 8295,
      "Ġbalan": 8296,
      "Ġ51": 8297,
      "Ġsharti": 8298,
      "lashtirildi": 8299,
      "Ġhavola": 8300,
      "ĠkÃµtarilishi": 8301,
      "Ġbozorda": 8302,
      "Ġinfratuzilmasini": 8303,
      "Ġqatnashish": 8304,
      "Ġberilgani": 8305,
      "ĠAbdulla": 8306,
      "yabrida": 8307,
      "rohlik": 8308,
      "Phone": 8309,
      "jiz": 8310,
      "xalq": 8311,
      "dab": 8312,
      "shishi": 8313,
      "chilardan": 8314,
      "Ġyilligi": 8315,
      "evning": 8316,
      "Ġrestoran": 8317,
      "eyn": 8318,
      "Ġtushirdi": 8319,
      "Ġqishki": 8320,
      "konstruksiya": 8321,
      "ĠQÃµqon": 8322,
      "ĠbÃµlmaydigan": 8323,
      "ĠyolÇ§iz": 8324,
      "Ġinqiro": 8325,
      "Ġnutqida": 8326,
      "ĠNews": 8327,
      "Ġbyurosi": 8328,
      "ĠFVV": 8329,
      "ĠStalin": 8330,
      "oqibat": 8331,
      "zmi": 8332,
      "Ġbori": 8333,
      "Ġborishga": 8334,
      "ĠSil": 8335,
      "Ġpotensi": 8336,
      "ladim": 8337,
      "ĠYak": 8338,
      "vozanat": 8339,
      "Ġkunduz": 8340,
      "Ġishlamoqda": 8341,
      "ĠYeChL": 8342,
      "Ġolishini": 8343,
      "Ġobektlar": 8344,
      "Ġmiqdoridagi": 8345,
      "ĠTrampning": 8346,
      "Ġistiqbolli": 8347,
      "Ġsentab": 8348,
      "losipe": 8349,
      "Ġshoshilinch": 8350,
      "xshi": 8351,
      "Ġayo": 8352,
      "ĠAI": 8353,
      "bayev": 8354,
      "ĠMer": 8355,
      "ĠyÃµlini": 8356,
      "Ġyurita": 8357,
      "Ġxotir": 8358,
      "Ġtanta": 8359,
      "Ġismi": 8360,
      "ĠuyÇ§o": 8361,
      "Ġshartnomani": 8362,
      "ĠtÃµxtat": 8363,
      "Ġboshqargan": 8364,
      "Ġkengay": 8365,
      "Ġayblanib": 8366,
      "Ġpulni": 8367,
      "quvvatlaydi": 8368,
      "Ġqolgandi": 8369,
      "Ġxorijda": 8370,
      "Ġmasofada": 8371,
      "Ġtransferi": 8372,
      "Ġaviakompaniyasi": 8373,
      "Ġpaketini": 8374,
      "sharoit": 8375,
      "yana": 8376,
      "ziv": 8377,
      "Ġbosimi": 8378,
      "Ġtutgan": 8379,
      "ĠOlek": 8380,
      "Ġmumkinki": 8381,
      "ĠJi": 8382,
      "Ġyaqinlari": 8383,
      "Ġuyning": 8384,
      "Ġmaktablarda": 8385,
      "Ġfikriga": 8386,
      "Ġshaklida": 8387,
      "Ġnazoratga": 8388,
      "Ġkamaygan": 8389,
      "Ġbazasi": 8390,
      "Ġnomidan": 8391,
      "Ġchorva": 8392,
      "ĠInternational": 8393,
      "ĠYouTube": 8394,
      "taroq": 8395,
      "Ġoxir": 8396,
      "ĠBRI": 8397,
      "Ġqildim": 8398,
      "Ġ41": 8399,
      "Ġqatlam": 8400,
      "ĠyÃµlladi": 8401,
      "Ġparvo": 8402,
      "Ġeksk": 8403,
      "Ġ2011": 8404,
      "ĠMuzokara": 8405,
      "Ġtalablar": 8406,
      "Ġmillionga": 8407,
      "Ġkelishini": 8408,
      "ĠrÃµyxatini": 8409,
      "qulladi": 8410,
      "Ġqaratdi": 8411,
      "ĠkÃµrgazma": 8412,
      "Ġkansleri": 8413,
      "qqa": 8414,
      "udiy": 8415,
      "zul": 8416,
      "Ġborilayotgan": 8417,
      "ayrat": 8418,
      "ĠtÃµy": 8419,
      "ĠIgor": 8420,
      "Ġgul": 8421,
      "ĠGruziya": 8422,
      "Ġqaytdi": 8423,
      "ĠYakka": 8424,
      "Ġtanlab": 8425,
      "ĠyÃµldosh": 8426,
      "ĠrÃµ": 8427,
      "Ġpasport": 8428,
      "Ġism": 8429,
      "unyod": 8430,
      "ĠtÃµxtatdi": 8431,
      "ĠPutinga": 8432,
      "ĠIndoneziya": 8433,
      "Ġayolning": 8434,
      "Ġmanbasi": 8435,
      "ĠSSR": 8436,
      "Ġxarakt": 8437,
      "Ġsammit": 8438,
      "yillarda": 8439,
      "ĠBirinchidan": 8440,
      "ĠqÃµmitasining": 8441,
      "Ġinspeksiyasi": 8442,
      "ĠAtlantika": 8443,
      "ardim": 8444,
      "Ġtaom": 8445,
      "Ġnusxa": 8446,
      "ĠKir": 8447,
      "Ġrang": 8448,
      "Ġbirdam": 8449,
      "Ġdavlatdan": 8450,
      "shava": 8451,
      "ĠbÃµlmagani": 8452,
      "Ġkiritiladi": 8453,
      "Ġegallash": 8454,
      "Ġtexnologiyalarni": 8455,
      "Ġendilikda": 8456,
      "Ġchorraha": 8457,
      "Ġkonstitutsiyaviy": 8458,
      "Ġvatandosh": 8459,
      "Ġsuvereni": 8460,
      "Ġballistik": 8461,
      "Ġkeksa": 8462,
      "eriy": 8463,
      "Ġkomil": 8464,
      "Ġparva": 8465,
      "Ġ900": 8466,
      "Ġzenit": 8467,
      "Ġmunosabatlarini": 8468,
      "ĠqÃµshinlarining": 8469,
      "Ġkurashda": 8470,
      "Ġchempionat": 8471,
      "Ġtaklifini": 8472,
      "Ġyetkazgan": 8473,
      "Ġixtisoslashgan": 8474,
      "Ġnihoyatda": 8475,
      "Ġsingari": 8476,
      "31": 8477,
      "CS": 8478,
      "ktiv": 8479,
      "Ġoro": 8480,
      "Ġem": 8481,
      "ĠiPhone": 8482,
      "Ġuchoq": 8483,
      "ĠbuÇ§": 8484,
      "ĠqÃµlida": 8485,
      "katta": 8486,
      "Ġkana": 8487,
      "Ġdavlatda": 8488,
      "Ġmansub": 8489,
      "Ġmasalada": 8490,
      "Ġsohalarida": 8491,
      "ĠtÃµxtatildi": 8492,
      "Ġguruhlari": 8493,
      "ĠUmumiy": 8494,
      "Ġmamlakatimiz": 8495,
      "yÃµÇ§i": 8496,
      "ĠaÇ§da": 8497,
      "Ġmazmun": 8498,
      "rop": 8499,
      "Ġxiyonat": 8500,
      "ĠKul": 8501,
      "ĠYar": 8502,
      "Ġting": 8503,
      "ĠEm": 8504,
      "ĠYaIM": 8505,
      "masin": 8506,
      "Ġkorpu": 8507,
      "ermar": 8508,
      "Ġsaylovda": 8509,
      "Ġhokimlik": 8510,
      "rategik": 8511,
      "Ġtanqisligi": 8512,
      "Ġfond": 8513,
      "ĠErkin": 8514,
      "ĠYÃµldosh": 8515,
      "ĠBolgariya": 8516,
      "Ġulgurji": 8517,
      "Ġmezbonlar": 8518,
      "Ġshafqat": 8519,
      "ĠBoris": 8520,
      "Hizbulloh": 8521,
      "brid": 8522,
      "kot": 8523,
      "roni": 8524,
      "Ġyoxud": 8525,
      "Ġyugu": 8526,
      "ĠPav": 8527,
      "ĠSavol": 8528,
      "Ġxavfsizligiga": 8529,
      "Ġ99": 8530,
      "Ġkorpo": 8531,
      "ĠMoskvadagi": 8532,
      "Ġqismlari": 8533,
      "Ġharakatini": 8534,
      "Paxtakor": 8535,
      "loqa": 8536,
      "Ġbedarak": 8537,
      "ĠtÃµqimachilik": 8538,
      "fitsi": 8539,
      "Ġfuqarolarni": 8540,
      "Ġsuvni": 8541,
      "iborga": 8542,
      "Ġmanbalar": 8543,
      "Ġmashq": 8544,
      "Ġforumi": 8545,
      "Ġuyushtirgan": 8546,
      "Ġbayroq": 8547,
      "Ġqurilmalar": 8548,
      "Ġinstitutlari": 8549,
      "Ġhalokatga": 8550,
      "yunxen": 8551,
      "Ġhamkasb": 8552,
      "Ġaktyor": 8553,
      "Ġalmashinuvi": 8554,
      "Gazprom": 8555,
      "odir": 8556,
      "yj": 8557,
      "chuk": 8558,
      "ĠÃµÇ§i": 8559,
      "Ġfut": 8560,
      "ulton": 8561,
      "sizlantirish": 8562,
      "ĠChet": 8563,
      "Ġnatijalarini": 8564,
      "Ġmaskan": 8565,
      "ĠKaxovka": 8566,
      "Ġkutilmagan": 8567,
      "Ġfevralda": 8568,
      "Ġsanab": 8569,
      "Ġmukofotini": 8570,
      "Ġtajovuzkor": 8571,
      "ĠYunusobod": 8572,
      "Ġsathi": 8573,
      "ĠToyyib": 8574,
      "fku": 8575,
      "xay": 8576,
      "xavfsizlik": 8577,
      "laganini": 8578,
      "Ãµn": 8579,
      "ĠbÃµli": 8580,
      "Ġfosh": 8581,
      "Ġyang": 8582,
      "Ġkunlarida": 8583,
      "Ġkuchlariga": 8584,
      "tishini": 8585,
      "Ġhujumda": 8586,
      "Ġkuzatiladigan": 8587,
      "Ġhukumatining": 8588,
      "ĠNiger": 8589,
      "Ġnazoratni": 8590,
      "Ġqoidalariga": 8591,
      "balt": 8592,
      "Ġekspertlari": 8593,
      "ĠmashÇ§ulotlar": 8594,
      "Ġsaralash": 8595,
      "utqaruv": 8596,
      "otida": 8597,
      "ww": 8598,
      "shuv": 8599,
      "ĠÃµtilgan": 8600,
      "kalav": 8601,
      "ĠTra": 8602,
      "jam": 8603,
      "Ġrekonstruksiya": 8604,
      "Ġ2026": 8605,
      "Ġunu": 8606,
      "Ġrasmiylashtirish": 8607,
      "Ġ95": 8608,
      "Ġolganini": 8609,
      "Ġkelishilgan": 8610,
      "Ġsevi": 8611,
      "Ġpoyga": 8612,
      "Ġetiladigan": 8613,
      "sual": 8614,
      "Ġfoydalanilgan": 8615,
      "Ġakademiya": 8616,
      "Isroil": 8617,
      "Ġtalqin": 8618,
      "ikki": 8619,
      "ĠApp": 8620,
      "ayted": 8621,
      "ĠMeksika": 8622,
      "ĠUlarni": 8623,
      "ĠishÇ§ol": 8624,
      "ĠPer": 8625,
      "Ġkommunikatsiya": 8626,
      "lashiga": 8627,
      "Ġsabablarga": 8628,
      "Ġloyihasida": 8629,
      "Ġqilishingiz": 8630,
      "Ġfarmatsevtika": 8631,
      "qonli": 8632,
      "ĠAfsuski": 8633,
      "Ġyetakchilik": 8634,
      "ĠkÃµrsatkichi": 8635,
      "Ġnamoyishlar": 8636,
      "Ġmanfaatlariga": 8637,
      "Ġsharoitlar": 8638,
      "Ġadliya": 8639,
      "Ġtamomlagan": 8640,
      "Ġfoydalanuvchilar": 8641,
      "ĠTadbirda": 8642,
      "Ġchegirma": 8643,
      "Ġayirboshlash": 8644,
      "CO": 8645,
      "Davlat": 8646,
      "EL": 8647,
      "ad": 8648,
      "one": 8649,
      "chilariga": 8650,
      "saf": 8651,
      "kalar": 8652,
      "ĠIr": 8653,
      "fak": 8654,
      "Ġtashkilotiga": 8655,
      "Ġoldidagi": 8656,
      "Ġtanlovi": 8657,
      "ĠqÃµshiq": 8658,
      "Ġ66": 8659,
      "nomal": 8660,
      "Ġgaplar": 8661,
      "Ġapreldan": 8662,
      "Ġkarra": 8663,
      "ĠÃµquvchilari": 8664,
      "Ġqurbonlari": 8665,
      "Ġuzaytirish": 8666,
      "Ġsafiga": 8667,
      "Ġkapitali": 8668,
      "Ġimporti": 8669,
      "ĠValeriy": 8670,
      "Ġinsoniyat": 8671,
      "Bo": 8672,
      "uro": 8673,
      "dat": 8674,
      "zori": 8675,
      "Ġnaf": 8676,
      "Ġsayti": 8677,
      "Ġdoimo": 8678,
      "Ġshaxsning": 8679,
      "Ġsez": 8680,
      "rojaat": 8681,
      "ĠmablaÇ§larini": 8682,
      "Ġhaligacha": 8683,
      "Ġkelishuvlar": 8684,
      "Ġmigrantlar": 8685,
      "ĠjamÇ§arma": 8686,
      "Ġaviaqatnov": 8687,
      "Ġfilial": 8688,
      "Ġchiqqani": 8689,
      "ĠTashkilot": 8690,
      "ĠBungacha": 8691,
      "Yevropa": 8692,
      "tara": 8693,
      "nger": 8694,
      "Ġasa": 8695,
      "kani": 8696,
      "Ġboyi": 8697,
      "Ġmuvozanat": 8698,
      "ĠMon": 8699,
      "ĠKos": 8700,
      "Ġtashlandi": 8701,
      "usk": 8702,
      "ĠFutbol": 8703,
      "ĠLav": 8704,
      "Ġberilmagan": 8705,
      "eski": 8706,
      "Ġmasalalarini": 8707,
      "ĠkÃµrsatishga": 8708,
      "Ġqoldirgan": 8709,
      "Ġshahridan": 8710,
      "Ġquyidagilar": 8711,
      "ĠAfÇ§onistonda": 8712,
      "ĠqÃµrqi": 8713,
      "ĠyiÇ§ilgan": 8714,
      "Ġshunchalik": 8715,
      "ĠZilzila": 8716,
      "Ġsvet": 8717,
      "Ġketishga": 8718,
      "stori": 8719,
      "ĠUrganch": 8720,
      "Ġqilmaslik": 8721,
      "ĠJS": 8722,
      "ĠFay": 8723,
      "Ġtomonida": 8724,
      "Ġqaratildi": 8725,
      "Ġcheki": 8726,
      "Ġsohaga": 8727,
      "Ġrivojlan": 8728,
      "Ġtalablari": 8729,
      "skiyning": 8730,
      "Ġdekab": 8731,
      "Ġsentabrdan": 8732,
      "Ġpeshqa": 8733,
      "Ġkechgan": 8734,
      "ĠVarshava": 8735,
      "ĠTahlil": 8736,
      "OQ": 8737,
      "Uz": 8738,
      "zer": 8739,
      "Ġqishda": 8740,
      "loni": 8741,
      "Ġsazo": 8742,
      "ĠKra": 8743,
      "Ġquyish": 8744,
      "ĠXorij": 8745,
      "Ġmega": 8746,
      "Ġmuhimligini": 8747,
      "Ġxorijlik": 8748,
      "Ġmuxbir": 8749,
      "Ġsiyosatchilar": 8750,
      "ĠqÃµshinlarini": 8751,
      "ĠKosovo": 8752,
      "Ġuyushma": 8753,
      "Ġyurti": 8754,
      "Ġmiqdorining": 8755,
      "ĠSharqdagi": 8756,
      "Ġbajaruvchi": 8757,
      "Ġhuquqbuzarlik": 8758,
      "Ġprofilaktika": 8759,
      "MS": 8760,
      "Ġazo": 8761,
      "vori": 8762,
      "ĠkÃµpchiligi": 8763,
      "Ġ58": 8764,
      "Ġnosoz": 8765,
      "Ġqatorasiga": 8766,
      "Ġtaktika": 8767,
      "Ġshaharlarida": 8768,
      "ĠZar": 8769,
      "ĠÃµtkazishi": 8770,
      "Ġshimo": 8771,
      "Ġkuzatilmoqda": 8772,
      "Ġformat": 8773,
      "Ġishtirokini": 8774,
      "Ġgidro": 8775,
      "Ġterrorchilik": 8776,
      "ĠKelgu": 8777,
      "Ġtelekommunikatsiya": 8778,
      "lovoldi": 8779,
      "Ra": 8780,
      "chilaridan": 8781,
      "Ġhayotiga": 8782,
      "yoni": 8783,
      "Ġtutib": 8784,
      "Ġkumush": 8785,
      "Ġtovon": 8786,
      "Ç§idan": 8787,
      "ĠLyay": 8788,
      "Ġettiradi": 8789,
      "Ġkelishmovchilik": 8790,
      "Ġaloqalari": 8791,
      "Ġbanklar": 8792,
      "Ġsaylovlarda": 8793,
      "Ġportlovchi": 8794,
      "Ġsentabrda": 8795,
      "Ġnamoyon": 8796,
      "Ġberamiz": 8797,
      "missari": 8798,
      "Ġtushunib": 8799,
      "Ġvelosipe": 8800,
      "Ġqahramoni": 8801,
      "saroy": 8802,
      "ĠJSST": 8803,
      "70": 8804,
      "Aq": 8805,
      "IA": 8806,
      "US": 8807,
      "ca": 8808,
      "shlar": 8809,
      "Ġele": 8810,
      "Ġide": 8811,
      "ĠBur": 8812,
      "ĠÃµzlarining": 8813,
      "Ġetilayotgan": 8814,
      "Ġbarchasini": 8815,
      "Ġtushum": 8816,
      "Ġ86": 8817,
      "Ġjamoasining": 8818,
      "rilsa": 8819,
      "Ġpullarni": 8820,
      "Ġhujjatlariga": 8821,
      "Ġnarsaga": 8822,
      "Ġvakillarining": 8823,
      "ĠKorrupsiya": 8824,
      "Ġkundalik": 8825,
      "Ġbildiradi": 8826,
      "Ġyurt": 8827,
      "Ç§och": 8828,
      "Ġsafarbarlik": 8829,
      "Ġsayyohlar": 8830,
      "royli": 8831,
      "Ġmuomala": 8832,
      "Ġsazovor": 8833,
      "AZ": 8834,
      "Da": 8835,
      "tki": 8836,
      "gin": 8837,
      "ĠÃµrab": 8838,
      "kiliy": 8839,
      "biyi": 8840,
      "Ġyillarga": 8841,
      "Ġxarita": 8842,
      "Ġhomila": 8843,
      "ĠJCh": 8844,
      "Ġbaxt": 8845,
      "Ġnoutbu": 8846,
      "ĠAQShdagi": 8847,
      "Ġnarko": 8848,
      "Ġjamoaning": 8849,
      "Ġshartli": 8850,
      "ĠtÃµxtatilgan": 8851,
      "Ġchoralarni": 8852,
      "ĠÃµzgardi": 8853,
      "Ġsizning": 8854,
      "ĠShifo": 8855,
      "apoli": 8856,
      "Ġyarmi": 8857,
      "ĠYaqinda": 8858,
      "ĠTuman": 8859,
      "Ġchempionatida": 8860,
      "Ġuskunalar": 8861,
      "ĠkÃµchat": 8862,
      "Ġakademiyasi": 8863,
      "ĠDubay": 8864,
      "76": 8865,
      "idov": 8866,
      "Ġqul": 8867,
      "miya": 8868,
      "Ġqolayotgan": 8869,
      "Ġqilishlari": 8870,
      "ektura": 8871,
      "niye": 8872,
      "Ġqolishga": 8873,
      "Ġittifoqchilari": 8874,
      "Ġxulosaga": 8875,
      "Ġehtiyoji": 8876,
      "Ġziyorat": 8877,
      "Ġakademik": 8878,
      "hrat": 8879,
      "ovich": 8880,
      "shta": 8881,
      "madim": 8882,
      "ziladan": 8883,
      "ensiyasi": 8884,
      "Ġbeton": 8885,
      "Ġboshliq": 8886,
      "ĠYork": 8887,
      "viv": 8888,
      "ĠPen": 8889,
      "mand": 8890,
      "Ġkunidan": 8891,
      "ĠToshkentdan": 8892,
      "Ġkomissari": 8893,
      "ess": 8894,
      "ĠÃµyindan": 8895,
      "Ġhozirgacha": 8896,
      "Ġshartlari": 8897,
      "Ġzan": 8898,
      "Ġorganlar": 8899,
      "ĠMenimcha": 8900,
      "Ġmahallasi": 8901,
      "maktab": 8902,
      "Ġsuratlar": 8903,
      "ĠqÃµrquv": 8904,
      "Ġolimpiada": 8905,
      "Ġetamiz": 8906,
      "kanaliga": 8907,
      "ĠLyayyen": 8908,
      "MK": 8909,
      "arru": 8910,
      "Ġotr": 8911,
      "yotida": 8912,
      "ĠSlovakiya": 8913,
      "baki": 8914,
      "ĠDav": 8915,
      "ĠYevropaga": 8916,
      "ĠTalaba": 8917,
      "Ġtasarru": 8918,
      "ĠMux": 8919,
      "Ġyaratib": 8920,
      "Ġqolmaydi": 8921,
      "Ġruslar": 8922,
      "Ġqayerga": 8923,
      "Ġmurabbiyi": 8924,
      "ĠkÃµngillilar": 8925,
      "Ġquduq": 8926,
      "ĠkÃµrinib": 8927,
      "suv": 8928,
      "Ġtra": 8929,
      "miniy": 8930,
      "rof": 8931,
      "ĠtÃµsib": 8932,
      "Ġinkor": 8933,
      "ĠMariya": 8934,
[...]
